<unk>	0
<s>	0
</s>	0
<pad>	0
om	-0
▁T	-1
▁d	-2
▁h	-3
▁s	-4
▁Tom	-5
▁I	-6
ar	-7
ag	-8
er	-9
▁t	-10
är	-11
▁i	-12
an	-13
et	-14
▁m	-15
▁J	-16
en	-17
▁Jag	-18
ou	-19
▁är	-20
at	-21
▁b	-22
▁D	-23
ll	-24
▁f	-25
ig	-26
in	-27
▁H	-28
▁l	-29
▁g	-30
on	-31
▁a	-32
ad	-33
ed	-34
▁k	-35
▁y	-36
▁v	-37
▁you	-38
▁n	-39
re	-40
▁w	-41
▁c	-42
▁p	-43
te	-44
▁th	-45
▁V	-46
is	-47
or	-48
▁in	-49
ve	-50
ör	-51
▁W	-52
ck	-53
▁det	-54
▁is	-55
▁S	-56
st	-57
ing	-58
▁G	-59
it	-60
ow	-61
ill	-62
▁du	-63
id	-64
▁u	-65
▁j	-66
as	-67
▁it	-68
▁r	-69
ade	-70
▁Det	-71
▁inte	-72
es	-73
▁en	-74
ot	-75
ta	-76
▁li	-77
▁o	-78
he	-79
▁to	-80
▁mig	-81
ke	-82
än	-83
ver	-84
▁K	-85
un	-86
▁It	-87
▁ha	-88
▁the	-89
el	-90
▁me	-91
ur	-92
▁A	-93
▁Wh	-94
att	-95
▁C	-96
▁här	-97
le	-98
▁be	-99
▁st	-100
▁har	-101
pp	-102
▁Vi	-103
▁do	-104
de	-105
▁var	-106
▁på	-107
▁sk	-108
äl	-109
▁Han	-110
▁on	-111
▁We	-112
▁den	-113
▁He	-114
▁Ä	-115
ere	-116
am	-117
▁jag	-118
▁dig	-119
al	-120
▁my	-121
em	-122
▁för	-123
▁Är	-124
▁Do	-125
▁Y	-126
år	-127
ay	-128
▁You	-129
na	-130
oo	-131
sk	-132
ch	-133
▁can	-134
▁min	-135
▁tr	-136
▁att	-137
▁kan	-138
▁e	-139
lig	-140
▁ar	-141
▁M	-142
▁re	-143
▁L	-144
▁ne	-145
▁om	-146
ak	-147
ld	-148
ät	-149
åg	-150
▁like	-151
yck	-152
▁B	-153
▁Can	-154
▁your	-155
▁was	-156
▁F	-157
▁se	-158
▁that	-159
im	-160
▁Du	-161
ss	-162
itt	-163
▁this	-164
ett	-165
▁have	-166
▁Are	-167
▁hat	-168
▁What	-169
ome	-170
▁Th	-171
il	-172
▁till	-173
▁The	-174
ant	-175
ive	-176
▁Kan	-177
ir	-178
▁we	-179
över	-180
▁kom	-181
▁fr	-182
ra	-183
ick	-184
▁an	-185
▁Did	-186
▁Vad	-187
▁Var	-188
▁sa	-189
us	-190
▁lo	-191
▁go	-192
▁N	-193
åt	-194
äm	-195
ob	-196
lla	-197
▁Hur	-198
▁How	-199
ff	-200
ng	-201
mer	-202
ook	-203
one	-204
▁need	-205
nd	-206
▁kn	-207
▁ett	-208
▁där	-209
▁ni	-210
▁ut	-211
▁Hon	-212
▁She	-213
▁De	-214
▁med	-215
ust	-216
▁vi	-217
▁not	-218
ycker	-219
kt	-220
ce	-221
▁gör	-222
all	-223
▁They	-224
and	-225
ut	-226
jäl	-227
ste	-228
▁here	-229
ent	-230
▁beh	-231
▁må	-232
äg	-233
ry	-234
ort	-235
▁bl	-236
▁upp	-237
▁de	-238
od	-239
iv	-240
▁sp	-241
▁all	-242
ätt	-243
▁Don	-244
ug	-245
ave	-246
▁nu	-247
▁want	-248
▁love	-249
ly	-250
▁get	-251
illar	-252
▁E	-253
▁pr	-254
▁din	-255
skar	-256
▁hel	-257
▁got	-258
▁kommer	-259
▁Den	-260
▁vill	-261
▁er	-262
ht	-263
ka	-264
▁Ge	-265
▁so	-266
▁Get	-267
▁behöver	-268
se	-269
▁tycker	-270
▁job	-271
lar	-272
▁St	-273
▁äl	-274
▁did	-275
▁måste	-276
▁dr	-277
▁up	-278
▁are	-279
▁Is	-280
▁hjäl	-281
ma	-282
ist	-283
▁know	-284
iss	-285
out	-286
ner	-287
▁br	-288
▁sh	-289
▁Give	-290
▁gillar	-291
very	-292
▁hun	-293
ack	-294
▁av	-295
▁he	-296
▁That	-297
▁help	-298
▁hjälp	-299
▁älskar	-300
op	-301
▁och	-302
▁såg	-303
▁sm	-304
▁look	-305
ol	-306
▁Be	-307
▁gå	-308
▁göra	-309
ap	-310
if	-311
og	-312
lev	-313
▁sl	-314
▁Har	-315
▁bor	-316
▁tal	-317
ul	-318
▁oss	-319
▁ver	-320
▁wor	-321
▁fa	-322
▁ska	-323
ger	-324
▁Kom	-325
▁car	-326
▁ser	-327
ep	-328
▁one	-329
▁This	-330
▁see	-331
der	-332
▁now	-333
▁R	-334
▁te	-335
▁hem	-336
ic	-337
öt	-338
▁hatar	-339
gen	-340
▁too	-341
▁bar	-342
▁hon	-343
▁hur	-344
art	-345
▁Gå	-346
▁at	-347
▁al	-348
▁ch	-349
▁gr	-350
▁pl	-351
▁Who	-352
▁dog	-353
▁has	-354
▁som	-355
äk	-356
ken	-357
ood	-358
▁sig	-359
ake	-360
igt	-361
▁Vem	-362
▁for	-363
▁saw	-364
▁work	-365
▁ö	-366
▁le	-367
▁så	-368
▁us	-369
ligt	-370
da	-371
▁di	-372
ight	-373
ning	-374
▁him	-375
änner	-376
▁Every	-377
ft	-378
▁bo	-379
▁sv	-380
▁out	-381
▁read	-382
tay	-383
▁lik	-384
ame	-385
för	-386
▁am	-387
ould	-388
▁des	-389
▁miss	-390
ary	-391
▁fe	-392
▁Gör	-393
▁blev	-394
▁vara	-395
jor	-396
ous	-397
own	-398
åll	-399
ämta	-400
▁honom	-401
ct	-402
rig	-403
▁or	-404
jorde	-405
are	-406
bet	-407
▁My	-408
▁co	-409
▁mo	-410
ring	-411
▁någ	-412
sam	-413
▁Go	-414
▁Ni	-415
▁no	-416
▁bil	-417
▁Alla	-418
▁hurt	-419
ud	-420
▁pa	-421
▁sc	-422
▁sn	-423
▁åt	-424
▁bad	-425
▁över	-426
ue	-427
▁O	-428
ime	-429
ull	-430
▁of	-431
▁bra	-432
nar	-433
äll	-434
▁ro	-435
öm	-436
ble	-437
ish	-438
ody	-439
▁ex	-440
▁ta	-441
ande	-442
ired	-443
▁had	-444
▁hand	-445
▁home	-446
▁just	-447
▁gl	-448
▁la	-449
▁tv	-450
ound	-451
▁dem	-452
▁Mary	-453
▁they	-454
▁Where	-455
▁P	-456
ate	-457
isk	-458
ong	-459
äst	-460
ött	-461
▁Sl	-462
▁Får	-463
▁Let	-464
▁går	-465
▁skr	-466
▁Come	-467
▁Have	-468
ans	-469
ess	-470
ine	-471
äng	-472
▁ag	-473
▁wh	-474
▁dag	-475
▁hate	-476
ån	-477
ide	-478
ind	-479
ång	-480
▁Sk	-481
▁fun	-482
▁isn	-483
▁pen	-484
▁vet	-485
▁vän	-486
▁hund	-487
▁them	-488
oll	-489
▁mitt	-490
▁some	-491
▁talk	-492
▁likes	-493
▁någon	-494
▁gjorde	-495
▁hjälpa	-496
ik	-497
▁q	-498
cket	-499
▁back	-500
lo	-501
oke	-502
▁aw	-503
ne	-504
uk	-505
öp	-506
tar	-507
▁run	-508
▁fast	-509
▁hade	-510
▁hung	-511
▁jobb	-512
▁mycket	-513
um	-514
va	-515
öl	-516
ion	-517
▁sj	-518
▁bus	-519
▁sak	-520
▁verk	-521
äd	-522
ait	-523
ang	-524
ink	-525
▁hear	-526
▁klar	-527
▁lite	-528
▁stay	-529
▁there	-530
ög	-531
ain	-532
ied	-533
opp	-534
var	-535
▁Ta	-536
▁dö	-537
▁po	-538
body	-539
▁che	-540
▁eat	-541
▁und	-542
▁wit	-543
▁desk	-544
▁still	-545
fe	-546
aka	-547
ell	-548
ree	-549
anna	-550
ious	-551
▁Ing	-552
▁don	-553
▁must	-554
ittade	-555
▁känner	-556
bb	-557
uy	-558
her	-559
int	-560
our	-561
▁ab	-562
▁rö	-563
▁sw	-564
agen	-565
nade	-566
▁com	-567
▁hit	-568
▁down	-569
▁fort	-570
▁time	-571
av	-572
day	-573
eep	-574
ffe	-575
ska	-576
äff	-577
ärd	-578
ress	-579
▁bet	-580
▁hör	-581
▁kun	-582
▁Håll	-583
▁allt	-584
▁bara	-585
▁good	-586
▁tillb	-587
äs	-588
ass	-589
ice	-590
äpp	-591
hing	-592
▁lit	-593
▁sle	-594
▁book	-595
▁busy	-596
▁live	-597
ie	-598
ats	-599
▁id	-600
atch	-601
▁Låt	-602
▁her	-603
▁säk	-604
▁väl	-605
▁uppt	-606
▁with	-607
▁found	-608
▁hates	-609
▁tired	-610
▁tillbaka	-611
sö	-612
åk	-613
ful	-614
gon	-615
ife	-616
ool	-617
rev	-618
▁qu	-619
ated	-620
▁his	-621
▁try	-622
▁fick	-623
▁mina	-624
▁Ingen	-625
▁träff	-626
yss	-627
▁Sp	-628
▁fl	-629
▁få	-630
▁day	-631
▁ins	-632
▁sky	-633
▁stu	-634
▁vin	-635
▁won	-636
ollow	-637
▁scar	-638
▁stor	-639
▁arbet	-640
▁trött	-641
la	-642
ank	-643
cks	-644
era	-645
gar	-646
und	-647
uta	-648
leas	-649
ätta	-650
▁Min	-651
▁köp	-652
▁say	-653
▁tid	-654
ldrig	-655
ligen	-656
▁igen	-657
▁rätt	-658
▁very	-659
▁hämta	-660
▁Tycker	-661
▁Varför	-662
zy	-663
ost	-664
ölj	-665
ster	-666
▁Why	-667
▁con	-668
▁han	-669
▁res	-670
▁räd	-671
▁ditt	-672
▁feel	-673
▁happ	-674
▁sitt	-675
▁alone	-676
▁aldrig	-677
▁hittade	-678
ars	-679
ata	-680
end	-681
iga	-682
ren	-683
urn	-684
ckså	-685
▁Vil	-686
▁kon	-687
▁off	-688
▁red	-689
▁färd	-690
▁could	-691
▁först	-692
▁going	-693
▁never	-694
▁också	-695
▁sleep	-696
▁säker	-697
▁Everyone	-698
pt	-699
get	-700
ord	-701
änd	-702
▁kl	-703
▁kr	-704
▁lj	-705
▁fly	-706
▁fri	-707
▁hen	-708
▁men	-709
▁ont	-710
▁sim	-711
▁spe	-712
▁sur	-713
▁Does	-714
▁away	-715
▁call	-716
▁lyck	-717
▁said	-718
▁wait	-719
▁will	-720
▁Hämta	-721
▁ready	-722
gg	-723
ok	-724
mal	-725
oug	-726
ände	-727
▁Now	-728
▁big	-729
▁fru	-730
▁str	-731
lease	-732
ämtar	-733
▁every	-734
▁hemma	-735
▁looks	-736
▁trust	-737
▁under	-738
ns	-739
ös	-740
ark	-741
arr	-742
ers	-743
sta	-744
ägg	-745
▁OK	-746
▁ka	-747
▁lu	-748
ally	-749
▁Beh	-750
▁and	-751
▁far	-752
▁fel	-753
▁man	-754
▁sit	-755
▁väg	-756
▁come	-757
▁made	-758
▁mine	-759
▁ring	-760
▁detta	-761
▁ensam	-762
öj	-763
ite	-764
ker	-765
vis	-766
▁No	-767
▁cr	-768
▁då	-769
reat	-770
ulle	-771
▁arg	-772
▁ner	-773
▁nog	-774
▁sec	-775
▁Keep	-776
▁illa	-777
▁henne	-778
▁right	-779
▁spring	-780
▁upptagen	-781
▁Everybody	-782
nt	-783
ern	-784
het	-785
ikt	-786
per	-787
sel	-788
årt	-789
örj	-790
▁Am	-791
▁ad	-792
▁im	-793
▁ty	-794
▁än	-795
▁ät	-796
jälv	-797
oney	-798
ying	-799
▁För	-800
▁beg	-801
▁buy	-802
▁får	-803
▁gam	-804
▁kör	-805
▁liv	-806
▁sna	-807
▁didn	-808
▁died	-809
▁fråg	-810
▁gick	-811
▁katt	-812
▁lång	-813
▁ögon	-814
▁again	-815
▁happy	-816
▁pengar	-817
▁skulle	-818
▁verkligen	-819
akt	-820
mar	-821
pen	-822
rar	-823
▁Ha	-824
▁fi	-825
▁su	-826
apan	-827
irst	-828
▁ask	-829
▁may	-830
▁när	-831
▁pro	-832
other	-833
▁Stay	-834
▁Stop	-835
▁barn	-836
▁cold	-837
▁free	-838
▁glad	-839
▁hard	-840
▁move	-841
▁sick	-842
▁står	-843
▁well	-844
▁about	-845
▁försö	-846
▁snabb	-847
▁Vilken	-848
▁friend	-849
▁hämtar	-850
▁really	-851
▁sitter	-852
tr	-853
ash	-854
ild	-855
lem	-856
rån	-857
äck	-858
▁gu	-859
▁vo	-860
▁fin	-861
▁gav	-862
▁gen	-863
▁let	-864
▁old	-865
▁vad	-866
▁best	-867
▁came	-868
▁care	-869
▁full	-870
▁gave	-871
▁late	-872
▁nice	-873
▁over	-874
▁slut	-875
▁swim	-876
▁tell	-877
▁Detta	-878
▁Sluta	-879
▁bilen	-880
▁köpte	-881
▁money	-882
je	-883
pl	-884
ty	-885
ys	-886
ål	-887
age	-888
ann	-889
ber	-890
ese	-891
far	-892
ird	-893
ynd	-894
ått	-895
▁Se	-896
▁em	-897
▁ey	-898
▁mu	-899
▁un	-900
digt	-901
self	-902
▁bok	-903
▁cra	-904
▁hot	-905
▁lig	-906
▁sin	-907
▁win	-908
▁Följ	-909
▁does	-910
▁done	-911
▁from	-912
▁make	-913
▁plan	-914
▁were	-915
▁betal	-916
▁heard	-917
▁ingen	-918
farande	-919
▁hungry	-920
▁ligger	-921
▁stanna	-922
▁hungrig	-923
▁väldigt	-924
▁fortfarande	-925
bl	-926
ga	-927
jo	-928
ace	-929
alk	-930
ard	-931
ott	-932
ush	-933
uss	-934
örd	-935
▁Dr	-936
▁ca	-937
▁ny	-938
▁wr	-939
ived	-940
lose	-941
ream	-942
▁Vän	-943
▁ann	-944
▁ans	-945
▁cry	-946
▁fat	-947
▁hug	-948
▁mat	-949
▁mus	-950
▁sch	-951
▁sen	-952
▁säg	-953
▁vid	-954
▁yet	-955
ought	-956
▁Take	-957
▁eyes	-958
▁kall	-959
▁kill	-960
▁mean	-961
▁more	-962
▁play	-963
▁sjuk	-964
▁surv	-965
▁wine	-966
▁äter	-967
▁Släpp	-968
▁borde	-969
▁hörde	-970
▁order	-971
▁själv	-972
▁smart	-973
▁today	-974
▁Känner	-975
▁färdig	-976
▁roligt	-977
▁hjälper	-978
mt	-979
yr	-980
åd	-981
▁å	-982
cis	-983
kej	-984
oot	-985
ved	-986
älj	-987
▁as	-988
▁ke	-989
▁tw	-990
ades	-991
ffee	-992
fter	-993
orre	-994
unch	-995
▁arm	-996
▁ber	-997
▁bit	-998
▁dan	-999
▁egg	-1000
▁hög	-1001
▁läs	-1002
▁mis	-1003
▁pre	-1004
oblem	-1005
änder	-1006
▁Here	-1007
▁från	-1008
▁lost	-1009
▁much	-1010
▁nyck	-1011
▁rädd	-1012
▁safe	-1013
▁seem	-1014
▁stup	-1015
▁konst	-1016
▁kunde	-1017
▁kunna	-1018
▁leave	-1019
▁Follow	-1020
▁Stanna	-1021
▁looked	-1022
▁saknar	-1023
▁should	-1024
▁problem	-1025
pr	-1026
xt	-1027
jut	-1028
ope	-1029
ppa	-1030
ret	-1031
sen	-1032
unk	-1033
vär	-1034
▁vä	-1035
▁öl	-1036
erad	-1037
uest	-1038
▁Has	-1039
▁Här	-1040
▁Ser	-1041
▁Säg	-1042
▁död	-1043
▁ide	-1044
▁kid	-1045
▁led	-1046
▁pay	-1047
▁rel	-1048
▁två	-1049
▁way	-1050
attar	-1051
åller	-1052
▁beer	-1053
▁dead	-1054
▁fish	-1055
▁forg	-1056
▁hopp	-1057
▁laug	-1058
▁left	-1059
▁okej	-1060
▁sing	-1061
▁tala	-1062
▁went	-1063
▁Vänta	-1064
▁broke	-1065
▁drink	-1066
▁efter	-1067
▁loves	-1068
▁scarf	-1069
▁coffee	-1070
▁gammal	-1071
▁please	-1072
▁stupid	-1073
▁Behöver	-1074
ac	-1075
ge	-1076
ip	-1077
nu	-1078
äv	-1079
öd	-1080
ond	-1081
äkt	-1082
änk	-1083
▁Le	-1084
▁by	-1085
▁cl	-1086
▁el	-1087
▁ge	-1088
▁if	-1089
▁ur	-1090
ater	-1091
bord	-1092
land	-1093
ldig	-1094
liga	-1095
olla	-1096
ppna	-1097
ätte	-1098
åter	-1099
▁God	-1100
▁Ska	-1101
▁ate	-1102
▁bel	-1103
▁bes	-1104
▁dum	-1105
▁fam	-1106
▁gal	-1107
▁god	-1108
▁hor	-1109
▁lot	-1110
▁ned	-1111
▁son	-1112
ouble	-1113
thing	-1114
▁bord	-1115
▁börj	-1116
▁dina	-1117
▁idea	-1118
▁sell	-1119
▁skad	-1120
▁spel	-1121
▁sure	-1122
▁trev	-1123
ningen	-1124
ressed	-1125
▁Bring	-1126
▁crazy	-1127
▁first	-1128
▁kaffe	-1129
▁komma	-1130
▁prata	-1131
▁skriv	-1132
▁watch	-1133
▁bought	-1134
▁håller	-1135
▁missing	-1136
▁överlev	-1137
ia	-1138
ro	-1139
ara	-1140
del	-1141
enn	-1142
ies	-1143
ift	-1144
nas	-1145
use	-1146
▁An	-1147
▁Sh	-1148
▁bi	-1149
iska	-1150
itta	-1151
jort	-1152
älla	-1153
ämna	-1154
▁Hör	-1155
▁art	-1156
▁gun	-1157
▁hal	-1158
▁imp	-1159
▁lag	-1160
▁mad	-1161
▁our	-1162
▁sad	-1163
▁she	-1164
▁tea	-1165
▁ung	-1166
etter	-1167
yckte	-1168
▁alla	-1169
▁avsk	-1170
▁been	-1171
▁bort	-1172
▁eggs	-1173
▁förl	-1174
▁gång	-1175
▁head	-1176
▁kiss	-1177
▁kvar	-1178
▁list	-1179
▁lukt	-1180
▁sant	-1181
▁stan	-1182
▁walk	-1183
▁Japan	-1184
▁blame	-1185
▁jätte	-1186
▁smell	-1187
▁speak	-1188
▁ville	-1189
▁hoppas	-1190
▁jobbet	-1191
▁scared	-1192
▁skyldig	-1193
▁trouble	-1194
iz	-1195
yg	-1196
alt	-1197
ens	-1198
jän	-1199
lek	-1200
ons	-1201
ore	-1202
row	-1203
ute	-1204
öll	-1205
▁Ex	-1206
▁TV	-1207
▁lä	-1208
▁na	-1209
▁ra	-1210
amma	-1211
ouse	-1212
ower	-1213
ught	-1214
ynda	-1215
åten	-1216
▁Din	-1217
▁any	-1218
▁arr	-1219
▁cat	-1220
▁ert	-1221
▁fan	-1222
▁fil	-1223
▁hus	-1224
▁int	-1225
▁kul	-1226
▁lug	-1227
▁mod	-1228
▁mot	-1229
▁new	-1230
▁pol	-1231
▁rad	-1232
▁sta	-1233
▁use	-1234
erade	-1235
oston	-1236
äljer	-1237
▁Tell	-1238
▁Vill	-1239
▁blue	-1240
▁give	-1241
▁hope	-1242
▁komm	-1243
▁kram	-1244
▁life	-1245
▁lita	-1246
▁ljug	-1247
▁only	-1248
▁prat	-1249
▁röst	-1250
▁stud	-1251
▁tack	-1252
▁take	-1253
▁true	-1254
orrect	-1255
▁Could	-1256
▁chang	-1257
▁child	-1258
▁doing	-1259
▁famil	-1260
▁fråga	-1261
▁hurts	-1262
▁wants	-1263
▁young	-1264
▁Boston	-1265
▁Gillar	-1266
▁Skynda	-1267
▁follow	-1268
▁träffa	-1269
▁verkar	-1270
▁serious	-1271
▁skrivbord	-1272
bt	-1273
hy	-1274
io	-1275
os	-1276
sl	-1277
arn	-1278
ely	-1279
hed	-1280
idd	-1281
iet	-1282
sin	-1283
way	-1284
äta	-1285
▁Fr	-1286
▁So	-1287
▁ac	-1288
▁fu	-1289
▁ve	-1290
▁åk	-1291
▁ör	-1292
able	-1293
iled	-1294
iskt	-1295
iver	-1296
ivet	-1297
less	-1298
oubt	-1299
read	-1300
sätt	-1301
tade	-1302
ting	-1303
▁All	-1304
▁May	-1305
▁ang	-1306
▁app	-1307
▁bak	-1308
▁dis	-1309
▁hår	-1310
▁jog	-1311
▁mom	-1312
▁mår	-1313
▁nor	-1314
▁sov	-1315
▁tog	-1316
▁two	-1317
▁vil	-1318
▁vär	-1319
▁ägg	-1320
▁åka	-1321
anska	-1322
atten	-1323
urned	-1324
▁Life	-1325
▁Mitt	-1326
▁Toms	-1327
▁coat	-1328
▁hair	-1329
▁hans	-1330
▁häst	-1331
▁name	-1332
▁next	-1333
▁skol	-1334
▁spec	-1335
▁säga	-1336
▁what	-1337
▁wife	-1338
▁Livet	-1339
▁Titta	-1340
▁doubt	-1341
▁dream	-1342
▁hated	-1343
▁house	-1344
▁ifrån	-1345
▁kände	-1346
▁quest	-1347
▁quiet	-1348
▁svårt	-1349
▁wrong	-1350
▁Gjorde	-1351
▁inside	-1352
▁klarar	-1353
▁ljuger	-1354
▁school	-1355
▁second	-1356
▁snabbt	-1357
▁running	-1358
▁springa	-1359
▁question	-1360
ew	-1361
ib	-1362
sv	-1363
uv	-1364
ane	-1365
bit	-1366
cap	-1367
iar	-1368
ich	-1369
ile	-1370
ilk	-1371
imm	-1372
ipp	-1373
ire	-1374
jöl	-1375
kte	-1376
ock	-1377
ors	-1378
oth	-1379
oud	-1380
ove	-1381
pet	-1382
ult	-1383
wer	-1384
▁En	-1385
▁Ho	-1386
▁Så	-1387
▁Tv	-1388
▁es	-1389
▁kv	-1390
▁pe	-1391
▁äg	-1392
anan	-1393
ased	-1394
atis	-1395
ende	-1396
ften	-1397
kade	-1398
kund	-1399
ling	-1400
ndag	-1401
uvud	-1402
▁Che	-1403
▁His	-1404
▁Nob	-1405
▁anv	-1406
▁bag	-1407
▁bed	-1408
▁cou	-1409
▁del	-1410
▁die	-1411
▁fot	-1412
▁guy	-1413
▁göm	-1414
▁met	-1415
▁mor	-1416
▁pan	-1417
▁ref	-1418
▁reg	-1419
▁ute	-1420
▁vår	-1421
▁why	-1422
▁äta	-1423
ished	-1424
lever	-1425
▁Fort	-1426
▁Your	-1427
▁cool	-1428
▁dans	-1429
▁ears	-1430
▁find	-1431
▁fisk	-1432
▁gone	-1433
▁grät	-1434
▁idag	-1435
▁keys	-1436
▁lazy	-1437
▁snow	-1438
▁soon	-1439
▁told	-1440
▁tyst	-1441
▁veta	-1442
▁ännu	-1443
▁Leave	-1444
▁Ställ	-1445
▁Stäng	-1446
▁Watch	-1447
▁angry	-1448
▁drunk	-1449
▁escap	-1450
▁fired	-1451
▁huvud	-1452
▁inget	-1453
▁kallt	-1454
▁liked	-1455
▁menar	-1456
▁needs	-1457
▁rädda	-1458
▁simma	-1459
▁snäll	-1460
▁Nobody	-1461
▁avskyr	-1462
▁caught	-1463
▁crying	-1464
▁dåligt	-1465
▁eating	-1466
▁hatade	-1467
▁precis	-1468
▁ringde	-1469
▁saknas	-1470
▁secret	-1471
▁varför	-1472
▁wanted	-1473
▁lycklig	-1474
▁nycklar	-1475
▁Fortsätt	-1476
lf	-1477
sa	-1478
tt	-1479
up	-1480
äp	-1481
öv	-1482
cka	-1483
ert	-1484
kar	-1485
lax	-1486
let	-1487
mat	-1488
nal	-1489
opa	-1490
pel	-1491
rab	-1492
ryr	-1493
sök	-1494
uff	-1495
änt	-1496
åda	-1497
▁Tr	-1498
▁ja	-1499
▁ol	-1500
▁ow	-1501
▁ön	-1502
gång	-1503
idan	-1504
iden	-1505
samt	-1506
used	-1507
äkta	-1508
ästa	-1509
▁Ber	-1510
▁Hey	-1511
▁Köp	-1512
▁Mon	-1513
▁bek	-1514
▁blå	-1515
▁dra	-1516
▁fix	-1517
▁het	-1518
▁häl	-1519
▁lat	-1520
▁läg	-1521
▁nej	-1522
▁rem	-1523
▁snö	-1524
▁tar	-1525
▁tom	-1526
▁vis	-1527
▁who	-1528
assed	-1529
deles	-1530
gerar	-1531
skade	-1532
ämmer	-1533
▁Hand	-1534
▁Sätt	-1535
▁Time	-1536
▁Wait	-1537
▁bill	-1538
▁both	-1539
▁cats	-1540
▁diff	-1541
▁enjo	-1542
▁food	-1543
▁fram	-1544
▁följ	-1545
▁glöm	-1546
▁hide	-1547
▁keep	-1548
▁läsa	-1549
▁lätt	-1550
▁milk	-1551
▁mjöl	-1552
▁paid	-1553
▁park	-1554
▁part	-1555
▁pick	-1556
▁prom	-1557
▁sett	-1558
▁shot	-1559
▁song	-1560
▁stop	-1561
▁tjän	-1562
▁tvun	-1563
▁uppr	-1564
▁vann	-1565
attade	-1566
▁Kolla	-1567
▁Lämna	-1568
▁agree	-1569
▁ambit	-1570
▁boken	-1571
▁borta	-1572
▁check	-1573
▁close	-1574
▁dansa	-1575
▁drick	-1576
▁drive	-1577
▁fight	-1578
▁föräl	-1579
▁galen	-1580
▁great	-1581
▁horse	-1582
▁lying	-1583
▁paint	-1584
▁penna	-1585
▁relax	-1586
▁shoot	-1587
▁smoke	-1588
▁stand	-1589
▁talar	-1590
▁varje	-1591
▁varmt	-1592
▁vänta	-1593
▁weird	-1594
▁Monday	-1595
▁Please	-1596
▁Spring	-1597
▁allvar	-1598
▁biased	-1599
▁coming	-1600
▁desper	-1601
▁father	-1602
▁hemlig	-1603
▁katter	-1604
▁måndag	-1605
▁normal	-1606
▁sekund	-1607
▁skadad	-1608
▁arbetar	-1609
▁brother	-1610
▁working	-1611
▁Japanese	-1612
▁alldeles	-1613
▁springer	-1614
▁survived	-1615
▁träffade	-1616
▁någonting	-1617
▁överlevde	-1618
by	-1619
fa	-1620
ny	-1621
ox	-1622
pe	-1623
so	-1624
ign	-1625
iot	-1626
jud	-1627
led	-1628
ler	-1629
lös	-1630
man	-1631
net	-1632
obb	-1633
ose	-1634
rad	-1635
ske	-1636
str	-1637
tes	-1638
ugg	-1639
ump	-1640
uts	-1641
yll	-1642
▁Re	-1643
▁Sa	-1644
▁Sn	-1645
▁ev	-1646
▁sy	-1647
▁Ät	-1648
agna	-1649
aken	-1650
cker	-1651
cted	-1652
erar	-1653
ilty	-1654
iven	-1655
mare	-1656
napp	-1657
nder	-1658
olog	-1659
oppa	-1660
pert	-1661
sten	-1662
ward	-1663
ways	-1664
ända	-1665
▁Anv	-1666
▁Try	-1667
▁aff	-1668
▁agg	-1669
▁ben	-1670
▁hum	-1671
▁kär	-1672
▁law	-1673
▁mer	-1674
▁mov	-1675
▁nam	-1676
▁ord	-1677
▁own	-1678
▁pun	-1679
▁put	-1680
▁rec	-1681
▁rik	-1682
▁ris	-1683
▁räk	-1684
▁rör	-1685
▁swe	-1686
▁tax	-1687
▁tur	-1688
▁vem	-1689
ember	-1690
ennis	-1691
ifrån	-1692
▁Allt	-1693
▁Aren	-1694
▁Good	-1695
▁Hold	-1696
▁Mina	-1697
▁Turn	-1698
▁boss	-1699
▁cand	-1700
▁conf	-1701
▁door	-1702
▁dröm	-1703
▁fair	-1704
▁fell	-1705
▁fred	-1706
▁fång	-1707
▁guys	-1708
▁höra	-1709
▁jour	-1710
▁lied	-1711
▁ljög	-1712
▁long	-1713
▁luck	-1714
▁läng	-1715
▁natt	-1716
▁nära	-1717
▁once	-1718
▁redo	-1719
▁rich	-1720
▁room	-1721
▁seen	-1722
▁sent	-1723
▁skäm	-1724
▁sova	-1725
▁utom	-1726
▁öron	-1727
ättade	-1728
▁Close	-1729
▁Hurry	-1730
▁Lunch	-1731
▁Stand	-1732
▁banan	-1733
▁began	-1734
▁being	-1735
▁bevis	-1736
▁black	-1737
▁count	-1738
▁doesn	-1739
▁gjort	-1740
▁hands	-1741
▁idiot	-1742
▁knife	-1743
▁knows	-1744
▁litar	-1745
▁loved	-1746
▁lugnt	-1747
▁lunch	-1748
▁långt	-1749
▁night	-1750
▁pasta	-1751
▁radio	-1752
▁sitta	-1753
▁skjut	-1754
▁stuck	-1755
▁alltid	-1756
▁always	-1757
▁answer	-1758
▁arbete	-1759
▁around	-1760
▁expert	-1761
▁forgot	-1762
▁gratis	-1763
▁guilty	-1764
▁hunden	-1765
▁jobbar	-1766
▁ledsen	-1767
▁luktar	-1768
▁moment	-1769
▁skolan	-1770
▁tennis	-1771
▁turned	-1772
▁önskar	-1773
▁Berätta	-1774
▁aggress	-1775
▁försöka	-1776
▁journal	-1777
▁stannar	-1778
▁trevlig	-1779
▁tvungen	-1780
▁underst	-1781
▁älskade	-1782
▁finished	-1783
▁överlever	-1784
gy	-1785
ih	-1786
ix	-1787
oy	-1788
ags	-1789
ala	-1790
arm	-1791
ced	-1792
eln	-1793
fin	-1794
ian	-1795
imb	-1796
ise	-1797
kel	-1798
löm	-1799
men	-1800
nad	-1801
nig	-1802
tra	-1803
tta	-1804
ubb	-1805
umm	-1806
ung	-1807
uth	-1808
vet	-1809
öng	-1810
▁Pr	-1811
▁Sj	-1812
▁ba	-1813
▁ph	-1814
ange	-1815
apen	-1816
arly	-1817
ckan	-1818
ened	-1819
eras	-1820
jock	-1821
kter	-1822
lean	-1823
ppen	-1824
rade	-1825
ried	-1826
▁När	-1827
▁Rör	-1828
▁Say	-1829
▁See	-1830
▁Was	-1831
▁cho	-1832
▁dit	-1833
▁how	-1834
▁ill	-1835
▁inc	-1836
▁leg	-1837
▁lät	-1838
▁oro	-1839
▁owe	-1840
▁par	-1841
▁pat	-1842
▁pot	-1843
▁ran	-1844
▁ret	-1845
▁råd	-1846
▁sat	-1847
▁spr	-1848
▁tag	-1849
▁tre	-1850
▁tve	-1851
▁wee	-1852
▁äpp	-1853
blick	-1854
ingar	-1855
istic	-1856
istol	-1857
rench	-1858
ställ	-1859
änger	-1860
▁Glöm	-1861
▁Look	-1862
▁Open	-1863
▁Ring	-1864
▁Sitt	-1865
▁Some	-1866
▁Spel	-1867
▁Tala	-1868
▁When	-1869
▁aren	-1870
▁blir	-1871
▁bror	-1872
▁canc	-1873
▁cook	-1874
▁cour	-1875
▁dags	-1876
▁dogs	-1877
▁face	-1878
▁fatt	-1879
▁felt	-1880
▁fine	-1881
▁förk	-1882
▁fört	-1883
▁gift	-1884
▁inne	-1885
▁kids	-1886
▁kind	-1887
▁knew	-1888
▁kyss	-1889
▁narr	-1890
▁open	-1891
▁push	-1892
▁rice	-1893
▁rock	-1894
▁sign	-1895
▁slow	-1896
▁svar	-1897
▁tror	-1898
▁åkte	-1899
▁åter	-1900
arried	-1901
enting	-1902
iktigt	-1903
indlar	-1904
lockan	-1905
ningar	-1906
▁Check	-1907
▁Köpte	-1908
▁Prata	-1909
▁crash	-1910
▁denna	-1911
▁drack	-1912
▁drank	-1913
▁dålig	-1914
▁enjoy	-1915
▁finns	-1916
▁frukt	-1917
▁funny	-1918
▁japan	-1919
▁klara	-1920
▁läser	-1921
▁läste	-1922
▁music	-1923
▁musik	-1924
▁pappa	-1925
▁plats	-1926
▁point	-1927
▁prova	-1928
▁quick	-1929
▁snart	-1930
▁somet	-1931
▁start	-1932
▁story	-1933
▁svett	-1934
▁think	-1935
▁vapen	-1936
▁vinna	-1937
▁works	-1938
▁French	-1939
▁Tvätta	-1940
▁called	-1941
▁dödade	-1942
▁glömde	-1943
▁handle	-1944
▁händer	-1945
▁kanske	-1946
▁myself	-1947
▁pistol	-1948
▁refuse	-1949
▁simmar	-1950
▁säkert	-1951
▁säljer	-1952
▁tjänst	-1953
▁tyckte	-1954
▁vinner	-1955
▁visste	-1956
▁vänlig	-1957
▁väntar	-1958
▁började	-1959
▁changed	-1960
▁färdiga	-1961
▁förstår	-1962
▁helping	-1963
▁nothing	-1964
▁survive	-1965
▁fungerar	-1966
▁remember	-1967
▁upptagna	-1968
▁yourself	-1969
▁hemlighet	-1970
▁ögonblick	-1971
▁Everything	-1972
br	-1973
oz	-1974
ps	-1975
ym	-1976
alm	-1977
amp	-1978
asc	-1979
dde	-1980
gel	-1981
ham	-1982
ial	-1983
ida	-1984
igh	-1985
irs	-1986
irt	-1987
juk	-1988
len	-1989
los	-1990
nen	-1991
orn	-1992
pis	-1993
red	-1994
sit	-1995
utt	-1996
väg	-1997
äda	-1998
åga	-1999
öjd	-2000
öst	-2001
▁Bl	-2002
▁Br	-2003
▁Ch	-2004
▁Gr	-2005
▁In	-2006
▁Nu	-2007
▁dj	-2008
▁ih	-2009
▁ir	-2010
▁ju	-2011
▁ru	-2012
▁sö	-2013
▁Äl	-2014
ache	-2015
acka	-2016
allå	-2017
cere	-2018
ched	-2019
erfe	-2020
erna	-2021
full	-2022
head	-2023
ient	-2024
iken	-2025
irds	-2026
issa	-2027
lyck	-2028
ming	-2029
ness	-2030
orth	-2031
over	-2032
prim	-2033
stig	-2034
tast	-2035
ämde	-2036
ärna	-2037
ålla	-2038
▁Bor	-2039
▁Con	-2040
▁For	-2041
▁Men	-2042
▁Någ	-2043
▁Sak	-2044
▁Skr	-2045
▁Slå	-2046
▁Stå	-2047
▁Vis	-2048
▁adv	-2049
▁aut	-2050
▁bli	-2051
▁cow	-2052
▁dep	-2053
▁eas	-2054
▁emb	-2055
▁era	-2056
▁ger	-2057
▁gir	-2058
▁gre	-2059
▁hos	-2060
▁ing	-2061
▁key	-2062
▁kän	-2063
▁lay	-2064
▁lur	-2065
▁lög	-2066
▁män	-2067
▁num	-2068
▁sag	-2069
▁ses	-2070
▁ste	-2071
▁sår	-2072
▁tän	-2073
▁tör	-2074
▁urs	-2075
amine	-2076
andra	-2077
arken	-2078
ascin	-2079
ating	-2080
ctive	-2081
ester	-2082
iders	-2083
irsty	-2084
ivlar	-2085
oking	-2086
onest	-2087
ppade	-2088
ready	-2089
ärlig	-2090
åglar	-2091
öcker	-2092
▁Call	-2093
▁Grab	-2094
▁Hade	-2095
▁Hang	-2096
▁Hans	-2097
▁Wash	-2098
▁ador	-2099
▁ball	-2100
▁bryr	-2101
▁bänk	-2102
▁bätt	-2103
▁chef	-2104
▁clos	-2105
▁comm	-2106
▁döda	-2107
▁dött	-2108
▁emot	-2109
▁ener	-2110
▁frys	-2111
▁game	-2112
▁glas	-2113
▁golf	-2114
▁gott	-2115
▁haft	-2116
▁hals	-2117
▁helt	-2118
▁hero	-2119
▁huge	-2120
▁hårt	-2121
▁högt	-2122
▁joke	-2123
▁kara	-2124
▁kniv	-2125
▁köpa	-2126
▁köra	-2127
▁lägg	-2128
▁namn	-2129
▁nyss	-2130
▁ofta	-2131
▁ride	-2132
▁save	-2133
▁sist	-2134
▁sjal	-2135
▁sjun	-2136
▁svag	-2137
▁sång	-2138
▁tall	-2139
▁varm	-2140
▁vikt	-2141
▁vote	-2142
▁weak	-2143
▁week	-2144
▁wish	-2145
ickade	-2146
ortant	-2147
▁Hallå	-2148
▁Tiden	-2149
▁ahead	-2150
▁alert	-2151
▁alive	-2152
▁apple	-2153
▁blind	-2154
▁bästa	-2155
▁climb	-2156
▁dance	-2157
▁extra	-2158
▁fruit	-2159
▁fulla	-2160
▁gener	-2161
▁guess	-2162
▁gömma	-2163
▁helps	-2164
▁kated	-2165
▁klätt	-2166
▁lives	-2167
▁livet	-2168
▁länge	-2169
▁mamma	-2170
▁misst	-2171
▁mjölk	-2172
▁posit	-2173
▁redan	-2174
▁relie	-2175
▁ringa	-2176
▁seems	-2177
▁shirt	-2178
▁skämt	-2179
▁slept	-2180
▁smile	-2181
▁stort	-2182
▁svart	-2183
▁tillr	-2184
▁tjock	-2185
▁trave	-2186
▁tried	-2187
▁undan	-2188
▁varit	-2189
▁vecka	-2190
▁voice	-2191
▁vägen	-2192
▁väska	-2193
▁water	-2194
▁ärlig	-2195
åningen	-2196
▁Dinner	-2197
▁Försök	-2198
▁Kommer	-2199
▁Snälla	-2200
▁Spelar	-2201
▁amused	-2202
▁besvär	-2203
▁betala	-2204
▁compet	-2205
▁danger	-2206
▁deprim	-2207
▁fascin	-2208
▁ganska	-2209
▁gråter	-2210
▁hundar	-2211
▁killed	-2212
▁kärlek	-2213
▁listen	-2214
▁minute	-2215
▁modern	-2216
▁narrow	-2217
▁pratar	-2218
▁resign	-2219
▁scream	-2220
▁slowly	-2221
▁vänner	-2222
▁Examine	-2223
▁already	-2224
▁använda	-2225
▁arrived	-2226
▁correct	-2227
▁crashed	-2228
▁escaped	-2229
▁friends	-2230
▁karaoke	-2231
▁laughed	-2232
▁married	-2233
▁sincere	-2234
▁student	-2235
▁thirsty	-2236
▁tittade	-2237
▁törstig	-2238
▁waiting	-2239
▁worried	-2240
▁adorable	-2241
▁ambition	-2242
▁betalade	-2243
▁children	-2244
▁katedern	-2245
▁misslyck	-2246
▁skrattar	-2247
▁important	-2248
▁incorrect	-2249
▁ingenting	-2250
▁skrattade	-2251
du	-2252
oj	-2253
als	-2254
bok	-2255
buk	-2256
dom	-2257
ear	-2258
elp	-2259
ept	-2260
eth	-2261
ffa	-2262
fra	-2263
ify	-2264
ins	-2265
ita	-2266
ity	-2267
iva	-2268
ize	-2269
iös	-2270
les	-2271
mod	-2272
rav	-2273
rog	-2274
rym	-2275
skt	-2276
udd	-2277
uer	-2278
uka	-2279
äns	-2280
åta	-2281
ödd	-2282
▁Fl	-2283
▁ID	-2284
▁Kl	-2285
▁Sm	-2286
▁ap	-2287
▁lö	-2288
▁ob	-2289
▁ot	-2290
akar	-2291
ance	-2292
arby	-2293
aren	-2294
aved	-2295
cept	-2296
ches	-2297
cing	-2298
cked	-2299
cken	-2300
ctor	-2301
etty	-2302
ices	-2303
ings	-2304
ited	-2305
ives	-2306
ivit	-2307
jälp	-2308
ksam	-2309
ktyg	-2310
llig	-2311
oggy	-2312
oted	-2313
ough	-2314
plom	-2315
reak	-2316
star	-2317
take	-2318
ular	-2319
vade	-2320
äder	-2321
ändr	-2322
ängs	-2323
övde	-2324
▁Ask	-2325
▁Går	-2326
▁Her	-2327
▁Kör	-2328
▁Läs	-2329
▁Run	-2330
▁Sat	-2331
▁Spe	-2332
▁Vet	-2333
▁abs	-2334
▁anx	-2335
▁boy	-2336
▁dad	-2337
▁dry	-2338
▁dör	-2339
▁exc	-2340
▁fox	-2341
▁gar	-2342
▁ham	-2343
▁log	-2344
▁läm	-2345
▁mål	-2346
▁mör	-2347
▁ost	-2348
▁pop	-2349
▁raw	-2350
▁rep	-2351
▁rid	-2352
▁räv	-2353
▁rök	-2354
▁sla	-2355
▁tig	-2356
▁tok	-2357
▁tor	-2358
▁tåg	-2359
▁tål	-2360
▁val	-2361
althy	-2362
antic	-2363
ation	-2364
atter	-2365
ennes	-2366
ented	-2367
esome	-2368
fraid	-2369
hamed	-2370
heten	-2371
iddag	-2372
ident	-2373
ihopa	-2374
iving	-2375
lling	-2376
oppen	-2377
sting	-2378
table	-2379
ussia	-2380
vious	-2381
äckte	-2382
▁Blev	-2383
▁Fire	-2384
▁Help	-2385
▁Hund	-2386
▁Just	-2387
▁Lägg	-2388
▁Midd	-2389
▁Ryss	-2390
▁Sade	-2391
▁Will	-2392
▁bent	-2393
▁bitt	-2394
▁blek	-2395
▁born	-2396
▁brev	-2397
▁båda	-2398
▁drog	-2399
▁easy	-2400
▁exem	-2401
▁fool	-2402
▁foot	-2403
▁fått	-2404
▁född	-2405
▁girl	-2406
▁gått	-2407
▁high	-2408
▁högl	-2409
▁höll	-2410
▁inga	-2411
▁into	-2412
▁iväg	-2413
▁kept	-2414
▁kost	-2415
▁leva	-2416
▁line	-2417
▁loud	-2418
▁lögn	-2419
▁mera	-2420
▁mind	-2421
▁mätt	-2422
▁mörd	-2423
▁näst	-2424
▁pale	-2425
▁poor	-2426
▁quit	-2427
▁runt	-2428
▁salt	-2429
▁sida	-2430
▁slog	-2431
▁slår	-2432
▁smil	-2433
▁svor	-2434
▁säll	-2435
▁taxi	-2436
▁took	-2437
▁tool	-2438
▁tråk	-2439
▁vakt	-2440
▁vitt	-2441
▁warm	-2442
▁weap	-2443
▁äger	-2444
▁äkta	-2445
immade	-2446
stairs	-2447
urious	-2448
▁Birds	-2449
▁Clean	-2450
▁Defin	-2451
▁Drick	-2452
▁Fråga	-2453
▁Hjälp	-2454
▁Någon	-2455
▁Skrev	-2456
▁Städa	-2457
▁annat	-2458
▁asked	-2459
▁awake	-2460
▁badge	-2461
▁bluff	-2462
▁books	-2463
▁bring	-2464
▁chans	-2465
▁cheap	-2466
▁cheer	-2467
▁class	-2468
▁contr	-2469
▁creat	-2470
▁cried	-2471
▁dying	-2472
▁early	-2473
▁heter	-2474
▁hitta	-2475
▁hälsa	-2476
▁jacka	-2477
▁knapp	-2478
▁kolla	-2479
▁kreat	-2480
▁laugh	-2481
▁lycka	-2482
▁låter	-2483
▁modig	-2484
▁movie	-2485
▁något	-2486
▁några	-2487
▁often	-2488
▁place	-2489
▁shook	-2490
▁sjöng	-2491
▁skräp	-2492
▁släkt	-2493
▁sound	-2494
▁säger	-2495
▁those	-2496
▁train	-2497
▁truth	-2498
▁where	-2499
▁worth	-2500
lligent	-2501
▁Använd	-2502
▁Forget	-2503
▁Fåglar	-2504
▁Hennes	-2505
▁Hänger	-2506
▁Russia	-2507
▁Saknar	-2508
▁Säljer	-2509
▁accept	-2510
▁afraid	-2511
▁better	-2512
▁blivit	-2513
▁böcker	-2514
▁couldn	-2515
▁differ	-2516
▁diplom	-2517
▁doctor	-2518
▁embarr	-2519
▁familj	-2520
▁family	-2521
▁fattar	-2522
▁förlor	-2523
▁insane	-2524
▁kommit	-2525
▁letter	-2526
▁lägger	-2527
▁manage	-2528
▁morgon	-2529
▁nearby	-2530
▁passed	-2531
▁relief	-2532
▁smiled	-2533
▁specif	-2534
▁sprang	-2535
▁stayed	-2536
▁strong	-2537
▁ursäkt	-2538
▁voices	-2539
▁anställ	-2540
▁anxious	-2541
▁ashamed	-2542
▁behövde	-2543
▁berätta	-2544
▁beställ	-2545
▁betalar	-2546
▁förändr	-2547
▁healthy	-2548
▁klockan	-2549
▁konstig	-2550
▁kramade	-2551
▁långsam	-2552
▁misstag	-2553
▁mistake	-2554
▁nyckeln	-2555
▁patient	-2556
▁quickly	-2557
▁recover	-2558
▁related	-2559
▁rättvis	-2560
▁slutade	-2561
▁sparken	-2562
▁strange	-2563
▁tvivlar	-2564
▁verktyg	-2565
▁väntade	-2566
▁Middagen	-2567
▁Ryssland	-2568
▁allihopa	-2569
▁creative	-2570
▁desperat	-2571
▁everyone	-2572
▁försöker	-2573
▁försökte	-2574
▁happened	-2575
▁hungriga	-2576
▁pengarna	-2577
▁pistolen	-2578
▁somebody	-2579
▁stalling	-2580
▁swimming	-2581
▁trevligt	-2582
▁varandra	-2583
▁överleva	-2584
▁berättade	-2585
▁confident	-2586
▁depressed	-2587
▁nycklarna	-2588
▁everything	-2589
▁journalist	-2590
▁understand	-2591
▁intelligent	-2592
af	-2593
cc	-2594
fr	-2595
gn	-2596
pa	-2597
ach	-2598
add	-2599
duk	-2600
erm	-2601
fer	-2602
fly	-2603
gag	-2604
ged	-2605
ict	-2606
ier	-2607
ike	-2608
inn	-2609
ket	-2610
lad	-2611
lut	-2612
nat	-2613
olk	-2614
oon	-2615
ped	-2616
ppy	-2617
pty	-2618
ral	-2619
rek	-2620
res	-2621
rit	-2622
ses	-2623
ual	-2624
uld	-2625
ure	-2626
ury	-2627
ven	-2628
väp	-2629
ybr	-2630
yer	-2631
ädd	-2632
öre	-2633
öva	-2634
▁Kr	-2635
▁Lä	-2636
▁Ne	-2637
▁Of	-2638
▁Sv	-2639
▁Sw	-2640
▁bj	-2641
▁cy	-2642
▁jo	-2643
▁lå	-2644
▁op	-2645
▁ry	-2646
▁yt	-2647
abet	-2648
akes	-2649
arge	-2650
assk	-2651
bart	-2652
bjud	-2653
boll	-2654
fair	-2655
fess	-2656
ging	-2657
ible	-2658
ibut	-2659
icka	-2660
iest	-2661
ilar	-2662
inna	-2663
irty	-2664
irus	-2665
ison	-2666
itar	-2667
juta	-2668
ktiv	-2669
line	-2670
mans	-2671
obot	-2672
okat	-2673
oons	-2674
pade	-2675
pect	-2676
pril	-2677
road	-2678
side	-2679
sjuk	-2680
skan	-2681
tain	-2682
teck	-2683
ugna	-2684
uine	-2685
ules	-2686
unda	-2687
vist	-2688
värk	-2689
örja	-2690
▁Any	-2691
▁Dra	-2692
▁Eat	-2693
▁Fix	-2694
▁Gud	-2695
▁Moz	-2696
▁Pro	-2697
▁Sit	-2698
▁Såg	-2699
▁Vår	-2700
▁air	-2701
▁avf	-2702
▁bid	-2703
▁box	-2704
▁bro	-2705
▁bur	-2706
▁byt	-2707
▁cle	-2708
▁col	-2709
▁cup	-2710
▁end	-2711
▁erk	-2712
▁eur	-2713
▁fed	-2714
▁fär	-2715
▁imm	-2716
▁lie	-2717
▁lob	-2718
▁lon	-2719
▁läk	-2720
▁lär	-2721
▁mun	-2722
▁mär	-2723
▁näs	-2724
▁ors	-2725
▁pap	-2726
▁poj	-2727
▁rak	-2728
▁rum	-2729
▁röd	-2730
▁san	-2731
▁shy	-2732
▁slå	-2733
▁sue	-2734
▁söm	-2735
▁söt	-2736
▁ter	-2737
▁ton	-2738
▁tou	-2739
▁typ	-2740
▁tår	-2741
▁vak	-2742
▁väx	-2743
▁yes	-2744
▁änd	-2745
▁åkt	-2746
allow	-2747
anges	-2748
aviar	-2749
entar	-2750
ercis	-2751
icult	-2752
ified	-2753
iktet	-2754
inner	-2755
inted	-2756
inter	-2757
ipped	-2758
isted	-2759
istor	-2760
itely	-2761
lands	-2762
mates	-2763
modig	-2764
orrow	-2765
siner	-2766
svinn	-2767
ummer	-2768
ybrid	-2769
yssna	-2770
ängde	-2771
▁Didn	-2772
▁Inga	-2773
▁Read	-2774
▁Sänk	-2775
▁Tack	-2776
▁Were	-2777
▁also	-2778
▁apel	-2779
▁arre	-2780
▁bety	-2781
▁bike	-2782
▁blog	-2783
▁blom	-2784
▁blyg	-2785
▁boll	-2786
▁bråk	-2787
▁bröd	-2788
▁cont	-2789
▁cost	-2790
▁cute	-2791
▁dark	-2792
▁deaf	-2793
▁disk	-2794
▁duty	-2795
▁enem	-2796
▁enor	-2797
▁exit	-2798
▁fake	-2799
▁fall	-2800
▁fara	-2801
▁fear	-2802
▁fill	-2803
▁film	-2804
▁fing	-2805
▁föll	-2806
▁förs	-2807
▁förv	-2808
▁gäst	-2809
▁hatt	-2810
▁hela	-2811
▁hipp	-2812
▁ihåg	-2813
▁last	-2814
▁lies	-2815
▁nose	-2816
▁oför	-2817
▁pray	-2818
▁puss	-2819
▁rain	-2820
▁real	-2821
▁reda	-2822
▁resa	-2823
▁risk	-2824
▁road	-2825
▁rude	-2826
▁sade	-2827
▁sagt	-2828
▁sane	-2829
▁scen	-2830
▁skam	-2831
▁sked	-2832
▁skyd	-2833
▁slob	-2834
▁snål	-2835
▁stad	-2836
▁synd	-2837
▁sätt	-2838
▁unga	-2839
▁unre	-2840
▁uppe	-2841
▁vide	-2842
▁vred	-2843
▁värt	-2844
▁warn	-2845
▁wasn	-2846
▁yell	-2847
▁ängs	-2848
▁ätit	-2849
abetes	-2850
derful	-2851
fessor	-2852
gången	-2853
ibuted	-2854
inkade	-2855
issade	-2856
orrekt	-2857
sinnig	-2858
strong	-2859
yssnar	-2860
▁Drive	-2861
▁Hörde	-2862
▁Light	-2863
▁Lugna	-2864
▁Läste	-2865
▁Shall	-2866
▁Själv	-2867
▁Sover	-2868
▁Speak	-2869
▁Thank	-2870
▁affär	-2871
▁armed	-2872
▁arrog	-2873
▁artig	-2874
▁bakom	-2875
▁belie	-2876
▁beväp	-2877
▁bored	-2878
▁brave	-2879
▁break	-2880
▁candy	-2881
▁catch	-2882
▁empty	-2883
▁engag	-2884
▁exist	-2885
▁fever	-2886
▁fiska	-2887
▁fixar	-2888
▁freez	-2889
▁frisk	-2890
▁följa	-2891
▁försv	-2892
▁förtj	-2893
▁gamla	-2894
▁gevär	-2895
▁glass	-2896
▁godis	-2897
▁grown	-2898
▁gråta	-2899
▁guest	-2900
▁jobba	-2901
▁kliar	-2902
▁kväll	-2903
▁känna	-2904
▁litet	-2905
▁lucky	-2906
▁minns	-2907
▁minut	-2908
▁målar	-2909
▁opera	-2910
▁orätt	-2911
▁panik	-2912
▁peace	-2913
▁perfe	-2914
▁polit	-2915
▁präst	-2916
▁robot	-2917
▁rolig	-2918
▁satte	-2919
▁sells	-2920
▁sjuka	-2921
▁skrek	-2922
▁skuld	-2923
▁skynd	-2924
▁sluta	-2925
▁small	-2926
▁smuts	-2927
▁stark	-2928
▁stora	-2929
▁ställ	-2930
▁svara	-2931
▁swore	-2932
▁säkra	-2933
▁taget	-2934
▁teeth	-2935
▁thank	-2936
▁these	-2937
▁three	-2938
▁toler	-2939
▁tools	-2940
▁trygg	-2941
▁vaken	-2942
▁vilse	-2943
▁virus	-2944
▁white	-2945
▁Behåll	-2946
▁Hunden	-2947
▁Håller	-2948
▁Mozart	-2949
▁Skaffa	-2950
▁Tyckte	-2951
▁abroad	-2952
▁absent	-2953
▁afford	-2954
▁anyone	-2955
▁apolog	-2956
▁arbeta	-2957
▁behind	-2958
▁behöva	-2959
▁bidrog	-2960
▁bitter	-2961
▁boring	-2962
▁bättre	-2963
▁cancer	-2964
▁chance	-2965
▁change	-2966
▁cheese	-2967
▁choice	-2968
▁course	-2969
▁dinner	-2970
▁dricka	-2971
▁döende	-2972
▁enough	-2973
▁failed	-2974
▁fattig	-2975
▁flytta	-2976
▁framåt	-2977
▁frågor	-2978
▁fördom	-2979
▁föräld	-2980
▁histor	-2981
▁hjälte	-2982
▁honest	-2983
▁hugged	-2984
▁hummer	-2985
▁hybrid	-2986
▁katten	-2987
▁kissed	-2988
▁klassk	-2989
▁knappt	-2990
▁konstn	-2991
▁koppen	-2992
▁lawyer	-2993
▁litade	-2994
▁lonely	-2995
▁lukten	-2996
▁mening	-2997
▁middag	-2998
▁mother	-2999
▁needed	-3000
▁nästan	-3001
▁orolig	-3002
▁pretty	-3003
▁priest	-3004
▁röster	-3005
▁seemed	-3006
▁sjunga	-3007
▁skjuta	-3008
▁skjuts	-3009
▁skylla	-3010
▁smakar	-3011
▁spelar	-3012
▁stoppa	-3013
▁studer	-3014
▁sången	-3015
▁tidigt	-3016
▁toppen	-3017
▁travel	-3018
▁tänder	-3019
▁tänker	-3020
▁unfair	-3021
▁vatten	-3022
▁vägrar	-3023
▁waited	-3024
▁Älskar	-3025
▁Lunchen	-3026
▁Someone	-3027
▁advokat	-3028
▁another	-3029
▁arbetet	-3030
▁awesome	-3031
▁careful	-3032
▁comment	-3033
▁compete	-3034
▁dressed	-3035
▁dricker	-3036
▁fainted	-3037
▁fantast	-3038
▁fotboll	-3039
▁franska	-3040
▁frantic	-3041
▁furious	-3042
▁genuine	-3043
▁himself	-3044
▁huvudet	-3045
▁klarade	-3046
▁kreativ	-3047
▁lobster	-3048
▁lämnade	-3049
▁oranges	-3050
▁ordered	-3051
▁outside	-3052
▁parkera	-3053
▁reading	-3054
▁shallow	-3055
▁similar	-3056
▁slappna	-3057
▁spiders	-3058
▁svarade	-3059
▁svettas	-3060
▁talking	-3061
▁tappade	-3062
▁trusted	-3063
▁tveksam	-3064
▁upprikt	-3065
▁upprörd	-3066
▁verkade	-3067
▁viktigt	-3068
▁watched	-3069
▁witness	-3070
▁ängslig	-3071
▁överens	-3072
▁Försvinn	-3073
▁Varifrån	-3074
▁ansiktet	-3075
▁artistic	-3076
▁beställa	-3077
▁climbing	-3078
▁diabetes	-3079
▁doubtful	-3080
▁friendly	-3081
▁headache	-3082
▁konstigt	-3083
▁laughing	-3084
▁lyckades	-3085
▁närheten	-3086
▁spindlar	-3087
▁stannade	-3088
▁svimmade	-3089
▁sweating	-3090
▁tomorrow	-3091
▁utgången	-3092
▁apelsiner	-3093
▁dangerous	-3094
▁desperate	-3095
▁different	-3096
▁difficult	-3097
▁förlorade	-3098
▁huvudvärk	-3099
▁kommentar	-3100
▁professor	-3101
▁recovered	-3102
▁sanningen	-3103
▁something	-3104
▁utomlands	-3105
▁Definitely	-3106
▁aggressive	-3107
▁classmates	-3108
▁deprimerad	-3109
▁downstairs	-3110
▁headstrong	-3111
▁contributed	-3112
▁embarrassed	-3113
▁långsammare	-3114
ax	-3115
eg	-3116
ja	-3117
oc	-3118
ov	-3119
qu	-3120
rs	-3121
äf	-3122
ås	-3123
ail	-3124
aky	-3125
ald	-3126
app	-3127
ask	-3128
ast	-3129
bra	-3130
bud	-3131
bur	-3132
cce	-3133
cif	-3134
cre	-3135
edd	-3136
edv	-3137
for	-3138
fär	-3139
gin	-3140
går	-3141
hus	-3142
its	-3143
jej	-3144
kay	-3145
kta	-3146
lde	-3147
lit	-3148
låt	-3149
mor	-3150
nes	-3151
nik	-3152
oda	-3153
odd	-3154
oes	-3155
oid	-3156
ole	-3157
omb	-3158
oof	-3159
ops	-3160
orl	-3161
oss	-3162
ows	-3163
set	-3164
tal	-3165
uck	-3166
ugs	-3167
vad	-3168
vil	-3169
vin	-3170
vol	-3171
vor	-3172
yrt	-3173
zzy	-3174
äft	-3175
ämd	-3176
äna	-3177
ära	-3178
▁CD	-3179
▁Er	-3180
▁Ka	-3181
▁Rö	-3182
▁cd	-3183
▁mö	-3184
▁og	-3185
▁rå	-3186
▁tu	-3187
▁yr	-3188
▁öm	-3189
acht	-3190
agar	-3191
arna	-3192
arry	-3193
ason	-3194
aten	-3195
bage	-3196
bell	-3197
ckad	-3198
cuse	-3199
dags	-3200
days	-3201
edan	-3202
esam	-3203
fall	-3204
fatt	-3205
fish	-3206
gery	-3207
hand	-3208
hist	-3209
hlet	-3210
icks	-3211
ider	-3212
ikte	-3213
ilen	-3214
ized	-3215
klar	-3216
leep	-3217
lish	-3218
ller	-3219
loor	-3220
läng	-3221
most	-3222
olin	-3223
oned	-3224
orna	-3225
outh	-3226
oves	-3227
owel	-3228
pens	-3229
plan	-3230
pond	-3231
pper	-3232
reck	-3233
rees	-3234
ross	-3235
rätt	-3236
skad	-3237
skor	-3238
sted	-3239
tack	-3240
tact	-3241
tect	-3242
tråk	-3243
ttar	-3244
ugit	-3245
vara	-3246
äfta	-3247
ägen	-3248
ämma	-3249
ämpa	-3250
ånad	-3251
ögon	-3252
öjde	-3253
ötta	-3254
▁Bet	-3255
▁Bli	-3256
▁Bur	-3257
▁Hen	-3258
▁Kon	-3259
▁Put	-3260
▁Sov	-3261
▁Tag	-3262
▁Tog	-3263
▁Vak	-3264
▁adm	-3265
▁anl	-3266
▁ara	-3267
▁ast	-3268
▁bef	-3269
▁blö	-3270
▁cab	-3271
▁cer	-3272
▁cha	-3273
▁cut	-3274
▁dej	-3275
▁döv	-3276
▁eld	-3277
▁gif	-3278
▁grö	-3279
▁hom	-3280
▁ink	-3281
▁kam	-3282
▁kne	-3283
▁lab	-3284
▁lek	-3285
▁ler	-3286
▁lim	-3287
▁låt	-3288
▁map	-3289
▁mur	-3290
▁paj	-3291
▁pie	-3292
▁rea	-3293
▁rop	-3294
▁sam	-3295
▁sel	-3296
▁sex	-3297
▁ske	-3298
▁sug	-3299
▁sun	-3300
▁tyd	-3301
▁unf	-3302
▁uts	-3303
▁van	-3304
▁öpp	-3305
agger	-3306
ample	-3307
andet	-3308
buked	-3309
cceed	-3310
ceful	-3311
cious	-3312
creet	-3313
derår	-3314
edrar	-3315
edvid	-3316
erson	-3317
etten	-3318
ffade	-3319
fully	-3320
getic	-3321
ickar	-3322
icked	-3323
icken	-3324
irrad	-3325
isten	-3326
ister	-3327
iting	-3328
ittar	-3329
ittat	-3330
itted	-3331
ittle	-3332
nande	-3333
night	-3334
niska	-3335
obbed	-3336
ocked	-3337
orten	-3338
otten	-3339
outed	-3340
oying	-3341
plain	-3342
stans	-3343
troll	-3344
uggar	-3345
ummet	-3346
undry	-3347
ussen	-3348
utter	-3349
ymrad	-3350
ängen	-3351
▁Arab	-3352
▁Bryr	-3353
▁Calm	-3354
▁Draw	-3355
▁Dröm	-3356
▁Dust	-3357
▁Fill	-3358
▁Jobb	-3359
▁Kyss	-3360
▁Ryck	-3361
▁Räck	-3362
▁Show	-3363
▁Sjun	-3364
▁Talk	-3365
▁Tänd	-3366
▁Vann	-3367
▁Vart	-3368
▁Visa	-3369
▁abdu	-3370
▁ache	-3371
▁adap	-3372
▁babb	-3373
▁baby	-3374
▁beat	-3375
▁bege	-3376
▁bell	-3377
▁belö	-3378
▁bröt	-3379
▁bära	-3380
▁bäst	-3381
▁cake	-3382
▁cane	-3383
▁cars	-3384
▁comb	-3385
▁damp	-3386
▁date	-3387
▁deep	-3388
▁dist	-3389
▁drar	-3390
▁egen	-3391
▁elak	-3392
▁else	-3393
▁ever	-3394
▁fail	-3395
▁file	-3396
▁flat	-3397
▁flyg	-3398
▁folk	-3399
▁fukt	-3400
▁förb	-3401
▁före	-3402
▁gate	-3403
▁gett	-3404
▁gill	-3405
▁grym	-3406
▁gräs	-3407
▁guts	-3408
▁jail	-3409
▁jock	-3410
▁join	-3411
▁jury	-3412
▁jätt	-3413
▁koll	-3414
▁kont	-3415
▁kort	-3416
▁kras	-3417
▁käpp	-3418
▁laga	-3419
▁ljus	-3420
▁läsk	-3421
▁lörd	-3422
▁meat	-3423
▁mess	-3424
▁nail	-3425
▁naiv	-3426
▁news	-3427
▁nodd	-3428
▁note	-3429
▁nytt	-3430
▁nöjd	-3431
▁okay	-3432
▁oper	-3433
▁ours	-3434
▁page	-3435
▁phot	-3436
▁pill	-3437
▁poss	-3438
▁rang	-3439
▁roll	-3440
▁rymt	-3441
▁rått	-3442
▁röda	-3443
▁röka	-3444
▁röra	-3445
▁sail	-3446
▁sang	-3447
▁says	-3448
▁seat	-3449
▁sena	-3450
▁sinn	-3451
▁skor	-3452
▁sold	-3453
▁sore	-3454
▁stam	-3455
▁star	-3456
▁step	-3457
▁stod	-3458
▁stol	-3459
▁stra	-3460
▁sömn	-3461
▁tank	-3462
▁team	-3463
▁teas	-3464
▁terr	-3465
▁text	-3466
▁tire	-3467
▁town	-3468
▁trip	-3469
▁träd	-3470
▁tung	-3471
▁usel	-3472
▁vack	-3473
▁wake	-3474
▁wash	-3475
▁wild	-3476
▁woke	-3477
▁åker	-3478
assing	-3479
erable	-3480
erande	-3481
hletic	-3482
idence	-3483
itated	-3484
jortan	-3485
rossad	-3486
rsäkta	-3487
sosamt	-3488
tråkad	-3489
uering	-3490
usande	-3491
ämtade	-3492
årande	-3493
▁Begin	-3494
▁Brush	-3495
▁Börja	-3496
▁Damma	-3497
▁Drink	-3498
▁Gissa	-3499
▁Happy	-3500
▁Hoppa	-3501
▁Lower	-3502
▁Menar	-3503
▁Prova	-3504
▁Röker	-3505
▁Satur	-3506
▁Skjut	-3507
▁Slåss	-3508
▁Stick	-3509
▁Sväng	-3510
▁There	-3511
▁Those	-3512
▁Throw	-3513
▁Vilka	-3514
▁Våren	-3515
▁aning	-3516
▁atlet	-3517
▁avund	-3518
▁awful	-3519
▁begin	-3520
▁bilar	-3521
▁blank	-3522
▁bread	-3523
▁brors	-3524
▁böjde	-3525
▁börja	-3526
▁carry	-3527
▁chess	-3528
▁clear	-3529
▁comes	-3530
▁crown	-3531
▁cykel	-3532
▁dagen	-3533
▁deser	-3534
▁dirty	-3535
▁dizzy	-3536
▁drugs	-3537
▁enemy	-3538
▁energ	-3539
▁favor	-3540
▁feber	-3541
▁flaky	-3542
▁floor	-3543
▁forts	-3544
▁foten	-3545
▁frysa	-3546
▁fugit	-3547
▁fullt	-3548
▁förky	-3549
▁förlo	-3550
▁förut	-3551
▁galna	-3552
▁genom	-3553
▁gärna	-3554
▁heart	-3555
▁hired	-3556
▁hurry	-3557
▁hände	-3558
▁hålla	-3559
▁högre	-3560
▁igång	-3561
▁immun	-3562
▁irrit	-3563
▁jogga	-3564
▁kappa	-3565
▁konta	-3566
▁körde	-3567
▁later	-3568
▁ledig	-3569
▁lever	-3570
▁liars	-3571
▁lämna	-3572
▁låten	-3573
▁lönar	-3574
▁maten	-3575
▁might	-3576
▁mouth	-3577
▁moved	-3578
▁naive	-3579
▁nästa	-3580
▁olyck	-3581
▁ought	-3582
▁paper	-3583
▁polis	-3584
▁power	-3585
▁proud	-3586
▁prove	-3587
▁quite	-3588
▁reser	-3589
▁roade	-3590
▁rules	-3591
▁räkna	-3592
▁saker	-3593
▁sakna	-3594
▁scare	-3595
▁scary	-3596
▁shoes	-3597
▁short	-3598
▁sidan	-3599
▁skate	-3600
▁skola	-3601
▁solen	-3602
▁spela	-3603
▁stiga	-3604
▁stood	-3605
▁storm	-3606
▁teach	-3607
▁tegel	-3608
▁tokig	-3609
▁touch	-3610
▁towel	-3611
▁tvätt	-3612
▁tårta	-3613
▁unrel	-3614
▁upset	-3615
▁video	-3616
▁värre	-3617
▁worse	-3618
▁yacht	-3619
▁ytlig	-3620
▁äggen	-3621
▁äpple	-3622
▁öppen	-3623
acation	-3624
emester	-3625
ktering	-3626
ndersök	-3627
orlunda	-3628
pensive	-3629
ressade	-3630
sammans	-3631
starrig	-3632
uddhist	-3633
varande	-3634
▁Borsta	-3635
▁Excuse	-3636
▁Förlåt	-3637
▁Listen	-3638
▁Lyssna	-3639
▁Thanks	-3640
▁Vatten	-3641
▁Vilket	-3642
▁active	-3643
▁almost	-3644
▁anteck	-3645
▁anyway	-3646
▁asleep	-3647
▁attack	-3648
▁avsked	-3649
▁begrav	-3650
▁beslut	-3651
▁bevisa	-3652
▁bother	-3653
▁bricks	-3654
▁broken	-3655
▁cancel	-3656
▁closed	-3657
▁closer	-3658
▁dagbok	-3659
▁dreams	-3660
▁driver	-3661
▁droger	-3662
▁dörren	-3663
▁fairly	-3664
▁fiende	-3665
▁freeze	-3666
▁fryser	-3667
▁frågar	-3668
▁föddes	-3669
▁följde	-3670
▁gloves	-3671
▁groggy	-3672
▁hardly	-3673
▁helped	-3674
▁hemskt	-3675
▁hennes	-3676
▁hippie	-3677
▁hittat	-3678
▁horses	-3679
▁insist	-3680
▁joggar	-3681
▁killen	-3682
▁killer	-3683
▁kostar	-3684
▁laughs	-3685
▁listan	-3686
▁little	-3687
▁lyckas	-3688
▁matade	-3689
▁matter	-3690
▁meddel	-3691
▁menade	-3692
▁minors	-3693
▁misses	-3694
▁munnen	-3695
▁murder	-3696
▁notify	-3697
▁number	-3698
▁nummer	-3699
▁oärlig	-3700
▁papper	-3701
▁parent	-3702
▁person	-3703
▁played	-3704
▁pojken	-3705
▁polite	-3706
▁prefer	-3707
▁promen	-3708
▁regler	-3709
▁resour	-3710
▁ringer	-3711
▁robbed	-3712
▁ropade	-3713
▁räknas	-3714
▁rösten	-3715
▁schack	-3716
▁senare	-3717
▁seriös	-3718
▁skydda	-3719
▁skynda	-3720
▁sommar	-3721
▁sounds	-3722
▁speaks	-3723
▁stilla	-3724
▁ställa	-3725
▁stämma	-3726
▁summer	-3727
▁syster	-3728
▁sällan	-3729
▁sönder	-3730
▁talade	-3731
▁talked	-3732
▁tecken	-3733
▁trains	-3734
▁trying	-3735
▁trötta	-3736
▁undant	-3737
▁vidare	-3738
▁violin	-3739
▁värker	-3740
▁väskan	-3741
▁worked	-3742
▁yester	-3743
▁äpplet	-3744
bjudande	-3745
deråriga	-3746
våningen	-3747
▁allesam	-3748
▁ansikte	-3749
▁anybody	-3750
▁bananas	-3751
▁bananer	-3752
▁behålla	-3753
▁believe	-3754
▁belåten	-3755
▁billigt	-3756
▁bredvid	-3757
▁certain	-3758
▁choking	-3759
▁dancing	-3760
▁diskret	-3761
▁engaged	-3762
▁envious	-3763
▁erkände	-3764
▁exagger	-3765
▁example	-3766
▁excited	-3767
▁exempel	-3768
▁flyttar	-3769
▁fångade	-3770
▁garbage	-3771
▁generös	-3772
▁gillade	-3773
▁glasses	-3774
▁halkade	-3775
▁hjälpte	-3776
▁högljud	-3777
▁insidan	-3778
▁jogging	-3779
▁klättra	-3780
▁knocked	-3781
▁laundry	-3782
▁lyssnar	-3783
▁lättnad	-3784
▁lögnare	-3785
▁normalt	-3786
▁närmare	-3787
▁pratade	-3788
▁promise	-3789
▁protect	-3790
▁rebuked	-3791
▁regular	-3792
▁riktigt	-3793
▁räddade	-3794
▁shouted	-3795
▁singing	-3796
▁skamsen	-3797
▁skrämde	-3798
▁skulden	-3799
▁slipped	-3800
▁smiling	-3801
▁special	-3802
▁spelade	-3803
▁stämmer	-3804
▁succeed	-3805
▁surgery	-3806
▁tonight	-3807
▁tråkigt	-3808
▁twisted	-3809
▁weapons	-3810
▁winning	-3811
▁Somebody	-3812
▁abducted	-3813
▁annoying	-3814
▁anställd	-3815
▁answered	-3816
▁arbetade	-3817
▁arrogant	-3818
▁athletic	-3819
▁bekymrad	-3820
▁cheerful	-3821
▁discreet	-3822
▁evidence	-3823
▁fearless	-3824
▁followed	-3825
▁fugitive	-3826
▁föredrar	-3827
▁generous	-3828
▁glasögon	-3829
▁handskar	-3830
▁historia	-3831
▁jättebra	-3832
▁långsamt	-3833
▁minister	-3834
▁någonsin	-3835
▁opereras	-3836
▁positive	-3837
▁screamed	-3838
▁skickade	-3839
▁skjortan	-3840
▁sleeping	-3841
▁specific	-3842
▁standard	-3843
▁stressed	-3844
▁tolerant	-3845
▁tålmodig	-3846
▁undervis	-3847
▁ursinnig	-3848
▁uttråkad	-3849
▁Goodnight	-3850
▁adaptable	-3851
▁aggressiv	-3852
▁allvarlig	-3853
▁bedårande	-3854
▁bestämmer	-3855
▁besvärlig	-3856
▁beväpnade	-3857
▁energetic	-3858
▁everybody	-3859
▁expensive	-3860
▁förvirrad	-3861
▁förälskad	-3862
▁hälsosamt	-3863
▁miserable	-3864
▁questions	-3865
▁svettades	-3866
▁tegelsten	-3867
▁underligt	-3868
▁wonderful	-3869
▁yesterday	-3870
▁annorlunda	-3871
▁apologized	-3872
▁fantastisk	-3873
▁förkrossad	-3874
▁förändrats	-3875
▁punktering	-3876
▁understood	-3877
▁frånvarande	-3878
▁förtjusande	-3879
▁halsstarrig	-3880
▁konstnärlig	-3881
▁minderåriga	-3882
▁resourceful	-3883
be	-3884
bo	-3885
gr	-3886
ape	-3887
aut	-3888
avy	-3889
boy	-3890
dan	-3891
edu	-3892
eka	-3893
gav	-3894
hyf	-3895
iev	-3896
isy	-3897
ivt	-3898
jug	-3899
aks	-3900
fox	-3901
jöt	-3902
loy	-3903
lyd	-3904
nel	-3905
nib	-3906
noc	-3907
oil	-3908
oka	-3909
oky	-3910
rob	-3911
säk	-3912
ter	-3913
thy	-3914
ula	-3915
upt	-3916
väm	-3917
yns	-3918
äva	-3919
ånd	-3920
öja	-3921
öjt	-3922
▁Må	-3923
▁Om	-3924
▁On	-3925
▁Pa	-3926
▁Po	-3927
▁vu	-3928
acon	-3929
anda	-3930
anky	-3931
asps	-3932
atty	-3933
barn	-3934
buki	-3935
came	-3936
ccer	-3937
cern	-3938
corn	-3939
dast	-3940
dist	-3941
drev	-3942
esus	-3943
ffas	-3944
fied	-3945
fint	-3946
föra	-3947
gain	-3948
gare	-3949
gera	-3950
hful	-3951
höll	-3952
ibly	-3953
iell	-3954
igil	-3955
ihop	-3956
imme	-3957
inka	-3958
isky	-3959
ites	-3960
ivor	-3961
jutt	-3962
kelt	-3963
körd	-3964
lvet	-3965
mäst	-3966
näst	-3967
ogra	-3968
okes	-3969
okyo	-3970
ople	-3971
orry	-3972
ovar	-3973
ovis	-3974
owed	-3975
oyed	-3976
oyot	-3977
ozen	-3978
pass	-3979
pile	-3980
rare	-3981
rbet	-3982
resh	-3983
rime	-3984
rist	-3985
rows	-3986
ryka	-3987
räck	-3988
sade	-3989
sion	-3990
stin	-3991
stod	-3992
trol	-3993
uder	-3994
udge	-3995
ufft	-3996
ukta	-3997
ulla	-3998
ulär	-3999
chy	-4000
ele	-4001
gly	-4002
ika	-4003
ilt	-4004
izz	-4005
▁By	-4006
▁Me	-4007
▁et	-4008
▁Än	-4009
▁år	-4010
aget	-4011
aker	-4012
amas	-4013
arch	-4014
elef	-4015
glig	-4016
iker	-4017
ilot	-4018
izza	-4019
rott	-4020
skap	-4021
stor	-4022
ulin	-4023
ummi	-4024
umor	-4025
urse	-4026
ustr	-4027
vete	-4028
vett	-4029
äkte	-4030
änad	-4031
äsen	-4032
ävde	-4033
åder	-4034
ådig	-4035
åkor	-4036
öger	-4037
ögre	-4038
öter	-4039
▁Att	-4040
▁Buy	-4041
▁Byt	-4042
▁Egy	-4043
▁Fan	-4044
▁Fun	-4045
▁Hug	-4046
▁Knu	-4047
▁Lad	-4048
▁Lag	-4049
▁Lev	-4050
▁Lot	-4051
▁Lou	-4052
▁Lås	-4053
▁Män	-4054
▁Mål	-4055
▁Not	-4056
▁Our	-4057
▁Par	-4058
▁Rad	-4059
▁Rem	-4060
▁Sch	-4061
▁act	-4062
▁age	-4063
▁ant	-4064
▁avg	-4065
▁awk	-4066
▁bry	-4067
▁cir	-4068
▁cru	-4069
▁dam	-4070
▁dug	-4071
▁ele	-4072
▁feg	-4073
▁ful	-4074
▁fån	-4075
▁gum	-4076
▁hip	-4077
▁ice	-4078
▁ign	-4079
▁jet	-4080
▁kor	-4081
▁låg	-4082
▁löp	-4083
▁nep	-4084
▁non	-4085
▁nyf	-4086
▁orp	-4087
▁rab	-4088
▁rev	-4089
▁ryg	-4090
▁rym	-4091
▁squ	-4092
▁sus	-4093
▁tak	-4094
▁täv	-4095
▁utm	-4096
▁veg	-4097
▁vux	-4098
▁vät	-4099
den	-4100
lur	-4101
pon	-4102
såg	-4103
▁Få	-4104
▁ov	-4105
ined	-4106
lead	-4107
odna	-4108
örde	-4109
▁Böj	-4110
▁Klä	-4111
▁Ste	-4112
▁ble	-4113
▁bäl	-4114
▁cur	-4115
▁las	-4116
▁rub	-4117
▁stå	-4118
▁war	-4119
▁wer	-4120
▁yen	-4121
▁äck	-4122
agoda	-4123
akade	-4124
akass	-4125
aking	-4126
ansin	-4127
anter	-4128
arely	-4129
arian	-4130
attoo	-4131
autif	-4132
biska	-4133
ctual	-4134
duken	-4135
edule	-4136
eless	-4137
ernet	-4138
ffins	-4139
ftern	-4140
gnant	-4141
gångs	-4142
heter	-4143
iable	-4144
icket	-4145
ifted	-4146
iking	-4147
imals	-4148
inked	-4149
iolog	-4150
isken	-4151
karna	-4152
klart	-4153
kring	-4154
kting	-4155
ldern	-4156
lymen	-4157
låder	-4158
låten	-4159
nings	-4160
nswer	-4161
olite	-4162
ollig	-4163
opped	-4164
ortig	-4165
ovärd	-4166
owers	-4167
oyota	-4168
pisar	-4169
pises	-4170
plats	-4171
pleas	-4172
pplur	-4173
rater	-4174
reled	-4175
ristm	-4176
robat	-4177
räfta	-4178
samma	-4179
sfull	-4180
skall	-4181
skiva	-4182
stron	-4183
stämd	-4184
stånd	-4185
säker	-4186
teous	-4187
ubbel	-4188
ugged	-4189
ughty	-4190
ukost	-4191
ulate	-4192
umped	-4193
using	-4194
usion	-4195
utral	-4196
vaken	-4197
viken	-4198
voted	-4199
aså	-4200
hew	-4201
nap	-4202
nga	-4203
nit	-4204
sas	-4205
▁Gu	-4206
▁Sö	-4207
▁dy	-4208
band	-4209
isör	-4210
itat	-4211
iter	-4212
pekt	-4213
ping	-4214
ushi	-4215
zing	-4216
äron	-4217
▁Age	-4218
▁Bry	-4219
▁Göm	-4220
▁Sno	-4221
▁Wow	-4222
▁bat	-4223
▁cig	-4224
▁cit	-4225
▁dub	-4226
▁ens	-4227
▁git	-4228
▁inv	-4229
▁ras	-4230
▁såd	-4231
▁tat	-4232
▁top	-4233
▁tru	-4234
eding	-4235
inden	-4236
jänar	-4237
unnit	-4238
utten	-4239
yllde	-4240
yller	-4241
yndig	-4242
yrade	-4243
äcken	-4244
äften	-4245
äftig	-4246
äknel	-4247
äller	-4248
ängel	-4249
änker	-4250
äppar	-4251
ärska	-4252
ående	-4253
åttom	-4254
ömmen	-4255
örjer	-4256
örnar	-4257
övlig	-4258
▁Back	-4259
▁Barn	-4260
▁Beat	-4261
▁Beer	-4262
▁Boil	-4263
▁Cont	-4264
▁Cool	-4265
▁Dags	-4266
▁Dice	-4267
▁Drop	-4268
▁Fick	-4269
▁Find	-4270
▁Fixa	-4271
▁Fyll	-4272
▁Gick	-4273
▁Hide	-4274
▁Häst	-4275
▁Inte	-4276
▁Jaså	-4277
▁Kiss	-4278
▁Klar	-4279
▁Koka	-4280
▁Lita	-4281
▁Ljug	-4282
▁Lock	-4283
▁Mars	-4284
▁Move	-4285
▁None	-4286
▁Once	-4287
▁Pace	-4288
▁Pick	-4289
▁Rita	-4290
▁Röst	-4291
▁Shut	-4292
▁Sign	-4293
▁Skad	-4294
▁Skol	-4295
▁Snar	-4296
▁Sopa	-4297
▁Step	-4298
▁Stig	-4299
js	-4300
Pad	-4301
ajs	-4302
edy	-4303
ics	-4304
män	-4305
org	-4306
ork	-4307
rew	-4308
sad	-4309
sna	-4310
ued	-4311
ves	-4312
ylf	-4313
▁ak	-4314
▁od	-4315
anta	-4316
ared	-4317
atte	-4318
blöt	-4319
fast	-4320
iner	-4321
inue	-4322
ttat	-4323
ärta	-4324
▁Amm	-4325
▁Där	-4326
▁bas	-4327
▁ear	-4328
▁flu	-4329
▁nap	-4330
▁vit	-4331
▁wet	-4332
blind	-4333
fulla	-4334
järta	-4335
mless	-4336
omhus	-4337
pared	-4338
räckt	-4339
slöst	-4340
uggle	-4341
▁Jump	-4342
▁Stör	-4343
▁Term	-4344
▁Then	-4345
▁Tänk	-4346
▁Vems	-4347
▁Vila	-4348
▁Year	-4349
▁adop	-4350
▁arms	-4351
▁bald	-4352
▁bank	-4353
▁bark	-4354
▁bedr	-4355
▁belt	-4356
▁blåa	-4357
▁boat	-4358
▁bomb	-4359
▁bott	-4360
▁boys	-4361
▁brak	-4362
▁brom	-4363
▁bruk	-4364
▁burn	-4365
▁buss	-4366
▁böjd	-4367
▁calm	-4368
▁cash	-4369
▁chew	-4370
▁city	-4371
▁coma	-4372
▁comp	-4373
▁cons	-4374
▁cops	-4375
▁corn	-4376
▁coug	-4377
▁deny	-4378
▁deva	-4379
▁diet	-4380
▁dimm	-4381
▁disg	-4382
▁dish	-4383
▁djur	-4384
▁draw	-4385
▁duga	-4386
▁dumt	-4387
▁dyrt	-4388
▁effe	-4389
▁euro	-4390
▁even	-4391
▁exam	-4392
▁fakt	-4393
▁feet	-4394
▁fint	-4395
▁fire	-4396
▁flyr	-4397
▁form	-4398
▁fran	-4399
bar	-4400
dag	-4401
han	-4402
igg	-4403
oup	-4404
tan	-4405
ten	-4406
▁ko	-4407
ball	-4408
ised	-4409
kort	-4410
llar	-4411
neka	-4412
rask	-4413
slös	-4414
▁hes	-4415
▁vod	-4416
anoid	-4417
artan	-4418
given	-4419
irboy	-4420
▁Live	-4421
▁Peka	-4422
▁evil	-4423
▁färg	-4424
▁förh	-4425
▁fött	-4426
▁gear	-4427
▁geni	-4428
▁gent	-4429
▁goat	-4430
▁goda	-4431
▁grip	-4432
▁grop	-4433
▁gräl	-4434
▁gula	-4435
▁gylf	-4436
▁hann	-4437
▁held	-4438
▁hole	-4439
▁horr	-4440
▁host	-4441
▁hour	-4442
▁hyll	-4443
▁häns	-4444
▁hänt	-4445
▁hört	-4446
▁iPad	-4447
▁impr	-4448
▁inse	-4449
▁inst	-4450
▁iron	-4451
▁kitt	-4452
▁klän	-4453
▁knee	-4454
▁knip	-4455
▁knit	-4456
▁knät	-4457
▁koma	-4458
▁lade	-4459
▁land	-4460
▁lata	-4461
▁lips	-4462
▁ljud	-4463
▁lopp	-4464
▁lose	-4465
▁luft	-4466
▁lura	-4467
▁läst	-4468
▁låda	-4469
▁låna	-4470
▁låst	-4471
▁majs	-4472
▁many	-4473
▁math	-4474
▁meet	-4475
▁ment	-4476
▁mice	-4477
▁mink	-4478
▁mote	-4479
▁munk	-4480
▁muse	-4481
▁mörk	-4482
▁möss	-4483
▁nere	-4484
▁nerv	-4485
▁noga	-4486
▁obje	-4487
▁ohyf	-4488
▁olyd	-4489
▁onda	-4490
▁otur	-4491
▁pack	-4492
▁pank	-4493
▁pant	-4494
▁pass	-4495
▁paus	-4496
▁poet	-4497
▁quar	-4498
▁race	-4499
bs	-4500
sy	-4501
zz	-4502
äx	-4503
any	-4504
fty	-4505
omn	-4506
ror	-4507
son	-4508
iced	-4509
▁Dan	-4510
▁Dör	-4511
▁Eur	-4512
▁Hej	-4513
▁New	-4514
▁fit	-4515
▁läx	-4516
▁pin	-4517
▁rom	-4518
▁sew	-4519
attis	-4520
essed	-4521
ioned	-4522
leman	-4523
ograf	-4524
upong	-4525
äkten	-4526
▁Evil	-4527
▁Välj	-4528
▁dren	-4529
▁jazz	-4530
▁junk	-4531
▁näsa	-4532
▁oart	-4533
▁rakt	-4534
▁rece	-4535
▁regn	-4536
▁rest	-4537
▁rope	-4538
▁runs	-4539
▁ruth	-4540
▁sale	-4541
▁same	-4542
▁sand	-4543
▁sann	-4544
▁sass	-4545
▁satt	-4546
▁send	-4547
▁ship	-4548
▁side	-4549
▁skoj	-4550
▁skär	-4551
▁sköt	-4552
▁smal	-4553
▁smör	-4554
▁snäv	-4555
▁soap	-4556
▁soup	-4557
▁spin	-4558
▁spot	-4559
▁stig	-4560
▁stör	-4561
▁sälj	-4562
▁säng	-4563
▁tabl	-4564
▁tand	-4565
▁tape	-4566
▁tick	-4567
▁tjej	-4568
▁tomt	-4569
▁torr	-4570
▁trag	-4571
▁tree	-4572
▁trän	-4573
▁tugg	-4574
▁turn	-4575
▁tvål	-4576
▁type	-4577
▁ugly	-4578
▁utan	-4579
▁utsl	-4580
▁vårt	-4581
▁when	-4582
▁wide	-4583
▁wins	-4584
▁Älsk	-4585
▁Äter	-4586
▁ändå	-4587
▁ömma	-4588
aktigt	-4589
attnet	-4590
bellen	-4591
cerned	-4592
cifist	-4593
cision	-4594
elefon	-4595
ercise	-4596
fallet	-4597
gering	-4598
gether	-4599
▁Dad	-4600
▁jar	-4601
usted	-4602
▁Bend	-4603
▁Fear	-4604
▁drow	-4605
▁kött	-4606
▁raka	-4607
atable	-4608
idskor	-4609
ieving	-4610
ighted	-4611
illing	-4612
iously	-4613
isoner	-4614
istisk	-4615
ivated	-4616
iverad	-4617
leaded	-4618
litlig	-4619
länges	-4620
löshet	-4621
nocent	-4622
onerad	-4623
opping	-4624
pelare	-4625
pileps	-4626
rapade	-4627
ressad	-4628
stated	-4629
sterad	-4630
strött	-4631
tränad	-4632
verkar	-4633
warded	-4634
ynslös	-4635
äffade	-4636
▁Ammon	-4637
▁April	-4638
▁Arbet	-4639
▁Banan	-4640
▁Bilen	-4641
▁Brott	-4642
▁Cheer	-4643
▁Crime	-4644
▁Crows	-4645
▁Denna	-4646
▁Ducka	-4647
▁Egypt	-4648
▁Fight	-4649
▁Guess	-4650
▁Hissa	-4651
▁Hitta	-4652
▁Hoist	-4653
▁Honey	-4654
▁Humor	-4655
▁Högre	-4656
▁Jesus	-4657
▁Kasta	-4658
▁Kände	-4659
▁Litar	-4660
▁Lotus	-4661
▁Lovar	-4662
▁Maten	-4663
▁Maybe	-4664
▁Måste	-4665
▁Never	-4666
▁Pappa	-4667
▁Paris	-4668
▁Perfe	-4669
▁Point	-4670
▁Sjung	-4671
▁Sjöng	-4672
▁Skrik	-4673
▁Svara	-4674
▁Sweep	-4675
▁Tokyo	-4676
▁Tärna	-4677
▁Vakna	-4678
▁Varje	-4679
▁Water	-4680
▁Which	-4681
▁Whose	-4682
▁ached	-4683
▁adopt	-4684
▁aktiv	-4685
▁annan	-4686
▁april	-4687
▁armar	-4688
▁armen	-4689
▁artic	-4690
▁attic	-4691
▁bacon	-4692
▁badar	-4693
▁badly	-4694
▁bathe	-4695
▁bears	-4696
▁benen	-4697
▁benet	-4698
▁beund	-4699
▁biten	-4700
▁blogg	-4701
▁blush	-4702
▁blått	-4703
▁bossy	-4704
▁breat	-4705
▁budge	-4706
▁burns	-4707
▁bytte	-4708
▁bälte	-4709
▁båten	-4710
▁charm	-4711
▁chart	-4712
▁clean	-4713
▁color	-4714
▁conta	-4715
▁costs	-4716
▁cover	-4717
▁delen	-4718
▁deras	-4719
▁diary	-4720
▁divor	-4721
▁djupt	-4722
▁donut	-4723
▁dread	-4724
▁dress	-4725
▁drift	-4726
▁drill	-4727
▁drove	-4728
▁duger	-4729
▁dumma	-4730
▁eaten	-4731
▁eller	-4732
▁enorm	-4733
▁euros	-4734
▁ficka	-4735
▁filen	-4736
▁fixed	-4737
▁flies	-4738
▁flute	-4739
▁flöjt	-4740
▁foggy	-4741
▁fresh	-4742
▁funka	-4743
▁fånge	-4744
▁fånig	-4745
▁förbi	-4746
▁försk	-4747
▁galet	-4748
▁gasps	-4749
▁gears	-4750
▁gifta	-4751
▁girls	-4752
▁glömt	-4753
▁green	-4754
▁grows	-4755
▁grönt	-4756
▁gömde	-4757
▁heavy	-4758
▁hemsk	-4759
▁human	-4760
▁häkte	-4761
▁hända	-4762
▁höger	-4763
▁ifred	-4764
▁illam	-4765
▁itchy	-4766
▁juice	-4767
▁klart	-4768
▁klipp	-4769
▁knipa	-4770
▁knäpp	-4771
▁kropp	-4772
▁kross	-4773
▁kyssa	-4774
▁köper	-4775
▁lagar	-4776
▁lagen	-4777
▁learn	-4778
▁lider	-4779
▁liten	-4780
▁liver	-4781
▁lugna	-4782
▁lurad	-4783
▁lägen	-4784
▁läget	-4785
▁match	-4786
▁meant	-4787
▁många	-4788
▁mörkt	-4789
▁neder	-4790
▁noggr	-4791
▁noise	-4792
▁noisy	-4793
▁notan	-4794
▁notes	-4795
▁odlar	-4796
▁orsak	-4797
▁orädd	-4798
▁panic	-4799
▁panka	-4800
▁party	-4801
▁phone	-4802
▁picky	-4803
▁pills	-4804
▁pilot	-4805
▁pizza	-4806
▁plans	-4807
▁plast	-4808
▁poker	-4809
▁prize	-4810
▁proof	-4811
▁punkt	-4812
▁pushy	-4813
▁päron	-4814
▁raden	-4815
▁repet	-4816
▁reply	-4817
▁ringt	-4818
▁ritat	-4819
▁rodna	-4820
▁round	-4821
▁rånad	-4822
▁sails	-4823
▁satis	-4824
▁saved	-4825
▁sedan	-4826
▁segel	-4827
▁shame	-4828
▁shark	-4829
▁skada	-4830
▁skepp	-4831
▁skild	-4832
▁snore	-4833
▁soppa	-4834
▁sover	-4835
▁sovit	-4836
▁spark	-4837
▁spill	-4838
▁stage	-4839
▁stolt	-4840
▁store	-4841
▁study	-4842
▁stund	-4843
▁sugar	-4844
▁surpr	-4845
▁sushi	-4846
▁svärd	-4847
▁swims	-4848
▁sword	-4849
▁sådär	-4850
▁sålde	-4851
▁sårad	-4852
▁sårar	-4853
▁table	-4854
▁talas	-4855
▁talks	-4856
▁taxes	-4857
▁teven	-4858
▁their	-4859
▁thing	-4860
▁tidig	-4861
▁tidta	-4862
▁timme	-4863
▁torka	-4864
▁trick	-4865
▁truly	-4866
▁trång	-4867
▁tufft	-4868
▁tände	-4869
▁tänka	-4870
▁vegan	-4871
▁veget	-4872
▁vigil	-4873
▁vilar	-4874
▁vilja	-4875
▁vinet	-4876
▁voted	-4877
▁vuxit	-4878
▁vände	-4879
▁växel	-4880
▁waved	-4881
▁wears	-4882
▁weren	-4883
▁wings	-4884
▁worry	-4885
▁would	-4886
▁ändra	-4887
▁återh	-4888
▁återv	-4889
▁öppna	-4890
aithful	-4891
amrater	-4892
autiful	-4893
ermined	-4894
fattade	-4895
flykter	-4896
iderade	-4897
isonous	-4898
mästare	-4899
nappade	-4900
nessjuk	-4901
ompisar	-4902
ovärdig	-4903
pleased	-4904
pondent	-4905
ristmas	-4906
stronom	-4907
äckligt	-4908
ättavis	-4909
▁Answer	-4910
▁Anyone	-4911
▁Arabic	-4912
▁Burken	-4913
▁Bussen	-4914
▁Hurdan	-4915
▁Jobbar	-4916
▁Kråkor	-4917
▁Louder	-4918
▁Målade	-4919
▁Radion	-4920
▁Really	-4921
▁Saturn	-4922
▁School	-4923
▁Toyota	-4924
▁Varsåg	-4925
▁Väckte	-4926
▁advice	-4927
▁aftern	-4928
▁agrees	-4929
▁anlänt	-4930
▁anpass	-4931
▁ansvar	-4932
▁använd	-4933
▁autent	-4934
▁avfärd	-4935
▁bandet	-4936
▁became	-4937
▁bekant	-4938
▁bekväm	-4939
▁berätt	-4940
▁billig	-4941
▁bjuder	-4942
▁blöder	-4943
▁borrow	-4944
▁brakes	-4945
▁brevet	-4946
▁buried	-4947
▁butter	-4948
▁början	-4949
▁börjar	-4950
▁candle	-4951
▁caviar	-4952
▁charge	-4953
▁chatty	-4954
▁clever	-4955
▁comfor	-4956
▁cooked	-4957
▁counts	-4958
▁coupon	-4959
▁crafty	-4960
▁cranky	-4961
▁dammar	-4962
▁distra	-4963
▁dollar	-4964
▁drives	-4965
▁endast	-4966
▁enkelt	-4967
▁enormt	-4968
▁escape	-4969
▁exempt	-4970
▁exists	-4971
▁famous	-4972
▁farlig	-4973
▁fattas	-4974
▁festen	-4975
▁filled	-4976
▁filmer	-4977
▁filthy	-4978
▁fiskar	-4979
▁flower	-4980
▁flydde	-4981
▁flyger	-4982
▁forget	-4983
▁frisör	-4984
▁frozen	-4985
▁frustr	-4986
▁fuktig	-4987
▁funkar	-4988
▁fuskar	-4989
▁fyllde	-4990
▁fyndig	-4991
▁följer	-4992
▁förfär	-4993
▁förlät	-4994
▁första	-4995
▁försök	-4996
▁gitarr	-4997
▁giving	-4998
▁golvet	-4999
▁greedy	-5000
▁grävde	-5001
▁guitar	-5002
▁hambur	-5003
▁handen	-5004
▁hatten	-5005
▁hemlös	-5006
▁heroes	-5007
▁hiking	-5008
▁hjärta	-5009
▁hästar	-5010
▁hörsel	-5011
▁idrott	-5012
▁igenom	-5013
▁ignore	-5014
▁insomn	-5015
▁insult	-5016
▁intere	-5017
▁island	-5018
▁itches	-5019
▁jättet	-5020
▁kabuki	-5021
▁kartan	-5022
▁kaviar	-5023
▁kidnap	-5024
▁kläder	-5025
▁kommen	-5026
▁kompis	-5027
▁krasch	-5028
▁kysste	-5029
▁lagade	-5030
▁locked	-5031
▁lovade	-5032
▁lurade	-5033
▁läkare	-5034
▁längre	-5035
▁läppar	-5036
▁lärare	-5037
▁låtsas	-5038
▁medvet	-5039
▁menace	-5040
▁missed	-5041
▁mjölka	-5042
▁movies	-5043
▁märkte	-5044
▁målade	-5045
▁nephew	-5046
▁nockad	-5047
▁nodded	-5048
▁notice	-5049
▁nudist	-5050
▁oförsk	-5051
▁oliver	-5052
▁olives	-5053
▁ombord	-5054
▁online	-5055
▁orders	-5056
▁orphan	-5057
▁pagoda	-5058
▁people	-5059
▁phoned	-5060
▁photos	-5061
▁planet	-5062
▁pocket	-5063
▁police	-5064
▁porten	-5065
▁prayed	-5066
▁rabatt	-5067
▁rakade	-5068
▁rarely	-5069
▁refund	-5070
▁report	-5071
▁result	-5072
▁rummet	-5073
▁rutten	-5074
▁rättat	-5075
▁scenen	-5076
▁seated	-5077
▁shaved	-5078
▁sister	-5079
▁skedar	-5080
▁skriva	-5081
▁slower	-5082
▁smiles	-5083
▁snabba	-5084
▁snowed	-5085
▁snöade	-5086
▁soccer	-5087
▁socker	-5088
▁spoons	-5089
▁squash	-5090
▁staden	-5091
▁streck	-5092
▁strict	-5093
▁stryka	-5094
▁sträng	-5095
▁sörjer	-5096
▁tackar	-5097
▁taller	-5098
▁tattoo	-5099
▁texted	-5100
▁things	-5101
▁tigers	-5102
▁tigrar	-5103
▁tjänar	-5104
▁tokiga	-5105
▁trusts	-5106
▁tuggar	-5107
▁tvätta	-5108
▁vacker	-5109
▁vansin	-5110
▁verify	-5111
▁viktig	-5112
▁vingar	-5113
▁vinter	-5114
▁vittne	-5115
▁väckte	-5116
▁vätska	-5117
▁walked	-5118
▁weapon	-5119
▁whisky	-5120
▁winter	-5121
▁yellow	-5122
▁ögonen	-5123
akassera	-5124
sionerad	-5125
trollera	-5126
▁Contact	-5127
▁Control	-5128
▁Dancing	-5129
▁Drömmer	-5130
▁Fantast	-5131
▁Firefox	-5132
▁Grattis	-5133
▁Hittade	-5134
▁Röstade	-5135
▁Sjunger	-5136
▁Skrämde	-5137
▁Snarkar	-5138
▁Spiders	-5139
▁affären	-5140
▁alltför	-5141
▁allting	-5142
▁amusing	-5143
▁animals	-5144
▁annoyed	-5145
▁arrange	-5146
▁awkward	-5147
▁bargain	-5148
▁beatnik	-5149
▁betyder	-5150
▁björnar	-5151
▁bluffar	-5152
▁bråttom	-5153
▁checked	-5154
▁cheered	-5155
▁climbed	-5156
▁coughed	-5157
▁cracked	-5158
▁deserve	-5159
▁devious	-5160
▁devoted	-5161
▁dimmigt	-5162
▁diploma	-5163
▁driving	-5164
▁drömmar	-5165
▁dusting	-5166
▁ensamma	-5167
▁epileps	-5168
▁exercis	-5169
▁flyttat	-5170
▁foolish	-5171
▁forgave	-5172
▁forward	-5173
▁frågade	-5174
▁fungera	-5175
▁färdigt	-5176
▁förkyld	-5177
▁försikt	-5178
▁generad	-5179
▁getting	-5180
▁geväret	-5181
▁gissade	-5182
▁halsduk	-5183
▁hamster	-5184
▁handduk	-5185
▁hemligt	-5186
▁hipster	-5187
▁hjältar	-5188
▁hostade	-5189
▁hurrade	-5190
▁husband	-5191
▁härnäst	-5192
▁inomhus	-5193
▁insulin	-5194
▁intress	-5195
▁japansk	-5196
▁justice	-5197
▁kittlig	-5198
▁kontakt	-5199
▁korrekt	-5200
▁kostade	-5201
▁kysstes	-5202
▁limping	-5203
▁looking	-5204
▁läkaren	-5205
▁läskigt	-5206
▁morning	-5207
▁muffins	-5208
▁musiker	-5209
▁mördare	-5210
▁naughty	-5211
▁neutral	-5212
▁nickade	-5213
▁noticed	-5214
▁nyfiken	-5215
▁nyheter	-5216
▁nyligen	-5217
▁ohyfsad	-5218
▁omkring	-5219
▁ordnade	-5220
▁oroliga	-5221
▁painted	-5222
▁panting	-5223
▁parents	-5224
▁partisk	-5225
▁perfect	-5226
▁pinsamt	-5227
▁platsen	-5228
▁pleaded	-5229
▁polisen	-5230
▁popcorn	-5231
▁popular	-5232
▁poängen	-5233
▁rasande	-5234
▁respect	-5235
▁respekt	-5236
▁resting	-5237
▁retired	-5238
▁röstade	-5239
▁samvete	-5240
▁selfish	-5241
▁shifted	-5242
▁sinnens	-5243
▁sjalett	-5244
▁sjunger	-5245
▁skakade	-5246
▁skriver	-5247
▁skäller	-5248
▁smoking	-5249
▁smutsig	-5250
▁stollig	-5251
▁stopped	-5252
▁stuckit	-5253
▁stället	-5254
▁stängde	-5255
▁stänger	-5256
▁suspect	-5257
▁sweated	-5258
▁teaches	-5259
▁teasing	-5260
▁telefon	-5261
▁trubbel	-5262
▁träffad	-5263
▁tupplur	-5264
▁tvekade	-5265
▁tydligt	-5266
▁uppfatt	-5267
▁utsidan	-5268
▁varnade	-5269
▁vinkade	-5270
▁vittnen	-5271
▁volymen	-5272
▁väninna	-5273
▁vänster	-5274
▁writing	-5275
▁återbud	-5276
▁Använder	-5277
▁Behärska	-5278
▁Buddhist	-5279
▁Continue	-5280
▁Exercise	-5281
▁Fungerar	-5282
▁Spindlar	-5283
▁Träffade	-5284
▁admitted	-5285
▁alltihop	-5286
▁ambitiös	-5287
▁använder	-5288
▁applåder	-5289
▁arabiska	-5290
▁arrested	-5291
▁astronom	-5292
▁atletisk	-5293
▁autistic	-5294
▁avfyrade	-5295
▁avskedad	-5296
▁babbling	-5297
▁backache	-5298
▁backward	-5299
▁begravde	-5300
▁bekräfta	-5301
▁belönade	-5302
▁beställt	-5303
▁besviken	-5304
▁bleeding	-5305
▁blinkade	-5306
▁bluffing	-5307
▁bättring	-5308
▁choirboy	-5309
▁confused	-5310
▁deadline	-5311
▁decision	-5312
▁demented	-5313
▁despises	-5314
▁diplomat	-5315
▁divorced	-5316
▁dreadful	-5317
▁dreaming	-5318
▁drenched	-5319
▁drowning	-5320
▁drunknar	-5321
▁energisk	-5322
▁enjoying	-5323
▁escaping	-5324
▁faktiskt	-5325
▁familiar	-5326
▁flygplan	-5327
▁football	-5328
▁forgives	-5329
▁fördomar	-5330
▁förlovad	-5331
▁förlägen	-5332
▁förlåter	-5333
▁försvann	-5334
▁grieving	-5335
▁guessing	-5336
▁harmless	-5337
▁homeless	-5338
▁händerna	-5339
▁härifrån	-5340
▁högljudd	-5341
▁högljutt	-5342
▁illusion	-5343
▁immunity	-5344
▁impolite	-5345
▁improvis	-5346
▁innocent	-5347
▁japanska	-5348
▁jättefin	-5349
▁liknande	-5350
▁lyckliga	-5351
▁lördagar	-5352
▁meningar	-5353
▁musician	-5354
▁människa	-5355
▁nedstämd	-5356
▁oriktigt	-5357
▁orättvis	-5358
▁pacifist	-5359
▁painting	-5360
▁panicked	-5361
▁paranoid	-5362
▁pregnant	-5363
▁prisoner	-5364
▁promised	-5365
▁punctual	-5366
▁pålitlig	-5367
▁radiolog	-5368
▁reglerna	-5369
▁returned	-5370
▁rewarded	-5371
▁ruthless	-5372
▁rättvisa	-5373
▁rättvist	-5374
▁schedule	-5375
▁semester	-5376
▁shooting	-5377
▁shopping	-5378
▁självisk	-5379
▁skaffade	-5380
▁skräpmat	-5381
▁smutsigt	-5382
▁sometime	-5383
▁speaking	-5384
▁speciell	-5385
▁specifik	-5386
▁straight	-5387
▁stressad	-5388
▁strömmen	-5389
▁students	-5390
▁studying	-5391
▁säkerhet	-5392
▁sällskap	-5393
▁ticklish	-5394
▁tillbaks	-5395
▁together	-5396
▁träffats	-5397
▁tuggummi	-5398
▁vacation	-5399
▁vigilant	-5400
▁våningen	-5401
▁watchful	-5402
▁watching	-5403
▁Älskling	-5404
▁överdrev	-5405
▁överkörd	-5406
▁överrask	-5407
▁Christmas	-5408
▁Saturdays	-5409
▁Seriously	-5410
▁acceptera	-5411
▁afternoon	-5412
▁anställde	-5413
▁avundsjuk	-5414
▁badgering	-5415
▁baklänges	-5416
▁beautiful	-5417
▁beställde	-5418
▁bothering	-5419
▁carefully	-5420
▁competent	-5421
▁concerned	-5422
▁conscious	-5423
▁contented	-5424
▁corrected	-5425
▁courteous	-5426
▁dishonest	-5427
▁dödstrött	-5428
▁felaktigt	-5429
▁fortsätta	-5430
▁förstörde	-5431
▁föräldral	-5432
▁föräldrar	-5433
▁gentleman	-5434
▁harassing	-5435
▁hesitated	-5436
▁imponerad	-5437
▁impressed	-5438
▁inkorrekt	-5439
▁instämmer	-5440
▁jättefint	-5441
▁klarvaken	-5442
▁klättrade	-5443
▁listening	-5444
▁motivated	-5445
▁orättvist	-5446
▁poisonous	-5447
▁problemet	-5448
▁quarreled	-5449
▁satisfied	-5450
▁skridskor	-5451
▁studenter	-5452
▁tabletter	-5453
▁tatuering	-5454
▁terrified	-5455
▁traveling	-5456
▁trovärdig	-5457
▁träffades	-5458
▁tystlåten	-5459
▁unrelated	-5460
▁uppriktig	-5461
▁vansinnig	-5462
▁vältränad	-5463
▁witnesses	-5464
▁Självklart	-5465
▁allesamman	-5466
▁allvarligt	-5467
▁arresterad	-5468
▁articulate	-5469
▁despondent	-5470
▁determined	-5471
▁devastated	-5472
▁displeased	-5473
▁fascinated	-5474
▁försiktigt	-5475
▁hemlighöll	-5476
▁hänsynslös	-5477
▁illamående	-5478
▁klänningen	-5479
▁misslyckas	-5480
▁någonstans	-5481
▁promenerar	-5482
▁sinnessjuk	-5483
▁sömnlöshet	-5484
▁tillräknel	-5485
▁tillverkar	-5486
▁trakassera	-5487
▁undantagen	-5488
▁undervisar	-5489
▁unfaithful	-5490
▁uppriktiga	-5491
▁vegetarian	-5492
▁Kontrollera	-5493
▁Självfallet	-5494
▁comfortable	-5495
▁exaggerated	-5496
▁fascinerade	-5497
▁irriterande	-5498
▁meningslöst	-5499
▁motbjudande	-5500
▁pensionerad	-5501
▁tidtabellen	-5502
▁tillsammans	-5503
▁anteckningar	-5504
▁förutfattade	-5505
▁misslyckades	-5506
▁tillräckligt	-5507
▁tillrättavis	-5508
▁undanflykter	-5509
▁klasskamrater	-5510
▁klasskompisar	-5511
▁nedervåningen	-5512
egl	-5513
ibe	-5514
oja	-5515
sov	-5516
äxa	-5517
addy	-5518
agsm	-5519
boat	-5520
brår	-5521
bsol	-5522
coon	-5523
cued	-5524
egir	-5525
fron	-5526
geln	-5527
glad	-5528
hals	-5529
hänt	-5530
ixed	-5531
lier	-5532
like	-5533
limb	-5534
lnad	-5535
luck	-5536
lves	-5537
lädd	-5538
nics	-5539
ojal	-5540
oudy	-5541
padd	-5542
pire	-5543
ploy	-5544
pmat	-5545
pump	-5546
rrit	-5547
rymm	-5548
räns	-5549
tbur	-5550
terg	-5551
ubbe	-5552
uckl	-5553
uppy	-5554
upsk	-5555
uryn	-5556
work	-5557
ydde	-5558
ykel	-5559
åvad	-5560
önet	-5561
övad	-5562
▁Boy	-5563
▁Ett	-5564
▁Mix	-5565
▁Poj	-5566
▁Reg	-5567
▁Rym	-5568
▁Swe	-5569
▁Väx	-5570
▁cyk	-5571
▁foc	-5572
▁kvä	-5573
▁mön	-5574
▁occ	-5575
▁six	-5576
▁syl	-5577
▁wax	-5578
▁års	-5579
▁öra	-5580
▁örf	-5581
▁örh	-5582
addle	-5583
ageln	-5584
ailer	-5585
almon	-5586
appan	-5587
axade	-5588
brand	-5589
börja	-5590
ccess	-5591
cerar	-5592
cknat	-5593
ctors	-5594
cykel	-5595
eared	-5596
egoja	-5597
erfor	-5598
eslut	-5599
siz	-5600
cons	-5601
hyad	-5602
hyve	-5603
pons	-5604
slad	-5605
slöj	-5606
uens	-5607
▁Ert	-5608
▁dyg	-5609
▁raz	-5610
▁tio	-5611
asons	-5612
atens	-5613
ethic	-5614
ettio	-5615
falla	-5616
ffled	-5617
frisk	-5618
front	-5619
huset	-5620
hyvel	-5621
ician	-5622
idden	-5623
immat	-5624
imped	-5625
indsv	-5626
irman	-5627
izare	-5628
jkade	-5629
järna	-5630
klädd	-5631
ksamt	-5632
lucky	-5633
luens	-5634
nibal	-5635
niven	-5636
ology	-5637
orize	-5638
plane	-5639
polog	-5640
ravid	-5641
resig	-5642
rymme	-5643
rytan	-5644
rådig	-5645
rövad	-5646
saker	-5647
sarna	-5648
skilt	-5649
stiny	-5650
svult	-5651
takta	-5652
tenen	-5653
tergå	-5654
ttack	-5655
ubbig	-5656
uften	-5657
uggan	-5658
umpor	-5659
unnet	-5660
utile	-5661
viker	-5662
vilad	-5663
yrtio	-5664
äderi	-5665
ägsna	-5666
ärkte	-5667
åsade	-5668
ödvin	-5669
öllop	-5670
▁Bety	-5671
▁Blid	-5672
▁Blom	-5673
▁Chin	-5674
▁Comb	-5675
▁Cows	-5676
▁Enjo	-5677
▁Flug	-5678
▁Forg	-5679
▁Frid	-5680
▁Fråg	-5681
▁Före	-5682
▁Grin	-5683
▁Gråt	-5684
▁Hugg	-5685
▁Klag	-5686
▁Kliv	-5687
▁Laga	-5688
▁Ligg	-5689
▁Mail	-5690
▁Many	-5691
▁Meat	-5692
▁Mjöl	-5693
▁Rest	-5694
▁Salt	-5695
▁Smak	-5696
▁Sönd	-5697
▁Tjej	-5698
▁Tråk	-5699
opia	-5700
▁Oro	-5701
▁elb	-5702
appna	-5703
erman	-5704
ggies	-5705
irror	-5706
landa	-5707
ättel	-5708
åliga	-5709
▁Gift	-5710
▁Godn	-5711
▁Oroa	-5712
▁Våra	-5713
▁Warn	-5714
▁Work	-5715
▁asth	-5716
▁bakj	-5717
▁besk	-5718
▁besl	-5719
▁circ	-5720
▁clue	-5721
▁cult	-5722
▁curs	-5723
▁djup	-5724
▁dygn	-5725
▁dörr	-5726
▁etik	-5727
▁gigg	-5728
▁grew	-5729
▁half	-5730
▁heta	-5731
▁hosp	-5732
▁häft	-5733
▁häxa	-5734
▁hård	-5735
▁jump	-5736
▁kuls	-5737
▁lagd	-5738
▁lawn	-5739
▁legs	-5740
▁lugn	-5741
▁lågt	-5742
▁löne	-5743
▁männ	-5744
▁märk	-5745
▁ovan	-5746
▁pear	-5747
▁pict	-5748
▁pity	-5749
▁pump	-5750
▁rapp	-5751
▁rast	-5752
▁roof	-5753
▁rubb	-5754
▁rygg	-5755
▁rörm	-5756
▁sexy	-5757
▁sorg	-5758
▁stal	-5759
▁sänt	-5760
▁söka	-5761
▁thro	-5762
▁torn	-5763
▁trea	-5764
▁tänk	-5765
▁utöv	-5766
▁vald	-5767
▁vila	-5768
▁vilj	-5769
▁vilt	-5770
▁vodk	-5771
▁växa	-5772
▁wedd	-5773
▁Ännu	-5774
▁årsd	-5775
addrar	-5776
agrees	-5777
agsmål	-5778
aktlös	-5779
amasen	-5780
andmän	-5781
aptain	-5782
arslös	-5783
betald	-5784
bjuden	-5785
edible	-5786
eglade	-5787
elbart	-5788
eldags	-5789
employ	-5790
enbart	-5791
ensare	-5792
ension	-5793
fluens	-5794
förbud	-5795
gångsr	-5796
gården	-5797
halsar	-5798
hamrad	-5799
iac	-5800
jöd	-5801
spr	-5802
ödv	-5803
reta	-5804
ävas	-5805
ådan	-5806
ådde	-5807
ådes	-5808
ödde	-5809
▁Död	-5810
▁Såd	-5811
▁rac	-5812
▁tip	-5813
ipsen	-5814
juten	-5815
locka	-5816
ooter	-5817
språk	-5818
unkar	-5819
äktig	-5820
änser	-5821
ävlar	-5822
ådska	-5823
▁Bjöd	-5824
▁Kruk	-5825
▁Njut	-5826
▁Okej	-5827
▁Seri	-5828
▁armb	-5829
▁kidd	-5830
▁kräv	-5831
▁nödv	-5832
▁plac	-5833
▁tips	-5834
▁tråd	-5835
▁växt	-5836
flytta	-5837
handed	-5838
häftig	-5839
håller	-5840
icerad	-5841
icnics	-5842
ineapp	-5843
ingual	-5844
inkäns	-5845
jected	-5846
jetten	-5847
jävlar	-5848
kupong	-5849
käftig	-5850
ledare	-5851
lägsna	-5852
mailed	-5853
middag	-5854
modiga	-5855
nackad	-5856
ndagar	-5857
ndskan	-5858
nglish	-5859
nickar	-5860
ningsb	-5861
nsaker	-5862
obbade	-5863
olämpa	-5864
osorna	-5865
otiskt	-5866
ousins	-5867
owered	-5868
petent	-5869
selves	-5870
sizing	-5871
uating	-5872
ucerar	-5873
ucklan	-5874
uddist	-5875
undays	-5876
urable	-5877
useous	-5878
vettig	-5879
vinced	-5880
volver	-5881
wesome	-5882
ylleri	-5883
äcktes	-5884
äftapp	-5885
ärksam	-5886
åbörja	-5887
▁Absol	-5888
▁Betal	-5889
▁Bless	-5890
▁Carry	-5891
▁Enjoy	-5892
▁Flick	-5893
▁Flies	-5894
▁Hasch	-5895
▁Juryn	-5896
▁Klaga	-5897
▁Kland	-5898
▁Klätt	-5899
sål	-5900
ardr	-5901
nöjd	-5902
oard	-5903
pler	-5904
plik	-5905
rymd	-5906
smat	-5907
sålt	-5908
ugga	-5909
unga	-5910
ussy	-5911
▁Hyr	-5912
▁Ibl	-5913
▁hål	-5914
▁nya	-5915
▁unw	-5916
▁öga	-5917
arden	-5918
ottad	-5919
pluss	-5920
stabl	-5921
umber	-5922
urage	-5923
▁Gott	-5924
▁Pott	-5925
▁Skål	-5926
▁cact	-5927
▁cast	-5928
▁fann	-5929
▁nörd	-5930
▁schw	-5931
▁sina	-5932
ageous	-5933
ardröm	-5934
ottade	-5935
paddor	-5936
▁Kämpa	-5937
▁Läser	-5938
▁Notan	-5939
▁Några	-5940
▁Shame	-5941
▁Shark	-5942
▁Skada	-5943
▁Skola	-5944
▁Skänk	-5945
▁Smell	-5946
▁Smile	-5947
▁Space	-5948
▁Spara	-5949
▁Sweet	-5950
▁Swiss	-5951
▁Träna	-5952
▁Vinka	-5953
▁Vispa	-5954
▁Visst	-5955
▁absur	-5956
▁aches	-5957
▁appre	-5958
▁arson	-5959
▁aside	-5960
▁aston	-5961
▁autis	-5962
▁avoid	-5963
▁baked	-5964
▁baken	-5965
▁birds	-5966
▁blöta	-5967
▁bores	-5968
▁brott	-5969
▁böter	-5970
▁chaot	-5971
▁chubb	-5972
▁cigar	-5973
▁colon	-5974
▁cruel	-5975
▁crush	-5976
▁curfe	-5977
▁cykla	-5978
▁delic	-5979
▁delst	-5980
▁dessa	-5981
▁ditch	-5982
▁drumm	-5983
▁eländ	-5984
▁falls	-5985
▁fanns	-5986
▁flask	-5987
▁fluid	-5988
▁focus	-5989
▁foton	-5990
▁freck	-5991
▁fussy	-5992
▁girig	-5993
▁gräva	-5994
▁grått	-5995
▁habit	-5996
▁hippy	-5997
▁hoppa	-5998
▁humör	-5999
börj	-6000
fash	-6001
grar	-6002
likt	-6003
lynt	-6004
nuft	-6005
spen	-6006
tron	-6007
värt	-6008
åakt	-6009
▁Haj	-6010
▁ads	-6011
aktus	-6012
ciful	-6013
matta	-6014
plikt	-6015
rarna	-6016
trakt	-6017
tryck	-6018
äcker	-6019
ämrar	-6020
▁Hårt	-6021
▁Milk	-6022
▁askk	-6023
▁bild	-6024
▁choc	-6025
▁fien	-6026
▁gamm	-6027
▁gubb	-6028
▁intr	-6029
▁kört	-6030
▁rash	-6031
▁reta	-6032
▁takt	-6033
▁tysk	-6034
attern	-6035
bliven	-6036
ildren	-6037
ingrar	-6038
likten	-6039
nology	-6040
nuftig	-6041
sfullt	-6042
spenna	-6043
usiner	-6044
åaktig	-6045
▁Först	-6046
▁Hajar	-6047
▁appla	-6048
▁depen	-6049
▁dived	-6050
▁fined	-6051
▁games	-6052
▁glada	-6053
▁invol	-6054
▁knees	-6055
▁knäna	-6056
▁kämpa	-6057
▁känns	-6058
▁kärle	-6059
▁label	-6060
▁lasag	-6061
▁latin	-6062
▁legal	-6063
▁läxor	-6064
▁lådan	-6065
▁löken	-6066
▁löpte	-6067
▁matad	-6068
▁matte	-6069
▁mayor	-6070
▁meter	-6071
▁modet	-6072
▁myror	-6073
▁mänsk	-6074
▁märke	-6075
▁mådde	-6076
▁målat	-6077
▁nedan	-6078
▁nedre	-6079
▁norra	-6080
▁noteb	-6081
▁nurse	-6082
▁nämna	-6083
▁närma	-6084
▁näsan	-6085
▁näsbl	-6086
▁nådde	-6087
▁nådig	-6088
▁oljud	-6089
▁orden	-6090
▁ostad	-6091
▁otrev	-6092
▁otrog	-6093
▁overs	-6094
▁owner	-6095
▁patet	-6096
▁pears	-6097
▁penny	-6098
▁photo	-6099
ggt	-6100
höj	-6101
cely	-6102
händ	-6103
inns	-6104
känd	-6105
mord	-6106
oark	-6107
oked	-6108
okus	-6109
räda	-6110
ägge	-6111
öjet	-6112
▁Höj	-6113
▁Röj	-6114
▁kax	-6115
▁möj	-6116
arrot	-6117
ayers	-6118
chers	-6119
offee	-6120
okade	-6121
ommen	-6122
shänd	-6123
▁arga	-6124
▁bite	-6125
▁chok	-6126
▁duns	-6127
▁imor	-6128
▁känd	-6129
▁nerd	-6130
▁simm	-6131
▁simp	-6132
▁spee	-6133
▁surk	-6134
förhöj	-6135
kommen	-6136
payers	-6137
▁Bägge	-6138
▁Finns	-6139
▁Nöjet	-6140
▁andan	-6141
▁andel	-6142
▁barns	-6143
▁byggt	-6144
▁calls	-6145
▁crime	-6146
▁fokus	-6147
▁håret	-6148
▁kaxig	-6149
▁kland	-6150
▁neråt	-6151
▁piece	-6152
▁plåga	-6153
▁puppy	-6154
▁purse	-6155
▁rains	-6156
▁raise	-6157
▁razor	-6158
▁recei	-6159
▁revie	-6160
▁risks	-6161
▁river	-6162
▁rådig	-6163
▁röker	-6164
▁röran	-6165
▁rösta	-6166
▁sagan	-6167
▁samma	-6168
▁sauer	-6169
▁score	-6170
▁screw	-6171
▁shelf	-6172
▁shots	-6173
▁skämd	-6174
▁skäms	-6175
▁slakt	-6176
▁slapp	-6177
▁slock	-6178
▁smalt	-6179
▁snack	-6180
▁snobb	-6181
▁snubb	-6182
▁snävt	-6183
▁snöat	-6184
▁songs	-6185
▁sorry	-6186
▁space	-6187
▁spara	-6188
▁spoon	-6189
▁stack	-6190
▁stamg	-6191
▁stole	-6192
▁sugen	-6193
▁surfa	-6194
▁sweat	-6195
▁sweet	-6196
▁sälja	-6197
▁sängs	-6198
▁takes	-6199
box	-6200
sla	-6201
bbla	-6202
färg	-6203
gont	-6204
host	-6205
jata	-6206
lapp	-6207
lera	-6208
omsa	-6209
rost	-6210
äcks	-6211
hosts	-6212
issla	-6213
ldiga	-6214
oppla	-6215
ppiga	-6216
äcksl	-6217
▁base	-6218
▁conq	-6219
▁flit	-6220
▁flod	-6221
▁flug	-6222
▁kräk	-6223
▁köpt	-6224
▁mord	-6225
▁quot	-6226
▁wept	-6227
revent	-6228
undade	-6229
▁emble	-6230
▁fegis	-6231
▁fleas	-6232
▁fluga	-6233
▁inbox	-6234
▁resan	-6235
▁resig	-6236
▁skrev	-6237
▁socks	-6238
▁stubb	-6239
▁sätta	-6240
▁terap	-6241
▁third	-6242
▁threw	-6243
▁tires	-6244
▁tjata	-6245
▁tooth	-6246
▁torra	-6247
▁torrt	-6248
▁treat	-6249
▁trips	-6250
▁truck	-6251
▁träna	-6252
▁tunga	-6253
▁tvung	-6254
▁twins	-6255
▁tävla	-6256
▁tåget	-6257
▁tålam	-6258
▁utmär	-6259
▁vakna	-6260
▁visit	-6261
▁vodka	-6262
▁vägra	-6263
▁växte	-6264
▁walks	-6265
▁write	-6266
▁ägget	-6267
▁ängel	-6268
▁återl	-6269
▁örfil	-6270
agsrätt	-6271
alified	-6272
alistic	-6273
ansvärt	-6274
antiskt	-6275
aptenen	-6276
attebet	-6277
batable	-6278
började	-6279
cuating	-6280
dningar	-6281
emorize	-6282
eslutet	-6283
ethical	-6284
fattare	-6285
fylleri	-6286
förbart	-6287
förstod	-6288
gligent	-6289
ickened	-6290
indlare	-6291
irdress	-6292
klockan	-6293
landade	-6294
lappade	-6295
leasure	-6296
married	-6297
märksam	-6298
nerable	-6299
avl	-6300
uys	-6301
avlö	-6302
iers	-6303
knik	-6304
uska	-6305
▁abh	-6306
▁gäs	-6307
▁råk	-6308
▁tie	-6309
adian	-6310
agers	-6311
alska	-6312
assen	-6313
ather	-6314
äppte	-6315
▁Cats	-6316
▁Guys	-6317
▁Pass	-6318
▁Vårt	-6319
▁Yolk	-6320
▁rats	-6321
▁rush	-6322
▁simt	-6323
▁swam	-6324
annade	-6325
ushing	-6326
veränt	-6327
▁Fuska	-6328
▁Tacka	-6329
▁Yolks	-6330
▁abhor	-6331
▁alike	-6332
▁boats	-6333
▁forty	-6334
▁fries	-6335
▁råkat	-6336
▁steal	-6337
▁stege	-6338
▁tonår	-6339
▁välta	-6340
avlönad	-6341
enagers	-6342
nibaler	-6343
oarkant	-6344
onglera	-6345
onsider	-6346
orligen	-6347
plussed	-6348
ractive	-6349
rejkade	-6350
ressing	-6351
shändel	-6352
skallig	-6353
spelare	-6354
stecken	-6355
stegrar	-6356
stelnad	-6357
stinate	-6358
stänker	-6359
ståndet	-6360
svulten	-6361
talsjuk	-6362
tburken	-6363
tiverad	-6364
trollen	-6365
utchers	-6366
uveränt	-6367
volting	-6368
ärskilt	-6369
▁Aldrig	-6370
▁Anfall	-6371
▁Attack	-6372
▁Attans	-6373
▁Barnet	-6374
▁Behave	-6375
▁Blanda	-6376
▁Blidka	-6377
▁Blunda	-6378
▁Bromsa	-6379
▁Cheers	-6380
▁Dörren	-6381
▁Europa	-6382
▁Europe	-6383
▁France	-6384
▁Friday	-6385
▁Funkar	-6386
▁Ghosts	-6387
▁Goddag	-6388
▁Grinar	-6389
▁Grytan	-6390
▁Hinner	-6391
▁Hästar	-6392
▁Ibland	-6393
▁Kanske	-6394
▁Krukan	-6395
▁Kysste	-6396
▁Ladies	-6397
▁Lagade	-6398
▁Luften	-6399
ume	-6400
ölp	-6401
arva	-6402
ikan	-6403
ikta	-6404
ions	-6405
ädde	-6406
▁Glo	-6407
▁Spö	-6408
▁dök	-6409
▁uns	-6410
anged	-6411
odies	-6412
oller	-6413
ssume	-6414
toons	-6415
▁Duty	-6416
▁döva	-6417
▁kron	-6418
▁mäta	-6419
▁pepp	-6420
▁post	-6421
▁snög	-6422
▁späd	-6423
▁tröj	-6424
▁tölp	-6425
▁undo	-6426
▁vänt	-6427
ations	-6428
rugged	-6429
ullied	-6430
▁Sikta	-6431
▁Skaka	-6432
▁after	-6433
▁beröm	-6434
▁blink	-6435
▁busin	-6436
▁chain	-6437
▁eater	-6438
▁knuff	-6439
▁kopia	-6440
▁larva	-6441
▁lovar	-6442
▁rough	-6443
▁saken	-6444
▁sakta	-6445
▁skrik	-6446
▁skytt	-6447
▁somew	-6448
▁spoke	-6449
▁språk	-6450
▁stink	-6451
▁tower	-6452
merikan	-6453
repared	-6454
varligt	-6455
▁Mjölka	-6456
▁Märkte	-6457
▁Nageln	-6458
▁Pottan	-6459
▁Regler	-6460
▁Remove	-6461
▁Ringde	-6462
▁Rummet	-6463
▁Rymden	-6464
▁Rödvin	-6465
▁Search	-6466
▁Sharks	-6467
▁Skicka	-6468
▁Skolan	-6469
▁Smaken	-6470
▁Spöken	-6471
▁Streta	-6472
▁Stämde	-6473
▁Summer	-6474
▁Sådant	-6475
▁Tackar	-6476
▁Ticket	-6477
▁Tråkar	-6478
▁aboard	-6479
▁absurd	-6480
▁actors	-6481
▁apples	-6482
▁apprec	-6483
▁armbåg	-6484
▁assume	-6485
▁ateist	-6486
▁autism	-6487
▁avoids	-6488
▁avslöj	-6489
▁avunds	-6490
▁backup	-6491
▁bakade	-6492
▁banana	-6493
▁beggar	-6494
▁belong	-6495
▁beredd	-6496
▁berömd	-6497
▁bitten	-6498
▁blomma	-6499
ansy	-6500
fisk	-6501
kött	-6502
oans	-6503
sång	-6504
ängt	-6505
ånga	-6506
▁Skö	-6507
▁rån	-6508
▁unp	-6509
dable	-6510
icide	-6511
iskor	-6512
ivers	-6513
ivide	-6514
ledig	-6515
state	-6516
unate	-6517
vande	-6518
ärlek	-6519
ången	-6520
▁Cher	-6521
▁Cong	-6522
▁Dans	-6523
▁Fisk	-6524
▁Kött	-6525
▁Skär	-6526
▁Slog	-6527
▁evak	-6528
▁fäng	-6529
▁häng	-6530
▁mish	-6531
▁rött	-6532
▁sens	-6533
▁tong	-6534
austed	-6535
essary	-6536
essive	-6537
inking	-6538
skalle	-6539
sånger	-6540
▁Cherr	-6541
▁Congr	-6542
▁Lukta	-6543
▁Många	-6544
▁Skärp	-6545
▁Sköld	-6546
▁Släng	-6547
▁akade	-6548
▁handv	-6549
▁skrat	-6550
▁tvill	-6551
▁tårar	-6552
▁waxed	-6553
▁whist	-6554
ansyska	-6555
cessary	-6556
förande	-6557
hausted	-6558
▁Dansar	-6559
▁Divide	-6560
▁Kniven	-6561
▁Kärlek	-6562
▁Skämta	-6563
▁akadem	-6564
▁apkött	-6565
▁bluffa	-6566
▁bodies	-6567
▁bollen	-6568
▁borsta	-6569
▁botten	-6570
▁bottom	-6571
▁braked	-6572
▁bricka	-6573
▁brände	-6574
▁bråkar	-6575
▁bråket	-6576
▁bumped	-6577
▁burped	-6578
▁bussar	-6579
▁buying	-6580
▁cactus	-6581
▁candid	-6582
▁cannib	-6583
▁chauff	-6584
▁cheats	-6585
▁chocol	-6586
▁cigarr	-6587
▁circle	-6588
▁cirkel	-6589
▁cities	-6590
▁contag	-6591
▁coward	-6592
▁cultur	-6593
▁curfew	-6594
▁cursed	-6595
▁dejtar	-6596
▁delade	-6597
▁disapp	-6598
▁diskut	-6599
cts	-6600
▁Ol	-6601
▁Ov	-6602
brig	-6603
goss	-6604
håll	-6605
ousy	-6606
rect	-6607
time	-6608
udde	-6609
uded	-6610
östa	-6611
▁Oil	-6612
▁Out	-6613
▁hud	-6614
▁obe	-6615
alare	-6616
gosse	-6617
issue	-6618
jorta	-6619
odnar	-6620
owned	-6621
usual	-6622
äknar	-6623
ällde	-6624
▁Olja	-6625
▁Puss	-6626
▁badd	-6627
▁drev	-6628
▁mock	-6629
▁obey	-6630
▁scor	-6631
▁scra	-6632
▁snob	-6633
arglig	-6634
atient	-6635
morgon	-6636
▁Daddy	-6637
▁Ovill	-6638
▁Rules	-6639
▁fotot	-6640
▁hundv	-6641
▁kudde	-6642
▁lands	-6643
▁lousy	-6644
▁älska	-6645
andring	-6646
jamasen	-6647
▁Ovillk	-6648
▁Rodnar	-6649
▁Tittar	-6650
▁Trösta	-6651
▁blödde	-6652
▁direct	-6653
▁disloy	-6654
▁doable	-6655
▁double	-6656
▁doubts	-6657
▁dricks	-6658
▁driven	-6659
▁drogad	-6660
▁drömma	-6661
▁dubbla	-6662
▁dumped	-6663
▁dyblöt	-6664
▁dåliga	-6665
▁emblem	-6666
▁empire	-6667
▁erkänt	-6668
▁etiskt	-6669
▁excuse	-6670
▁falska	-6671
▁febrig	-6672
▁filmen	-6673
▁fisken	-6674
▁flicka	-6675
▁flitig	-6676
▁fluids	-6677
▁flygre	-6678
▁fooled	-6679
▁forska	-6680
▁framed	-6681
▁futile	-6682
▁fällde	-6683
▁fängel	-6684
▁färger	-6685
▁färskt	-6686
▁fångad	-6687
▁förbry	-6688
▁försov	-6689
▁förväg	-6690
▁fötter	-6691
▁garden	-6692
▁genius	-6693
▁genomv	-6694
▁golfer	-6695
▁gravid	-6696
▁gripas	-6697
▁groans	-6698
▁grälet	-6699
ums	-6700
nigt	-6701
uilt	-6702
ådet	-6703
▁syn	-6704
▁öre	-6705
aktiv	-6706
anken	-6707
itera	-6708
kning	-6709
ppför	-6710
rådet	-6711
sligt	-6712
stigt	-6713
stood	-6714
åligt	-6715
åning	-6716
▁Wake	-6717
▁Wood	-6718
▁bait	-6719
▁lead	-6720
▁lift	-6721
▁mood	-6722
▁plöt	-6723
▁svår	-6724
▁tend	-6725
▁webs	-6726
▁wood	-6727
anning	-6728
chless	-6729
olnigt	-6730
otligt	-6731
raktiv	-6732
äktade	-6733
▁bribe	-6734
▁built	-6735
▁dilig	-6736
▁eight	-6737
▁haken	-6738
▁sings	-6739
edåligt	-6740
onstigt	-6741
sanning	-6742
yckling	-6743
ärkning	-6744
▁Flugor	-6745
▁asthma	-6746
▁banken	-6747
▁bright	-6748
▁faller	-6749
▁fredag	-6750
▁fright	-6751
▁gubbar	-6752
▁guests	-6753
▁guidan	-6754
▁gylfen	-6755
▁gömmer	-6756
▁halsen	-6757
▁haltar	-6758
▁handla	-6759
▁handvä	-6760
▁hanged	-6761
▁hattar	-6762
▁helgon	-6763
▁hinner	-6764
▁hängde	-6765
▁härska	-6766
▁hästen	-6767
▁inkorg	-6768
▁intend	-6769
▁intrig	-6770
▁invite	-6771
▁jobbat	-6772
▁jumped	-6773
▁jämrar	-6774
▁jättem	-6775
▁kaktus	-6776
▁kallar	-6777
▁kallas	-6778
▁kicked	-6779
▁kokade	-6780
▁kollar	-6781
▁kollat	-6782
▁kontor	-6783
▁koppla	-6784
▁kronan	-6785
▁kräsen	-6786
▁krönet	-6787
▁kungen	-6788
▁kupong	-6789
▁kurage	-6790
▁kvinna	-6791
▁käften	-6792
▁kännet	-6793
▁labbet	-6794
▁leader	-6795
▁ledare	-6796
▁lediga	-6797
▁limits	-6798
▁livlig	-6799
ena	-6800
ges	-6801
lap	-6802
alif	-6803
aply	-6804
atul	-6805
elax	-6806
erap	-6807
fort	-6808
ican	-6809
ifle	-6810
itim	-6811
olve	-6812
sert	-6813
ötte	-6814
▁Hus	-6815
▁Int	-6816
▁Läk	-6817
▁Vär	-6818
▁eye	-6819
▁mic	-6820
anger	-6821
enges	-6822
erapy	-6823
ighet	-6824
olade	-6825
omder	-6826
relev	-6827
ädade	-6828
ägger	-6829
▁barb	-6830
▁barc	-6831
▁chem	-6832
▁fiol	-6833
▁gray	-6834
▁hemm	-6835
▁leka	-6836
▁njöt	-6837
▁seek	-6838
▁slöt	-6839
▁Äger	-6840
nappad	-6841
omfort	-6842
rättat	-6843
uläret	-6844
verlap	-6845
▁Huset	-6846
▁Relax	-6847
▁Solve	-6848
▁Värld	-6849
▁chall	-6850
▁cheat	-6851
▁förol	-6852
▁gifte	-6853
▁haven	-6854
▁nonch	-6855
▁plant	-6856
▁rifle	-6857
▁saint	-6858
▁serve	-6859
▁slåss	-6860
▁tysta	-6861
merican	-6862
nissade	-6863
omderar	-6864
▁Lägger	-6865
▁Läkare	-6866
▁Söndra	-6867
▁allena	-6868
▁barcod	-6869
▁bedräg	-6870
▁desert	-6871
▁finish	-6872
▁giftig	-6873
▁gånger	-6874
▁hemmet	-6875
▁juggle	-6876
▁kolade	-6877
▁kvalif	-6878
▁leende	-6879
▁ljusen	-6880
▁ljuset	-6881
▁loppet	-6882
▁lortig	-6883
▁lottad	-6884
▁lugnet	-6885
▁lyssna	-6886
▁läskig	-6887
▁lättad	-6888
▁läxade	-6889
▁lögner	-6890
▁lördag	-6891
▁medgav	-6892
▁milked	-6893
▁mishap	-6894
▁missat	-6895
▁mocked	-6896
▁motell	-6897
▁moving	-6898
▁munter	-6899
htr	-6900
anka	-6901
äcka	-6902
▁Mår	-6903
▁One	-6904
▁Str	-6905
▁few	-6906
▁fåg	-6907
▁hop	-6908
▁sly	-6909
acket	-6910
ansch	-6911
heist	-6912
hetic	-6913
htray	-6914
issar	-6915
raced	-6916
▁Ditt	-6917
▁area	-6918
▁brag	-6919
▁främ	-6920
▁hisp	-6921
▁hunt	-6922
▁muta	-6923
▁neka	-6924
▁rely	-6925
▁shin	-6926
▁show	-6927
▁shut	-6928
jänade	-6929
perier	-6930
▁Strun	-6931
▁Tanka	-6932
▁baren	-6933
▁beats	-6934
▁fågel	-6935
▁inför	-6936
▁petty	-6937
▁shiny	-6938
▁somna	-6939
▁trist	-6940
▁varma	-6941
▁väger	-6942
skattar	-6943
öterska	-6944
▁Ammoni	-6945
▁beford	-6946
▁fransk	-6947
▁gissar	-6948
▁hispig	-6949
▁hoping	-6950
▁idiots	-6951
▁jacket	-6952
▁kvävas	-6953
▁loppor	-6954
▁loudly	-6955
▁museer	-6956
▁mäktig	-6957
▁målare	-6958
▁mördad	-6959
▁mössen	-6960
▁nicely	-6961
▁nickar	-6962
▁nyckel	-6963
▁oartig	-6964
▁obeyed	-6965
▁office	-6966
▁olydig	-6967
▁onions	-6968
▁orkade	-6969
▁osäker	-6970
▁oväder	-6971
▁parken	-6972
▁parrot	-6973
▁passer	-6974
▁peppad	-6975
▁perfor	-6976
▁pilots	-6977
▁planer	-6978
▁plugga	-6979
▁pojkar	-6980
▁pratas	-6981
▁provar	-6982
▁provet	-6983
▁record	-6984
▁regnar	-6985
▁relied	-6986
▁remove	-6987
▁rested	-6988
▁return	-6989
▁review	-6990
▁ripped	-6991
▁risken	-6992
▁robots	-6993
▁rollen	-6994
▁rotten	-6995
▁rubbet	-6996
▁ryckte	-6997
▁räcker	-6998
▁räddar	-6999
kod	-7000
nan	-7001
rut	-7002
vag	-7003
viv	-7004
allt	-7005
ando	-7006
enty	-7007
ppon	-7008
rite	-7009
uten	-7010
vagn	-7011
▁Fly	-7012
▁Vik	-7013
▁blo	-7014
▁kva	-7015
▁sil	-7016
astes	-7017
esick	-7018
gande	-7019
itivt	-7020
jäsen	-7021
udden	-7022
åpmat	-7023
▁Food	-7024
▁Sing	-7025
▁blan	-7026
▁blod	-7027
▁deal	-7028
▁inut	-7029
▁kaka	-7030
▁port	-7031
▁reag	-7032
▁rent	-7033
▁twin	-7034
▁tänd	-7035
▁word	-7036
egirig	-7037
entlig	-7038
teckna	-7039
vivlad	-7040
▁Climb	-7041
▁Write	-7042
▁begag	-7043
▁bloom	-7044
▁huset	-7045
▁inuti	-7046
▁körda	-7047
▁miser	-7048
▁ogift	-7049
▁oppon	-7050
▁tears	-7051
uddenly	-7052
▁Flytta	-7053
▁Gråter	-7054
▁Kannan	-7055
▁Tastes	-7056
▁behand	-7057
▁blankt	-7058
▁faster	-7059
▁finger	-7060
▁garage	-7061
▁joking	-7062
▁norrut	-7063
▁pjäsen	-7064
▁plenty	-7065
▁ryggen	-7066
▁rädsla	-7067
▁räknar	-7068
▁rånade	-7069
▁råttor	-7070
▁rödvin	-7071
▁rörmok	-7072
▁röstat	-7073
▁saknat	-7074
▁salmon	-7075
▁saltet	-7076
▁samtal	-7077
▁sauerk	-7078
▁scored	-7079
▁search	-7080
▁settle	-7081
▁shoppa	-7082
▁signal	-7083
▁silent	-7084
▁simple	-7085
▁single	-7086
▁sinned	-7087
▁sjalen	-7088
▁sjuksk	-7089
▁skaffa	-7090
▁skratt	-7091
▁skrika	-7092
▁skärpt	-7093
▁skådes	-7094
▁slaget	-7095
▁sleepy	-7096
▁smells	-7097
▁smoked	-7098
▁smokes	-7099
ämn	-7100
äms	-7101
asäs	-7102
jakt	-7103
just	-7104
ktor	-7105
llös	-7106
ober	-7107
ooks	-7108
tyck	-7109
usar	-7110
uses	-7111
usig	-7112
äkna	-7113
änkt	-7114
änns	-7115
åtar	-7116
▁ama	-7117
▁eva	-7118
▁tus	-7119
▁utg	-7120
▁utp	-7121
▁åld	-7122
djust	-7123
fusig	-7124
ickan	-7125
rella	-7126
tyckt	-7127
ämnde	-7128
▁Hard	-7129
▁anan	-7130
▁bete	-7131
▁goal	-7132
▁goes	-7133
▁load	-7134
▁lust	-7135
▁målt	-7136
▁teor	-7137
▁tumm	-7138
▁väls	-7139
brella	-7140
eizare	-7141
samman	-7142
usting	-7143
▁Arabs	-7144
▁Books	-7145
▁Känns	-7146
▁Räkna	-7147
▁Skäms	-7148
▁baksl	-7149
▁båtar	-7150
▁cared	-7151
▁falla	-7152
▁handt	-7153
▁lastb	-7154
▁occur	-7155
▁rusar	-7156
▁rymde	-7157
▁sexig	-7158
▁shade	-7159
▁sober	-7160
▁stick	-7161
▁strun	-7162
▁teori	-7163
▁tiden	-7164
▁tusan	-7165
▁utant	-7166
▁utgör	-7167
▁ålder	-7168
asäsong	-7169
mbrella	-7170
stickan	-7171
▁Adjust	-7172
▁ananas	-7173
▁causes	-7174
▁doften	-7175
▁doktor	-7176
▁hövlig	-7177
▁mållös	-7178
▁måltid	-7179
▁nämnde	-7180
▁opened	-7181
▁scarce	-7182
▁somewh	-7183
▁specie	-7184
▁sprung	-7185
▁starkt	-7186
▁staten	-7187
▁sticka	-7188
▁strida	-7189
▁strike	-7190
▁strunt	-7191
▁städer	-7192
▁ställt	-7193
▁stötte	-7194
▁surkål	-7195
▁svarta	-7196
▁syndat	-7197
▁sättet	-7198
▁sårbar	-7199
ila	-7200
pir	-7201
come	-7202
iant	-7203
ints	-7204
irra	-7205
kend	-7206
live	-7207
mber	-7208
sint	-7209
utet	-7210
åtna	-7211
▁err	-7212
▁saf	-7213
alant	-7214
herad	-7215
iling	-7216
kable	-7217
kends	-7218
pirin	-7219
slöja	-7220
vsint	-7221
▁Kram	-7222
▁Make	-7223
▁blam	-7224
▁body	-7225
▁frid	-7226
▁hats	-7227
▁kila	-7228
▁loan	-7229
atters	-7230
elcome	-7231
icklig	-7232
vslöja	-7233
yvsint	-7234
▁Krama	-7235
▁along	-7236
▁grate	-7237
▁reads	-7238
▁reste	-7239
▁tills	-7240
▁world	-7241
▁öppet	-7242
illiant	-7243
▁Böcker	-7244
▁Natten	-7245
▁Skulle	-7246
▁Stirra	-7247
▁brutet	-7248
▁cloudy	-7249
▁colors	-7250
▁demand	-7251
▁fastfr	-7252
▁genast	-7253
▁joints	-7254
▁member	-7255
▁pastor	-7256
▁safely	-7257
▁saltat	-7258
▁sömnig	-7259
▁talang	-7260
▁talent	-7261
▁talför	-7262
▁tankar	-7263
▁teknik	-7264
▁terapi	-7265
▁testar	-7266
▁thinks	-7267
▁thirty	-7268
▁throat	-7269
▁tissue	-7270
▁towels	-7271
▁trygga	-7272
▁tryggt	-7273
▁tränar	-7274
▁tråkig	-7275
▁tröjan	-7276
▁tydlig	-7277
▁tänkte	-7278
▁uncons	-7279
▁undrar	-7280
▁unsure	-7281
▁utföra	-7282
▁utsikt	-7283
▁utslag	-7284
▁vandra	-7285
▁vaxade	-7286
▁videon	-7287
▁vinden	-7288
▁vindsv	-7289
▁visade	-7290
▁vissla	-7291
▁vodkan	-7292
▁vresig	-7293
▁vunnit	-7294
▁välsig	-7295
▁väntat	-7296
▁värkte	-7297
▁väskor	-7298
▁warned	-7299
bil	-7300
old	-7301
ånt	-7302
akor	-7303
itet	-7304
äffa	-7305
▁Aim	-7306
▁Bär	-7307
▁Far	-7308
▁Fot	-7309
▁Ler	-7310
▁Lär	-7311
▁Mom	-7312
▁Mot	-7313
▁Trä	-7314
▁båg	-7315
▁mät	-7316
▁omf	-7317
▁seg	-7318
▁våg	-7319
aster	-7320
indra	-7321
ittig	-7322
ycken	-7323
▁Duck	-7324
▁Fold	-7325
▁Ropa	-7326
▁Save	-7327
▁Sånt	-7328
▁bags	-7329
▁båge	-7330
▁clap	-7331
▁håll	-7332
▁lang	-7333
▁lapp	-7334
▁saga	-7335
▁spän	-7336
▁titt	-7337
▁vita	-7338
▁värd	-7339
hittig	-7340
ändigt	-7341
▁Buren	-7342
▁Varna	-7343
▁astma	-7344
▁claps	-7345
▁diket	-7346
▁förak	-7347
▁helst	-7348
▁kakor	-7349
▁langu	-7350
▁misun	-7351
▁omfam	-7352
▁plikt	-7353
▁roses	-7354
▁safer	-7355
▁vågar	-7356
verlapp	-7357
▁Motion	-7358
▁Spiken	-7359
▁brödet	-7360
▁dejten	-7361
▁dubier	-7362
▁förhör	-7363
▁namnet	-7364
▁seglen	-7365
▁seldom	-7366
▁storät	-7367
▁tråkar	-7368
▁washed	-7369
▁wimped	-7370
▁winked	-7371
▁wonder	-7372
▁wouldn	-7373
▁yelled	-7374
▁äcklad	-7375
▁ägaren	-7376
▁äpplen	-7377
▁ärliga	-7378
▁örhäng	-7379
▁översy	-7380
▁överty	-7381
adensare	-7382
agsmålet	-7383
alistisk	-7384
chnology	-7385
diderade	-7386
edelbart	-7387
employed	-7388
flykting	-7389
gmästare	-7390
gångsrik	-7391
hållande	-7392
iljetten	-7393
ineapple	-7394
konstigt	-7395
liggande	-7396
maningar	-7397
markable	-7398
människa	-7399
får	-7400
sch	-7401
sky	-7402
▁Ye	-7403
etch	-7404
fram	-7405
förd	-7406
olös	-7407
orch	-7408
ulor	-7409
▁Isn	-7410
▁Mis	-7411
▁Sök	-7412
▁kem	-7413
▁trä	-7414
arlig	-7415
schat	-7416
skill	-7417
▁Dörr	-7418
▁Post	-7419
▁ants	-7420
▁cann	-7421
▁elev	-7422
▁kemi	-7423
▁less	-7424
▁mail	-7425
▁osky	-7426
▁tras	-7427
ggulor	-7428
ionary	-7429
skille	-7430
ämpade	-7431
▁Posta	-7432
▁Think	-7433
▁Years	-7434
▁angel	-7435
▁board	-7436
▁elbow	-7437
▁gissa	-7438
▁goats	-7439
▁marry	-7440
▁numer	-7441
▁porch	-7442
▁skall	-7443
▁state	-7444
▁witch	-7445
längtan	-7446
plained	-7447
▁Katter	-7448
▁cannot	-7449
▁dozing	-7450
▁hospit	-7451
▁lessen	-7452
▁nervös	-7453
▁numera	-7454
▁places	-7455
▁season	-7456
▁slutet	-7457
▁sårade	-7458
▁tittar	-7459
▁trasig	-7460
▁trolös	-7461
derstood	-7462
nderbart	-7463
oducerar	-7464
ografier	-7465
onderful	-7466
ortunate	-7467
pologize	-7468
ponsibly	-7469
reakfast	-7470
relevant	-7471
rriterar	-7472
skrapade	-7473
smästare	-7474
stablett	-7475
ståndare	-7476
sättning	-7477
uttering	-7478
yjamasen	-7479
äftappar	-7480
ärningen	-7481
ättelsen	-7482
▁Använde	-7483
▁Avslöja	-7484
▁Awesome	-7485
▁Bananas	-7486
▁Bananer	-7487
▁Behagar	-7488
▁Blommor	-7489
▁Bucklan	-7490
▁Chicken	-7491
▁Chinese	-7492
▁Comfort	-7493
▁Doctors	-7494
▁Dricker	-7495
▁Egypten	-7496
▁English	-7497
▁Explain	-7498
▁Fattade	-7499
jör	-7500
opy	-7501
björ	-7502
onke	-7503
quid	-7504
ryta	-7505
unde	-7506
xlar	-7507
▁Dam	-7508
▁Ham	-7509
▁due	-7510
▁glo	-7511
▁jam	-7512
▁jul	-7513
▁lån	-7514
▁ond	-7515
▁row	-7516
▁slö	-7517
▁utk	-7518
▁vul	-7519
apade	-7520
björn	-7521
igner	-7522
onkey	-7523
▁Hell	-7524
▁Svar	-7525
▁copy	-7526
▁dare	-7527
▁dump	-7528
▁fela	-7529
▁grej	-7530
▁idel	-7531
▁nosy	-7532
▁skar	-7533
▁skin	-7534
▁skäl	-7535
▁sägs	-7536
▁vart	-7537
▁wasp	-7538
ignera	-7539
xlarna	-7540
▁Hello	-7541
▁Kunde	-7542
▁Shoot	-7543
▁Start	-7544
▁bankr	-7545
▁cause	-7546
▁gloat	-7547
▁guard	-7548
▁immed	-7549
▁jagar	-7550
▁kväva	-7551
▁missb	-7552
▁ordna	-7553
▁trott	-7554
▁utkik	-7555
▁Hammer	-7556
▁Svaret	-7557
▁dumpad	-7558
▁frites	-7559
▁fången	-7560
▁grejer	-7561
▁immedi	-7562
▁jagade	-7563
▁liquid	-7564
▁monkey	-7565
▁rapade	-7566
▁skryta	-7567
▁spiken	-7568
▁stolta	-7569
▁tragic	-7570
▁vaksam	-7571
▁Damerna	-7572
▁Flowers	-7573
▁Forgive	-7574
▁Frukost	-7575
▁Frågade	-7576
▁Förklar	-7577
▁Förneka	-7578
▁Förstod	-7579
▁Förvara	-7580
▁Godnatt	-7581
▁Granska	-7582
▁Haschet	-7583
▁Jobbade	-7584
▁Justera	-7585
▁Klarade	-7586
▁Klockan	-7587
▁Klättra	-7588
▁Knuffas	-7589
▁Lighten	-7590
▁Lyssnar	-7591
▁Mondays	-7592
▁Nothing	-7593
▁Overlap	-7594
▁Perfect	-7595
▁Perfekt	-7596
▁Provade	-7597
▁Pussade	-7598
▁Påbörja	-7599
lex	-7600
uns	-7601
urt	-7602
åde	-7603
etig	-7604
ggen	-7605
heel	-7606
ppat	-7607
ålar	-7608
▁Kor	-7609
▁Nej	-7610
▁acc	-7611
▁bou	-7612
▁lov	-7613
▁nät	-7614
▁täm	-7615
adder	-7616
aglar	-7617
alpen	-7618
attad	-7619
attle	-7620
bbits	-7621
lexib	-7622
rätta	-7623
åkigt	-7624
▁Stal	-7625
▁Turt	-7626
▁boun	-7627
▁bädd	-7628
▁både	-7629
▁cage	-7630
▁dict	-7631
▁flig	-7632
▁glan	-7633
▁luns	-7634
▁pays	-7635
▁ratt	-7636
▁vana	-7637
▁åtta	-7638
esiska	-7639
råkigt	-7640
▁Still	-7641
▁Tappa	-7642
▁Vadan	-7643
▁accur	-7644
▁argue	-7645
▁nålar	-7646
▁petig	-7647
▁wheel	-7648
▁Äggen	-7649
lexibla	-7650
▁Frukta	-7651
▁Menade	-7652
▁Stilla	-7653
▁battle	-7654
▁chased	-7655
▁examen	-7656
▁flight	-7657
▁glupsk	-7658
▁haglar	-7659
▁helger	-7660
▁ladder	-7661
▁mirror	-7662
▁nearly	-7663
▁reason	-7664
▁stairs	-7665
▁tappat	-7666
▁viljes	-7667
▁vägled	-7668
inesiska	-7669
iversary	-7670
▁Rosorna	-7671
▁Saknade	-7672
▁Seriöst	-7673
▁Signera	-7674
▁Sjunker	-7675
▁Skyller	-7676
▁Skämtar	-7677
▁Slappna	-7678
▁Smaklig	-7679
▁Spegeln	-7680
▁Spelade	-7681
▁Sundays	-7682
▁Turtles	-7683
▁Vattnet	-7684
▁Väntade	-7685
▁Världen	-7686
▁acrobat	-7687
▁admired	-7688
▁adopted	-7689
▁affärer	-7690
▁against	-7691
▁akrobat	-7692
▁alerten	-7693
▁amazing	-7694
▁andades	-7695
▁anfalla	-7696
▁anlände	-7697
▁anpassa	-7698
▁används	-7699
gs	-7700
els	-7701
jka	-7702
ues	-7703
ator	-7704
ises	-7705
sues	-7706
ålig	-7707
▁And	-7708
▁Kid	-7709
▁Kry	-7710
▁Sen	-7711
▁ain	-7712
▁ges	-7713
▁gos	-7714
▁itu	-7715
▁oen	-7716
▁ren	-7717
▁tas	-7718
▁tol	-7719
▁wro	-7720
ckade	-7721
delse	-7722
iding	-7723
▁Dogs	-7724
▁Krya	-7725
▁Love	-7726
▁Well	-7727
▁akne	-7728
▁förr	-7729
▁hops	-7730
▁kast	-7731
▁lika	-7732
▁past	-7733
▁pris	-7734
▁rund	-7735
▁skid	-7736
▁svin	-7737
▁sött	-7738
▁thin	-7739
▁tolv	-7740
beredd	-7741
▁Andas	-7742
▁Frank	-7743
▁Mamma	-7744
▁Vakta	-7745
▁avgår	-7746
▁dator	-7747
▁drawn	-7748
▁fejka	-7749
▁gossk	-7750
▁oenig	-7751
▁retas	-7752
▁skydd	-7753
▁taste	-7754
▁wrote	-7755
▁Frankr	-7756
▁Hundar	-7757
▁burned	-7758
▁floden	-7759
▁hiding	-7760
▁issues	-7761
▁kastad	-7762
▁klocka	-7763
▁otålig	-7764
▁skidor	-7765
▁trångt	-7766
▁unwind	-7767
▁ytliga	-7768
▁Absolut	-7769
▁Arbetar	-7770
▁Fläkten	-7771
▁Strunta	-7772
▁appreci	-7773
▁ashtray	-7774
▁askkopp	-7775
▁aspirin	-7776
▁atheist	-7777
▁avgjort	-7778
▁avundsj	-7779
▁axlarna	-7780
▁babblar	-7781
▁baddare	-7782
▁baffled	-7783
▁bakjour	-7784
▁bakslug	-7785
▁barking	-7786
▁befordr	-7787
▁befängt	-7788
▁begräns	-7789
▁begåvad	-7790
▁bekvämt	-7791
▁believa	-7792
▁besvära	-7793
▁betalad	-7794
▁blaming	-7795
▁blicken	-7796
▁blinked	-7797
▁blomman	-7798
▁blommar	-7799
båt	-7800
▁DJ	-7801
▁ya	-7802
fing	-7803
illy	-7804
imes	-7805
ingy	-7806
lept	-7807
utin	-7808
▁Cut	-7809
▁Eld	-7810
▁Som	-7811
▁low	-7812
▁pit	-7813
▁yaw	-7814
ately	-7815
inkig	-7816
onser	-7817
▁Deal	-7818
▁Till	-7819
▁Walk	-7820
▁Wave	-7821
▁avgå	-7822
▁cere	-7823
▁grow	-7824
▁krav	-7825
▁krig	-7826
▁liar	-7827
▁liks	-7828
▁sort	-7829
▁sval	-7830
▁syst	-7831
▁vits	-7832
▁yawn	-7833
utinen	-7834
▁Kaffe	-7835
▁antar	-7836
▁behov	-7837
▁broom	-7838
▁elakt	-7839
▁engel	-7840
▁jokes	-7841
▁light	-7842
▁motel	-7843
▁shave	-7844
▁silly	-7845
▁skott	-7846
▁theor	-7847
anterat	-7848
▁Dödade	-7849
▁Sommar	-7850
▁bottle	-7851
▁bussen	-7852
▁cereal	-7853
▁hollow	-7854
▁kinkig	-7855
▁liksom	-7856
▁listig	-7857
▁ogjort	-7858
▁pillow	-7859
▁stingy	-7860
▁theory	-7861
▁yawned	-7862
volverar	-7863
▁Betyder	-7864
▁allowed	-7865
▁blommor	-7866
▁bounced	-7867
▁brinner	-7868
▁brorson	-7869
▁bränner	-7870
▁brådska	-7871
▁bråkade	-7872
▁bröllop	-7873
▁buddist	-7874
▁bullied	-7875
▁bäddade	-7876
▁candles	-7877
▁captain	-7878
▁changes	-7879
▁chansar	-7880
▁charmig	-7881
▁charter	-7882
▁chemist	-7883
▁chewing	-7884
▁choklad	-7885
▁cleaned	-7886
▁clearly	-7887
▁command	-7888
▁company	-7889
▁conquer	-7890
▁content	-7891
▁control	-7892
▁cookies	-7893
▁cooking	-7894
▁country	-7895
▁crushed	-7896
▁dansade	-7897
▁dessert	-7898
▁destiny	-7899
dr	-7900
mes	-7901
vap	-7902
vek	-7903
driv	-7904
ilig	-7905
söka	-7906
▁Hit	-7907
▁Jul	-7908
▁Ras	-7909
▁haj	-7910
▁kar	-7911
▁ore	-7912
▁tut	-7913
▁vom	-7914
ommes	-7915
▁Dial	-7916
▁Down	-7917
▁Mörd	-7918
▁burk	-7919
▁hake	-7920
▁igår	-7921
▁kock	-7922
▁nuts	-7923
▁rörd	-7924
▁svek	-7925
vapnet	-7926
▁Julen	-7927
▁Raska	-7928
▁Skriv	-7929
▁Sorry	-7930
▁below	-7931
▁brush	-7932
▁fånga	-7933
▁grass	-7934
▁ideas	-7935
▁karta	-7936
▁olika	-7937
▁tutor	-7938
verdriv	-7939
▁Killar	-7940
▁Klarar	-7941
▁barely	-7942
▁fyrtio	-7943
▁kväver	-7944
▁lämnat	-7945
▁micken	-7946
▁nights	-7947
▁pommes	-7948
▁sighed	-7949
▁singel	-7950
▁spelet	-7951
▁stilig	-7952
▁sweets	-7953
▁Mördade	-7954
▁barbers	-7955
▁callous	-7956
▁curious	-7957
▁dieting	-7958
▁digging	-7959
▁dislike	-7960
▁distant	-7961
▁driftig	-7962
▁drowned	-7963
▁drugged	-7964
▁drummel	-7965
▁drömmer	-7966
▁dubious	-7967
▁duschat	-7968
▁earlier	-7969
▁earring	-7970
▁elected	-7971
▁enemies	-7972
▁ethical	-7973
▁farliga	-7974
▁farligt	-7975
▁fastnat	-7976
▁fattiga	-7977
▁fiender	-7978
▁finally	-7979
▁fingers	-7980
▁fingret	-7981
▁finkäns	-7982
▁firemen	-7983
▁fishing	-7984
▁flaskan	-7985
▁flowers	-7986
▁fläcken	-7987
▁fläkten	-7988
▁flämtar	-7989
▁fortare	-7990
▁franskt	-7991
▁frukost	-7992
▁fräknar	-7993
▁förhöra	-7994
▁förklar	-7995
▁förlåta	-7996
▁förneka	-7997
▁garaget	-7998
▁giftigt	-7999
ana	-8000
ces	-8001
edj	-8002
eta	-8003
gad	-8004
ily	-8005
▁kö	-8006
inje	-8007
odde	-8008
uter	-8009
▁kök	-8010
▁lax	-8011
▁ten	-8012
adana	-8013
ecken	-8014
edjan	-8015
ycket	-8016
▁Kill	-8017
▁Need	-8018
▁Njöt	-8019
▁Reta	-8020
▁Sköt	-8021
▁cows	-8022
▁dull	-8023
▁jobs	-8024
▁shed	-8025
▁view	-8026
hövlig	-8027
ärligt	-8028
▁Kamma	-8029
▁Marry	-8030
▁hatad	-8031
▁humle	-8032
▁linje	-8033
▁mouse	-8034
▁scene	-8035
▁split	-8036
▁stare	-8037
▁tries	-8038
▁weary	-8039
▁yours	-8040
elysten	-8041
▁Arbeta	-8042
▁Charge	-8043
▁Killen	-8044
▁Njuter	-8045
▁Trodde	-8046
▁braces	-8047
▁brydde	-8048
▁chefen	-8049
▁contra	-8050
▁easily	-8051
▁genial	-8052
▁himlen	-8053
▁jobber	-8054
▁kedjan	-8055
▁medlem	-8056
▁nykter	-8057
▁ordbok	-8058
▁packar	-8059
▁simtur	-8060
▁slutat	-8061
▁sängen	-8062
▁tången	-8063
▁våning	-8064
ccessful	-8065
▁Plikten	-8066
▁behaved	-8067
▁chaotic	-8068
▁flåsade	-8069
▁gevären	-8070
▁giggled	-8071
▁glanced	-8072
▁glänser	-8073
▁gosskör	-8074
▁grillar	-8075
▁grinden	-8076
▁grälade	-8077
▁guessed	-8078
▁gäspade	-8079
▁haltade	-8080
▁handtag	-8081
▁happens	-8082
▁hatched	-8083
▁hearing	-8084
▁hurried	-8085
▁hurting	-8086
▁husvagn	-8087
▁häftigt	-8088
▁hälften	-8089
▁hämtade	-8090
▁ihåliga	-8091
▁illojal	-8092
▁imorgon	-8093
▁innebar	-8094
▁insects	-8095
▁invited	-8096
▁involve	-8097
▁japaner	-8098
▁jetplan	-8099
bär	-8100
▁Dö	-8101
enat	-8102
ffat	-8103
itto	-8104
oman	-8105
reep	-8106
sbär	-8107
▁Red	-8108
▁pig	-8109
▁ski	-8110
onger	-8111
orses	-8112
▁Even	-8113
▁Fish	-8114
▁dyra	-8115
▁fika	-8116
▁fina	-8117
▁gets	-8118
▁gåva	-8119
▁king	-8120
▁noon	-8121
▁pigs	-8122
▁steg	-8123
▁thud	-8124
atives	-8125
tjänar	-8126
▁Coola	-8127
▁Sedan	-8128
▁creep	-8129
▁large	-8130
▁ljuga	-8131
▁lydde	-8132
▁lägga	-8133
▁moral	-8134
▁mörka	-8135
▁north	-8136
▁repar	-8137
▁woman	-8138
▁Coffee	-8139
▁German	-8140
▁Horses	-8141
▁Risken	-8142
▁Tänker	-8143
▁besatt	-8144
▁blinka	-8145
▁boiled	-8146
▁fåglar	-8147
▁förstå	-8148
▁highly	-8149
▁holler	-8150
▁klädde	-8151
▁kniven	-8152
▁kvitto	-8153
▁käppen	-8154
▁morals	-8155
▁pliers	-8156
▁replik	-8157
▁showed	-8158
▁snuten	-8159
▁spenat	-8160
▁stiger	-8161
▁Körsbär	-8162
▁Tvivlar	-8163
▁agerade	-8164
▁benägen	-8165
▁cheated	-8166
▁fuktigt	-8167
▁förlora	-8168
▁handlar	-8169
▁jättest	-8170
▁kaniner	-8171
▁kidding	-8172
▁klassen	-8173
▁klippte	-8174
▁knubbig	-8175
▁kontant	-8176
▁korkade	-8177
▁kroppar	-8178
▁kroppen	-8179
▁kräktes	-8180
▁kulspet	-8181
▁kusiner	-8182
▁kvasten	-8183
▁lagligt	-8184
▁languag	-8185
▁lasagna	-8186
▁lasagne	-8187
▁lederna	-8188
▁legitim	-8189
▁levande	-8190
▁löpning	-8191
▁maktlös	-8192
▁mardröm	-8193
▁matchen	-8194
▁matters	-8195
▁mention	-8196
▁messade	-8197
▁message	-8198
▁miserly	-8199
▁Hi	-8200
▁Hö	-8201
▁To	-8202
atin	-8203
raut	-8204
vrig	-8205
▁Lös	-8206
▁bow	-8207
▁öbo	-8208
▁öde	-8209
▁Wasn	-8210
▁bird	-8211
▁fars	-8212
▁guns	-8213
▁hett	-8214
▁ihop	-8215
▁likt	-8216
▁pull	-8217
▁rökt	-8218
▁sans	-8219
▁skip	-8220
▁slug	-8221
aterat	-8222
▁Cover	-8223
▁Latin	-8224
▁Trust	-8225
▁aloud	-8226
▁delta	-8227
▁ivrig	-8228
▁tease	-8229
▁varva	-8230
▁weigh	-8231
språkig	-8232
▁Hästen	-8233
▁cookie	-8234
▁desire	-8235
▁faking	-8236
▁fegade	-8237
▁getter	-8238
▁hyllan	-8239
▁pesten	-8240
▁writes	-8241
▁öppnar	-8242
emestern	-8243
▁Ammonia	-8244
▁Saltade	-8245
▁deppiga	-8246
▁forgive	-8247
▁förstod	-8248
▁knäcken	-8249
▁missade	-8250
▁missbel	-8251
▁mobbade	-8252
▁mocking	-8253
▁molnigt	-8254
▁museums	-8255
▁mätaren	-8256
▁möjligt	-8257
▁mönster	-8258
▁mördade	-8259
▁nervous	-8260
▁nodding	-8261
▁närmast	-8262
▁näsblod	-8263
▁oartiga	-8264
▁ofarlig	-8265
▁ogillar	-8266
▁ohövlig	-8267
▁olydiga	-8268
▁området	-8269
▁omtyckt	-8270
▁orsakar	-8271
▁orsaken	-8272
▁ostadig	-8273
▁otrogen	-8274
▁outlive	-8275
▁packing	-8276
▁painter	-8277
▁pajamas	-8278
▁paraply	-8279
▁pattern	-8280
▁perfekt	-8281
▁picnics	-8282
▁picture	-8283
▁piloter	-8284
▁planted	-8285
▁plastic	-8286
▁platser	-8287
▁pluggar	-8288
▁plumber	-8289
▁poliser	-8290
▁politik	-8291
▁populär	-8292
▁portion	-8293
▁positiv	-8294
▁pratsam	-8295
▁praying	-8296
▁prevent	-8297
▁priests	-8298
▁provade	-8299
uit	-8300
▁If	-8301
llad	-8302
usen	-8303
▁Bra	-8304
▁Hay	-8305
▁Tar	-8306
▁bug	-8307
▁fet	-8308
▁hej	-8309
▁set	-8310
ingor	-8311
slåda	-8312
▁Båda	-8313
▁byta	-8314
▁neat	-8315
▁oroa	-8316
▁owes	-8317
▁slag	-8318
▁then	-8319
▁Förta	-8320
▁Ladda	-8321
▁bills	-8322
▁blood	-8323
▁flint	-8324
▁names	-8325
▁plane	-8326
▁skatt	-8327
▁stung	-8328
▁söker	-8329
▁tröja	-8330
▁varna	-8331
▁Fattar	-8332
▁araber	-8333
▁chubby	-8334
▁deeply	-8335
▁gäster	-8336
▁ledsna	-8337
▁mannen	-8338
▁marken	-8339
▁ordnar	-8340
▁rather	-8341
▁ratten	-8342
▁stoned	-8343
▁writer	-8344
▁öronen	-8345
ningsbok	-8346
▁Förstår	-8347
▁Missade	-8348
▁Ondskan	-8349
▁Smittar	-8350
▁Tryckte	-8351
▁Varnade	-8352
▁betydde	-8353
▁cousins	-8354
▁eländig	-8355
▁flingor	-8356
▁fördoms	-8357
▁hamnade	-8358
▁hoppade	-8359
▁idioter	-8360
▁präster	-8361
▁påkarna	-8362
▁påklädd	-8363
▁påtryck	-8364
▁quietly	-8365
▁quoting	-8366
▁raccoon	-8367
▁reacted	-8368
▁reasons	-8369
▁receipt	-8370
▁refused	-8371
▁regnade	-8372
▁rematch	-8373
▁rescued	-8374
▁respond	-8375
▁results	-8376
▁reviews	-8377
▁robotar	-8378
▁rubbish	-8379
▁rutinen	-8380
▁ryggont	-8381
▁ryggrad	-8382
▁rymling	-8383
▁saknade	-8384
▁scarfen	-8385
▁scooter	-8386
▁scraped	-8387
▁screams	-8388
▁screwed	-8389
▁secrets	-8390
▁seriösa	-8391
▁servett	-8392
▁shelves	-8393
▁simmade	-8394
▁simning	-8395
▁sinking	-8396
▁sisters	-8397
▁skadade	-8398
▁skadats	-8399
Is	-8400
eel	-8401
▁Då	-8402
▁hi	-8403
▁Ner	-8404
▁Feel	-8405
▁Grow	-8406
▁acne	-8407
▁alls	-8408
▁bled	-8409
▁meal	-8410
▁spit	-8411
ämnade	-8412
▁Shake	-8413
▁crude	-8414
▁kalla	-8415
▁makes	-8416
▁mixed	-8417
▁offer	-8418
▁rörde	-8419
▁äckel	-8420
▁Käften	-8421
▁before	-8422
▁danced	-8423
▁geting	-8424
▁tongue	-8425
▁awfully	-8426
▁bedtime	-8427
▁contact	-8428
▁failure	-8429
▁hailing	-8430
▁needles	-8431
▁rabbits	-8432
▁skaffat	-8433
▁skallig	-8434
▁skatter	-8435
▁skjorta	-8436
▁skjuter	-8437
▁skjutsa	-8438
▁skojigt	-8439
▁skratta	-8440
▁skrinna	-8441
▁skuggan	-8442
▁skyller	-8443
▁skämdes	-8444
▁skämtar	-8445
▁skåpmat	-8446
▁slapped	-8447
▁slipsen	-8448
▁slängde	-8449
▁släppte	-8450
▁snowing	-8451
▁snowman	-8452
▁snubbla	-8453
▁soaking	-8454
▁someone	-8455
▁somnade	-8456
▁spillde	-8457
▁spilled	-8458
▁spinach	-8459
▁spinner	-8460
▁sportig	-8461
▁stammar	-8462
▁stapler	-8463
▁startar	-8464
▁started	-8465
▁starved	-8466
▁staying	-8467
▁stickar	-8468
▁sticket	-8469
▁stjärna	-8470
▁stretch	-8471
▁sträcka	-8472
▁studera	-8473
▁studied	-8474
▁stycken	-8475
▁städade	-8476
▁ställde	-8477
▁suckade	-8478
▁suicide	-8479
▁surfing	-8480
▁svimmat	-8481
▁systrar	-8482
▁säkrare	-8483
▁sångare	-8484
▁tackade	-8485
▁teacher	-8486
▁tecknat	-8487
▁textade	-8488
▁thanked	-8489
▁therapy	-8490
▁tiggare	-8491
▁toaster	-8492
▁touched	-8493
▁trailer	-8494
▁trappan	-8495
▁travels	-8496
▁treason	-8497
▁trettio	-8498
▁träffar	-8499
▁träffat	-8500
▁träffen	-8501
▁tränade	-8502
▁tummade	-8503
▁tuppade	-8504
▁tvungna	-8505
▁tvätten	-8506
▁typiskt	-8507
▁tävling	-8508
▁tålamod	-8509
▁unlucky	-8510
▁unusual	-8511
▁upfront	-8512
▁upprymd	-8513
▁upprätt	-8514
▁upstate	-8515
▁ursäkta	-8516
▁utanför	-8517
▁utmärkt	-8518
▁utomord	-8519
▁utrymme	-8520
▁utvilad	-8521
▁utövade	-8522
▁vackert	-8523
▁vaknade	-8524
▁vanligt	-8525
▁varning	-8526
▁vattnet	-8527
▁veggies	-8528
▁veranda	-8529
▁verklig	-8530
▁vomited	-8531
▁vägrade	-8532
▁vänliga	-8533
▁warning	-8534
▁welcome	-8535
▁whistle	-8536
▁workout	-8537
▁Äggulor	-8538
▁öppnade	-8539
▁örhänge	-8540
▁övergav	-8541
dningarna	-8542
fashioned	-8543
frisknade	-8544
irdresser	-8545
ningsbara	-8546
oarkanten	-8547
shändelse	-8548
ställning	-8549
äckslagen	-8550
▁American	-8551
▁Ammoniak	-8552
▁Anything	-8553
▁Beslutet	-8554
▁Betalade	-8555
▁Canadian	-8556
▁Cherries	-8557
▁Children	-8558
▁Fotograf	-8559
▁Fåglarna	-8560
▁Förebrår	-8561
▁Förklara	-8562
▁Internet	-8563
▁Klandrar	-8564
▁Knuffade	-8565
▁Kontakta	-8566
▁Kyckling	-8567
▁Memorize	-8568
▁Pojkarna	-8569
▁Pressade	-8570
▁Remember	-8571
▁Saturday	-8572
▁Saturnus	-8573
▁Skadades	-8574
▁Skickade	-8575
▁Skrattar	-8576
▁Sommaren	-8577
▁Stannade	-8578
▁Suveränt	-8579
▁Svimmade	-8580
▁Termiter	-8581
▁Termites	-8582
▁Tjejerna	-8583
▁Tvättade	-8584
▁Vacation	-8585
▁Varsågod	-8586
▁Visitera	-8587
▁Vänligen	-8588
▁accurate	-8589
▁agitated	-8590
▁airplane	-8591
▁amerikan	-8592
▁aningens	-8593
▁annonser	-8594
▁ansvarig	-8595
▁anything	-8596
▁armbågen	-8597
▁avlägsna	-8598
▁avskedat	-8599
▁balloons	-8600
▁bankrutt	-8601
▁barcoded	-8602
▁barnslig	-8603
▁begagnad	-8604
▁begraven	-8605
▁behandla	-8606
▁belöning	-8607
▁berättar	-8608
▁berättat	-8609
▁besluten	-8610
▁besvärad	-8611
▁beväpnad	-8612
▁bleknade	-8613
▁blundade	-8614
▁blushing	-8615
▁bortförd	-8616
▁brandmän	-8617
▁breathed	-8618
▁bromsade	-8619
▁brödrost	-8620
▁buddhist	-8621
▁business	-8622
▁butchers	-8623
▁canceled	-8624
▁cartoons	-8625
▁chairman	-8626
▁charming	-8627
▁chaufför	-8628
▁cheating	-8629
▁checkade	-8630
▁childish	-8631
▁citerade	-8632
▁colonels	-8633
▁complain	-8634
▁computer	-8635
▁contains	-8636
▁contract	-8637
▁credible	-8638
▁cultured	-8639
▁dagligen	-8640
▁dejected	-8641
▁delicate	-8642
▁deserted	-8643
▁deserved	-8644
▁diligent	-8645
▁diskreta	-8646
▁disloyal	-8647
▁domderar	-8648
▁doorbell	-8649
▁därifrån	-8650
▁effektiv	-8651
▁embraced	-8652
▁engelska	-8653
▁epilepsi	-8654
▁epilepsy	-8655
▁exciting	-8656
▁fastnade	-8657
▁feverish	-8658
▁flexibla	-8659
▁flygresa	-8660
▁flykting	-8661
▁flämtade	-8662
▁fnissade	-8663
▁fokusera	-8664
▁forgiven	-8665
▁freckles	-8666
▁freezing	-8667
▁frisörer	-8668
▁främling	-8669
▁fängelse	-8670
▁fängslad	-8671
▁färgerna	-8672
▁föraktar	-8673
▁förfärad	-8674
▁förkylde	-8675
▁förlåten	-8676
▁förskott	-8677
▁förtjust	-8678
▁förvånad	-8679
▁förälder	-8680
▁fötterna	-8681
▁generösa	-8682
▁genomvåt	-8683
▁gladlynt	-8684
▁godsaker	-8685
▁grateful	-8686
▁grilling	-8687
▁gräsliga	-8688
▁guidance	-8689
▁handsome	-8690
▁hemifrån	-8691
▁homesick	-8692
▁homework	-8693
▁horrible	-8694
▁hospital	-8695
▁hyllorna	-8696
▁hängiven	-8697
▁hästarna	-8698
▁imperier	-8699
▁inbjuden	-8700
▁influens	-8701
▁insekter	-8702
▁insisted	-8703
▁insomnia	-8704
▁insulted	-8705
▁interest	-8706
▁internet	-8707
▁inträffa	-8708
▁islander	-8709
▁jonglera	-8710
▁jättesen	-8711
▁kaotiskt	-8712
▁kaptenen	-8713
▁klandrar	-8714
▁klappade	-8715
▁kläcktes	-8716
▁kommando	-8717
▁kontakta	-8718
▁kontrakt	-8719
▁kreativa	-8720
▁krossade	-8721
▁krävande	-8722
▁kärleken	-8723
▁körgosse	-8724
▁likadana	-8725
▁lustjakt	-8726
▁lyckligt	-8727
▁lägenhet	-8728
▁läggdags	-8729
▁meddelat	-8730
▁meningen	-8731
▁merciful	-8732
▁missnöjd	-8733
▁mjölkade	-8734
▁murdered	-8735
▁märkligt	-8736
▁måndagar	-8737
▁mördaren	-8738
▁mörkhyad	-8739
▁nauseous	-8740
▁noggrann	-8741
▁notebook	-8742
▁nybliven	-8743
▁objektiv	-8744
▁obotligt	-8745
▁olycklig	-8746
▁opponent	-8747
▁osanning	-8748
▁oskyldig	-8749
▁otrevlig	-8750
▁oturligt	-8751
▁ovanligt	-8752
▁papegoja	-8753
▁partiska	-8754
▁passerat	-8755
▁pathetic	-8756
▁perfekta	-8757
▁pladdrar	-8758
▁pleasure	-8759
▁politics	-8760
▁positiva	-8761
▁positivt	-8762
▁possible	-8763
▁pratglad	-8764
▁prepared	-8765
▁promoted	-8766
▁punished	-8767
▁punktlig	-8768
▁påhittig	-8769
▁rakhyvel	-8770
▁received	-8771
▁reliable	-8772
▁relieved	-8773
▁reporter	-8774
▁resigned	-8775
▁resultat	-8776
▁revansch	-8777
▁riskerna	-8778
▁romantic	-8779
▁rättfram	-8780
▁sailboat	-8781
▁segelbåt	-8782
▁sensible	-8783
▁showered	-8784
▁shrugged	-8785
▁skadades	-8786
▁skicklig	-8787
▁skrapade	-8788
▁skrämmer	-8789
▁skyldiga	-8790
▁skyndade	-8791
▁slaktare	-8792
▁slingrar	-8793
▁slutföra	-8794
▁slutsålt	-8795
▁småaktig	-8796
▁sneglade	-8797
▁snögubbe	-8798
▁sommaren	-8799
▁sorgligt	-8800
▁sparkade	-8801
▁spottade	-8802
▁sprungit	-8803
▁spädbarn	-8804
▁stamgäst	-8805
▁stamkund	-8806
▁startled	-8807
▁straffas	-8808
▁stranger	-8809
▁struggle	-8810
▁strumpor	-8811
▁stubborn	-8812
▁studerar	-8813
▁studerat	-8814
▁studsade	-8815
▁styvsint	-8816
▁störtade	-8817
▁suddenly	-8818
▁surprise	-8819
▁svarslös	-8820
▁särskilt	-8821
▁söndagar	-8822
▁talented	-8823
▁teachers	-8824
▁terribly	-8825
▁tidigare	-8826
▁tilltron	-8827
▁tillåtna	-8828
▁tragiskt	-8829
▁trevliga	-8830
▁trådarna	-8831
▁tveksamt	-8832
▁tvilling	-8833
▁tvättade	-8834
▁tvättdag	-8835
▁tämligen	-8836
▁tänderna	-8837
▁umbrella	-8838
▁undviker	-8839
▁uppträda	-8840
▁upstairs	-8841
▁utantill	-8842
▁utegångs	-8843
▁utmattad	-8844
▁utslagen	-8845
▁vaksamma	-8846
▁vandring	-8847
▁välsigne	-8848
▁vältalig	-8849
▁weddings	-8850
▁weekends	-8851
▁worrying	-8852
▁äregirig	-8853
▁årsdagen	-8854
▁återvänt	-8855
▁överallt	-8856
▁överstar	-8857
▁översynt	-8858
atulations	-8859
ensionerna	-8860
förhöjning	-8861
nderteckna	-8862
äftapparat	-8863
▁Apologize	-8864
▁Berättade	-8865
▁Biljetten	-8866
▁Breakfast	-8867
▁Fantastic	-8868
▁Flickorna	-8869
▁Frankrike	-8870
▁Frukosten	-8871
▁Förolämpa	-8872
▁Förtjänar	-8873
▁Handduken	-8874
▁Ingenting	-8875
▁Irriterar	-8876
▁Motionera	-8877
▁Någonting	-8878
▁Semestern	-8879
▁Tärningen	-8880
▁Varsågoda	-8881
▁Wonderful	-8882
▁adopterad	-8883
▁akademisk	-8884
▁ambitions	-8885
▁ambitious	-8886
▁apologize	-8887
▁applauded	-8888
▁arbetslös	-8889
▁arroganta	-8890
▁astronomi	-8891
▁astronomy	-8892
▁atletiska	-8893
▁attackera	-8894
▁attraktiv	-8895
▁autentisk	-8896
▁autistisk	-8897
▁avslöjade	-8898
▁backwards	-8899
▁ballonger	-8900
▁bedridden	-8901
▁bedräglig	-8902
▁befordran	-8903
▁beskjuten	-8904
▁beslutsam	-8905
▁betydelse	-8906
▁beundrade	-8907
▁beundrare	-8908
▁bilingual	-8909
▁bortrövad	-8910
▁breakfast	-8911
▁breathing	-8912
▁brilliant	-8913
▁bromsarna	-8914
▁cannibals	-8915
▁chartered	-8916
▁chartrade	-8917
▁chemistry	-8918
▁chickened	-8919
▁chocolate	-8920
▁committed	-8921
▁confessed	-8922
▁contacted	-8923
▁convinced	-8924
▁cykelpump	-8925
▁debatable	-8926
▁delighted	-8927
▁demanding	-8928
▁disagrees	-8929
▁disgusted	-8930
▁drunknade	-8931
▁effective	-8932
▁efterrätt	-8933
▁energiska	-8934
▁engagerad	-8935
▁enjoyable	-8936
▁ensambarn	-8937
▁etiketten	-8938
▁exercised	-8939
▁exercises	-8940
▁exhausted	-8941
▁existerar	-8942
▁explained	-8943
▁fascinate	-8944
▁fingrarna	-8945
▁following	-8946
▁forgotten	-8947
▁fortsatte	-8948
▁framfusig	-8949
▁fransyska	-8950
▁frisknade	-8951
▁färgblind	-8952
▁fårskalle	-8953
▁föreställ	-8954
▁förflytta	-8955
▁förhindra	-8956
▁förlovade	-8957
▁förnuftig	-8958
▁förräderi	-8959
▁försiktig	-8960
▁förtjänar	-8961
▁förändras	-8962
▁genialisk	-8963
▁genomblöt	-8964
▁gräsmatta	-8965
▁grönsaker	-8966
▁halsduken	-8967
▁hamburger	-8968
▁handdukar	-8969
▁handväska	-8970
▁historian	-8971
▁horrified	-8972
▁hybridbil	-8973
▁hållplats	-8974
▁högljudda	-8975
▁idrottare	-8976
▁immunitet	-8977
▁impatient	-8978
▁incurable	-8979
▁insomniac	-8980
▁intresset	-8981
▁intrigued	-8982
▁irriterad	-8983
▁juryplikt	-8984
▁jättestor	-8985
▁kidnappad	-8986
▁kinesiska	-8987
▁klättring	-8988
▁kompetent	-8989
▁kontanter	-8990
▁kraschade	-8991
▁krossades	-8992
▁kvällsmat	-8993
▁languages	-8994
▁lastbilen	-8995
▁lunchdags	-8996
▁mentioned	-8997
▁missmodig	-8998
▁misstänkt	-8999
▁mordbrand	-9000
▁motiverad	-9001
▁människor	-9002
▁mänskligt	-9003
▁målarfärg	-9004
▁necessary	-9005
▁negligent	-9006
▁nightmare	-9007
▁noggranna	-9008
▁objective	-9009
▁obstinate	-9010
▁oförskämd	-9011
▁olyckligt	-9012
▁omfamnade	-9013
▁orättvisa	-9014
▁overslept	-9015
▁patetiskt	-9016
▁pineapple	-9017
▁planterat	-9018
▁plötsligt	-9019
▁pointless	-9020
▁politiker	-9021
▁possessed	-9022
▁powerless	-9023
▁punktliga	-9024
▁pyjamasen	-9025
▁påbörjade	-9026
▁qualified	-9027
▁rapporten	-9028
▁reagerade	-9029
▁relaterat	-9030
▁relatives	-9031
▁repareras	-9032
▁resigning	-9033
▁revolting	-9034
▁räkningar	-9035
▁rättighet	-9036
▁rörmokare	-9037
▁searching	-9038
▁sittplats	-9039
▁sjaletten	-9040
▁sjukhuset	-9041
▁självmord	-9042
▁skattebet	-9043
▁skedaddle	-9044
▁slocknade	-9045
▁sometimes	-9046
▁somewhere	-9047
▁sovmorgon	-9048
▁speciella	-9049
▁spännande	-9050
▁standards	-9051
▁storätare	-9052
▁streckkod	-9053
▁strejkade	-9054
▁stressade	-9055
▁stupfulla	-9056
▁succeeded	-9057
▁surprises	-9058
▁surviving	-9059
▁svartsjuk	-9060
▁svindlare	-9061
▁svärdfisk	-9062
▁swordfish	-9063
▁systerson	-9064
▁tacksamma	-9065
▁taxpayers	-9066
▁teenagers	-9067
▁tillgiven	-9068
▁toleranta	-9069
▁treatable	-9070
▁tveksamma	-9071
▁tålmodiga	-9072
▁underkänd	-9073
▁undersöka	-9074
▁undervisa	-9075
▁ungjävlar	-9076
▁unmarried	-9077
▁uppenbart	-9078
▁uppfattat	-9079
▁uppkäftig	-9080
▁upptäckte	-9081
▁utsvulten	-9082
▁vanvettig	-9083
▁villrådig	-9084
▁välbetald	-9085
▁välkommen	-9086
▁ärelysten	-9087
▁övergiven	-9088
▁övertygad	-9089
verlappning	-9090
▁Allvarligt	-9091
▁Definitivt	-9092
▁Involverar	-9093
▁Kidnappade	-9094
▁Misstänker	-9095
▁aggressiva	-9096
▁alltsamman	-9097
▁ambitioner	-9098
▁annanstans	-9099
▁applåderar	-9100
▁appreciate	-9101
▁astonished	-9102
▁attractive	-9103
▁autentiskt	-9104
▁avundsjuka	-9105
▁believable	-9106
▁besläktade	-9107
▁besvärligt	-9108
▁challenges	-9109
▁contagious	-9110
▁courageous	-9111
▁delstatens	-9112
▁dependable	-9113
▁depressing	-9114
▁dictionary	-9115
▁diplomatic	-9116
▁disgusting	-9117
▁diskuteras	-9118
▁distracted	-9119
▁downsizing	-9120
▁egensinnig	-9121
▁evacuating	-9122
▁evakuering	-9123
▁exaggerate	-9124
▁farsighted	-9125
▁fascinerar	-9126
▁fastfrusen	-9127
▁finkänslig	-9128
▁folksånger	-9129
▁formuläret	-9130
▁framåtanda	-9131
▁frightened	-9132
▁frustrated	-9133
▁frustrerad	-9134
▁förbryllad	-9135
▁författare	-9136
▁förfärliga	-9137
▁förklarade	-9138
▁försiktiga	-9139
▁förskräckt	-9140
▁förstelnad	-9141
▁försvunnet	-9142
▁försvunnit	-9143
▁förtjänade	-9144
▁förtvivlad	-9145
▁förälskade	-9146
▁gammeldags	-9147
▁hamburgare	-9148
▁handledare	-9149
▁hemlängtan	-9150
▁hundvalpen	-9151
▁hårdnackad	-9152
▁improvised	-9153
▁innehåller	-9154
▁insisterar	-9155
▁intressant	-9156
▁irrelevant	-9157
▁jättestort	-9158
▁jättetjock	-9159
▁kallhamrad	-9160
▁kannibaler	-9161
▁kidnappade	-9162
▁kontaktade	-9163
▁kontrollen	-9164
▁kultiverad	-9165
▁lägenheten	-9166
▁lögnhalsar	-9167
▁meddelande	-9168
▁medvetande	-9169
▁medvetslös	-9170
▁mentalsjuk	-9171
▁misslyckad	-9172
▁nonchalant	-9173
▁nonplussed	-9174
▁nödvändigt	-9175
▁oförarglig	-9176
▁oförberedd	-9177
▁omedelbart	-9178
▁ordförande	-9179
▁performing	-9180
▁picknickar	-9181
▁politician	-9182
▁possessive	-9183
▁producerar	-9184
▁reconsider	-9185
▁remarkable	-9186
▁respectful	-9187
▁romantiskt	-9188
▁sauerkraut	-9189
▁schweizare	-9190
▁självsäker	-9191
▁slagsmålet	-9192
▁sparkcykel	-9193
▁speechless	-9194
▁springande	-9195
▁studerande	-9196
▁stuttering	-9197
▁successful	-9198
▁syltburken	-9199
▁technology	-9200
▁tonåringar	-9201
▁trädgården	-9202
▁tvillingar	-9203
▁tvättbjörn	-9204
▁tvåspråkig	-9205
▁underrätta	-9206
▁unemployed	-9207
▁unprepared	-9208
▁unreliable	-9209
▁uppmärksam	-9210
▁uppskattar	-9211
▁utmaningar	-9212
▁utpressade	-9213
▁vulnerable	-9214
▁vägledning	-9215
▁välavlönad	-9216
▁yourselves	-9217
▁återhämtar	-9218
▁återvänder	-9219
▁Dörrklockan	-9220
▁Fantastiskt	-9221
▁Sköldpaddor	-9222
▁allesammans	-9223
▁alltsammans	-9224
▁anniversary	-9225
▁applåderade	-9226
▁barskrapade	-9227
▁berättelsen	-9228
▁beställning	-9229
▁blackmailed	-9230
▁borgmästare	-9231
▁deprimerade	-9232
▁diplomatisk	-9233
▁disappeared	-9234
▁distraherad	-9235
▁eftermiddag	-9236
▁fantastiskt	-9237
▁fotografier	-9238
▁fördomsfull	-9239
▁förolämpade	-9240
▁föräldralös	-9241
▁förändrades	-9242
▁golfspelare	-9243
▁hairdresser	-9244
▁hemligheten	-9245
▁hemligheter	-9246
▁häftapparat	-9247
▁hänsynslösa	-9248
▁immediately	-9249
▁insisterade	-9250
▁interesting	-9251
▁jättedåligt	-9252
▁jättehäftig	-9253
▁jättemycket	-9254
▁kanadensare	-9255
▁kandiderade	-9256
▁kolliderade	-9257
▁kommentarer	-9258
▁kännetecken	-9259
▁köksmästare	-9260
▁meddelandet	-9261
▁missbelåten	-9262
▁missförstod	-9263
▁misslyckats	-9264
▁motståndare	-9265
▁oförskräckt	-9266
▁orealistisk	-9267
▁personligen	-9268
▁promenerade	-9269
▁radiologist	-9270
▁rattfylleri	-9271
▁respekterar	-9272
▁respektfull	-9273
▁responsibly	-9274
▁skjutvapnet	-9275
▁tegelstenar	-9276
▁tjänstledig	-9277
▁tändstickan	-9278
▁unconscious	-9279
▁underrättat	-9280
▁unfortunate	-9281
▁unrealistic	-9282
▁uppfattning	-9283
▁vänsterhänt	-9284
▁återhämtade	-9285
▁återlämnade	-9286
▁överstegrar	-9287
▁ansvarsfullt	-9288
▁confidential	-9289
▁deprimerande	-9290
▁embarrassing	-9291
▁flintskallig	-9292
▁fortsättning	-9293
▁framgångsrik	-9294
▁fruktansvärt	-9295
▁fördomsfulla	-9296
▁förstärkning	-9297
▁föräldralöst	-9298
▁genomförbart	-9299
▁hundmänniska	-9300
▁idrottskille	-9301
▁jättetråkigt	-9302
▁konstnärligt	-9303
▁kvalificerad	-9304
▁legitimation	-9305
▁ordenstecken	-9306
▁questionable	-9307
▁rabattkupong	-9308
▁skräckslagen	-9309
▁skådespelare	-9310
▁sängliggande	-9311
▁tillräknelig	-9312
▁verktygslåda	-9313
▁vändningarna	-9314
▁överraskning	-9315
▁övervåningen	-9316
▁Fotograferade	-9317
▁Ovillkorligen	-9318
▁Vattenståndet	-9319
▁begränsningar	-9320
▁improviserade	-9321
▁jättekonstigt	-9322
▁kraschlandade	-9323
▁kulspetspenna	-9324
▁landsflykting	-9325
▁misunderstood	-9326
▁påtryckningar	-9327
▁recensionerna	-9328
▁sjuksköterska	-9329
▁tandställning	-9330
▁tillfrisknade	-9331
▁tillräkneliga	-9332
▁undantagsrätt	-9333
▁underhållande	-9334
▁utomordentlig	-9335
▁vindsvåningen	-9336
▁anteckningsbok	-9337
▁jobberbjudande	-9338
▁löneförhöjning	-9339
▁olyckshändelse	-9340
▁skattebetalare	-9341
▁trottoarkanten	-9342
▁utegångsförbud	-9343
▁överraskningar	-9344
▁Congratulations	-9345
▁anpassningsbara	-9346
▁föreställningen	-9347
▁influensasäsong	-9348
▁tillrättavisade	-9349
aby	-9350
bts	-9351
goj	-9352
gpl	-9353
ixa	-9354
khy	-9355
kro	-9356
kup	-9357
nia	-9358
njo	-9359
osp	-9360
psi	-9361
psy	-9362
räf	-9363
slå	-9364
svå	-9365
väv	-9366
xpl	-9367
ygn	-9368
ygs	-9369
ymd	-9370
ypl	-9371
ysa	-9372
äpn	-9373
ävt	-9374
äxt	-9375
adac	-9376
aktl	-9377
alth	-9378
ards	-9379
bliv	-9380
cise	-9381
eace	-9382
etjo	-9383
fier	-9384
fuse	-9385
gelb	-9386
gled	-9387
gott	-9388
gård	-9389
hild	-9390
hoot	-9391
hopa	-9392
ibal	-9393
ippy	-9394
irpl	-9395
iösa	-9396
jekt	-9397
jung	-9398
jöng	-9399
löj	-9400
nsu	-9401
nts	-9402
nöj	-9403
ösa	-9404
ösh	-9405
aksl	-9406
asta	-9407
kjut	-9408
känt	-9409
lfen	-9410
ljut	-9411
lsen	-9412
läkt	-9413
länt	-9414
lösa	-9415
midd	-9416
mile	-9417
mits	-9418
mmar	-9419
move	-9420
nens	-9421
nlös	-9422
nore	-9423
nter	-9424
ogiz	-9425
ombl	-9426
omni	-9427
onia	-9428
onpl	-9429
onsc	-9430
ontr	-9431
oria	-9432
ormt	-9433
otos	-9434
peri	-9435
pråk	-9436
psen	-9437
rabs	-9438
rann	-9439
rebr	-9440
rikt	-9441
rova	-9442
sbok	-9443
sikt	-9444
sinn	-9445
skyr	-9446
slag	-9447
svin	-9448
svul	-9449
svun	-9450
trib	-9451
uash	-9452
ucky	-9453
uffa	-9454
ugnt	-9455
uros	-9456
vann	-9457
vies	-9458
vimm	-9459
visa	-9460
vämt	-9461
vänt	-9462
vära	-9463
xted	-9464
yhet	-9465
ymde	-9466
yser	-9467
äckl	-9468
äckt	-9469
älja	-9470
änsy	-9471
ådar	-9472
ålam	-9473
ålet	-9474
öker	-9475
▁Abs	-9476
▁Apr	-9477
▁Exc	-9478
▁Inv	-9479
▁Röd	-9480
▁Toy	-9481
▁acr	-9482
▁apr	-9483
▁ash	-9484
▁bac	-9485
▁böj	-9486
▁dju	-9487
▁dyr	-9488
▁irr	-9489
▁kab	-9490
▁kup	-9491
▁mix	-9492
▁nyt	-9493
▁nöd	-9494
▁nöj	-9495
▁oli	-9496
▁olj	-9497
▁piz	-9498
▁suc	-9499
ggr	-9500
ipt	-9501
mok	-9502
okl	-9503
vok	-9504
ävl	-9505
arsl	-9506
bata	-9507
cord	-9508
diga	-9509
ends	-9510
fund	-9511
ggar	-9512
ilep	-9513
krob	-9514
malt	-9515
marr	-9516
ocus	-9517
ordf	-9518
osts	-9519
pten	-9520
säkt	-9521
tapl	-9522
tera	-9523
undr	-9524
unds	-9525
ärpt	-9526
ölja	-9527
▁Tok	-9528
▁fok	-9529
▁jok	-9530
▁kli	-9531
▁klä	-9532
▁tje	-9533
▁änn	-9534
addor	-9535
aktis	-9536
alsar	-9537
altet	-9538
amman	-9539
amnet	-9540
amrad	-9541
amsen	-9542
amtal	-9543
anana	-9544
anskt	-9545
apten	-9546
arned	-9547
arnet	-9548
arrow	-9549
ashed	-9550
atnik	-9551
atuer	-9552
bered	-9553
bland	-9554
bster	-9555
btful	-9556
caped	-9557
cises	-9558
cited	-9559
ckera	-9560
delat	-9561
domar	-9562
dukar	-9563
eally	-9564
ected	-9565
elakt	-9566
eldom	-9567
eliga	-9568
elsin	-9569
elyst	-9570
emies	-9571
empel	-9572
endly	-9573
enhet	-9574
ensas	-9575
erfek	-9576
erget	-9577
ermit	-9578
erned	-9579
erten	-9580
erved	-9581
escap	-9582
espel	-9583
esvär	-9584
fiken	-9585
finit	-9586
fterm	-9587
färad	-9588
gaged	-9589
gmäst	-9590
gplan	-9591
heers	-9592
ibals	-9593
idrog	-9594
iests	-9595
ietly	-9596
ieved	-9597
iftig	-9598
ighly	-9599
bla	-9600
ief	-9601
kla	-9602
vie	-9603
vla	-9604
äpm	-9605
arkc	-9606
axed	-9607
elie	-9608
ersö	-9609
iece	-9610
ieva	-9611
ieve	-9612
kera	-9613
lats	-9614
oice	-9615
rats	-9616
tful	-9617
vice	-9618
ygsl	-9619
yssl	-9620
åker	-9621
åket	-9622
åkig	-9623
åkte	-9624
▁Nöj	-9625
▁fli	-9626
▁flä	-9627
▁flå	-9628
▁flö	-9629
▁idr	-9630
▁ihå	-9631
▁qui	-9632
ankar	-9633
atchf	-9634
atser	-9635
chool	-9636
ctful	-9637
gonen	-9638
igned	-9639
ikten	-9640
iktig	-9641
ileps	-9642
ilked	-9643
ilure	-9644
imbed	-9645
inced	-9646
inite	-9647
innig	-9648
ippie	-9649
ippte	-9650
irkel	-9651
isera	-9652
ities	-9653
izing	-9654
juden	-9655
jälvs	-9656
lated	-9657
leasu	-9658
leran	-9659
lerna	-9660
letic	-9661
losed	-9662
loser	-9663
lovad	-9664
loyed	-9665
ltbur	-9666
lände	-9667
maken	-9668
mling	-9669
nderb	-9670
nslös	-9671
ntern	-9672
nälla	-9673
obbar	-9674
ocent	-9675
odded	-9676
olice	-9677
oliga	-9678
omnia	-9679
onely	-9680
onsid	-9681
ookie	-9682
ooled	-9683
orced	-9684
ordbr	-9685
orian	-9686
osamt	-9687
otrog	-9688
ottom	-9689
oubts	-9690
owels	-9691
owerl	-9692
ozart	-9693
passa	-9694
pened	-9695
perat	-9696
ppear	-9697
prise	-9698
rabic	-9699
abb	-9700
avi	-9701
bbt	-9702
bby	-9703
räs	-9704
äsm	-9705
affe	-9706
bbar	-9707
bbit	-9708
erös	-9709
färd	-9710
gift	-9711
intl	-9712
lass	-9713
nabb	-9714
offe	-9715
rass	-9716
räff	-9717
vänd	-9718
weep	-9719
älav	-9720
ärdf	-9721
äser	-9722
▁abd	-9723
▁abr	-9724
▁kok	-9725
▁wav	-9726
acted	-9727
adies	-9728
asser	-9729
asses	-9730
dagen	-9731
dress	-9732
elska	-9733
eländ	-9734
erday	-9735
erska	-9736
ffekt	-9737
gnade	-9738
gress	-9739
intsk	-9740
knade	-9741
lagen	-9742
omord	-9743
onday	-9744
onsib	-9745
ource	-9746
ourte	-9747
pnade	-9748
raher	-9749
ralös	-9750
rated	-9751
ravde	-9752
raven	-9753
reata	-9754
recis	-9755
rerad	-9756
revet	-9757
rible	-9758
riter	-9759
rived	-9760
rogen	-9761
rydde	-9762
rämde	-9763
råter	-9764
sakar	-9765
saken	-9766
sidan	-9767
sitiv	-9768
skott	-9769
skämd	-9770
smäst	-9771
stair	-9772
sterh	-9773
stled	-9774
säkta	-9775
sågod	-9776
söker	-9777
tagen	-9778
tains	-9779
terad	-9780
tress	-9781
ttans	-9782
ucted	-9783
udvär	-9784
uffar	-9785
ulted	-9786
undar	-9787
unden	-9788
unity	-9789
unnen	-9790
urnus	-9791
uropa	-9792
urped	-9793
urypl	-9794
ussed	-9795
verdr	-9796
verla	-9797
vetsl	-9798
viden	-9799
eum	-9800
eva	-9801
fek	-9802
few	-9803
jög	-9804
läd	-9805
pum	-9806
rum	-9807
umb	-9808
vac	-9809
ädg	-9810
ögn	-9811
ögt	-9812
ögu	-9813
ölk	-9814
ains	-9815
akhy	-9816
assa	-9817
baka	-9818
fect	-9819
fekt	-9820
ford	-9821
fore	-9822
kiga	-9823
kopp	-9824
lain	-9825
lied	-9826
reez	-9827
ropp	-9828
rugg	-9829
ssum	-9830
svar	-9831
tion	-9832
umle	-9833
umör	-9834
urfe	-9835
vars	-9836
ölka	-9837
▁Föl	-9838
▁Hög	-9839
▁Ros	-9840
▁Rum	-9841
▁bum	-9842
▁fyr	-9843
▁föl	-9844
▁pok	-9845
▁sju	-9846
▁tum	-9847
ained	-9848
apons	-9849
bious	-9850
cised	-9851
elled	-9852
ellen	-9853
erful	-9854
igers	-9855
inkän	-9856
ision	-9857
ition	-9858
oppar	-9859
oppas	-9860
ranna	-9861
stion	-9862
visar	-9863
vised	-9864
vived	-9865
väder	-9866
vände	-9867
värad	-9868
vären	-9869
vätta	-9870
xious	-9871
xtade	-9872
yable	-9873
ybody	-9874
yggen	-9875
yggon	-9876
ylfen	-9877
yllan	-9878
yllor	-9879
ymden	-9880
äckel	-9881
äffad	-9882
äffar	-9883
äffat	-9884
ägget	-9885
ännet	-9886
äppen	-9887
äpple	-9888
ärker	-9889
äsmat	-9890
ätska	-9891
ätteb	-9892
ättek	-9893
ättem	-9894
ågoda	-9895
åkade	-9896
ånvar	-9897
åttor	-9898
ödade	-9899
gum	-9900
kne	-9901
lik	-9902
neb	-9903
ruk	-9904
sik	-9905
ukh	-9906
ånv	-9907
öne	-9908
öpa	-9909
öpt	-9910
anik	-9911
enne	-9912
etik	-9913
ifik	-9914
jour	-9915
jtar	-9916
lind	-9917
mite	-9918
uked	-9919
uksk	-9920
usik	-9921
uspe	-9922
wind	-9923
ångs	-9924
öper	-9925
öpte	-9926
örne	-9927
▁Klo	-9928
▁Luk	-9929
▁Skj	-9930
▁Skå	-9931
▁Spa	-9932
▁awf	-9933
▁clo	-9934
▁flo	-9935
▁sum	-9936
▁unl	-9937
ediga	-9938
ikett	-9939
ittne	-9940
neför	-9941
obots	-9942
oggar	-9943
ollar	-9944
ollat	-9945
ollen	-9946
urday	-9947
viser	-9948
ättav	-9949
ålade	-9950
åndet	-9951
ångad	-9952
ånger	-9953
öddes	-9954
ögner	-9955
ögubb	-9956
öjade	-9957
öljde	-9958
ömnig	-9959
önade	-9960
öndag	-9961
önder	-9962
ördad	-9963
ördag	-9964
örjan	-9965
örren	-9966
▁Atta	-9967
▁Bost	-9968
▁Budd	-9969
▁Buss	-9970
▁Char	-9971
▁Crow	-9972
▁Dadd	-9973
▁Exer	-9974
▁Flow	-9975
▁Fran	-9976
▁Fren	-9977
▁Funk	-9978
▁Förk	-9979
▁Godd	-9980
▁Henn	-9981
▁Jury	-9982
▁Lyss	-9983
▁Mayb	-9984
▁Mång	-9985
▁Sear	-9986
▁Spar	-9987
▁Toky	-9988
▁Väck	-9989
▁Vänt	-9990
▁acce	-9991
▁afra	-9992
▁agit	-9993
▁anfa	-9994
▁anni	-9995
▁anno	-9996
▁anyw	-9997
▁arab	-9998
▁asle	-9999
jäs	-10000
röm	-10001
ömd	-10002
ömn	-10003
ömt	-10004
▁Pl	-10005
aces	-10006
atef	-10007
dska	-10008
eröm	-10009
fäng	-10010
iskn	-10011
isks	-10012
ltar	-10013
nisk	-10014
rong	-10015
räng	-10016
rött	-10017
spet	-10018
stab	-10019
tans	-10020
visk	-10021
väng	-10022
ömde	-10023
ömma	-10024
▁Pot	-10025
▁Pre	-10026
▁Sla	-10027
▁Slu	-10028
▁Slä	-10029
▁Spi	-10030
▁aga	-10031
▁exp	-10032
▁ext	-10033
▁glu	-10034
▁ros	-10035
▁tab	-10036
▁äng	-10037
alisk	-10038
emble	-10039
erate	-10040
esses	-10041
etisk	-10042
giska	-10043
icate	-10044
inish	-10045
iskar	-10046
ldish	-10047
mired	-10048
nsure	-10049
ormal	-10050
ssess	-10051
unish	-10052
volve	-10053
änges	-10054
ästen	-10055
ötter	-10056
▁Skän	-10057
▁Slän	-10058
▁ager	-10059
▁avsl	-10060
▁awes	-10061
▁begr	-10062
▁begå	-10063
▁bekr	-10064
▁bekv	-10065
▁besv	-10066
▁bias	-10067
▁björ	-10068
▁bråd	-10069
▁budd	-10070
▁butt	-10071
▁caug	-10072
▁clim	-10073
▁clou	-10074
▁conv	-10075
▁cras	-10076
▁crus	-10077
▁deje	-10078
▁dipl	-10079
▁disa	-10080
▁disc	-10081
▁drum	-10082
▁dubb	-10083
▁dybl	-10084
▁earl	-10085
▁empt	-10086
▁exer	-10087
▁expl	-10088
▁filt	-10089
▁fink	-10090
▁flak	-10091
▁flas	-10092
▁flex	-10093
▁flow	-10094
▁flyd	-10095
▁flås	-10096
▁flöj	-10097
▁foll	-10098
▁fotb	-10099
aud	-10100
gga	-10101
gue	-10102
nsw	-10103
que	-10104
▁Op	-10105
▁Or	-10106
bbet	-10107
bbig	-10108
beta	-10109
bish	-10110
cksl	-10111
gnar	-10112
knar	-10113
nark	-10114
nsak	-10115
osam	-10116
rung	-10117
samb	-10118
samm	-10119
sare	-10120
tare	-10121
tsam	-10122
udet	-10123
ulli	-10124
väll	-10125
älld	-10126
älls	-10127
ällt	-10128
▁Bud	-10129
▁gue	-10130
▁nos	-10131
▁sjö	-10132
▁sne	-10133
▁sno	-10134
▁snä	-10135
aksam	-10136
annar	-10137
atisk	-10138
atsam	-10139
betar	-10140
betet	-10141
edare	-10142
elare	-10143
enare	-10144
etime	-10145
igare	-10146
igrar	-10147
insam	-10148
ktans	-10149
merik	-10150
ndare	-10151
onish	-10152
pring	-10153
ringa	-10154
udent	-10155
utsam	-10156
älbet	-10157
ällan	-10158
ället	-10159
ällsk	-10160
▁Kråk	-10161
▁badg	-10162
▁bull	-10163
▁coff	-10164
▁fres	-10165
▁froz	-10166
▁fruk	-10167
▁funn	-10168
▁fyll	-10169
▁garb	-10170
▁gard	-10171
▁glup	-10172
▁glän	-10173
▁grie	-10174
▁guid	-10175
▁halk	-10176
▁halt	-10177
▁hors	-10178
▁husb	-10179
▁hybr	-10180
▁häls	-10181
▁hörs	-10182
▁illo	-10183
▁jogg	-10184
▁jong	-10185
▁jugg	-10186
▁kaot	-10187
▁kapp	-10188
▁klas	-10189
▁kopp	-10190
▁kult	-10191
▁kvin	-10192
▁laun	-10193
▁lawy	-10194
▁limp	-10195
▁lott	-10196
▁lyss	-10197
▁lämn	-10198
▁mard	-10199
ctf	-10200
ctu	-10201
ect	-10202
rov	-10203
uct	-10204
eför	-10205
eous	-10206
förh	-10207
gonb	-10208
ipas	-10209
ppie	-10210
ract	-10211
raft	-10212
rigu	-10213
sect	-10214
sför	-10215
tför	-10216
udan	-10217
unct	-10218
ysta	-10219
äsan	-10220
▁feb	-10221
▁krä	-10222
▁oft	-10223
▁ori	-10224
▁orä	-10225
ainst	-10226
altat	-10227
amous	-10228
arrig	-10229
dning	-10230
erous	-10231
föran	-10232
förar	-10233
först	-10234
idare	-10235
ishap	-10236
jning	-10237
jälvf	-10238
kämta	-10239
nster	-10240
ojigt	-10241
omför	-10242
onary	-10243
onous	-10244
osten	-10245
ouldn	-10246
ownst	-10247
sning	-10248
tayed	-10249
ultat	-10250
utför	-10251
uying	-10252
åriga	-10253
öning	-10254
▁Blun	-10255
▁Doct	-10256
▁amus	-10257
▁beky	-10258
▁boar	-10259
▁bore	-10260
▁cous	-10261
▁desi	-10262
▁exag	-10263
▁fest	-10264
▁gjor	-10265
▁himl	-10266
▁hims	-10267
▁likn	-10268
▁marr	-10269
▁mena	-10270
▁moti	-10271
▁muff	-10272
▁naug	-10273
▁nogg	-10274
▁nykt	-10275
▁nämn	-10276
▁närm	-10277
▁obst	-10278
▁oran	-10279
▁ordb	-10280
▁orph	-10281
▁oräd	-10282
▁osäk	-10283
▁outs	-10284
▁papp	-10285
▁pati	-10286
▁peng	-10287
▁penn	-10288
▁pens	-10289
▁pest	-10290
▁pine	-10291
▁pizz	-10292
▁plum	-10293
▁poän	-10294
▁pref	-10295
▁prep	-10296
▁prof	-10297
▁påtr	-10298
▁radi	-10299
db	-10300
ej	-10301
vm	-10302
Mem	-10303
ayb	-10304
dab	-10305
fat	-10306
räk	-10307
äkr	-10308
öda	-10309
▁hä	-10310
▁äk	-10311
▁öb	-10312
alös	-10313
amou	-10314
ansv	-10315
artl	-10316
biti	-10317
hake	-10318
hart	-10319
jigt	-10320
kigt	-10321
llus	-10322
otst	-10323
tend	-10324
uken	-10325
vart	-10326
äkar	-10327
ållp	-10328
örda	-10329
▁Lun	-10330
▁Sky	-10331
▁chi	-10332
▁dia	-10333
▁dik	-10334
▁dip	-10335
▁emp	-10336
▁gri	-10337
▁ifr	-10338
▁lef	-10339
▁lev	-10340
▁pli	-10341
▁sål	-10342
adful	-10343
ammal	-10344
artig	-10345
dligt	-10346
edsen	-10347
försk	-10348
garna	-10349
idigt	-10350
ights	-10351
ingsl	-10352
jligt	-10353
kligt	-10354
oligt	-10355
penna	-10356
sight	-10357
skigt	-10358
sters	-10359
ushed	-10360
vligt	-10361
▁aler	-10362
▁atta	-10363
▁char	-10364
▁chas	-10365
▁ches	-10366
▁dett	-10367
▁diar	-10368
▁dire	-10369
▁enda	-10370
▁forw	-10371
▁fräk	-10372
▁hurr	-10373
▁kart	-10374
▁leen	-10375
▁plug	-10376
▁plåg	-10377
▁rais	-10378
▁reco	-10379
▁rela	-10380
▁reli	-10381
▁resc	-10382
▁ripp	-10383
▁roug	-10384
▁rumm	-10385
▁rutt	-10386
▁räck	-10387
▁räds	-10388
▁salm	-10389
▁secr	-10390
▁shel	-10391
▁sigh	-10392
▁sinc	-10393
▁skyt	-10394
▁slep	-10395
▁slip	-10396
▁sneg	-10397
▁succ	-10398
▁surp	-10399
tm	-10400
Kis	-10401
Kor	-10402
Lag	-10403
Sen	-10404
cin	-10405
eno	-10406
epy	-10407
gul	-10408
hic	-10409
ici	-10410
icn	-10411
iti	-10412
ric	-10413
tic	-10414
udi	-10415
uic	-10416
vån	-10417
▁Ru	-10418
agic	-10419
alis	-10420
atel	-10421
dera	-10422
deri	-10423
elic	-10424
elsk	-10425
eply	-10426
ffic	-10427
hisk	-10428
icat	-10429
ific	-10430
mmer	-10431
ogga	-10432
ppre	-10433
sköt	-10434
stic	-10435
tern	-10436
till	-10437
ukan	-10438
urag	-10439
▁Köt	-10440
▁Ris	-10441
▁Rod	-10442
▁amb	-10443
▁föt	-10444
▁kep	-10445
▁köt	-10446
▁oär	-10447
▁pic	-10448
▁teg	-10449
▁tek	-10450
▁tev	-10451
▁tex	-10452
alett	-10453
deran	-10454
derat	-10455
dered	-10456
derst	-10457
eping	-10458
genom	-10459
gerat	-10460
gerna	-10461
ilots	-10462
lyger	-10463
match	-10464
ocket	-10465
ollid	-10466
onder	-10467
ungen	-10468
unger	-10469
urger	-10470
ussar	-10471
yster	-10472
älder	-10473
▁alli	-10474
▁depr	-10475
▁dust	-10476
▁fain	-10477
▁heml	-10478
▁serv	-10479
▁stry	-10480
▁stöt	-10481
▁sush	-10482
▁svär	-10483
▁säkr	-10484
▁sårb	-10485
▁tear	-10486
▁teck	-10487
▁teen	-10488
▁teet	-10489
▁tele	-10490
▁tenn	-10491
▁test	-10492
▁tigg	-10493
▁tuff	-10494
▁tupp	-10495
▁tviv	-10496
▁tvät	-10497
▁tvås	-10498
▁tång	-10499
to	-10500
api	-10501
apn	-10502
ari	-10503
cne	-10504
cul	-10505
dap	-10506
een	-10507
had	-10508
hin	-10509
hop	-10510
ifi	-10511
iol	-10512
ksk	-10513
kst	-10514
ogy	-10515
oln	-10516
olo	-10517
olt	-10518
raw	-10519
rif	-10520
rke	-10521
rol	-10522
sul	-10523
uls	-10524
uot	-10525
vul	-10526
vår	-10527
zin	-10528
ägl	-10529
ämt	-10530
▁Jo	-10531
apta	-10532
emif	-10533
heap	-10534
ifta	-10535
ifte	-10536
itic	-10537
oids	-10538
olan	-10539
olis	-10540
olta	-10541
opul	-10542
rack	-10543
raid	-10544
ssed	-10545
▁Gif	-10546
▁Käm	-10547
▁Lif	-10548
▁Rop	-10549
▁Sop	-10550
▁Yol	-10551
▁cap	-10552
▁nut	-10553
▁rul	-10554
▁sau	-10555
▁sli	-10556
▁små	-10557
▁tel	-10558
▁tow	-10559
▁vap	-10560
▁wif	-10561
alöst	-10562
anked	-10563
ifist	-10564
inate	-10565
mster	-10566
opade	-10567
ortun	-10568
selve	-10569
stisk	-10570
ulner	-10571
uried	-10572
urope	-10573
verar	-10574
ändel	-10575
ättra	-10576
▁Bägg	-10577
▁borr	-10578
▁danc	-10579
▁döen	-10580
▁heal	-10581
▁heav	-10582
▁prie	-10583
▁smut	-10584
▁trak	-10585
▁undv	-10586
▁unem	-10587
▁ungj	-10588
▁upfr	-10589
▁utsv	-10590
▁uttr	-10591
▁vans	-10592
▁veck	-10593
▁vegg	-10594
▁vind	-10595
▁viol	-10596
▁vägl	-10597
▁vägr	-10598
▁väld	-10599
By	-10600
ku	-10601
kå	-10602
på	-10603
esn	-10604
hap	-10605
maz	-10606
nta	-10607
pän	-10608
tiv	-10609
ymt	-10610
årb	-10611
▁ly	-10612
ackw	-10613
aped	-10614
asög	-10615
attr	-10616
bout	-10617
dnar	-10618
eist	-10619
ence	-10620
gner	-10621
herr	-10622
icid	-10623
isad	-10624
isit	-10625
issl	-10626
issn	-10627
isti	-10628
larf	-10629
ljud	-10630
lner	-10631
mail	-10632
mast	-10633
niss	-10634
omma	-10635
ordb	-10636
outl	-10637
outs	-10638
pets	-10639
sour	-10640
stma	-10641
wiss	-10642
wist	-10643
älft	-10644
▁Jap	-10645
▁Jum	-10646
▁Rul	-10647
▁Stä	-10648
▁avo	-10649
▁avs	-10650
▁dri	-10651
▁drö	-10652
▁mam	-10653
▁sho	-10654
▁upf	-10655
▁ups	-10656
artar	-10657
artis	-10658
chack	-10659
derna	-10660
essor	-10661
ettig	-10662
istan	-10663
istig	-10664
istis	-10665
itter	-10666
jälvk	-10667
olors	-10668
orson	-10669
veryb	-10670
örebr	-10671
▁Hiss	-10672
▁Stäm	-10673
▁brig	-10674
▁brot	-10675
▁bråt	-10676
▁denn	-10677
▁driv	-10678
▁giss	-10679
▁guil	-10680
▁midd	-10681
▁nois	-10682
▁ocks	-10683
▁shir	-10684
▁slak	-10685
▁tiss	-10686
▁välk	-10687
▁vält	-10688
▁vänd	-10689
▁värk	-10690
▁väsk	-10691
▁wink	-10692
▁wint	-10693
▁witn	-10694
▁worr	-10695
▁writ	-10696
▁äppl	-10697
▁äreg	-10698
accoon	-10699
ba	-10700
sn	-10701
vk	-10702
Kär	-10703
Rul	-10704
anl	-10705
hly	-10706
hre	-10707
htm	-10708
hts	-10709
hty	-10710
irl	-10711
ked	-10712
lka	-10713
lym	-10714
ndv	-10715
plo	-10716
uin	-10717
öka	-10718
▁Eg	-10719
▁Et	-10720
▁Pu	-10721
▁På	-10722
adly	-10723
arka	-10724
avel	-10725
blar	-10726
eful	-10727
erve	-10728
have	-10729
hted	-10730
ilse	-10731
issm	-10732
kaff	-10733
lart	-10734
larv	-10735
odka	-10736
olut	-10737
oola	-10738
otar	-10739
ouch	-10740
owly	-10741
ugen	-10742
unka	-10743
åkar	-10744
åtta	-10745
öder	-10746
örka	-10747
▁Lug	-10748
▁Sin	-10749
▁brå	-10750
▁fog	-10751
▁fug	-10752
▁häf	-10753
▁nud	-10754
▁oly	-10755
▁pri	-10756
▁smi	-10757
▁soc	-10758
▁tro	-10759
▁tug	-10760
▁vax	-10761
ersök	-10762
itade	-10763
lskar	-10764
nskar	-10765
owner	-10766
uskar	-10767
äpmat	-10768
överd	-10769
överk	-10770
överr	-10771
▁Amer	-10772
▁Själ	-10773
▁brus	-10774
▁helg	-10775
▁prev	-10776
▁prob	-10777
▁prou	-10778
▁skug	-10779
▁slän	-10780
▁sopp	-10781
▁timm	-10782
▁ägar	-10783
ackade	-10784
ackert	-10785
acksam	-10786
agligt	-10787
aiting	-10788
aknade	-10789
ammans	-10790
ananas	-10791
ananer	-10792
ancing	-10793
andlar	-10794
andrar	-10795
ansade	-10796
antast	-10797
apanes	-10798
apansk	-10799
Dr	-10800
dt	-10801
mi	-10802
nw	-10803
sq	-10804
Fun	-10805
Lär	-10806
Pas	-10807
aug	-10808
chf	-10809
cod	-10810
eop	-10811
ivb	-10812
ivl	-10813
liv	-10814
lod	-10815
niv	-10816
odn	-10817
uge	-10818
wam	-10819
äds	-10820
äsb	-10821
öro	-10822
▁Ro	-10823
akfa	-10824
alle	-10825
ceiv	-10826
erän	-10827
itiv	-10828
ivid	-10829
jkar	-10830
laud	-10831
lint	-10832
matt	-10833
obod	-10834
oded	-10835
oden	-10836
oder	-10837
odet	-10838
ongs	-10839
orka	-10840
skiv	-10841
ssiv	-10842
uger	-10843
ugor	-10844
ulat	-10845
ärma	-10846
ättd	-10847
ättf	-10848
ättn	-10849
ågod	-10850
örol	-10851
▁Div	-10852
▁deb	-10853
▁dec	-10854
▁dee	-10855
▁giv	-10856
▁que	-10857
▁spl	-10858
▁spo	-10859
antag	-10860
inall	-10861
lytta	-10862
order	-10863
orätt	-10864
oudly	-10865
utsig	-10866
ärger	-10867
ättar	-10868
ättig	-10869
ättre	-10870
▁Stän	-10871
▁alld	-10872
▁bliv	-10873
▁blun	-10874
▁depp	-10875
▁dest	-10876
▁hang	-10877
▁knän	-10878
▁resp	-10879
▁taxp	-10880
▁uppk	-10881
appear	-10882
arande	-10883
arkade	-10884
arkant	-10885
arkera	-10886
arless	-10887
arming	-10888
arrass	-10889
arring	-10890
artisk	-10891
artled	-10892
asagna	-10893
assera	-10894
asskam	-10895
atched	-10896
atchen	-10897
ateder	-10898
athing	-10899
Ki	-10900
Ru	-10901
kö	-10902
yj	-10903
Kid	-10904
Out	-10905
dry	-10906
eal	-10907
his	-10908
lie	-10909
läg	-10910
mom	-10911
nut	-10912
put	-10913
ryd	-10914
try	-10915
uds	-10916
utr	-10917
äga	-10918
ägs	-10919
äre	-10920
ccur	-10921
cent	-10922
dent	-10923
drar	-10924
edat	-10925
elow	-10926
emem	-10927
enti	-10928
gent	-10929
ical	-10930
illb	-10931
inst	-10932
isto	-10933
jält	-10934
lent	-10935
ligh	-10936
ment	-10937
oläm	-10938
onut	-10939
ortf	-10940
port	-10941
ppry	-10942
ryll	-10943
stel	-10944
tent	-10945
urry	-10946
utat	-10947
vent	-10948
yska	-10949
äger	-10950
äste	-10951
åste	-10952
▁fut	-10953
▁gon	-10954
▁isl	-10955
▁län	-10956
▁måd	-10957
adade	-10958
arent	-10959
etent	-10960
hless	-10961
ilent	-10962
ldren	-10963
låter	-10964
ngare	-10965
onent	-10966
ortan	-10967
steck	-10968
ulten	-10969
yndat	-10970
▁Fruk	-10971
▁Skre	-10972
▁baff	-10973
▁beha	-10974
▁beho	-10975
▁behö	-10976
▁blin	-10977
▁bloo	-10978
▁blåt	-10979
▁drug	-10980
▁fasc	-10981
▁gråt	-10982
▁lort	-10983
▁mång	-10984
▁neut	-10985
▁peop	-10986
▁själ	-10987
▁stut	-10988
attare	-10989
attiga	-10990
bbling	-10991
burken	-10992
caping	-10993
ckligt	-10994
cknade	-10995
ckning	-10996
deland	-10997
derade	-10998
ducted	-10999
gu	-11000
ji	-11001
Kan	-11002
agt	-11003
bag	-11004
båg	-11005
ded	-11006
ekt	-11007
hut	-11008
inc	-11009
kty	-11010
kut	-11011
low	-11012
lug	-11013
nsl	-11014
rce	-11015
ukt	-11016
ökt	-11017
▁Bo	-11018
▁wa	-11019
alls	-11020
ands	-11021
arkt	-11022
atar	-11023
aust	-11024
cary	-11025
enad	-11026
erkt	-11027
imma	-11028
islo	-11029
ject	-11030
judd	-11031
ktan	-11032
ktar	-11033
ktet	-11034
leva	-11035
mand	-11036
usts	-11037
utis	-11038
vite	-11039
ylde	-11040
äppl	-11041
ärkt	-11042
örkt	-11043
▁akt	-11044
▁cul	-11045
▁krö	-11046
▁nic	-11047
▁rus	-11048
▁sek	-11049
▁utv	-11050
▁utö	-11051
▁vie	-11052
allas	-11053
aller	-11054
anden	-11055
ander	-11056
andle	-11057
dnade	-11058
eland	-11059
emand	-11060
fullt	-11061
fused	-11062
ktade	-11063
stand	-11064
unday	-11065
utade	-11066
åtand	-11067
▁Bird	-11068
▁Hall	-11069
▁Tviv	-11070
▁athe	-11071
▁brin	-11072
▁grav	-11073
▁komp	-11074
▁medv	-11075
▁månd	-11076
▁scre	-11077
▁shav	-11078
▁vink	-11079
agiskt	-11080
andade	-11081
edning	-11082
elande	-11083
elfish	-11084
elsten	-11085
enched	-11086
enerar	-11087
entisk	-11088
entlem	-11089
erbjud	-11090
erfect	-11091
erfekt	-11092
ermite	-11093
ernoon	-11094
ertain	-11095
erätta	-11096
essage	-11097
essful	-11098
essjuk	-11099
Bo	-11100
nk	-11101
wh	-11102
Bes	-11103
Eng	-11104
Kän	-11105
Ser	-11106
You	-11107
erl	-11108
ffl	-11109
fft	-11110
iff	-11111
jus	-11112
käm	-11113
lob	-11114
ndo	-11115
ndr	-11116
nds	-11117
nge	-11118
ngj	-11119
ngl	-11120
ngs	-11121
ngt	-11122
nob	-11123
obo	-11124
obs	-11125
omi	-11126
rte	-11127
räg	-11128
vat	-11129
zen	-11130
äml	-11131
önd	-11132
▁Gö	-11133
alks	-11134
bete	-11135
ells	-11136
ffar	-11137
ickn	-11138
iots	-11139
katt	-11140
natt	-11141
ndat	-11142
ndet	-11143
ngar	-11144
oble	-11145
olig	-11146
ordr	-11147
skäm	-11148
tist	-11149
ubby	-11150
udda	-11151
uice	-11152
ylla	-11153
▁Job	-11154
▁Rit	-11155
▁Sät	-11156
▁eff	-11157
▁kni	-11158
▁kno	-11159
▁kol	-11160
▁mob	-11161
▁rob	-11162
▁sob	-11163
ffing	-11164
jälvm	-11165
lemet	-11166
mnade	-11167
ooked	-11168
ously	-11169
stern	-11170
ufför	-11171
ädgår	-11172
ärdig	-11173
öljer	-11174
▁Book	-11175
▁Hone	-11176
▁Hurr	-11177
▁amer	-11178
▁bedt	-11179
▁doct	-11180
▁gräv	-11181
▁medd	-11182
▁mone	-11183
▁preg	-11184
acking	-11185
arligt	-11186
bsolut	-11187
etande	-11188
etired	-11189
etiska	-11190
etjock	-11191
etplan	-11192
ettade	-11193
fattat	-11194
ferade	-11195
finite	-11196
förber	-11197
gblind	-11198
gerous	-11199
Fl	-11200
Yo	-11201
ca	-11202
sf	-11203
vd	-11204
Bet	-11205
dna	-11206
egg	-11207
ina	-11208
isl	-11209
lld	-11210
lus	-11211
lyr	-11212
läm	-11213
lär	-11214
nus	-11215
rop	-11216
räm	-11217
sol	-11218
udv	-11219
ugn	-11220
ule	-11221
usp	-11222
usy	-11223
våt	-11224
ämm	-11225
åts	-11226
▁Nj	-11227
▁Nö	-11228
Kill	-11229
Pick	-11230
anes	-11231
cess	-11232
eave	-11233
elåt	-11234
eråt	-11235
icky	-11236
irly	-11237
kick	-11238
olat	-11239
olor	-11240
osor	-11241
rand	-11242
stag	-11243
tick	-11244
user	-11245
uset	-11246
utch	-11247
▁Häm	-11248
▁Nag	-11249
▁Sto	-11250
▁Vac	-11251
▁anp	-11252
▁båt	-11253
▁dow	-11254
▁fas	-11255
▁gul	-11256
▁häm	-11257
▁los	-11258
▁prä	-11259
▁pus	-11260
▁råt	-11261
▁stj	-11262
▁tun	-11263
ellow	-11264
ickor	-11265
mulär	-11266
oklad	-11267
reckk	-11268
sible	-11269
tiver	-11270
ummel	-11271
▁Foll	-11272
▁Natt	-11273
▁Tick	-11274
▁Varj	-11275
▁Varn	-11276
▁anst	-11277
▁drif	-11278
▁kick	-11279
▁lett	-11280
▁mäkt	-11281
▁nick	-11282
▁sain	-11283
▁stäm	-11284
▁upst	-11285
▁älsk	-11286
ential	-11287
fyller	-11288
gillar	-11289
hering	-11290
hämtar	-11291
händel	-11292
icture	-11293
iftigt	-11294
iggled	-11295
ighten	-11296
igning	-11297
illigt	-11298
illver	-11299
kh	-11300
tö	-11301
air	-11302
cam	-11303
cra	-11304
dra	-11305
eiz	-11306
ero	-11307
fou	-11308
gra	-11309
irb	-11310
irc	-11311
irm	-11312
iru	-11313
mad	-11314
mir	-11315
mst	-11316
rap	-11317
rau	-11318
raz	-11319
ski	-11320
ssl	-11321
stl	-11322
tab	-11323
vir	-11324
ybl	-11325
ödr	-11326
▁Ad	-11327
▁Ry	-11328
acks	-11329
aive	-11330
anns	-11331
arap	-11332
arce	-11333
arty	-11334
erif	-11335
erly	-11336
fför	-11337
give	-11338
idna	-11339
ktig	-11340
lick	-11341
orra	-11342
raff	-11343
raig	-11344
rick	-11345
sive	-11346
tair	-11347
tive	-11348
ugar	-11349
vive	-11350
ågra	-11351
▁Anf	-11352
▁Ara	-11353
▁bir	-11354
▁bäd	-11355
▁böt	-11356
▁dru	-11357
▁frä	-11358
▁kav	-11359
▁mir	-11360
▁töl	-11361
▁vir	-11362
▁wea	-11363
▁wep	-11364
erent	-11365
grann	-11366
höver	-11367
igarr	-11368
itive	-11369
olver	-11370
ultur	-11371
ärhet	-11372
övera	-11373
överg	-11374
övers	-11375
övert	-11376
▁Kans	-11377
▁Miss	-11378
▁Stan	-11379
▁bump	-11380
▁frig	-11381
▁thir	-11382
▁varn	-11383
▁weir	-11384
adades	-11385
illade	-11386
iloter	-11387
imbing	-11388
imerad	-11389
immigt	-11390
inated	-11391
ingens	-11392
ingers	-11393
ingret	-11394
inning	-11395
insamt	-11396
inting	-11397
ipster	-11398
ishing	-11399
Co	-11400
Ev	-11401
Ge	-11402
Hu	-11403
Lå	-11404
Mj	-11405
Oil	-11406
Tom	-11407
bat	-11408
cep	-11409
ilm	-11410
ils	-11411
lyt	-11412
mil	-11413
oly	-11414
sid	-11415
sti	-11416
ålm	-11417
▁Bå	-11418
▁fö	-11419
allh	-11420
amil	-11421
ants	-11422
arig	-11423
asil	-11424
care	-11425
ckor	-11426
etti	-11427
ever	-11428
gant	-11429
iler	-11430
imil	-11431
ittp	-11432
jett	-11433
kant	-11434
lant	-11435
lara	-11436
lett	-11437
llen	-11438
mitt	-11439
nant	-11440
olen	-11441
omeb	-11442
omew	-11443
ongr	-11444
ortr	-11445
rant	-11446
rett	-11447
skil	-11448
some	-11449
tant	-11450
vitt	-11451
yssa	-11452
▁Tho	-11453
▁Thr	-11454
▁bät	-11455
▁jap	-11456
▁pil	-11457
antar	-11458
anted	-11459
enter	-11460
ettas	-11461
ilant	-11462
itten	-11463
omant	-11464
omeon	-11465
ottle	-11466
rewed	-11467
äpnad	-11468
▁Fatt	-11469
▁Giss	-11470
▁Happ	-11471
▁Hitt	-11472
▁Speg	-11473
▁Sälj	-11474
▁Than	-11475
▁Thin	-11476
▁abro	-11477
▁bett	-11478
▁hail	-11479
▁motb	-11480
▁pett	-11481
▁sovm	-11482
▁stat	-11483
▁tröt	-11484
▁vres	-11485
antill	-11486
anting	-11487
etting	-11488
ishone	-11489
iskret	-11490
issför	-11491
issing	-11492
isörer	-11493
iterad	-11494
itious	-11495
ittnen	-11496
ivbord	-11497
joying	-11498
krobat	-11499
Rä	-11500
TV	-11501
Th	-11502
Tä	-11503
rk	-11504
Put	-11505
bst	-11506
dop	-11507
edå	-11508
giv	-11509
iml	-11510
imn	-11511
imp	-11512
ims	-11513
imt	-11514
ova	-11515
oän	-11516
pre	-11517
rim	-11518
rse	-11519
sse	-11520
ssi	-11521
ssn	-11522
tor	-11523
vim	-11524
vös	-11525
ypt	-11526
▁Ba	-11527
▁Bi	-11528
▁Bj	-11529
▁Fi	-11530
▁Fo	-11531
▁Fy	-11532
▁Fö	-11533
▁ög	-11534
andm	-11535
anim	-11536
brid	-11537
etis	-11538
imat	-11539
imer	-11540
inat	-11541
nger	-11542
orti	-11543
ssen	-11544
sste	-11545
yckn	-11546
ycks	-11547
yckt	-11548
▁Ban	-11549
▁Bar	-11550
▁Bes	-11551
▁Ble	-11552
▁Bre	-11553
▁Fin	-11554
▁Foo	-11555
▁Fåg	-11556
▁Mil	-11557
▁ass	-11558
▁dim	-11559
▁div	-11560
▁huv	-11561
▁kra	-11562
▁les	-11563
▁soa	-11564
▁tan	-11565
▁tap	-11566
▁tim	-11567
andar	-11568
armig	-11569
arter	-11570
astic	-11571
ioner	-11572
issat	-11573
lunda	-11574
nslig	-11575
orade	-11576
reams	-11577
ssing	-11578
urder	-11579
yckad	-11580
yckat	-11581
▁Buck	-11582
▁Hurd	-11583
▁Skak	-11584
▁cred	-11585
▁disp	-11586
▁gena	-11587
▁hist	-11588
▁hitt	-11589
▁sear	-11590
asande	-11591
gerate	-11592
ksamma	-11593
ktliga	-11594
ktygsl	-11595
lander	-11596
leaned	-11597
lerant	-11598
levant	-11599
At	-11600
Bj	-11601
Ju	-11602
dv	-11603
lb	-11604
li	-11605
lp	-11606
rj	-11607
Fåg	-11608
Lun	-11609
Någ	-11610
akh	-11611
akj	-11612
elt	-11613
erh	-11614
idt	-11615
jak	-11616
ldp	-11617
lät	-11618
mak	-11619
nol	-11620
opu	-11621
rak	-11622
ron	-11623
rät	-11624
sät	-11625
tem	-11626
vät	-11627
yld	-11628
åak	-11629
ågo	-11630
ågr	-11631
ågt	-11632
åld	-11633
örä	-11634
▁Bö	-11635
▁Co	-11636
▁Lö	-11637
akna	-11638
akom	-11639
andv	-11640
aoke	-11641
elak	-11642
erät	-11643
lare	-11644
lden	-11645
lder	-11646
ndar	-11647
oist	-11648
omit	-11649
otog	-11650
owar	-11651
razy	-11652
ryck	-11653
usin	-11654
ussi	-11655
xist	-11656
yckl	-11657
ärld	-11658
ätar	-11659
äter	-11660
ätit	-11661
ätsk	-11662
ågel	-11663
ågen	-11664
åget	-11665
ågon	-11666
▁fak	-11667
▁jät	-11668
▁nec	-11669
▁neu	-11670
▁nex	-11671
▁omr	-11672
▁omt	-11673
▁rät	-11674
▁wou	-11675
erest	-11676
illad	-11677
inese	-11678
ktlig	-11679
obody	-11680
remen	-11681
ulden	-11682
wered	-11683
äsong	-11684
ättet	-11685
ågade	-11686
▁Kyck	-11687
▁Tyck	-11688
▁Visp	-11689
▁near	-11690
▁skak	-11691
▁soak	-11692
lighet	-11693
llning	-11694
lovade	-11695
lyckad	-11696
lyckas	-11697
lydiga	-11698
maning	-11699
ls	-11700
pi	-11701
wi	-11702
Dan	-11703
Eld	-11704
akl	-11705
ean	-11706
hma	-11707
ias	-11708
isc	-11709
lfs	-11710
nda	-11711
rat	-11712
sle	-11713
teg	-11714
ton	-11715
täm	-11716
xes	-11717
▁Bä	-11718
▁Li	-11719
▁Lo	-11720
▁Ly	-11721
▁Mi	-11722
▁Mj	-11723
adig	-11724
apon	-11725
arit	-11726
assm	-11727
ativ	-11728
emma	-11729
ffad	-11730
issb	-11731
jlig	-11732
klig	-11733
ligg	-11734
mlig	-11735
omed	-11736
ootb	-11737
slig	-11738
vlig	-11739
äska	-11740
åren	-11741
▁Ben	-11742
▁Chr	-11743
▁Lis	-11744
▁Lit	-11745
▁Loo	-11746
▁Low	-11747
▁Man	-11748
▁Mar	-11749
▁Mem	-11750
▁Mid	-11751
▁Mit	-11752
▁Mär	-11753
▁Mör	-11754
▁arb	-11755
▁ars	-11756
▁dro	-11757
▁eig	-11758
▁frå	-11759
▁kak	-11760
▁rew	-11761
▁vik	-11762
▁wen	-11763
aktig	-11764
cklig	-11765
emlig	-11766
erlig	-11767
itlig	-11768
jamas	-11769
llvar	-11770
nolog	-11771
otlig	-11772
pning	-11773
talig	-11774
träff	-11775
urlig	-11776
äggen	-11777
▁arou	-11778
▁asht	-11779
▁atti	-11780
▁irre	-11781
▁kann	-11782
▁kans	-11783
▁minn	-11784
▁skri	-11785
▁tret	-11786
▁trou	-11787
▁uppf	-11788
araoke	-11789
ention	-11790
narkar	-11791
nesses	-11792
nuffas	-11793
närlig	-11794
obotar	-11795
ollera	-11796
ologiz	-11797
omeone	-11798
ondent	-11799
Cl	-11800
go	-11801
ml	-11802
sr	-11803
Boo	-11804
Loo	-11805
Mid	-11806
acc	-11807
arf	-11808
cht	-11809
cus	-11810
edl	-11811
hoo	-11812
mle	-11813
nsk	-11814
oad	-11815
ola	-11816
onb	-11817
ont	-11818
psk	-11819
skl	-11820
skr	-11821
tch	-11822
uch	-11823
ude	-11824
uri	-11825
vsk	-11826
äld	-11827
äsk	-11828
äsp	-11829
ågl	-11830
alna	-11831
alsk	-11832
ansk	-11833
arsk	-11834
asch	-11835
chal	-11836
chat	-11837
cher	-11838
chet	-11839
ckna	-11840
edin	-11841
edst	-11842
emsk	-11843
ench	-11844
esom	-11845
ffor	-11846
gler	-11847
heck	-11848
hout	-11849
inds	-11850
issf	-11851
itch	-11852
kelp	-11853
nack	-11854
ogad	-11855
omna	-11856
onsi	-11857
orsk	-11858
ppsk	-11859
risk	-11860
rown	-11861
skom	-11862
stoo	-11863
älsk	-11864
ärsk	-11865
årsk	-11866
örsk	-11867
▁coo	-11868
▁loo	-11869
▁näm	-11870
▁opp	-11871
▁por	-11872
▁slo	-11873
▁tir	-11874
▁woo	-11875
ching	-11876
enste	-11877
ggrad	-11878
icker	-11879
korre	-11880
luten	-11881
längt	-11882
äslig	-11883
ållpl	-11884
▁Stir	-11885
▁dokt	-11886
▁jack	-11887
▁kläd	-11888
▁kval	-11889
▁måll	-11890
▁proo	-11891
▁stoo	-11892
▁vint	-11893
onight	-11894
onting	-11895
ookies	-11896
ooking	-11897
oolish	-11898
ooting	-11899
vå	-11900
Foo	-11901
Får	-11902
Mår	-11903
Rem	-11904
ays	-11905
emb	-11906
eme	-11907
emi	-11908
emy	-11909
kna	-11910
lay	-11911
mna	-11912
nab	-11913
nem	-11914
ols	-11915
pay	-11916
ray	-11917
teb	-11918
urs	-11919
wet	-11920
xem	-11921
yta	-11922
åna	-11923
åra	-11924
ård	-11925
års	-11926
▁Lj	-11927
▁Yo	-11928
ayed	-11929
ayer	-11930
ayor	-11931
blem	-11932
ckin	-11933
dant	-11934
eles	-11935
elän	-11936
emen	-11937
erår	-11938
etir	-11939
ffär	-11940
gisk	-11941
icer	-11942
isen	-11943
lone	-11944
mist	-11945
onår	-11946
ppar	-11947
älsa	-11948
äver	-11949
årad	-11950
åran	-11951
årig	-11952
▁Cat	-11953
▁Had	-11954
▁Hår	-11955
▁Sem	-11956
▁alw	-11957
▁hin	-11958
▁hir	-11959
▁pla	-11960
▁slu	-11961
aying	-11962
ngade	-11963
otion	-11964
ousin	-11965
rades	-11966
raped	-11967
reath	-11968
rying	-11969
ästan	-11970
årade	-11971
▁Vilk	-11972
▁alou	-11973
▁appl	-11974
▁avun	-11975
▁bred	-11976
▁förn	-11977
▁föro	-11978
▁föru	-11979
▁gods	-11980
▁smak	-11981
aktare	-11982
granna	-11983
istant	-11984
ligent	-11985
neliga	-11986
oppade	-11987
opular	-11988
orkade	-11989
orming	-11990
orning	-11991
ortför	-11992
ortion	-11993
ossade	-11994
ostade	-11995
ottare	-11996
ouched	-11997
ourage	-11998
ournal	-11999
kl	-12000
of	-12001
Här	-12002
Mam	-12003
agi	-12004
alf	-12005
alp	-12006
ama	-12007
amb	-12008
amf	-12009
amg	-12010
amo	-12011
bal	-12012
bbl	-12013
bry	-12014
cal	-12015
cha	-12016
eam	-12017
edr	-12018
eem	-12019
emm	-12020
emo	-12021
ems	-12022
fad	-12023
fam	-12024
jal	-12025
jam	-12026
lou	-12027
mul	-12028
nce	-12029
oak	-12030
oal	-12031
omh	-12032
skä	-12033
tir	-12034
wed	-12035
yal	-12036
▁pj	-12037
agod	-12038
akas	-12039
alad	-12040
alar	-12041
alas	-12042
alen	-12043
aler	-12044
alet	-12045
amer	-12046
amta	-12047
doms	-12048
elet	-12049
eten	-12050
fely	-12051
ffin	-12052
ital	-12053
itig	-12054
juts	-12055
llam	-12056
oral	-12057
orld	-12058
pris	-12059
rata	-12060
real	-12061
teal	-12062
uren	-12063
usic	-12064
ydel	-12065
▁Cal	-12066
▁Kam	-12067
▁Sal	-12068
▁Wal	-12069
▁ath	-12070
▁bal	-12071
▁fal	-12072
▁myr	-12073
ackar	-12074
aturn	-12075
bblar	-12076
inach	-12077
loyal	-12078
ssive	-12079
stick	-12080
ållan	-12081
▁Skäm	-12082
▁cart	-12083
▁dagb	-12084
▁digg	-12085
▁fris	-12086
▁läpp	-12087
▁matt	-12088
▁snut	-12089
overed	-12090
ovised	-12091
owning	-12092
pelsin	-12093
ployed	-12094
ppnade	-12095
primer	-12096
provis	-12097
racted	-12098
raight	-12099
ek	-12100
ey	-12101
rf	-12102
amm	-12103
amv	-12104
arb	-12105
enh	-12106
gde	-12107
jde	-12108
lam	-12109
ldn	-12110
nde	-12111
nnu	-12112
oga	-12113
ram	-12114
ssa	-12115
vsl	-12116
xam	-12117
älb	-12118
älv	-12119
öde	-12120
▁hy	-12121
attk	-12122
deas	-12123
eran	-12124
fyll	-12125
gave	-12126
here	-12127
itik	-12128
jken	-12129
llde	-12130
mrad	-12131
myck	-12132
omes	-12133
pong	-12134
pped	-12135
ratt	-12136
ries	-12137
sary	-12138
sked	-12139
takt	-12140
tere	-12141
älta	-12142
ättb	-12143
ågar	-12144
ågor	-12145
öräl	-12146
▁Guy	-12147
▁Säl	-12148
▁Väl	-12149
▁bri	-12150
▁doz	-12151
▁gåt	-12152
▁kop	-12153
▁mol	-12154
▁onl	-12155
▁påb	-12156
▁påh	-12157
▁pål	-12158
▁påt	-12159
▁skj	-12160
▁sko	-12161
▁skä	-12162
▁unm	-12163
alked	-12164
allar	-12165
antis	-12166
illde	-12167
ingde	-12168
issed	-12169
ktigt	-12170
ndade	-12171
ndant	-12172
älade	-12173
▁Brom	-12174
▁enou	-12175
▁flyt	-12176
▁förf	-12177
▁robb	-12178
▁skat	-12179
▁skot	-12180
▁strä	-12181
▁topp	-12182
▁unus	-12183
▁varj	-12184
▁varv	-12185
agerad	-12186
imning	-12187
ralöst	-12188
ranska	-12189
rbetar	-12190
reakfa	-12191
ressiv	-12192
revlig	-12193
rillar	-12194
ringan	-12195
ringer	-12196
rottsk	-12197
rovade	-12198
ryckte	-12199
Am	-12200
Di	-12201
To	-12202
ni	-12203
Än	-12204
Ble	-12205
bbe	-12206
cel	-12207
ece	-12208
epp	-12209
fil	-12210
fle	-12211
lsk	-12212
lyn	-12213
mun	-12214
omt	-12215
ple	-12216
ppe	-12217
ppf	-12218
ppi	-12219
ppk	-12220
ppl	-12221
pps	-12222
ppt	-12223
reb	-12224
rer	-12225
sec	-12226
uga	-12227
upp	-12228
öpp	-12229
▁eg	-12230
agre	-12231
andr	-12232
dlig	-12233
edle	-12234
erer	-12235
gens	-12236
illr	-12237
inor	-12238
ivat	-12239
kepp	-12240
lear	-12241
lies	-12242
lken	-12243
ndig	-12244
orse	-12245
owns	-12246
pind	-12247
ppet	-12248
pple	-12249
tapp	-12250
umer	-12251
ändå	-12252
ärle	-12253
åkat	-12254
▁Cle	-12255
▁Eng	-12256
▁Sol	-12257
▁doc	-12258
▁dof	-12259
▁dok	-12260
▁fle	-12261
▁gro	-12262
▁osk	-12263
▁sty	-12264
▁stä	-12265
aklig	-12266
akuer	-12267
alist	-12268
amade	-12269
aring	-12270
dings	-12271
flykt	-12272
ingle	-12273
kände	-12274
ojkar	-12275
otrev	-12276
perer	-12277
pping	-12278
ärskt	-12279
ätten	-12280
ålmod	-12281
▁anim	-12282
▁bear	-12283
▁conc	-12284
▁harm	-12285
▁hone	-12286
▁skry	-12287
▁stag	-12288
▁stin	-12289
▁stun	-12290
▁tyck	-12291
▁väck	-12292
leased	-12293
sekter	-12294
skling	-12295
skräck	-12296
sköter	-12297
slagen	-12298
ssades	-12299
Ma	-12300
dä	-12301
Eur	-12302
Ple	-12303
ads	-12304
ase	-12305
dle	-12306
häm	-12307
idb	-12308
lee	-12309
lve	-12310
orm	-12311
tad	-12312
tam	-12313
urg	-12314
urp	-12315
åge	-12316
åkt	-12317
▁Ai	-12318
▁Ap	-12319
▁Ca	-12320
▁Cr	-12321
▁Cu	-12322
▁Rä	-12323
▁nä	-12324
Natt	-12325
amin	-12326
aper	-12327
atti	-12328
attl	-12329
attn	-12330
batt	-12331
derf	-12332
enna	-12333
enäg	-12334
etsl	-12335
etur	-12336
otur	-12337
quer	-12338
sist	-12339
sser	-12340
öken	-12341
▁Bil	-12342
▁Car	-12343
▁Com	-12344
▁Jur	-12345
▁Liv	-12346
▁Läm	-12347
▁Whi	-12348
▁Woo	-12349
▁atl	-12350
▁gan	-12351
▁jur	-12352
▁ork	-12353
▁ple	-12354
▁pur	-12355
▁säl	-12356
▁wis	-12357
allen	-12358
ckles	-12359
gerou	-12360
getar	-12361
leken	-12362
orter	-12363
pster	-12364
stare	-12365
verle	-12366
ändra	-12367
ärare	-12368
ättad	-12369
ördar	-12370
▁Katt	-12371
▁Vatt	-12372
▁batt	-12373
▁drun	-12374
▁fäll	-12375
▁härs	-12376
▁leds	-12377
▁låts	-12378
▁mann	-12379
▁minu	-12380
▁patt	-12381
▁suic	-12382
▁vatt	-12383
▁youn	-12384
ssible	-12385
stiskt	-12386
ställd	-12387
sågoda	-12388
tabell	-12389
tacted	-12390
taying	-12391
tented	-12392
ubbish	-12393
udande	-12394
udying	-12395
uensas	-12396
uffing	-12397
uggumm	-12398
unchen	-12399
Er	-12400
Jo	-12401
di	-12402
uf	-12403
Ner	-12404
Our	-12405
Run	-12406
Sad	-12407
ela	-12408
elc	-12409
eld	-12410
elf	-12411
eli	-12412
eur	-12413
fun	-12414
isu	-12415
ith	-12416
lun	-12417
mel	-12418
mta	-12419
sur	-12420
tna	-12421
tur	-12422
uel	-12423
urd	-12424
uro	-12425
urr	-12426
xel	-12427
▁Ag	-12428
▁Bu	-12429
▁Ev	-12430
▁Lå	-12431
▁il	-12432
andd	-12433
ckel	-12434
edel	-12435
elar	-12436
eled	-12437
elig	-12438
elon	-12439
ictu	-12440
ista	-12441
isun	-12442
kten	-12443
ndra	-12444
onel	-12445
ooki	-12446
rink	-12447
stäm	-12448
tles	-12449
ully	-12450
unat	-12451
unis	-12452
unit	-12453
unta	-12454
ylig	-12455
änge	-12456
▁Def	-12457
▁Kun	-12458
▁Ple	-12459
▁Sun	-12460
▁Tur	-12461
▁als	-12462
▁brö	-12463
▁cam	-12464
▁hab	-12465
▁haf	-12466
▁hai	-12467
▁hap	-12468
▁hav	-12469
▁jun	-12470
▁kud	-12471
▁lun	-12472
▁mem	-12473
▁plu	-12474
▁sav	-12475
▁swo	-12476
▁vac	-12477
▁vun	-12478
▁wel	-12479
anten	-12480
ingel	-12481
yckas	-12482
▁boug	-12483
▁genu	-12484
▁rabb	-12485
▁regl	-12486
▁repl	-12487
▁trut	-12488
▁undr	-12489
apaner	-12490
ildish	-12491
olting	-12492
skligt	-12493
unknar	-12494
unning	-12495
uppade	-12496
urdays	-12497
urtles	-12498
uspect	-12499
Dä	-12500
Gu	-12501
Ne	-12502
Ra	-12503
nx	-12504
rö	-12505
xo	-12506
öe	-12507
Män	-12508
aln	-12509
aml	-12510
aun	-12511
bba	-12512
chw	-12513
ckw	-12514
env	-12515
erg	-12516
hom	-12517
ids	-12518
jun	-12519
klo	-12520
kra	-12521
kti	-12522
lia	-12523
nän	-12524
oar	-12525
ppr	-12526
pst	-12527
run	-12528
tus	-12529
tyg	-12530
tän	-12531
tär	-12532
unt	-12533
vun	-12534
vän	-12535
änl	-12536
▁Ja	-12537
▁Ke	-12538
▁Ko	-12539
▁Ky	-12540
▁Kö	-12541
▁ai	-12542
▁ug	-12543
Over	-12544
asag	-12545
barr	-12546
dral	-12547
ears	-12548
elve	-12549
erno	-12550
ilad	-12551
iref	-12552
lver	-12553
oade	-12554
oppl	-12555
orts	-12556
rekt	-12557
stän	-12558
verg	-12559
vers	-12560
vert	-12561
verv	-12562
änst	-12563
ödet	-12564
örän	-12565
▁Mat	-12566
▁Sor	-12567
▁bän	-12568
▁fän	-12569
▁hän	-12570
▁pum	-12571
aknar	-12572
ansar	-12573
cking	-12574
essen	-12575
fford	-12576
verad	-12577
vered	-12578
veren	-12579
verst	-12580
ysste	-12581
ängsl	-12582
ätteh	-12583
▁Tapp	-12584
▁Vari	-12585
▁noth	-12586
▁priz	-12587
betade	-12588
iterar	-12589
perate	-12590
ussade	-12591
ustera	-12592
utsigt	-12593
uvudet	-12594
varlig	-12595
vekade	-12596
verish	-12597
visade	-12598
vänder	-12599
Kö	-12600
Re	-12601
pf	-12602
Che	-12603
Ger	-12604
Low	-12605
Nat	-12606
Oke	-12607
Won	-12608
ale	-12609
ati	-12610
atl	-12611
bly	-12612
cei	-12613
cku	-12614
eds	-12615
eng	-12616
hel	-12617
hey	-12618
igu	-12619
jer	-12620
kak	-12621
kep	-12622
key	-12623
kol	-12624
lim	-12625
när	-12626
onk	-12627
oro	-12628
pta	-12629
rik	-12630
rta	-12631
rör	-12632
sis	-12633
tag	-12634
tak	-12635
tap	-12636
tav	-12637
xar	-12638
xig	-12639
yke	-12640
änn	-12641
öad	-12642
öta	-12643
▁ic	-12644
▁ok	-12645
▁os	-12646
aras	-12647
arts	-12648
atad	-12649
auff	-12650
enta	-12651
idta	-12652
igne	-12653
isst	-12654
ists	-12655
made	-12656
olon	-12657
orta	-12658
tigt	-12659
unna	-12660
änta	-12661
▁Bäg	-12662
▁Gry	-12663
▁Tal	-12664
▁bot	-12665
▁bud	-12666
▁hik	-12667
▁jäm	-12668
▁liq	-12669
▁lör	-12670
▁ock	-12671
▁sas	-12672
aited	-12673
anced	-12674
anlig	-12675
arded	-12676
esatt	-12677
omman	-12678
▁band	-12679
▁fuss	-12680
▁knif	-12681
▁nort	-12682
▁smok	-12683
▁tapp	-12684
▁toot	-12685
▁unfa	-12686
ughing	-12687
väpnad	-12688
ybridb	-12689
yckats	-12690
ycklar	-12691
ycklig	-12692
yligen	-12693
ymling	-12694
ysstes	-12695
ything	-12696
äcklad	-12697
äftigt	-12698
äkaren	-12699
He	-12700
If	-12701
Kn	-12702
då	-12703
ec	-12704
jk	-12705
rn	-12706
åv	-12707
Bar	-12708
Mat	-12709
Vin	-12710
arl	-12711
bad	-12712
bot	-12713
ckl	-12714
col	-12715
cur	-12716
dst	-12717
ees	-12718
eir	-12719
emp	-12720
esi	-12721
fes	-12722
got	-12723
hal	-12724
hot	-12725
hän	-12726
isa	-12727
kes	-12728
lue	-12729
oti	-12730
otu	-12731
pot	-12732
pte	-12733
ras	-12734
rel	-12735
rot	-12736
tle	-12737
usk	-12738
ynt	-12739
▁Hj	-12740
▁kä	-12741
▁si	-12742
aged	-12743
anag	-12744
andt	-12745
arar	-12746
arre	-12747
ates	-12748
chen	-12749
dför	-12750
enet	-12751
esat	-12752
esis	-12753
esit	-12754
fade	-12755
hade	-12756
illf	-12757
lade	-12758
nera	-12759
oten	-12760
oter	-12761
otis	-12762
otot	-12763
otre	-12764
otus	-12765
spel	-12766
trig	-12767
äkra	-12768
öade	-12769
▁Got	-12770
▁Hän	-12771
▁Jes	-12772
▁eft	-12773
▁env	-12774
▁grå	-12775
▁kit	-12776
▁kus	-12777
▁mon	-12778
▁reb	-12779
▁skå	-12780
▁wid	-12781
▁Ägg	-12782
ammer	-12783
eated	-12784
erant	-12785
ingan	-12786
liver	-12787
ongue	-12788
varig	-12789
veris	-12790
▁hugg	-12791
▁outl	-12792
▁tech	-12793
▁tris	-12794
ansvär	-12795
reamed	-12796
älften	-12797
älskar	-12798
ändras	-12799
Av	-12800
Bå	-12801
Ca	-12802
El	-12803
Gö	-12804
Pu	-12805
co	-12806
hä	-12807
lk	-12808
nm	-12809
pj	-12810
rc	-12811
ti	-12812
yd	-12813
Dag	-12814
Ras	-12815
asi	-12816
asu	-12817
asö	-12818
cid	-12819
ckt	-12820
das	-12821
eas	-12822
fas	-12823
ffi	-12824
ggi	-12825
irp	-12826
köt	-12827
las	-12828
llo	-12829
mas	-12830
pas	-12831
plu	-12832
roa	-12833
rod	-12834
stf	-12835
tat	-12836
vas	-12837
vde	-12838
öen	-12839
örn	-12840
▁Al	-12841
▁Pe	-12842
▁Ti	-12843
▁ri	-12844
▁um	-12845
amen	-12846
asen	-12847
asig	-12848
bers	-12849
ckas	-12850
enor	-12851
erta	-12852
ines	-12853
inis	-12854
ittn	-12855
llop	-12856
mall	-12857
omar	-12858
uick	-12859
ushy	-12860
vätt	-12861
ånig	-12862
▁Jas	-12863
▁Tas	-12864
▁cas	-12865
▁gol	-12866
▁jou	-12867
▁mil	-12868
▁rat	-12869
▁rou	-12870
▁sme	-12871
amvet	-12872
anick	-12873
blett	-12874
chade	-12875
gnore	-12876
penda	-12877
tesen	-12878
varet	-12879
ämlig	-12880
övade	-12881
▁Vars	-12882
▁allv	-12883
▁förd	-12884
▁husv	-12885
▁körg	-12886
▁mick	-12887
▁ofar	-12888
▁sham	-12889
▁sudd	-12890
agious	-12891
änglig	-12892
änning	-12893
änslig	-12894
äpnade	-12895
äpplet	-12896
ärdigt	-12897
ärning	-12898
äspade	-12899
Da	-12900
Ol	-12901
Rö	-12902
Sv	-12903
Sw	-12904
bh	-12905
bö	-12906
xi	-12907
öc	-12908
Bor	-12909
Bör	-12910
Cow	-12911
Ret	-12912
ago	-12913
asp	-12914
ban	-12915
did	-12916
elg	-12917
hat	-12918
hee	-12919
how	-12920
idk	-12921
idr	-12922
kan	-12923
kik	-12924
lid	-12925
not	-12926
oet	-12927
pid	-12928
rid	-12929
rår	-12930
tom	-12931
uft	-12932
uid	-12933
val	-12934
vid	-12935
xit	-12936
ädb	-12937
▁	-12938
e	-12939
a	-12940
t	-12941
r	-12942
o	-12943
.	-12944
n	-12945
i	-12946
s	-12947
d	-12948
m	-12949
l	-12950
g	-12951
h	-12952
u	-12953
k	-12954
ä	-12955
T	-12956
y	-12957
v	-12958
?	-12959
I	-12960
p	-12961
c	-12962
b	-12963
f	-12964
J	-12965
'	-12966
w	-12967
å	-12968
D	-12969
ö	-12970
H	-12971
j	-12972
V	-12973
W	-12974
S	-12975
G	-12976
K	-12977
!	-12978
A	-12979
C	-12980
Ä	-12981
Y	-12982
M	-12983
,	-12984
L	-12985
B	-12986
F	-12987
x	-12988
N	-12989
E	-12990
R	-12991
z	-12992
O	-12993
P	-12994
q	-12995
