<unk>	0
<s>	0
</s>	0
<pad>	0
om	-0
▁T	-1
▁I	-2
▁Tom	-3
▁d	-4
▁h	-5
▁s	-6
ag	-7
ar	-8
är	-9
er	-10
▁i	-11
▁t	-12
▁J	-13
▁Jag	-14
et	-15
an	-16
▁m	-17
▁är	-18
en	-19
▁b	-20
▁D	-21
at	-22
▁f	-23
▁H	-24
in	-25
ig	-26
ll	-27
ou	-28
▁l	-29
▁g	-30
▁a	-31
ed	-32
on	-33
▁k	-34
ad	-35
▁v	-36
re	-37
▁n	-38
▁w	-39
▁c	-40
▁y	-41
st	-42
▁you	-43
he	-44
▁p	-45
or	-46
▁S	-47
ve	-48
▁is	-49
▁in	-50
ör	-51
▁V	-52
ck	-53
te	-54
is	-55
▁det	-56
ing	-57
▁G	-58
▁W	-59
▁it	-60
▁Det	-61
▁u	-62
ade	-63
as	-64
ow	-65
▁r	-66
it	-67
ill	-68
▁j	-69
id	-70
ta	-71
▁en	-72
▁inte	-73
ke	-74
ot	-75
▁du	-76
▁It	-77
▁li	-78
hat	-79
▁to	-80
▁o	-81
le	-82
un	-83
än	-84
▁mig	-85
ur	-86
de	-87
pp	-88
▁K	-89
▁be	-90
ver	-91
▁ha	-92
▁st	-93
▁me	-94
att	-95
▁the	-96
▁har	-97
▁He	-98
▁här	-99
▁Han	-100
▁var	-101
▁A	-102
▁Vi	-103
▁C	-104
▁dig	-105
äl	-106
el	-107
▁Ä	-108
am	-109
al	-110
em	-111
ka	-112
▁do	-113
▁för	-114
es	-115
▁den	-116
▁Är	-117
▁L	-118
▁We	-119
his	-120
▁min	-121
▁lo	-122
▁my	-123
na	-124
ay	-125
ere	-126
▁jag	-127
år	-128
im	-129
▁on	-130
▁på	-131
▁like	-132
ät	-133
▁M	-134
lig	-135
▁F	-136
▁Y	-137
▁kan	-138
▁The	-139
▁att	-140
▁You	-141
▁was	-142
▁can	-143
ch	-144
il	-145
▁re	-146
▁tr	-147
▁hat	-148
▁sa	-149
sk	-150
▁Do	-151
▁ne	-152
▁e	-153
▁B	-154
ok	-155
▁ar	-156
▁go	-157
yck	-158
▁kom	-159
ett	-160
ra	-161
ick	-162
▁om	-163
▁have	-164
▁sk	-165
▁De	-166
ir	-167
od	-168
ss	-169
äm	-170
ome	-171
▁Are	-172
åg	-173
åt	-174
ant	-175
▁se	-176
▁we	-177
▁this	-178
ld	-179
ive	-180
▁Du	-181
över	-182
▁Can	-183
▁They	-184
▁Hon	-185
▁She	-186
▁till	-187
▁fr	-188
mer	-189
▁Hur	-190
itt	-191
ng	-192
▁N	-193
nd	-194
kt	-195
▁an	-196
▁How	-197
▁ett	-198
ho	-199
▁that	-200
ic	-201
ent	-202
ob	-203
us	-204
▁Did	-205
▁Kan	-206
▁Var	-207
▁bl	-208
▁där	-209
▁your	-210
ätt	-211
▁med	-212
jäl	-213
lla	-214
ug	-215
▁må	-216
▁ut	-217
ry	-218
ut	-219
▁Is	-220
and	-221
ust	-222
▁not	-223
▁That	-224
ff	-225
ol	-226
ste	-227
▁need	-228
äg	-229
▁vi	-230
▁kn	-231
▁Don	-232
one	-233
▁beh	-234
▁upp	-235
▁love	-236
all	-237
▁here	-238
▁kommer	-239
▁St	-240
▁sp	-241
▁What	-242
▁hel	-243
lar	-244
▁up	-245
skar	-246
ht	-247
iv	-248
ly	-249
▁gör	-250
▁get	-251
▁got	-252
ycker	-253
▁Den	-254
ma	-255
ort	-256
▁pr	-257
se	-258
ave	-259
▁so	-260
▁hjäl	-261
og	-262
▁dr	-263
▁nu	-264
▁äl	-265
▁måste	-266
▁de	-267
illar	-268
▁R	-269
▁tycker	-270
▁behöver	-271
▁E	-272
▁Get	-273
▁all	-274
▁Be	-275
▁fa	-276
▁want	-277
▁help	-278
▁vill	-279
▁hjälp	-280
ner	-281
▁Ge	-282
▁av	-283
▁br	-284
▁er	-285
▁gr	-286
▁Vad	-287
▁car	-288
▁älskar	-289
lev	-290
▁hon	-291
▁know	-292
ak	-293
ft	-294
ack	-295
und	-296
▁gå	-297
▁he	-298
▁ni	-299
▁sl	-300
▁ser	-301
▁ska	-302
▁co	-303
▁gillar	-304
ul	-305
der	-306
▁job	-307
▁wor	-308
▁Give	-309
ep	-310
out	-311
▁one	-312
▁hatar	-313
ung	-314
▁Who	-315
ap	-316
op	-317
▁te	-318
▁såg	-319
▁This	-320
ake	-321
ist	-322
▁sm	-323
▁Vem	-324
▁are	-325
▁him	-326
▁tal	-327
▁look	-328
iss	-329
▁al	-330
▁has	-331
▁sig	-332
▁göra	-333
ied	-334
ous	-335
▁honom	-336
▁at	-337
▁th	-338
▁din	-339
▁dog	-340
▁hem	-341
▁ver	-342
fe	-343
ame	-344
ker	-345
▁sn	-346
▁bor	-347
▁och	-348
ce	-349
ög	-350
art	-351
tay	-352
▁så	-353
▁Kom	-354
▁saw	-355
öl	-356
▁My	-357
▁am	-358
▁see	-359
▁too	-360
▁work	-361
öt	-362
▁O	-363
åll	-364
▁le	-365
ight	-366
▁oss	-367
▁blev	-368
ligt	-369
ring	-370
very	-371
▁bil	-372
▁hur	-373
▁now	-374
▁som	-375
▁Go	-376
▁Gå	-377
▁fe	-378
▁la	-379
▁sv	-380
ämta	-381
▁Gör	-382
▁for	-383
▁kän	-384
▁över	-385
ju	-386
▁bra	-387
▁home	-388
▁P	-389
bet	-390
igt	-391
ind	-392
oll	-393
▁mo	-394
▁no	-395
▁Let	-396
▁did	-397
▁out	-398
▁read	-399
ice	-400
ine	-401
nar	-402
own	-403
sam	-404
äng	-405
▁or	-406
▁sh	-407
▁hate	-408
ans	-409
isk	-410
▁bo	-411
▁bar	-412
äs	-413
jor	-414
▁tv	-415
ired	-416
▁stu	-417
▁vän	-418
jorde	-419
▁fast	-420
ime	-421
oke	-422
ull	-423
äll	-424
▁åt	-425
▁hurt	-426
▁Sk	-427
ande	-428
ning	-429
▁Every	-430
ik	-431
öd	-432
are	-433
gen	-434
ody	-435
rig	-436
ött	-437
▁Ta	-438
▁ch	-439
▁sw	-440
▁us	-441
ious	-442
▁dag	-443
▁dem	-444
▁går	-445
▁had	-446
▁Alla	-447
▁vara	-448
▁hjälpa	-449
ie	-450
öm	-451
ang	-452
ble	-453
▁Sl	-454
▁gl	-455
▁ro	-456
▁ta	-457
▁bad	-458
▁fun	-459
▁miss	-460
▁them	-461
ain	-462
ish	-463
▁Ni	-464
▁aw	-465
▁Får	-466
▁Come	-467
▁hand	-468
▁hund	-469
bb	-470
ue	-471
ard	-472
eep	-473
enn	-474
nade	-475
ound	-476
▁Har	-477
▁Låt	-478
▁isn	-479
▁vin	-480
▁mitt	-481
ct	-482
tar	-483
var	-484
äst	-485
▁ex	-486
▁of	-487
ould	-488
▁must	-489
▁talk	-490
▁gjorde	-491
lo	-492
ait	-493
ary	-494
day	-495
▁pl	-496
ngen	-497
▁Håll	-498
▁live	-499
▁verk	-500
zy	-501
ful	-502
ken	-503
▁ag	-504
anna	-505
▁her	-506
▁pen	-507
▁run	-508
▁und	-509
▁hade	-510
▁there	-511
da	-512
mp	-513
sö	-514
ank	-515
ate	-516
dig	-517
ide	-518
▁Wh	-519
▁få	-520
▁pa	-521
▁po	-522
▁sä	-523
▁hör	-524
▁ins	-525
▁sim	-526
▁try	-527
ollow	-528
▁Have	-529
▁klar	-530
▁stay	-531
öp	-532
ink	-533
cket	-534
leas	-535
▁eat	-536
▁han	-537
▁vet	-538
▁won	-539
▁back	-540
▁happ	-541
▁just	-542
▁they	-543
ittade	-544
▁alone	-545
▁still	-546
▁känner	-547
▁mycket	-548
va	-549
ong	-550
ree	-551
▁di	-552
▁Min	-553
▁bet	-554
▁che	-555
▁någ	-556
▁sak	-557
▁skr	-558
▁hung	-559
▁jobb	-560
▁hämta	-561
▁likes	-562
▁q	-563
aka	-564
för	-565
mal	-566
ont	-567
ägg	-568
äpp	-569
ölj	-570
▁fl	-571
▁id	-572
▁sc	-573
body	-574
▁com	-575
▁hit	-576
▁res	-577
lease	-578
▁down	-579
▁fort	-580
▁mine	-581
▁stor	-582
▁Ingen	-583
▁först	-584
äd	-585
ån	-586
ars	-587
cks	-588
opp	-589
our	-590
▁cr	-591
öpte	-592
▁cat	-593
▁men	-594
▁sle	-595
▁Keep	-596
▁ring	-597
▁rätt	-598
▁time	-599
▁found	-600
av	-601
ns	-602
ife	-603
rev	-604
vän	-605
ång	-606
▁OK	-607
▁Sp	-608
▁kr	-609
▁qu	-610
▁ty	-611
hing	-612
▁big	-613
▁fär	-614
▁wit	-615
▁Mary	-616
▁call	-617
▁come	-618
▁good	-619
▁henn	-620
▁arbet	-621
▁hates	-622
▁säker	-623
▁tired	-624
▁hittade	-625
la	-626
ass	-627
ynd	-628
äff	-629
▁ad	-630
agen	-631
baka	-632
ckså	-633
▁bus	-634
▁day	-635
▁fly	-636
▁nog	-637
▁sur	-638
▁Stay	-639
▁allt	-640
▁gick	-641
▁igen	-642
▁katt	-643
▁lyck	-644
▁swim	-645
▁försö	-646
▁happy	-647
▁också	-648
▁trött	-649
▁tillbaka	-650
ys	-651
åk	-652
ion	-653
ite	-654
juk	-655
uta	-656
▁lj	-657
▁su	-658
ated	-659
irst	-660
nabb	-661
reat	-662
▁Now	-663
▁beg	-664
▁fru	-665
▁lit	-666
▁red	-667
▁sit	-668
▁spe	-669
▁väl	-670
▁win	-671
▁away	-672
▁bara	-673
▁book	-674
▁feel	-675
▁fick	-676
▁mina	-677
▁move	-678
▁said	-679
▁wait	-680
▁detta	-681
▁snabb	-682
▁färdig	-683
hy	-684
um	-685
era	-686
öst	-687
▁fi	-688
▁fo	-689
ress	-690
ätta	-691
▁cra	-692
▁kör	-693
▁liv	-694
▁off	-695
▁ont	-696
▁say	-697
▁str	-698
ldrig	-699
▁cold	-700
▁sick	-701
▁well	-702
▁ensam	-703
▁hemma	-704
▁henne	-705
▁right	-706
▁sleep	-707
▁smart	-708
▁träff	-709
▁spring	-710
▁Everyone	-711
gg	-712
ty	-713
öj	-714
ös	-715
ash	-716
gar	-717
get	-718
rar	-719
urn	-720
▁No	-721
▁ab	-722
▁bu	-723
▁ny	-724
▁ät	-725
ying	-726
▁arg	-727
▁bok	-728
▁död	-729
▁gam	-730
▁kon	-731
▁ner	-732
▁sho	-733
▁vid	-734
ämtar	-735
▁Take	-736
▁busy	-737
▁came	-738
▁died	-739
▁prat	-740
▁very	-741
▁with	-742
▁Hämta	-743
▁betal	-744
▁going	-745
▁någon	-746
▁under	-747
▁aldrig	-748
äk	-749
alk	-750
app	-751
arr	-752
ers	-753
her	-754
het	-755
iga	-756
ird	-757
ost	-758
oug	-759
pid	-760
ren	-761
vis	-762
årt	-763
atch	-764
ived	-765
ögon	-766
▁cry	-767
▁far	-768
▁fel	-769
▁fin	-770
▁fri	-771
▁his	-772
▁hug	-773
▁let	-774
▁may	-775
▁old	-776
▁väg	-777
▁Följ	-778
▁Stop	-779
▁full	-780
▁glad	-781
▁illa	-782
▁kill	-783
▁lite	-784
▁lång	-785
▁nice	-786
▁seem	-787
▁some	-788
▁uppt	-789
▁äter	-790
▁bilen	-791
▁could	-792
▁köpte	-793
▁never	-794
▁order	-795
▁ready	-796
▁trust	-797
▁roligt	-798
▁stupid	-799
▁Everybody	-800
if	-801
end	-802
ffe	-803
pen	-804
per	-805
▁kl	-806
ades	-807
▁För	-808
▁Ser	-809
▁Vil	-810
▁gen	-811
▁imp	-812
▁kun	-813
▁räd	-814
▁sin	-815
▁son	-816
▁vad	-817
▁care	-818
▁hard	-819
▁lost	-820
▁made	-821
▁safe	-822
▁surv	-823
▁wine	-824
▁Detta	-825
▁Where	-826
▁again	-827
▁heard	-828
▁hörde	-829
▁looks	-830
▁please	-831
mt	-832
nt	-833
ud	-834
äv	-835
▁å	-836
ann	-837
ess	-838
ikt	-839
int	-840
kej	-841
yss	-842
äck	-843
örj	-844
▁Ha	-845
▁Le	-846
▁Se	-847
▁dö	-848
▁lu	-849
▁öl	-850
apan	-851
jälv	-852
ster	-853
ulle	-854
ynda	-855
▁God	-856
▁Kän	-857
▁ask	-858
▁con	-859
▁des	-860
▁don	-861
▁får	-862
▁hot	-863
▁hög	-864
▁läs	-865
▁mat	-866
▁när	-867
▁pre	-868
▁pro	-869
▁rel	-870
▁tid	-871
ligen	-872
ought	-873
▁beer	-874
▁best	-875
▁free	-876
▁kall	-877
▁sjuk	-878
▁sure	-879
▁ögon	-880
▁Sluta	-881
▁broke	-882
▁crazy	-883
▁first	-884
▁today	-885
▁Follow	-886
▁gammal	-887
▁skulle	-888
▁stanna	-889
yr	-890
ål	-891
▁ö	-892
ark	-893
ber	-894
mar	-895
ock	-896
sen	-897
ått	-898
örd	-899
▁Am	-900
▁An	-901
▁Sh	-902
▁Th	-903
▁as	-904
▁bi	-905
▁ca	-906
▁ra	-907
ared	-908
less	-909
lose	-910
unch	-911
änta	-912
åter	-913
▁and	-914
▁ber	-915
▁bit	-916
▁buy	-917
▁dum	-918
▁fat	-919
▁lat	-920
▁led	-921
▁lik	-922
▁mus	-923
▁sad	-924
▁tea	-925
▁ung	-926
▁barn	-927
▁left	-928
▁more	-929
▁okej	-930
▁sing	-931
▁stan	-932
▁tack	-933
▁tell	-934
▁walk	-935
▁were	-936
▁Bring	-937
▁Vänta	-938
▁konst	-939
▁loves	-940
▁Skynda	-941
▁Stanna	-942
▁bought	-943
▁hämtar	-944
▁saknar	-945
▁hjälper	-946
bl	-947
io	-948
je	-949
no	-950
pt	-951
ats	-952
cis	-953
elf	-954
ell	-955
fus	-956
ger	-957
ift	-958
kar	-959
lem	-960
ogg	-961
ool	-962
ved	-963
äkt	-964
▁na	-965
▁un	-966
▁ur	-967
able	-968
digt	-969
erar	-970
fter	-971
itta	-972
kade	-973
liga	-974
sätt	-975
ught	-976
älla	-977
ämna	-978
åten	-979
▁Beh	-980
▁Här	-981
▁Säg	-982
▁egg	-983
▁gal	-984
▁hän	-985
▁kul	-986
▁lag	-987
▁lot	-988
▁pol	-989
▁tog	-990
▁use	-991
attar	-992
▁Here	-993
▁didn	-994
▁fish	-995
▁fråg	-996
▁gång	-997
▁make	-998
▁over	-999
▁sant	-1000
▁slut	-1001
▁went	-1002
▁will	-1003
ressed	-1004
▁Släpp	-1005
▁drink	-1006
▁leave	-1007
▁young	-1008
▁Känner	-1009
▁follow	-1010
▁friend	-1011
▁looked	-1012
▁verkar	-1013
▁serious	-1014
▁överlev	-1015
▁upptagen	-1016
▁verkligen	-1017
fr	-1018
ge	-1019
ip	-1020
ne	-1021
ara	-1022
ens	-1023
ies	-1024
ild	-1025
les	-1026
net	-1027
ope	-1028
org	-1029
uff	-1030
ush	-1031
yes	-1032
änd	-1033
▁Dr	-1034
▁Ho	-1035
▁Lo	-1036
▁Så	-1037
▁TV	-1038
▁by	-1039
▁då	-1040
▁em	-1041
▁ge	-1042
▁ke	-1043
▁tj	-1044
▁tw	-1045
▁vo	-1046
▁wr	-1047
ance	-1048
ased	-1049
iskt	-1050
land	-1051
ndag	-1052
ream	-1053
tade	-1054
▁arr	-1055
▁ate	-1056
▁fam	-1057
▁hor	-1058
▁mad	-1059
▁man	-1060
▁new	-1061
▁nor	-1062
▁pay	-1063
▁sch	-1064
▁she	-1065
▁säg	-1066
▁två	-1067
▁vil	-1068
anska	-1069
oblem	-1070
åller	-1071
▁Fort	-1072
▁avsk	-1073
▁done	-1074
▁eyes	-1075
▁fisk	-1076
▁forg	-1077
▁från	-1078
▁grät	-1079
▁hear	-1080
▁komm	-1081
▁kram	-1082
▁laug	-1083
▁lazy	-1084
▁name	-1085
▁nyck	-1086
▁röst	-1087
▁stud	-1088
▁tyst	-1089
▁Leave	-1090
▁Stäng	-1091
▁komma	-1092
▁simma	-1093
▁snäll	-1094
▁crying	-1095
▁hungry	-1096
▁håller	-1097
▁jobbet	-1098
▁hungrig	-1099
▁problem	-1100
▁väldigt	-1101
▁Fortsätt	-1102
iz	-1103
sl	-1104
sv	-1105
ane	-1106
far	-1107
idd	-1108
iet	-1109
imm	-1110
jut	-1111
lek	-1112
pet	-1113
row	-1114
ter	-1115
ult	-1116
▁So	-1117
▁Tv	-1118
▁ap	-1119
▁ba	-1120
▁cl	-1121
▁el	-1122
▁ka	-1123
▁ol	-1124
ange	-1125
atis	-1126
ften	-1127
iden	-1128
ontr	-1129
self	-1130
▁Din	-1131
▁May	-1132
▁Mon	-1133
▁Nob	-1134
▁Ska	-1135
▁bag	-1136
▁bak	-1137
▁del	-1138
▁fan	-1139
▁fix	-1140
▁gun	-1141
▁hal	-1142
▁ing	-1143
▁lug	-1144
▁met	-1145
▁mis	-1146
▁mot	-1147
▁sec	-1148
▁tän	-1149
etter	-1150
lever	-1151
yckte	-1152
ämmer	-1153
▁Does	-1154
▁Time	-1155
▁blue	-1156
▁cats	-1157
▁coat	-1158
▁cool	-1159
▁dead	-1160
▁eggs	-1161
▁find	-1162
▁förl	-1163
▁hopp	-1164
▁life	-1165
▁ljug	-1166
▁mean	-1167
▁snow	-1168
▁spec	-1169
▁trev	-1170
▁wife	-1171
▁Japan	-1172
▁Titta	-1173
▁använ	-1174
▁borde	-1175
▁doing	-1176
▁efter	-1177
▁fired	-1178
▁hurts	-1179
▁ingen	-1180
▁kände	-1181
▁menar	-1182
▁quiet	-1183
▁själv	-1184
▁stand	-1185
farande	-1186
▁Monday	-1187
▁Nobody	-1188
▁Vilken	-1189
▁allvar	-1190
▁biased	-1191
▁caught	-1192
▁desper	-1193
▁inside	-1194
▁katter	-1195
▁klarar	-1196
▁måndag	-1197
▁normal	-1198
▁pengar	-1199
▁ringde	-1200
▁scared	-1201
▁snabbt	-1202
▁working	-1203
▁fortfarande	-1204
ew	-1205
ia	-1206
ky	-1207
pl	-1208
xt	-1209
▁ä	-1210
ace	-1211
akt	-1212
bit	-1213
che	-1214
ese	-1215
hed	-1216
iar	-1217
ich	-1218
ile	-1219
inn	-1220
iot	-1221
ipp	-1222
jer	-1223
jud	-1224
ood	-1225
ore	-1226
ppa	-1227
rab	-1228
ske	-1229
uch	-1230
unk	-1231
uss	-1232
öll	-1233
▁En	-1234
▁Fi	-1235
▁Re	-1236
▁gu	-1237
▁ru	-1238
▁rå	-1239
▁ve	-1240
▁ör	-1241
adio	-1242
ende	-1243
erad	-1244
jung	-1245
olla	-1246
oney	-1247
ppna	-1248
ward	-1249
ätte	-1250
▁Che	-1251
▁ang	-1252
▁ans	-1253
▁app	-1254
▁arm	-1255
▁bel	-1256
▁dis	-1257
▁dou	-1258
▁dra	-1259
▁gav	-1260
▁gol	-1261
▁ide	-1262
▁ifr	-1263
▁law	-1264
▁mår	-1265
▁reg	-1266
▁snö	-1267
▁sta	-1268
▁tom	-1269
▁tur	-1270
▁two	-1271
▁urs	-1272
▁vak	-1273
▁vär	-1274
▁way	-1275
▁ägg	-1276
▁äta	-1277
ished	-1278
itter	-1279
▁Good	-1280
▁Hold	-1281
▁Mitt	-1282
▁Sätt	-1283
▁Wait	-1284
▁börj	-1285
▁dans	-1286
▁ears	-1287
▁flyt	-1288
▁gave	-1289
▁häst	-1290
▁kvar	-1291
▁late	-1292
▁lägg	-1293
▁much	-1294
▁paid	-1295
▁pick	-1296
▁prom	-1297
▁skol	-1298
▁soon	-1299
▁tala	-1300
▁true	-1301
▁uppr	-1302
▁what	-1303
▁Använ	-1304
▁Close	-1305
▁Hurry	-1306
▁Lunch	-1307
▁Lämna	-1308
▁Stand	-1309
▁about	-1310
▁borta	-1311
▁every	-1312
▁famil	-1313
▁föräl	-1314
▁galen	-1315
▁hated	-1316
▁idiot	-1317
▁jätte	-1318
▁kunna	-1319
▁money	-1320
▁radio	-1321
▁refus	-1322
▁speak	-1323
▁svårt	-1324
▁tvung	-1325
▁varmt	-1326
▁vänta	-1327
▁Please	-1328
▁Spring	-1329
▁Varför	-1330
▁eating	-1331
▁hunden	-1332
▁ledsen	-1333
▁ljuger	-1334
▁school	-1335
▁should	-1336
▁försöka	-1337
▁lycklig	-1338
▁springa	-1339
▁survived	-1340
▁överlevde	-1341
bt	-1342
by	-1343
pe	-1344
ps	-1345
ro	-1346
äp	-1347
ala	-1348
alt	-1349
arn	-1350
cap	-1351
ced	-1352
cer	-1353
ert	-1354
fin	-1355
ilk	-1356
ise	-1357
jöl	-1358
kel	-1359
kte	-1360
led	-1361
ler	-1362
let	-1363
nal	-1364
ond	-1365
ord	-1366
ott	-1367
oud	-1368
rad	-1369
ret	-1370
råk	-1371
ska	-1372
ugg	-1373
ump	-1374
ute	-1375
▁Ex	-1376
▁Fr	-1377
▁es	-1378
▁fu	-1379
▁lä	-1380
▁pe	-1381
▁vä	-1382
hose	-1383
iled	-1384
iver	-1385
ivet	-1386
ling	-1387
nder	-1388
olen	-1389
samt	-1390
sten	-1391
ämde	-1392
▁His	-1393
▁Say	-1394
▁Why	-1395
▁art	-1396
▁ben	-1397
▁die	-1398
▁fil	-1399
▁god	-1400
▁het	-1401
▁int	-1402
▁mom	-1403
▁nam	-1404
▁pot	-1405
▁ret	-1406
▁rik	-1407
▁ris	-1408
▁sov	-1409
▁swe	-1410
▁åka	-1411
erade	-1412
orgon	-1413
ställ	-1414
urned	-1415
ärlig	-1416
▁Life	-1417
▁Look	-1418
▁Open	-1419
▁Ring	-1420
▁Tala	-1421
▁Vill	-1422
▁bill	-1423
▁diff	-1424
▁dina	-1425
▁ditt	-1426
▁fell	-1427
▁felt	-1428
▁fine	-1429
▁from	-1430
▁följ	-1431
▁give	-1432
▁hope	-1433
▁idag	-1434
▁idea	-1435
▁keys	-1436
▁kind	-1437
▁kiss	-1438
▁lied	-1439
▁ljög	-1440
▁läsa	-1441
▁lätt	-1442
▁next	-1443
▁once	-1444
▁only	-1445
▁part	-1446
▁pass	-1447
▁plan	-1448
▁rich	-1449
▁rädd	-1450
▁slow	-1451
▁song	-1452
▁take	-1453
▁vann	-1454
▁åter	-1455
attade	-1456
▁Livet	-1457
▁ambit	-1458
▁angry	-1459
▁blame	-1460
▁crash	-1461
▁dansa	-1462
▁doubt	-1463
▁drack	-1464
▁drank	-1465
▁dream	-1466
▁escap	-1467
▁kallt	-1468
▁liked	-1469
▁penna	-1470
▁prata	-1471
▁talar	-1472
▁vinna	-1473
▁watch	-1474
▁weird	-1475
▁Gjorde	-1476
▁Tvätta	-1477
▁avskyr	-1478
▁gratis	-1479
▁hatade	-1480
▁hoppas	-1481
▁kanske	-1482
▁precis	-1483
▁refuse	-1484
▁simmar	-1485
▁vänlig	-1486
▁arbetar	-1487
▁nothing	-1488
▁nycklar	-1489
▁running	-1490
▁stannar	-1491
▁trevlig	-1492
▁tvungen	-1493
▁finished	-1494
▁springer	-1495
▁träffade	-1496
▁överlever	-1497
br	-1498
co	-1499
fa	-1500
ib	-1501
ny	-1502
os	-1503
pr	-1504
up	-1505
yg	-1506
age	-1507
ags	-1508
arm	-1509
ays	-1510
cka	-1511
ely	-1512
ign	-1513
imb	-1514
lax	-1515
lös	-1516
nad	-1517
nas	-1518
orn	-1519
rat	-1520
ryr	-1521
sit	-1522
sök	-1523
tra	-1524
uts	-1525
väg	-1526
ämt	-1527
änt	-1528
▁Sn	-1529
▁Tr	-1530
▁ev	-1531
▁sy	-1532
▁äg	-1533
▁än	-1534
▁ön	-1535
ally	-1536
amma	-1537
anan	-1538
cere	-1539
ched	-1540
ffee	-1541
irds	-1542
iska	-1543
ives	-1544
orre	-1545
ried	-1546
stig	-1547
äkta	-1548
äska	-1549
ömma	-1550
▁Has	-1551
▁Hör	-1552
▁Rör	-1553
▁Stå	-1554
▁Vis	-1555
▁adv	-1556
▁aut	-1557
▁bed	-1558
▁bli	-1559
▁blå	-1560
▁bur	-1561
▁fot	-1562
▁gre	-1563
▁häl	-1564
▁hår	-1565
▁kid	-1566
▁lät	-1567
▁lög	-1568
▁mer	-1569
▁ned	-1570
▁nej	-1571
▁oro	-1572
▁pan	-1573
▁pat	-1574
▁pun	-1575
▁put	-1576
▁ran	-1577
▁rör	-1578
▁sen	-1579
▁sky	-1580
▁tar	-1581
▁why	-1582
amine	-1583
anged	-1584
arrow	-1585
ating	-1586
ennis	-1587
ingar	-1588
istic	-1589
rench	-1590
skade	-1591
äljer	-1592
åglar	-1593
▁Call	-1594
▁Grab	-1595
▁Hade	-1596
▁Lägg	-1597
▁Mina	-1598
▁Wash	-1599
▁ador	-1600
▁behö	-1601
▁bort	-1602
▁boss	-1603
▁cook	-1604
▁food	-1605
▁fram	-1606
▁fred	-1607
▁fung	-1608
▁fört	-1609
▁game	-1610
▁gift	-1611
▁golf	-1612
▁gone	-1613
▁hair	-1614
▁hans	-1615
▁hatt	-1616
▁hero	-1617
▁huge	-1618
▁höra	-1619
▁joke	-1620
▁jour	-1621
▁kara	-1622
▁keep	-1623
▁knew	-1624
▁lukt	-1625
▁milk	-1626
▁mjöl	-1627
▁ofta	-1628
▁redo	-1629
▁rice	-1630
▁sell	-1631
▁sent	-1632
▁spel	-1633
▁stop	-1634
▁står	-1635
▁säga	-1636
▁tall	-1637
▁öron	-1638
arried	-1639
enting	-1640
ättade	-1641
▁Ställ	-1642
▁Tiden	-1643
▁Watch	-1644
▁agree	-1645
▁alert	-1646
▁alive	-1647
▁banan	-1648
▁blind	-1649
▁child	-1650
▁extra	-1651
▁finns	-1652
▁funny	-1653
▁gener	-1654
▁great	-1655
▁hands	-1656
▁horse	-1657
▁ifrån	-1658
▁inget	-1659
▁kunde	-1660
▁litar	-1661
▁livet	-1662
▁lugnt	-1663
▁lying	-1664
▁läser	-1665
▁music	-1666
▁posit	-1667
▁relax	-1668
▁relie	-1669
▁ringa	-1670
▁rädda	-1671
▁seems	-1672
▁shoot	-1673
▁sitta	-1674
▁stuck	-1675
▁svett	-1676
▁väska	-1677
▁French	-1678
▁Gillar	-1679
▁Snälla	-1680
▁Tycker	-1681
▁gråter	-1682
▁handle	-1683
▁jobbar	-1684
▁moment	-1685
▁narrow	-1686
▁resign	-1687
▁saknas	-1688
▁second	-1689
▁tennis	-1690
▁varför	-1691
▁vinner	-1692
▁önskar	-1693
▁Examine	-1694
▁changed	-1695
▁crashed	-1696
▁färdiga	-1697
▁journal	-1698
▁karaoke	-1699
▁sincere	-1700
▁student	-1701
▁underst	-1702
▁Japanese	-1703
▁adorable	-1704
▁betalade	-1705
▁yourself	-1706
jö	-1707
lp	-1708
oy	-1709
pa	-1710
sa	-1711
so	-1712
uk	-1713
uv	-1714
alm	-1715
cky	-1716
eth	-1717
gel	-1718
ham	-1719
ity	-1720
iva	-1721
ize	-1722
löm	-1723
mat	-1724
nat	-1725
ons	-1726
ors	-1727
rav	-1728
sta	-1729
sts	-1730
tep	-1731
umm	-1732
vär	-1733
åda	-1734
öjd	-1735
▁Gr	-1736
▁In	-1737
▁Kl	-1738
▁Nu	-1739
▁Sa	-1740
▁hy	-1741
▁ig	-1742
▁ir	-1743
▁ja	-1744
▁ob	-1745
▁sö	-1746
▁åk	-1747
appa	-1748
aren	-1749
arly	-1750
ater	-1751
aved	-1752
ckan	-1753
cked	-1754
fess	-1755
ient	-1756
iven	-1757
juka	-1758
jöng	-1759
kund	-1760
ldig	-1761
llig	-1762
mare	-1763
ming	-1764
ness	-1765
odig	-1766
oggy	-1767
olog	-1768
oppa	-1769
rade	-1770
rata	-1771
read	-1772
ular	-1773
uvud	-1774
vade	-1775
visa	-1776
ways	-1777
▁Bor	-1778
▁Går	-1779
▁Hey	-1780
▁Kör	-1781
▁Läs	-1782
▁Men	-1783
▁Run	-1784
▁Sak	-1785
▁Sat	-1786
▁See	-1787
▁Skr	-1788
▁abs	-1789
▁act	-1790
▁any	-1791
▁boy	-1792
▁dam	-1793
▁eas	-1794
▁fox	-1795
▁föd	-1796
▁ger	-1797
▁ill	-1798
▁jog	-1799
▁klo	-1800
▁lay	-1801
▁leg	-1802
▁läm	-1803
▁ord	-1804
▁our	-1805
▁pop	-1806
▁raw	-1807
▁rut	-1808
▁räv	-1809
▁röd	-1810
▁sid	-1811
▁spr	-1812
▁säk	-1813
▁tag	-1814
▁tig	-1815
▁tok	-1816
▁tör	-1817
▁ute	-1818
▁vem	-1819
▁who	-1820
▁yet	-1821
▁äpp	-1822
antic	-1823
appna	-1824
arken	-1825
blick	-1826
cover	-1827
ember	-1828
ented	-1829
heten	-1830
innig	-1831
irsty	-1832
lling	-1833
oppen	-1834
other	-1835
sting	-1836
table	-1837
ussia	-1838
vious	-1839
äckte	-1840
änger	-1841
▁Glöm	-1842
▁Hand	-1843
▁Help	-1844
▁Ryss	-1845
▁Sitt	-1846
▁Tell	-1847
▁Turn	-1848
▁been	-1849
▁bent	-1850
▁blek	-1851
▁blir	-1852
▁born	-1853
▁bäst	-1854
▁cour	-1855
▁dags	-1856
▁drog	-1857
▁fair	-1858
▁glöm	-1859
▁haft	-1860
▁head	-1861
▁högl	-1862
▁iväg	-1863
▁kost	-1864
▁mätt	-1865
▁namn	-1866
▁natt	-1867
▁nära	-1868
▁pain	-1869
▁pale	-1870
▁pist	-1871
▁play	-1872
▁rock	-1873
▁skad	-1874
▁slog	-1875
▁sova	-1876
▁svag	-1877
▁tjän	-1878
▁told	-1879
▁took	-1880
▁utom	-1881
▁vikt	-1882
▁weak	-1883
▁äkta	-1884
▁åkte	-1885
ickade	-1886
indlar	-1887
ningar	-1888
ningen	-1889
onting	-1890
ortant	-1891
urious	-1892
▁Birds	-1893
▁Check	-1894
▁Defin	-1895
▁Kolla	-1896
▁Köpte	-1897
▁Prata	-1898
▁badge	-1899
▁began	-1900
▁black	-1901
▁bluff	-1902
▁climb	-1903
▁contr	-1904
▁creat	-1905
▁cried	-1906
▁dance	-1907
▁denna	-1908
▁drick	-1909
▁drive	-1910
▁dying	-1911
▁fight	-1912
▁förtj	-1913
▁helps	-1914
▁huvud	-1915
▁kaffe	-1916
▁klara	-1917
▁klätt	-1918
▁knows	-1919
▁kreat	-1920
▁loved	-1921
▁långt	-1922
▁mjölk	-1923
▁musik	-1924
▁often	-1925
▁skämt	-1926
▁smell	-1927
▁smoke	-1928
▁snart	-1929
▁tjock	-1930
▁tried	-1931
▁undan	-1932
▁varje	-1933
▁wrong	-1934
▁ärlig	-1935
▁Använd	-1936
▁Dinner	-1937
▁Fåglar	-1938
▁Hänger	-1939
▁Russia	-1940
▁alltid	-1941
▁always	-1942
▁called	-1943
▁coffee	-1944
▁compet	-1945
▁dödade	-1946
▁father	-1947
▁fattar	-1948
▁forgot	-1949
▁händer	-1950
▁killed	-1951
▁kommit	-1952
▁morgon	-1953
▁passed	-1954
▁pratar	-1955
▁relief	-1956
▁skolan	-1957
▁specif	-1958
▁stayed	-1959
▁strong	-1960
▁säljer	-1961
▁ursäkt	-1962
▁väntar	-1963
▁Behöver	-1964
▁anställ	-1965
▁använda	-1966
▁arrived	-1967
▁betalar	-1968
▁escaped	-1969
▁förstår	-1970
▁married	-1971
▁missing	-1972
▁recover	-1973
▁strange	-1974
▁survive	-1975
▁thirsty	-1976
▁törstig	-1977
▁worried	-1978
▁älskade	-1979
▁Ryssland	-1980
▁creative	-1981
▁desperat	-1982
▁försöker	-1983
▁stalling	-1984
▁swimming	-1985
▁important	-1986
▁ingenting	-1987
▁ögonblick	-1988
af	-1989
ja	-1990
sy	-1991
tt	-1992
xa	-1993
dde	-1994
des	-1995
dom	-1996
ear	-1997
fer	-1998
fid	-1999
gag	-2000
ian	-2001
idr	-2002
iho	-2003
ins	-2004
iös	-2005
lad	-2006
man	-2007
ned	-2008
nen	-2009
nga	-2010
obb	-2011
opa	-2012
oth	-2013
ove	-2014
ows	-2015
ral	-2016
str	-2017
ubb	-2018
uld	-2019
ury	-2020
vet	-2021
vin	-2022
wer	-2023
yer	-2024
▁Br	-2025
▁Fl	-2026
▁Ne	-2027
▁Sw	-2028
▁im	-2029
▁ry	-2030
▁rö	-2031
▁ya	-2032
▁Äl	-2033
▁Ät	-2034
abet	-2035
agna	-2036
ains	-2037
anta	-2038
arby	-2039
brid	-2040
ches	-2041
cted	-2042
ctor	-2043
ened	-2044
erna	-2045
full	-2046
ible	-2047
ibut	-2048
iken	-2049
ilar	-2050
iner	-2051
ings	-2052
ions	-2053
irus	-2054
jort	-2055
juta	-2056
jälp	-2057
kter	-2058
ktiv	-2059
lyck	-2060
okat	-2061
oons	-2062
oted	-2063
pert	-2064
ppen	-2065
skan	-2066
slig	-2067
star	-2068
tack	-2069
tain	-2070
uest	-2071
ugna	-2072
uine	-2073
ykel	-2074
ärna	-2075
▁Ber	-2076
▁Dra	-2077
▁Eat	-2078
▁Gud	-2079
▁Sit	-2080
▁Slå	-2081
▁Spe	-2082
▁Try	-2083
▁anx	-2084
▁cle	-2085
▁cup	-2086
▁dad	-2087
▁dry	-2088
▁dug	-2089
▁dör	-2090
▁end	-2091
▁eur	-2092
▁fed	-2093
▁gar	-2094
▁gir	-2095
▁hos	-2096
▁kys	-2097
▁kär	-2098
▁lie	-2099
▁log	-2100
▁lär	-2101
▁mun	-2102
▁män	-2103
▁näs	-2104
▁own	-2105
▁pap	-2106
▁par	-2107
▁poj	-2108
▁rem	-2109
▁rid	-2110
▁ses	-2111
▁shy	-2112
▁sår	-2113
▁tax	-2114
▁tor	-2115
▁tre	-2116
▁typ	-2117
▁tål	-2118
▁tår	-2119
▁vis	-2120
▁wee	-2121
▁äng	-2122
▁åkt	-2123
althy	-2124
andra	-2125
anger	-2126
atter	-2127
aviar	-2128
esome	-2129
hamed	-2130
ickly	-2131
iders	-2132
idrog	-2133
iling	-2134
itely	-2135
iving	-2136
ivlar	-2137
onest	-2138
orrow	-2139
oston	-2140
ouble	-2141
ppade	-2142
thing	-2143
ömmer	-2144
▁Fire	-2145
▁Hund	-2146
▁Just	-2147
▁Midd	-2148
▁Read	-2149
▁Sade	-2150
▁Tack	-2151
▁Toms	-2152
▁alla	-2153
▁amus	-2154
▁ball	-2155
▁blyg	-2156
▁both	-2157
▁bror	-2158
▁bryr	-2159
▁bätt	-2160
▁comm	-2161
▁cont	-2162
▁deaf	-2163
▁disk	-2164
▁does	-2165
▁dogs	-2166
▁door	-2167
▁duty	-2168
▁döda	-2169
▁dött	-2170
▁easy	-2171
▁emot	-2172
▁ener	-2173
▁enor	-2174
▁face	-2175
▁fake	-2176
▁fatt	-2177
▁fear	-2178
▁fill	-2179
▁foot	-2180
▁föll	-2181
▁förf	-2182
▁glas	-2183
▁hela	-2184
▁hide	-2185
▁hipp	-2186
▁hårt	-2187
▁inga	-2188
▁inne	-2189
▁jogg	-2190
▁kniv	-2191
▁köra	-2192
▁last	-2193
▁leva	-2194
▁lies	-2195
▁lita	-2196
▁loud	-2197
▁mera	-2198
▁mind	-2199
▁nose	-2200
▁näst	-2201
▁oför	-2202
▁open	-2203
▁poor	-2204
▁prie	-2205
▁push	-2206
▁real	-2207
▁reda	-2208
▁resa	-2209
▁rude	-2210
▁sane	-2211
▁sist	-2212
▁sitt	-2213
▁sked	-2214
▁slob	-2215
▁snål	-2216
▁stad	-2217
▁svar	-2218
▁svor	-2219
▁synd	-2220
▁unga	-2221
▁vakt	-2222
▁vitt	-2223
▁vote	-2224
▁warm	-2225
▁wish	-2226
abetes	-2227
derful	-2228
fessor	-2229
fident	-2230
ibuted	-2231
immade	-2232
junger	-2233
orrect	-2234
▁Drive	-2235
▁Hjälp	-2236
▁Lugna	-2237
▁Shall	-2238
▁Själv	-2239
▁Thank	-2240
▁apple	-2241
▁arrog	-2242
▁asked	-2243
▁awake	-2244
▁blink	-2245
▁brick	-2246
▁bring	-2247
▁cheap	-2248
▁cheer	-2249
▁close	-2250
▁drunk	-2251
▁engag	-2252
▁exist	-2253
▁fixar	-2254
▁frisk	-2255
▁fruit	-2256
▁frukt	-2257
▁fråga	-2258
▁hemsk	-2259
▁heter	-2260
▁hitta	-2261
▁japan	-2262
▁kliar	-2263
▁knife	-2264
▁känna	-2265
▁lives	-2266
▁lucky	-2267
▁lunch	-2268
▁misst	-2269
▁målar	-2270
▁needs	-2271
▁night	-2272
▁paint	-2273
▁pappa	-2274
▁point	-2275
▁polit	-2276
▁prova	-2277
▁präst	-2278
▁respe	-2279
▁rolig	-2280
▁shook	-2281
▁sjuka	-2282
▁skjut	-2283
▁skräp	-2284
▁skuld	-2285
▁slept	-2286
▁sluta	-2287
▁smile	-2288
▁somet	-2289
▁stark	-2290
▁stora	-2291
▁stort	-2292
▁swore	-2293
▁säkra	-2294
▁teeth	-2295
▁those	-2296
▁toler	-2297
▁trave	-2298
▁vaken	-2299
▁vilse	-2300
▁virus	-2301
▁wants	-2302
▁Behåll	-2303
▁Boston	-2304
▁Saknar	-2305
▁absent	-2306
▁apolog	-2307
▁arbeta	-2308
▁arbete	-2309
▁around	-2310
▁betala	-2311
▁bidrog	-2312
▁bitter	-2313
▁cancer	-2314
▁coming	-2315
▁couldn	-2316
▁differ	-2317
▁doctor	-2318
▁döende	-2319
▁expert	-2320
▁familj	-2321
▁family	-2322
▁flytta	-2323
▁fördom	-2324
▁förlor	-2325
▁ganska	-2326
▁glömde	-2327
▁hjälte	-2328
▁hybrid	-2329
▁insane	-2330
▁insist	-2331
▁kissed	-2332
▁konstn	-2333
▁koppen	-2334
▁lawyer	-2335
▁litade	-2336
▁luktar	-2337
▁minute	-2338
▁nearby	-2339
▁really	-2340
▁seemed	-2341
▁sekund	-2342
▁sitter	-2343
▁skadad	-2344
▁skjuta	-2345
▁slowly	-2346
▁smiled	-2347
▁sprang	-2348
▁sången	-2349
▁tjänst	-2350
▁turned	-2351
▁tyckte	-2352
▁tänder	-2353
▁visste	-2354
▁vägrar	-2355
▁Älskar	-2356
▁Lunchen	-2357
▁advokat	-2358
▁anxious	-2359
▁ashamed	-2360
▁berätta	-2361
▁beställ	-2362
▁brother	-2363
▁började	-2364
▁correct	-2365
▁dressed	-2366
▁franska	-2367
▁frantic	-2368
▁furious	-2369
▁genuine	-2370
▁healthy	-2371
▁helping	-2372
▁klockan	-2373
▁konstig	-2374
▁kramade	-2375
▁kreativ	-2376
▁laughed	-2377
▁lämnade	-2378
▁patient	-2379
▁quickly	-2380
▁reading	-2381
▁similar	-2382
▁skyldig	-2383
▁slappna	-2384
▁sparken	-2385
▁trouble	-2386
▁upprikt	-2387
▁verkade	-2388
▁väntade	-2389
▁waiting	-2390
▁Middagen	-2391
▁ambition	-2392
▁artistic	-2393
▁children	-2394
▁diabetes	-2395
▁friendly	-2396
▁fungerar	-2397
▁försökte	-2398
▁happened	-2399
▁konstigt	-2400
▁laughing	-2401
▁lyckades	-2402
▁misslyck	-2403
▁närheten	-2404
▁pistolen	-2405
▁remember	-2406
▁skrattar	-2407
▁stannade	-2408
▁sweating	-2409
▁tomorrow	-2410
▁varandra	-2411
▁berättade	-2412
▁confident	-2413
▁desperate	-2414
▁nycklarna	-2415
▁någonting	-2416
▁professor	-2417
▁recovered	-2418
▁skrattade	-2419
▁Definitely	-2420
▁contributed	-2421
eg	-2422
ls	-2423
nu	-2424
oj	-2425
ox	-2426
ås	-2427
aga	-2428
ail	-2429
aky	-2430
ald	-2431
als	-2432
anc	-2433
ask	-2434
ast	-2435
bok	-2436
bra	-2437
cel	-2438
cht	-2439
cre	-2440
dle	-2441
edd	-2442
edv	-2443
eln	-2444
els	-2445
ffa	-2446
ged	-2447
ial	-2448
ita	-2449
its	-2450
joy	-2451
jör	-2452
kay	-2453
kym	-2454
lde	-2455
len	-2456
låt	-2457
mun	-2458
oda	-2459
odd	-2460
olt	-2461
omb	-2462
pty	-2463
rek	-2464
res	-2465
rif	-2466
rit	-2467
rym	-2468
rän	-2469
ser	-2470
ten	-2471
ual	-2472
ugs	-2473
vad	-2474
vde	-2475
vek	-2476
vil	-2477
väp	-2478
yll	-2479
yrt	-2480
zzy	-2481
äda	-2482
ädd	-2483
änk	-2484
ärk	-2485
ömn	-2486
öpa	-2487
öre	-2488
▁Bl	-2489
▁CD	-2490
▁Ch	-2491
▁Of	-2492
▁Sv	-2493
▁cd	-2494
▁dj	-2495
▁ih	-2496
▁jo	-2497
▁ju	-2498
▁kv	-2499
▁og	-2500
▁ot	-2501
▁ow	-2502
▁ph	-2503
▁tu	-2504
▁wh	-2505
▁yr	-2506
acka	-2507
allå	-2508
arge	-2509
atte	-2510
bart	-2511
cken	-2512
eras	-2513
etty	-2514
fair	-2515
fall	-2516
hand	-2517
hlet	-2518
ices	-2519
iker	-2520
ilen	-2521
irty	-2522
issa	-2523
itar	-2524
ited	-2525
ized	-2526
klar	-2527
lean	-2528
läng	-2529
nare	-2530
oned	-2531
onta	-2532
outh	-2533
ower	-2534
pade	-2535
plom	-2536
pper	-2537
rats	-2538
rees	-2539
sikt	-2540
skad	-2541
stes	-2542
unda	-2543
unds	-2544
ving	-2545
vist	-2546
yser	-2547
äder	-2548
ände	-2549
ålla	-2550
åren	-2551
öjde	-2552
▁Any	-2553
▁For	-2554
▁Hen	-2555
▁Her	-2556
▁När	-2557
▁Någ	-2558
▁Put	-2559
▁Såg	-2560
▁Tag	-2561
▁Vet	-2562
▁Was	-2563
▁aff	-2564
▁air	-2565
▁anl	-2566
▁ann	-2567
▁blö	-2568
▁cer	-2569
▁cho	-2570
▁col	-2571
▁cow	-2572
▁dit	-2573
▁döv	-2574
▁era	-2575
▁grö	-2576
▁how	-2577
▁hum	-2578
▁hus	-2579
▁key	-2580
▁lab	-2581
▁lig	-2582
▁lon	-2583
▁lur	-2584
▁läg	-2585
▁läk	-2586
▁map	-2587
▁pie	-2588
▁rak	-2589
▁rep	-2590
▁råd	-2591
▁sex	-2592
▁ske	-2593
▁sma	-2594
▁sun	-2595
▁tou	-2596
▁tru	-2597
▁tyd	-2598
▁tåg	-2599
▁van	-2600
▁vår	-2601
▁yes	-2602
▁änd	-2603
agger	-2604
atten	-2605
ceful	-2606
creet	-2607
deles	-2608
derar	-2609
edrar	-2610
edvid	-2611
ennes	-2612
entar	-2613
ester	-2614
ickar	-2615
icken	-2616
icult	-2617
iddag	-2618
inner	-2619
inted	-2620
ipped	-2621
isten	-2622
ittar	-2623
nande	-2624
night	-2625
oking	-2626
outed	-2627
ready	-2628
svinn	-2629
uggar	-2630
undry	-2631
urday	-2632
urken	-2633
yssna	-2634
ättet	-2635
ördag	-2636
▁Aren	-2637
▁Calm	-2638
▁Draw	-2639
▁Fråg	-2640
▁Hang	-2641
▁Hans	-2642
▁Inga	-2643
▁Ryck	-2644
▁Show	-2645
▁Talk	-2646
▁Visa	-2647
▁Were	-2648
▁When	-2649
▁Your	-2650
▁ache	-2651
▁adap	-2652
▁anno	-2653
▁aren	-2654
▁babb	-2655
▁baby	-2656
▁bege	-2657
▁bell	-2658
▁belö	-2659
▁besv	-2660
▁bike	-2661
▁brev	-2662
▁bråk	-2663
▁båda	-2664
▁cake	-2665
▁cars	-2666
▁damp	-2667
▁elak	-2668
▁enem	-2669
▁fara	-2670
▁file	-2671
▁fukt	-2672
▁fång	-2673
▁gill	-2674
▁gott	-2675
▁grym	-2676
▁gräs	-2677
▁guts	-2678
▁gäst	-2679
▁gått	-2680
▁helt	-2681
▁höll	-2682
▁jock	-2683
▁jury	-2684
▁kids	-2685
▁kras	-2686
▁köpa	-2687
▁laga	-2688
▁line	-2689
▁läng	-2690
▁läsk	-2691
▁meat	-2692
▁mist	-2693
▁mörd	-2694
▁naiv	-2695
▁news	-2696
▁nodd	-2697
▁note	-2698
▁nytt	-2699
▁nöjd	-2700
▁okay	-2701
▁ours	-2702
▁pray	-2703
▁quit	-2704
▁risk	-2705
▁room	-2706
▁rått	-2707
▁save	-2708
▁shot	-2709
▁sida	-2710
▁sign	-2711
▁skam	-2712
▁skor	-2713
▁slår	-2714
▁sold	-2715
▁spot	-2716
▁step	-2717
▁stra	-2718
▁sömn	-2719
▁teas	-2720
▁town	-2721
▁tror	-2722
▁tråk	-2723
▁tung	-2724
▁tålm	-2725
▁uppe	-2726
▁varm	-2727
▁veta	-2728
▁warn	-2729
▁week	-2730
▁woke	-2731
▁äger	-2732
ancing	-2733
erable	-2734
hletic	-2735
idence	-2736
kymrad	-2737
rified	-2738
usande	-2739
ämtade	-2740
årande	-2741
▁Brush	-2742
▁Clean	-2743
▁Could	-2744
▁Hallå	-2745
▁Hoppa	-2746
▁Light	-2747
▁Menar	-2748
▁Skjut	-2749
▁Skrev	-2750
▁Slåss	-2751
▁Sover	-2752
▁Speak	-2753
▁Stick	-2754
▁Städa	-2755
▁There	-2756
▁Those	-2757
▁Vilka	-2758
▁Våren	-2759
▁armed	-2760
▁artig	-2761
▁atlet	-2762
▁awful	-2763
▁bakom	-2764
▁begin	-2765
▁bevis	-2766
▁beväp	-2767
▁bilar	-2768
▁blank	-2769
▁boken	-2770
▁bored	-2771
▁brave	-2772
▁böjde	-2773
▁chans	-2774
▁check	-2775
▁clear	-2776
▁comes	-2777
▁crown	-2778
▁cykel	-2779
▁dizzy	-2780
▁drugs	-2781
▁dålig	-2782
▁early	-2783
▁empty	-2784
▁fever	-2785
▁flaky	-2786
▁foten	-2787
▁fullt	-2788
▁följa	-2789
▁förky	-2790
▁förlo	-2791
▁gamla	-2792
▁glass	-2793
▁grown	-2794
▁gömma	-2795
▁hired	-2796
▁hälsa	-2797
▁hände	-2798
▁högre	-2799
▁immun	-2800
▁jacka	-2801
▁jobba	-2802
▁kappa	-2803
▁kolla	-2804
▁körde	-2805
▁ledig	-2806
▁liars	-2807
▁lycka	-2808
▁läste	-2809
▁låten	-2810
▁låter	-2811
▁mamma	-2812
▁minns	-2813
▁minut	-2814
▁modig	-2815
▁mouth	-2816
▁naive	-2817
▁olyck	-2818
▁orätt	-2819
▁paper	-2820
▁peace	-2821
▁polis	-2822
▁redan	-2823
▁sakna	-2824
▁scare	-2825
▁scary	-2826
▁shoes	-2827
▁sjöng	-2828
▁skola	-2829
▁skrek	-2830
▁släkt	-2831
▁smuts	-2832
▁solen	-2833
▁stiga	-2834
▁storm	-2835
▁svart	-2836
▁säger	-2837
▁teach	-2838
▁tegel	-2839
▁thank	-2840
▁think	-2841
▁tokig	-2842
▁trygg	-2843
▁tvätt	-2844
▁tårta	-2845
▁varit	-2846
▁vecka	-2847
▁ville	-2848
▁voice	-2849
▁vägen	-2850
▁water	-2851
▁works	-2852
▁yacht	-2853
▁äpple	-2854
lligent	-2855
ndersök	-2856
ontroll	-2857
ändrats	-2858
▁Borsta	-2859
▁Forget	-2860
▁Förlåt	-2861
▁Försök	-2862
▁Hennes	-2863
▁Hunden	-2864
▁Listen	-2865
▁Lyssna	-2866
▁Skaffa	-2867
▁Thanks	-2868
▁Tyckte	-2869
▁active	-2870
▁answer	-2871
▁attack	-2872
▁avsked	-2873
▁avunds	-2874
▁begrav	-2875
▁behind	-2876
▁behöva	-2877
▁better	-2878
▁boring	-2879
▁bricks	-2880
▁cancel	-2881
▁chance	-2882
▁change	-2883
▁course	-2884
▁dagbok	-2885
▁danger	-2886
▁diplom	-2887
▁droger	-2888
▁dåligt	-2889
▁failed	-2890
▁fattig	-2891
▁framåt	-2892
▁fryser	-2893
▁frågar	-2894
▁föddes	-2895
▁följde	-2896
▁föräld	-2897
▁groggy	-2898
▁hennes	-2899
▁hippie	-2900
▁honest	-2901
▁hugged	-2902
▁hundar	-2903
▁joggar	-2904
▁katten	-2905
▁killen	-2906
▁killer	-2907
▁kostar	-2908
▁kärlek	-2909
▁letter	-2910
▁ligger	-2911
▁lonely	-2912
▁lägger	-2913
▁lördag	-2914
▁matade	-2915
▁mening	-2916
▁misses	-2917
▁munnen	-2918
▁needed	-2919
▁orolig	-2920
▁papper	-2921
▁pojken	-2922
▁prefer	-2923
▁priest	-2924
▁promen	-2925
▁resour	-2926
▁röster	-2927
▁scream	-2928
▁smakar	-2929
▁stilla	-2930
▁stress	-2931
▁sönder	-2932
▁toppen	-2933
▁trains	-2934
▁trying	-2935
▁träffa	-2936
▁unfair	-2937
▁voices	-2938
▁vänner	-2939
▁värker	-2940
▁väskan	-2941
▁waited	-2942
▁worked	-2943
▁Berätta	-2944
▁already	-2945
▁anybody	-2946
▁awesome	-2947
▁behövde	-2948
▁belåten	-2949
▁bredvid	-2950
▁careful	-2951
▁certain	-2952
▁comment	-2953
▁compete	-2954
▁diskret	-2955
▁dricker	-2956
▁engaged	-2957
▁envious	-2958
▁exagger	-2959
▁fainted	-2960
▁flyttar	-2961
▁friends	-2962
▁försikt	-2963
▁generös	-2964
▁gillade	-2965
▁halkade	-2966
▁högljud	-2967
▁klarade	-2968
▁laundry	-2969
▁lättnad	-2970
▁långsam	-2971
▁lögnare	-2972
▁misstag	-2973
▁mistake	-2974
▁normalt	-2975
▁ordered	-2976
▁promise	-2977
▁regular	-2978
▁related	-2979
▁rättvis	-2980
▁shouted	-2981
▁skrämde	-2982
▁skulden	-2983
▁slipped	-2984
▁smiling	-2985
▁spiders	-2986
▁stämmer	-2987
▁svettas	-2988
▁trusted	-2989
▁tvivlar	-2990
▁upprörd	-2991
▁viktigt	-2992
▁winning	-2993
▁witness	-2994
▁ängslig	-2995
▁överens	-2996
▁Försvinn	-2997
▁Saturday	-2998
▁alldeles	-2999
▁annoying	-3000
▁anställd	-3001
▁arbetade	-3002
▁arrogant	-3003
▁athletic	-3004
▁bekymrad	-3005
▁beställa	-3006
▁cheerful	-3007
▁climbing	-3008
▁discreet	-3009
▁evidence	-3010
▁fearless	-3011
▁followed	-3012
▁föredrar	-3013
▁generous	-3014
▁långsamt	-3015
▁positive	-3016
▁skickade	-3017
▁sleeping	-3018
▁somebody	-3019
▁specific	-3020
▁spindlar	-3021
▁standard	-3022
▁stressed	-3023
▁svimmade	-3024
▁tolerant	-3025
▁upptagna	-3026
▁ursinnig	-3027
▁överleva	-3028
▁Goodnight	-3029
▁adaptable	-3030
▁allvarlig	-3031
▁bedårande	-3032
▁bestämmer	-3033
▁different	-3034
▁difficult	-3035
▁förlorade	-3036
▁förälskad	-3037
▁kommentar	-3038
▁miserable	-3039
▁svettades	-3040
▁tegelsten	-3041
▁underligt	-3042
▁wonderful	-3043
▁apologized	-3044
▁förändrats	-3045
▁journalist	-3046
▁understand	-3047
▁understood	-3048
▁förtjusande	-3049
▁intelligent	-3050
▁konstnärlig	-3051
▁resourceful	-3052
be	-3053
gr	-3054
åd	-3055
agt	-3056
ape	-3057
cce	-3058
chy	-3059
cif	-3060
cus	-3061
dan	-3062
dge	-3063
eka	-3064
fly	-3065
fox	-3066
fty	-3067
gly	-3068
hus	-3069
hyf	-3070
ict	-3071
ils	-3072
isy	-3073
ivt	-3074
jug	-3075
lyt	-3076
nel	-3077
nia	-3078
nik	-3079
noc	-3080
oil	-3081
oka	-3082
orl	-3083
oyo	-3084
pel	-3085
rob	-3086
räk	-3087
rån	-3088
skr	-3089
thy	-3090
uer	-3091
uth	-3092
vir	-3093
ypt	-3094
ämd	-3095
äms	-3096
åts	-3097
öjt	-3098
▁By	-3099
js	-3100
ajs	-3101
asc	-3102
aså	-3103
cur	-3104
dag	-3105
ike	-3106
ket	-3107
lur	-3108
rel	-3109
xit	-3110
▁Co	-3111
▁Eg	-3112
▁Få	-3113
▁Kr	-3114
▁Me	-3115
▁Om	-3116
▁Sm	-3117
▁af	-3118
▁bö	-3119
▁et	-3120
▁lö	-3121
▁op	-3122
▁os	-3123
▁ov	-3124
▁vu	-3125
▁Än	-3126
aker	-3127
anda	-3128
anky	-3129
appy	-3130
arna	-3131
arre	-3132
arry	-3133
asps	-3134
aten	-3135
bage	-3136
boll	-3137
bord	-3138
börj	-3139
came	-3140
corn	-3141
dags	-3142
drev	-3143
elar	-3144
erfe	-3145
esus	-3146
fied	-3147
fort	-3148
glig	-3149
ideo	-3150
ider	-3151
iful	-3152
igil	-3153
ikte	-3154
ilot	-3155
ilty	-3156
imme	-3157
inka	-3158
inue	-3159
ites	-3160
ivit	-3161
ivor	-3162
jutt	-3163
kelt	-3164
ktyg	-3165
line	-3166
loor	-3167
mans	-3168
mber	-3169
nant	-3170
napp	-3171
nens	-3172
nore	-3173
nuff	-3174
obot	-3175
oken	-3176
olin	-3177
oläm	-3178
orna	-3179
orry	-3180
orth	-3181
owel	-3182
pass	-3183
pens	-3184
raid	-3185
rott	-3186
rows	-3187
ryka	-3188
sade	-3189
side	-3190
sion	-3191
stin	-3192
stod	-3193
syns	-3194
tast	-3195
trän	-3196
tråk	-3197
ulin	-3198
ummi	-3199
gå	-3200
Pad	-3201
edy	-3202
hew	-3203
ics	-3204
igh	-3205
omm	-3206
ork	-3207
rew	-3208
sad	-3209
ure	-3210
åta	-3211
▁Gu	-3212
▁Po	-3213
▁nå	-3214
aris	-3215
ason	-3216
bjud	-3217
cker	-3218
ftig	-3219
head	-3220
idan	-3221
ises	-3222
lade	-3223
noon	-3224
ount	-3225
ouse	-3226
phew	-3227
pril	-3228
stad	-3229
sted	-3230
takt	-3231
umor	-3232
ushi	-3233
ushy	-3234
ustr	-3235
utet	-3236
vara	-3237
vett	-3238
vies	-3239
vlig	-3240
värk	-3241
yssa	-3242
äckt	-3243
äker	-3244
äsen	-3245
äste	-3246
ävde	-3247
ögre	-3248
öker	-3249
örde	-3250
▁Bet	-3251
▁Bry	-3252
▁Byt	-3253
▁Fix	-3254
▁Göm	-3255
▁Hug	-3256
▁Klä	-3257
▁Lou	-3258
▁Lås	-3259
▁Män	-3260
▁Not	-3261
▁Pro	-3262
▁Rad	-3263
▁Rem	-3264
▁Sch	-3265
▁Sma	-3266
▁Sno	-3267
▁Tog	-3268
▁Tok	-3269
▁Väl	-3270
▁age	-3271
▁apr	-3272
▁ara	-3273
▁ast	-3274
▁avf	-3275
▁bac	-3276
▁bju	-3277
▁box	-3278
▁byt	-3279
▁cab	-3280
▁cha	-3281
▁cir	-3282
▁clo	-3283
▁cru	-3284
▁cut	-3285
▁dej	-3286
▁dep	-3287
▁dev	-3288
▁dju	-3289
▁eld	-3290
▁exc	-3291
▁ful	-3292
▁gum	-3293
▁hip	-3294
▁inv	-3295
▁jaz	-3296
▁kor	-3297
▁las	-3298
▁lek	-3299
ix	-3300
kv	-3301
ph	-3302
sc	-3303
ym	-3304
den	-3305
ped	-3306
ses	-3307
set	-3308
tan	-3309
▁mö	-3310
▁od	-3311
apen	-3312
dist	-3313
erat	-3314
gain	-3315
ills	-3316
ised	-3317
ison	-3318
leed	-3319
leep	-3320
onom	-3321
phan	-3322
rask	-3323
ötta	-3324
▁Där	-3325
▁awk	-3326
▁dub	-3327
▁gif	-3328
▁ler	-3329
▁lob	-3330
▁mor	-3331
▁mör	-3332
▁nap	-3333
▁nyf	-3334
▁oly	-3335
▁pag	-3336
▁paj	-3337
▁ras	-3338
▁rev	-3339
▁rop	-3340
▁rub	-3341
▁rum	-3342
▁räk	-3343
▁sew	-3344
▁skå	-3345
▁sou	-3346
▁stå	-3347
▁sue	-3348
▁såd	-3349
▁ter	-3350
▁ton	-3351
▁top	-3352
▁täv	-3353
▁utm	-3354
▁val	-3355
▁veg	-3356
▁väx	-3357
▁äck	-3358
▁öpp	-3359
acker	-3360
allow	-3361
anced	-3362
andet	-3363
anges	-3364
arian	-3365
artan	-3366
atnik	-3367
blind	-3368
cceed	-3369
ctive	-3370
ctual	-3371
derår	-3372
ffade	-3373
fully	-3374
fused	-3375
getic	-3376
gnant	-3377
hatty	-3378
heter	-3379
hisky	-3380
hless	-3381
icked	-3382
icket	-3383
ifrån	-3384
ihopa	-3385
ileps	-3386
imals	-3387
inden	-3388
iting	-3389
junga	-3390
klart	-3391
lytta	-3392
låten	-3393
mless	-3394
mping	-3395
obbed	-3396
omhus	-3397
ommar	-3398
omnia	-3399
ds	-3400
lt	-3401
lu	-3402
lå	-3403
yo	-3404
amå	-3405
any	-3406
bud	-3407
for	-3408
igg	-3409
såg	-3410
utf	-3411
▁Ka	-3412
▁ac	-3413
▁ep	-3414
▁yt	-3415
ihop	-3416
king	-3417
▁All	-3418
▁Eur	-3419
▁Hej	-3420
▁New	-3421
▁Sov	-3422
▁fit	-3423
▁rom	-3424
ascin	-3425
ercis	-3426
etten	-3427
given	-3428
olite	-3429
ortig	-3430
oyota	-3431
pared	-3432
plain	-3433
pping	-3434
pplur	-3435
riter	-3436
robat	-3437
rovis	-3438
råkor	-3439
samma	-3440
skiva	-3441
slöst	-3442
sstar	-3443
teous	-3444
ugged	-3445
uggle	-3446
ughty	-3447
usted	-3448
utral	-3449
yllde	-3450
yrade	-3451
äcken	-3452
äften	-3453
ängde	-3454
åtsas	-3455
örjer	-3456
övlig	-3457
▁Arab	-3458
▁Back	-3459
▁Beat	-3460
▁Boil	-3461
▁Bryr	-3462
▁Cont	-3463
▁Dags	-3464
▁Dice	-3465
▁Didn	-3466
▁Evil	-3467
▁Find	-3468
▁Fixa	-3469
▁Gick	-3470
▁Hide	-3471
▁Inte	-3472
▁Jaså	-3473
▁Jump	-3474
▁Kiss	-3475
▁Klar	-3476
▁Koka	-3477
▁Kyss	-3478
▁Ljug	-3479
▁Lock	-3480
▁Mars	-3481
▁Pace	-3482
▁Peka	-3483
▁Pick	-3484
▁Rita	-3485
▁Räck	-3486
▁Röst	-3487
▁Shut	-3488
▁Skad	-3489
▁Skol	-3490
▁Snar	-3491
▁Sopa	-3492
▁Step	-3493
▁Stig	-3494
▁Then	-3495
▁Tänd	-3496
▁Tänk	-3497
▁Vann	-3498
▁Välj	-3499
sb	-3500
▁hä	-3501
ankr	-3502
ansk	-3503
prim	-3504
rare	-3505
reck	-3506
▁Dad	-3507
▁jar	-3508
▁pin	-3509
iktet	-3510
sätta	-3511
änade	-3512
▁Drop	-3513
▁Fear	-3514
▁Will	-3515
▁Year	-3516
▁adop	-3517
▁also	-3518
▁arre	-3519
▁astr	-3520
▁bald	-3521
▁bedr	-3522
▁bekv	-3523
▁besl	-3524
▁björ	-3525
▁blog	-3526
▁boat	-3527
▁boll	-3528
▁bomb	-3529
▁brak	-3530
▁bruk	-3531
▁bröt	-3532
▁buss	-3533
▁böjd	-3534
▁calm	-3535
▁cane	-3536
▁cash	-3537
▁chef	-3538
▁chew	-3539
▁city	-3540
▁cops	-3541
▁corn	-3542
▁cost	-3543
▁coug	-3544
▁deep	-3545
▁diet	-3546
▁dimm	-3547
▁djur	-3548
▁drar	-3549
▁dren	-3550
▁dröm	-3551
▁duga	-3552
▁dump	-3553
▁dyrt	-3554
▁effe	-3555
▁euro	-3556
▁exam	-3557
▁fail	-3558
▁feet	-3559
▁fing	-3560
▁fire	-3561
▁flyr	-3562
▁färg	-3563
▁fått	-3564
▁född	-3565
▁förb	-3566
▁före	-3567
▁fött	-3568
▁gate	-3569
▁gear	-3570
▁goat	-3571
▁goda	-3572
▁grie	-3573
▁grip	-3574
▁grop	-3575
▁gräl	-3576
▁guys	-3577
▁high	-3578
▁host	-3579
▁hour	-3580
▁högt	-3581
▁iPad	-3582
▁ihåg	-3583
▁inst	-3584
▁iron	-3585
▁jazz	-3586
▁join	-3587
▁jump	-3588
▁junk	-3589
▁koll	-3590
▁kont	-3591
▁kort	-3592
▁käpp	-3593
▁kött	-3594
▁lade	-3595
▁lata	-3596
▁list	-3597
▁ljud	-3598
▁ljus	-3599
▁lopp	-3600
▁lose	-3601
▁luft	-3602
▁lögn	-3603
▁majs	-3604
▁meet	-3605
▁ment	-3606
▁mink	-3607
▁mote	-3608
▁muff	-3609
▁munk	-3610
▁nail	-3611
▁nere	-3612
▁nerv	-3613
▁noga	-3614
▁nyss	-3615
▁näsa	-3616
▁oart	-3617
▁obje	-3618
▁ohyf	-3619
▁onda	-3620
▁pack	-3621
▁pank	-3622
▁pant	-3623
▁poet	-3624
▁race	-3625
▁rain	-3626
▁raka	-3627
▁rang	-3628
▁regn	-3629
▁road	-3630
▁roll	-3631
▁rope	-3632
▁runs	-3633
▁runt	-3634
▁rymt	-3635
▁röda	-3636
▁röka	-3637
▁röra	-3638
▁sade	-3639
▁sagt	-3640
▁salt	-3641
▁sand	-3642
▁sang	-3643
▁sass	-3644
▁says	-3645
▁self	-3646
▁ship	-3647
▁side	-3648
▁skoj	-3649
▁smal	-3650
▁snäv	-3651
▁sore	-3652
▁soup	-3653
▁stam	-3654
▁star	-3655
▁stör	-3656
▁säll	-3657
▁sätt	-3658
▁tabl	-3659
▁tank	-3660
▁tape	-3661
▁taxi	-3662
▁tomt	-3663
▁tool	-3664
▁torr	-3665
▁trag	-3666
▁tree	-3667
▁trip	-3668
▁träd	-3669
▁tugg	-3670
▁tvek	-3671
▁type	-3672
▁ugly	-3673
▁utan	-3674
▁vans	-3675
▁värt	-3676
▁vårt	-3677
▁wake	-3678
▁wild	-3679
▁wins	-3680
▁ömma	-3681
antast	-3682
attnet	-3683
cerned	-3684
cifist	-3685
cision	-3686
fallet	-3687
ighted	-3688
iously	-3689
issade	-3690
itated	-3691
ivated	-3692
iverad	-3693
lighet	-3694
länges	-3695
löshet	-3696
nocent	-3697
onerad	-3698
ontact	-3699
orrekt	-3700
owning	-3701
pelare	-3702
räknel	-3703
scious	-3704
sosamt	-3705
strött	-3706
tränad	-3707
tråkad	-3708
uering	-3709
virrad	-3710
warded	-3711
äffade	-3712
▁April	-3713
▁Bilen	-3714
▁Cheer	-3715
▁Crows	-3716
▁Ducka	-3717
▁Egypt	-3718
▁Fight	-3719
▁Fråga	-3720
▁Happy	-3721
▁Hissa	-3722
▁Hitta	-3723
▁Hoist	-3724
▁Humor	-3725
▁Högre	-3726
▁Jesus	-3727
▁Knuff	-3728
▁Litar	-3729
▁Lovar	-3730
▁Läste	-3731
▁Maybe	-3732
▁Never	-3733
▁Pappa	-3734
▁Paris	-3735
▁Perfe	-3736
▁Point	-3737
▁Röker	-3738
▁Sjung	-3739
▁Sjöng	-3740
▁Skrik	-3741
▁Sväng	-3742
▁Sweep	-3743
▁Throw	-3744
▁Tokyo	-3745
▁Tärna	-3746
▁ached	-3747
▁affär	-3748
▁after	-3749
▁ahead	-3750
▁aktiv	-3751
▁aning	-3752
▁annat	-3753
▁apels	-3754
▁applå	-3755
▁april	-3756
▁attic	-3757
▁bacon	-3758
▁bears	-3759
▁benen	-3760
▁benet	-3761
▁beund	-3762
▁bleed	-3763
▁blogg	-3764
▁blått	-3765
▁books	-3766
▁bossy	-3767
▁budge	-3768
▁burns	-3769
▁bästa	-3770
▁båten	-3771
▁börja	-3772
▁catch	-3773
▁charm	-3774
▁color	-3775
▁costs	-3776
▁count	-3777
▁cover	-3778
▁dagen	-3779
▁delen	-3780
▁diary	-3781
▁dirty	-3782
▁divor	-3783
▁doesn	-3784
▁donut	-3785
▁dread	-3786
▁drift	-3787
▁drill	-3788
▁drove	-3789
▁dumma	-3790
▁enemy	-3791
▁energ	-3792
▁enjoy	-3793
▁enorm	-3794
▁euros	-3795
▁feber	-3796
▁filen	-3797
▁fixed	-3798
▁flies	-3799
▁floor	-3800
▁flute	-3801
▁flöjt	-3802
▁foggy	-3803
▁fulla	-3804
▁funka	-3805
▁galet	-3806
▁gasps	-3807
▁genom	-3808
▁gevär	-3809
▁girls	-3810
▁gjort	-3811
▁green	-3812
▁grows	-3813
▁gråta	-3814
▁grönt	-3815
▁guest	-3816
▁heart	-3817
▁house	-3818
▁hålla	-3819
▁ifred	-3820
▁igång	-3821
▁itchy	-3822
▁jogga	-3823
▁juice	-3824
▁knapp	-3825
▁knäpp	-3826
▁kväll	-3827
▁kyssa	-3828
▁lagar	-3829
▁lagen	-3830
▁later	-3831
▁laugh	-3832
▁learn	-3833
▁lider	-3834
▁litet	-3835
▁lurad	-3836
▁läget	-3837
▁lämna	-3838
▁match	-3839
▁maten	-3840
▁meant	-3841
▁might	-3842
▁moved	-3843
▁noggr	-3844
▁noise	-3845
▁noisy	-3846
▁något	-3847
▁odlar	-3848
▁opera	-3849
▁orädd	-3850
▁panik	-3851
▁panka	-3852
▁picky	-3853
▁pills	-3854
▁pilot	-3855
▁plans	-3856
▁plant	-3857
▁plast	-3858
▁plats	-3859
▁prize	-3860
▁proud	-3861
▁prove	-3862
▁punkt	-3863
▁pushy	-3864
▁quest	-3865
▁quite	-3866
▁repet	-3867
▁ringt	-3868
▁robot	-3869
▁round	-3870
▁rules	-3871
▁sails	-3872
▁saker	-3873
▁satis	-3874
▁satte	-3875
▁sells	-3876
▁shame	-3877
▁shark	-3878
▁short	-3879
▁sidan	-3880
▁skepp	-3881
▁skild	-3882
▁small	-3883
▁snore	-3884
▁soppa	-3885
▁sound	-3886
▁spark	-3887
▁start	-3888
▁stolt	-3889
▁story	-3890
▁surpr	-3891
▁sushi	-3892
▁swims	-3893
▁sådär	-3894
▁sålde	-3895
▁sårad	-3896
▁taget	-3897
▁these	-3898
▁three	-3899
▁timme	-3900
▁torka	-3901
▁touch	-3902
▁towel	-3903
▁trick	-3904
▁truly	-3905
▁truth	-3906
▁trång	-3907
▁tvill	-3908
▁unrel	-3909
▁upset	-3910
▁vapen	-3911
▁vegan	-3912
▁veget	-3913
▁video	-3914
▁vigil	-3915
▁vilar	-3916
▁vilja	-3917
▁voted	-3918
▁vuxit	-3919
▁värre	-3920
▁waved	-3921
▁wears	-3922
▁white	-3923
▁wings	-3924
▁worry	-3925
▁worse	-3926
▁worth	-3927
▁would	-3928
▁ytlig	-3929
▁äggen	-3930
▁ändra	-3931
▁återh	-3932
amående	-3933
arreled	-3934
flykter	-3935
isonous	-3936
nessjuk	-3937
orlunda	-3938
pensive	-3939
sammans	-3940
skräckt	-3941
synslös	-3942
varande	-3943
åningen	-3944
▁Burken	-3945
▁Hurdan	-3946
▁Kommer	-3947
▁Kråkor	-3948
▁Louder	-3949
▁Radion	-3950
▁Really	-3951
▁Saturn	-3952
▁School	-3953
▁Spelar	-3954
▁Toyota	-3955
▁Varsåg	-3956
▁Vilket	-3957
▁advice	-3958
▁afraid	-3959
▁agrees	-3960
▁amused	-3961
▁anlänt	-3962
▁anpass	-3963
▁asleep	-3964
▁autent	-3965
▁bandet	-3966
▁became	-3967
▁bevisa	-3968
▁billig	-3969
▁bjuder	-3970
▁blivit	-3971
▁blöder	-3972
▁broken	-3973
▁buried	-3974
▁bättre	-3975
▁böcker	-3976
▁candle	-3977
▁caviar	-3978
▁charge	-3979
▁chatty	-3980
▁choice	-3981
▁clever	-3982
▁closer	-3983
▁comfor	-3984
▁cooked	-3985
▁crafty	-3986
▁cranky	-3987
▁dammar	-3988
▁deprim	-3989
▁dinner	-3990
▁dricka	-3991
▁dörren	-3992
▁enkelt	-3993
▁enormt	-3994
▁exists	-3995
▁famous	-3996
▁fascin	-3997
▁fiende	-3998
▁filled	-3999
▁filmer	-4000
▁filthy	-4001
▁fiskar	-4002
▁flydde	-4003
▁flyger	-4004
▁forget	-4005
▁fransk	-4006
▁frustr	-4007
▁frågor	-4008
▁fuktig	-4009
▁funkar	-4010
▁fuskar	-4011
▁fyllde	-4012
▁förfär	-4013
▁förlät	-4014
▁första	-4015
▁försök	-4016
▁förutf	-4017
▁golvet	-4018
▁greedy	-4019
▁grävde	-4020
▁guilty	-4021
▁hatten	-4022
▁helped	-4023
▁hemlös	-4024
▁hemskt	-4025
▁heroes	-4026
▁horses	-4027
▁hummer	-4028
▁idrott	-4029
▁ignore	-4030
▁insult	-4031
▁intere	-4032
▁itches	-4033
▁jättet	-4034
▁kartan	-4035
▁kaviar	-4036
▁kommen	-4037
▁krasch	-4038
▁kysste	-4039
▁lagade	-4040
▁listen	-4041
▁lovade	-4042
▁lukten	-4043
▁längre	-4044
▁lärare	-4045
▁låtsas	-4046
▁manage	-4047
▁menace	-4048
▁middag	-4049
▁minors	-4050
▁mother	-4051
▁movies	-4052
▁myself	-4053
▁nephew	-4054
▁nodded	-4055
▁nudist	-4056
▁nästan	-4057
▁oliver	-4058
▁olives	-4059
▁olydig	-4060
▁ombord	-4061
▁online	-4062
▁orders	-4063
▁orphan	-4064
▁oärlig	-4065
▁pagoda	-4066
▁parent	-4067
▁phoned	-4068
▁planet	-4069
▁played	-4070
▁police	-4071
▁polite	-4072
▁prayed	-4073
▁pretty	-4074
▁rakade	-4075
▁regler	-4076
▁result	-4077
▁ringer	-4078
▁robbed	-4079
▁ropade	-4080
▁rutten	-4081
▁seated	-4082
▁secret	-4083
▁senare	-4084
▁seriös	-4085
▁shaved	-4086
▁sjunga	-4087
▁skedar	-4088
▁slower	-4089
▁snabba	-4090
▁snowed	-4091
▁snöade	-4092
▁speaks	-4093
▁specie	-4094
▁spoons	-4095
▁staden	-4096
▁stoppa	-4097
▁strict	-4098
▁stryka	-4099
▁sträng	-4100
▁studer	-4101
▁ställa	-4102
▁säkert	-4103
▁sörjer	-4104
▁tackar	-4105
▁talade	-4106
▁talked	-4107
▁taller	-4108
▁tidigt	-4109
▁tigers	-4110
▁tigrar	-4111
▁tokiga	-4112
▁travel	-4113
▁trötta	-4114
▁tuggar	-4115
▁tänker	-4116
▁undant	-4117
▁vacker	-4118
▁vidare	-4119
▁viktig	-4120
▁vingar	-4121
▁vinter	-4122
▁violin	-4123
▁vittne	-4124
▁väckte	-4125
▁walked	-4126
▁wanted	-4127
▁whisky	-4128
▁winter	-4129
▁yester	-4130
▁ögonen	-4131
deråriga	-4132
sionerad	-4133
sstarrig	-4134
▁Contact	-4135
▁Dancing	-4136
▁Drömmer	-4137
▁Fantast	-4138
▁Firefox	-4139
▁Hittade	-4140
▁Röstade	-4141
▁Sjunger	-4142
▁Skrämde	-4143
▁Snarkar	-4144
▁amusing	-4145
▁animals	-4146
▁ansikte	-4147
▁arbetet	-4148
▁awkward	-4149
▁bananas	-4150
▁bananer	-4151
▁bargain	-4152
▁beatnik	-4153
▁billigt	-4154
▁björnar	-4155
▁bluffar	-4156
▁climbed	-4157
▁coughed	-4158
▁cracked	-4159
▁devious	-4160
▁devoted	-4161
▁dimmigt	-4162
▁diploma	-4163
▁driving	-4164
▁dusting	-4165
▁epileps	-4166
▁exercis	-4167
▁fantast	-4168
▁forgave	-4169
▁forward	-4170
▁fotboll	-4171
▁frågade	-4172
▁fungera	-4173
▁fångade	-4174
▁fördoms	-4175
▁förkyld	-4176
▁garbage	-4177
▁glasses	-4178
▁hipster	-4179
▁hjälpte	-4180
▁hjältar	-4181
▁hostade	-4182
▁inomhus	-4183
▁insidan	-4184
▁insulin	-4185
▁intress	-4186
▁irriter	-4187
▁japansk	-4188
▁jogging	-4189
▁jättest	-4190
▁klättra	-4191
▁kontakt	-4192
▁kontant	-4193
▁korrekt	-4194
▁kostade	-4195
▁kysstes	-4196
▁limping	-4197
▁lobster	-4198
▁läkaren	-4199
▁läskigt	-4200
▁mention	-4201
▁morning	-4202
▁muffins	-4203
▁mördare	-4204
▁naughty	-4205
▁neutral	-4206
▁nickade	-4207
▁nyckeln	-4208
▁nyfiken	-4209
▁nyheter	-4210
▁närmare	-4211
▁ohyfsad	-4212
▁oranges	-4213
▁ordnade	-4214
▁oroliga	-4215
▁outside	-4216
▁panting	-4217
▁partisk	-4218
▁pinsamt	-4219
▁polisen	-4220
▁popcorn	-4221
▁popular	-4222
▁rasande	-4223
▁respect	-4224
▁respekt	-4225
▁resting	-4226
▁retired	-4227
▁röstade	-4228
▁selfish	-4229
▁shallow	-4230
▁singing	-4231
▁sinnens	-4232
▁sjunger	-4233
▁skamsen	-4234
▁skriver	-4235
▁slutade	-4236
▁smutsig	-4237
▁special	-4238
▁spelade	-4239
▁succeed	-4240
▁sweated	-4241
▁talking	-4242
▁tappade	-4243
▁teasing	-4244
▁tittade	-4245
▁träffad	-4246
▁tråkigt	-4247
▁tupplur	-4248
▁tveksam	-4249
▁tydligt	-4250
▁varnade	-4251
▁verktyg	-4252
▁vinkade	-4253
▁vänster	-4254
▁återbud	-4255
▁återvän	-4256
▁Använder	-4257
▁Continue	-4258
▁Kontroll	-4259
▁Träffade	-4260
▁allihopa	-4261
▁alltihop	-4262
▁ambitiös	-4263
▁ansiktet	-4264
▁använder	-4265
▁astronom	-4266
▁atletisk	-4267
▁autistic	-4268
▁avfyrade	-4269
▁avskedad	-4270
▁babbling	-4271
▁backward	-4272
▁begravde	-4273
▁belönade	-4274
▁beställt	-4275
▁bleeding	-4276
▁blinkade	-4277
▁bluffing	-4278
▁bättring	-4279
▁confused	-4280
▁decision	-4281
▁demented	-4282
▁divorced	-4283
▁doubtful	-4284
▁dreadful	-4285
▁dreaming	-4286
▁drenched	-4287
▁drowning	-4288
▁drunknar	-4289
▁escaping	-4290
▁forgives	-4291
▁fördomar	-4292
▁förlovad	-4293
▁förlåter	-4294
▁glasögon	-4295
▁grieving	-4296
▁harmless	-4297
▁homeless	-4298
▁hungriga	-4299
▁högljudd	-4300
▁högljutt	-4301
▁immunity	-4302
▁impolite	-4303
▁improvis	-4304
▁innocent	-4305
▁insomnia	-4306
▁jättebra	-4307
▁jättefin	-4308
▁liknande	-4309
▁lyckliga	-4310
▁lördagar	-4311
▁meningar	-4312
▁pacifist	-4313
▁painting	-4314
▁pengarna	-4315
▁pregnant	-4316
▁promised	-4317
▁punctual	-4318
▁returned	-4319
▁rewarded	-4320
▁ruthless	-4321
▁rättvist	-4322
▁screamed	-4323
▁shooting	-4324
▁shopping	-4325
▁självisk	-4326
▁skaffade	-4327
▁skräpmat	-4328
▁sometime	-4329
▁speaking	-4330
▁specifik	-4331
▁straight	-4332
▁stressad	-4333
▁students	-4334
▁studying	-4335
▁säkerhet	-4336
▁tuggummi	-4337
▁tålmodig	-4338
▁uttråkad	-4339
▁vigilant	-4340
▁watchful	-4341
▁överdrev	-4342
▁överrask	-4343
▁Saturdays	-4344
▁Seriously	-4345
▁afternoon	-4346
▁anställde	-4347
▁apelsiner	-4348
▁avundsjuk	-4349
▁baklänges	-4350
▁besvärlig	-4351
▁beväpnade	-4352
▁carefully	-4353
▁competent	-4354
▁concerned	-4355
▁conscious	-4356
▁contented	-4357
▁courteous	-4358
▁dangerous	-4359
▁depressed	-4360
▁dödstrött	-4361
▁energetic	-4362
▁expensive	-4363
▁fortsätta	-4364
▁förstörde	-4365
▁förvirrad	-4366
▁föräldral	-4367
▁hemlighet	-4368
▁huvudvärk	-4369
▁hälsosamt	-4370
▁imponerad	-4371
▁impressed	-4372
▁instämmer	-4373
▁klättrade	-4374
▁motivated	-4375
▁poisonous	-4376
▁quarreled	-4377
▁questions	-4378
▁satisfied	-4379
▁something	-4380
▁studenter	-4381
▁tabletter	-4382
▁terrified	-4383
▁traveling	-4384
▁träffades	-4385
▁tystlåten	-4386
▁unrelated	-4387
▁uppriktig	-4388
▁vansinnig	-4389
▁vältränad	-4390
▁yesterday	-4391
▁Självklart	-4392
▁allvarligt	-4393
▁annorlunda	-4394
▁deprimerad	-4395
▁everything	-4396
▁försiktigt	-4397
▁hänsynslös	-4398
▁illamående	-4399
▁misslyckas	-4400
▁promenerar	-4401
▁sinnessjuk	-4402
▁sömnlöshet	-4403
▁tillräknel	-4404
▁uppriktiga	-4405
▁vegetarian	-4406
▁Kontrollera	-4407
▁Självfallet	-4408
▁comfortable	-4409
▁exaggerated	-4410
▁frånvarande	-4411
▁halsstarrig	-4412
▁irriterande	-4413
▁långsammare	-4414
▁meningslöst	-4415
▁minderåriga	-4416
▁pensionerad	-4417
▁förutfattade	-4418
▁misslyckades	-4419
▁undanflykter	-4420
cco	-4421
duk	-4422
ego	-4423
flu	-4424
ibe	-4425
ltb	-4426
sov	-4427
ache	-4428
agsm	-4429
barn	-4430
björ	-4431
brår	-4432
dden	-4433
egir	-4434
fely	-4435
fram	-4436
geln	-4437
glad	-4438
glen	-4439
hals	-4440
hänt	-4441
igne	-4442
iles	-4443
korg	-4444
känt	-4445
like	-4446
limb	-4447
ltid	-4448
lädd	-4449
mits	-4450
mord	-4451
märk	-4452
nics	-4453
ojal	-4454
olym	-4455
oria	-4456
oudy	-4457
ovär	-4458
pany	-4459
pect	-4460
plan	-4461
plik	-4462
pmat	-4463
pond	-4464
pump	-4465
reta	-4466
rrit	-4467
sbär	-4468
skap	-4469
slad	-4470
slag	-4471
slöj	-4472
tals	-4473
ubbe	-4474
ufft	-4475
ukta	-4476
upsk	-4477
uryn	-4478
ussy	-4479
work	-4480
ydde	-4481
ämpa	-4482
åakt	-4483
åvad	-4484
önet	-4485
▁Att	-4486
▁Mix	-4487
▁Reg	-4488
▁Rym	-4489
▁Swe	-4490
▁Såd	-4491
▁elb	-4492
▁guy	-4493
▁kax	-4494
▁mön	-4495
▁oli	-4496
▁rym	-4497
▁six	-4498
▁yaw	-4499
sål	-4500
▁öb	-4501
körd	-4502
oark	-4503
resh	-4504
sålt	-4505
ärpt	-4506
▁rab	-4507
▁tio	-4508
▁tje	-4509
▁unw	-4510
▁öbo	-4511
▁öra	-4512
▁örf	-4513
acted	-4514
ageln	-4515
ailer	-4516
alska	-4517
apten	-4518
arely	-4519
arnet	-4520
atens	-4521
biska	-4522
ccoon	-4523
cknat	-4524
eared	-4525
egoja	-4526
ensas	-4527
erman	-4528
ernet	-4529
erved	-4530
ethic	-4531
ettio	-4532
falla	-4533
ffled	-4534
frisk	-4535
ggies	-4536
gplan	-4537
hosts	-4538
hände	-4539
ician	-4540
idden	-4541
immat	-4542
imped	-4543
indsv	-4544
ippte	-4545
ipsen	-4546
irman	-4547
izare	-4548
jejer	-4549
järna	-4550
karna	-4551
kends	-4552
klädd	-4553
landa	-4554
ledig	-4555
lucky	-4556
matta	-4557
neför	-4558
nswer	-4559
oklad	-4560
ommes	-4561
ommor	-4562
onser	-4563
ontak	-4564
ordbr	-4565
orize	-4566
pises	-4567
plikt	-4568
polog	-4569
ravid	-4570
resig	-4571
rible	-4572
rytan	-4573
räder	-4574
saker	-4575
skämd	-4576
stair	-4577
stiny	-4578
stood	-4579
svann	-4580
svult	-4581
säker	-4582
säkta	-4583
terad	-4584
tergå	-4585
ttack	-4586
ubbel	-4587
ubbig	-4588
uften	-4589
umber	-4590
umpor	-4591
unkar	-4592
urage	-4593
utile	-4594
vilad	-4595
vinna	-4596
yller	-4597
yrtio	-4598
äftig	-4599
likt	-4600
smat	-4601
ålet	-4602
örja	-4603
▁Lev	-4604
▁dök	-4605
annen	-4606
äktig	-4607
änser	-4608
ärlek	-4609
åbörj	-4610
ådska	-4611
åliga	-4612
åttom	-4613
ödvin	-4614
öllop	-4615
▁Blid	-4616
▁Brom	-4617
▁Buss	-4618
▁Cats	-4619
▁Chin	-4620
▁Comb	-4621
▁Cows	-4622
▁Dröm	-4623
▁Flow	-4624
▁Forg	-4625
▁Frid	-4626
▁Före	-4627
▁Gott	-4628
▁Grin	-4629
▁Gråt	-4630
▁Hugg	-4631
▁Kliv	-4632
▁Ligg	-4633
▁Lita	-4634
▁Love	-4635
▁Mail	-4636
▁Many	-4637
▁Meat	-4638
▁Milk	-4639
▁Mjöl	-4640
▁Okej	-4641
▁Pott	-4642
▁Rest	-4643
▁Skål	-4644
▁Smak	-4645
▁Warn	-4646
▁Work	-4647
▁abro	-4648
▁anyw	-4649
▁armb	-4650
▁asth	-4651
▁avgå	-4652
▁blåa	-4653
▁bott	-4654
▁burk	-4655
▁cast	-4656
▁choc	-4657
▁circ	-4658
▁clue	-4659
▁cult	-4660
▁cute	-4661
▁deje	-4662
▁desi	-4663
▁disg	-4664
▁draw	-4665
▁dubi	-4666
▁döva	-4667
▁elän	-4668
▁etik	-4669
▁fann	-4670
▁flås	-4671
▁girl	-4672
▁grew	-4673
▁gubb	-4674
▁guid	-4675
▁half	-4676
▁hyll	-4677
▁häxa	-4678
▁igår	-4679
▁kidd	-4680
▁kult	-4681
▁lagd	-4682
▁lawn	-4683
▁less	-4684
▁liks	-4685
▁lips	-4686
▁lott	-4687
▁luck	-4688
▁lugn	-4689
▁låda	-4690
▁math	-4691
▁männ	-4692
▁mörk	-4693
▁möss	-4694
▁nörd	-4695
▁osan	-4696
▁otur	-4697
▁ovan	-4698
▁owes	-4699
box	-4700
gery	-4701
grar	-4702
kost	-4703
laud	-4704
most	-4705
rost	-4706
spen	-4707
äkte	-4708
ävas	-4709
▁abh	-4710
arrot	-4711
ather	-4712
ayers	-4713
chers	-4714
erska	-4715
erson	-4716
ppiga	-4717
råkar	-4718
visar	-4719
äknar	-4720
äktes	-4721
ävlar	-4722
▁Seri	-4723
▁arga	-4724
▁dumt	-4725
▁nerd	-4726
▁oper	-4727
▁pear	-4728
▁phot	-4729
▁pity	-4730
▁pump	-4731
▁puss	-4732
▁rakt	-4733
▁rats	-4734
▁reli	-4735
▁reta	-4736
▁rumm	-4737
▁rygg	-4738
▁räds	-4739
▁rörm	-4740
▁saga	-4741
▁schw	-4742
▁sens	-4743
▁sexy	-4744
▁skip	-4745
▁skyd	-4746
▁sneg	-4747
▁sorg	-4748
▁sänt	-4749
▁söka	-4750
▁thro	-4751
▁tigg	-4752
▁tjej	-4753
▁torn	-4754
▁trea	-4755
▁tråd	-4756
▁turn	-4757
▁tvål	-4758
▁ungj	-4759
▁unus	-4760
▁vald	-4761
▁vila	-4762
▁vilj	-4763
▁växa	-4764
▁växt	-4765
▁wedd	-4766
▁wept	-4767
▁writ	-4768
▁Äger	-4769
▁Ännu	-4770
▁ännu	-4771
▁åker	-4772
agrees	-4773
aktare	-4774
ankrut	-4775
aptain	-4776
arrass	-4777
atient	-4778
atives	-4779
austed	-4780
bjuden	-4781
braced	-4782
chless	-4783
ddenly	-4784
edible	-4785
egirig	-4786
eizare	-4787
enbart	-4788
ension	-4789
esiska	-4790
essary	-4791
fessed	-4792
fortun	-4793
halsar	-4794
hamrad	-4795
handed	-4796
händel	-4797
icnics	-4798
intska	-4799
höj	-4800
ume	-4801
hyad	-4802
lera	-4803
lynt	-4804
öjet	-4805
▁Höj	-4806
▁Röj	-4807
▁Sum	-4808
▁adm	-4809
▁ads	-4810
▁möj	-4811
assen	-4812
ation	-4813
lagen	-4814
ssume	-4815
yndig	-4816
ämrar	-4817
▁Vårt	-4818
▁bite	-4819
▁boys	-4820
▁clap	-4821
▁fien	-4822
▁fool	-4823
▁kuls	-4824
▁kört	-4825
▁lyss	-4826
▁pepp	-4827
▁rash	-4828
▁spee	-4829
▁svek	-4830
cation	-4831
ingrar	-4832
jetten	-4833
krobat	-4834
ktiskt	-4835
käftig	-4836
lander	-4837
lected	-4838
likten	-4839
lockan	-4840
middag	-4841
ndagar	-4842
ndskan	-4843
nickar	-4844
nsaker	-4845
obbade	-4846
olämpa	-4847
omfort	-4848
omited	-4849
ontrol	-4850
otiskt	-4851
ousins	-4852
payers	-4853
rsäkta	-4854
räderi	-4855
råkigt	-4856
samman	-4857
spenna	-4858
ssades	-4859
ssible	-4860
stadig	-4861
stairs	-4862
sterad	-4863
tacted	-4864
ternet	-4865
uating	-4866
undays	-4867
usiner	-4868
uspect	-4869
vekade	-4870
verkar	-4871
vettig	-4872
vinced	-4873
wesome	-4874
ylleri	-4875
yndade	-4876
ädbarn	-4877
åbörja	-4878
ödrost	-4879
▁Betal	-4880
▁Börja	-4881
▁Carry	-4882
▁Climb	-4883
▁Damma	-4884
▁Drick	-4885
▁Flick	-4886
▁Flies	-4887
▁Först	-4888
▁Gratt	-4889
▁Handd	-4890
▁Hasch	-4891
▁Juryn	-4892
▁Kasta	-4893
▁Kland	-4894
▁Klätt	-4895
▁Kämpa	-4896
▁Kände	-4897
▁Känns	-4898
▁Lower	-4899
avl	-4900
avy	-4901
gav	-4902
avlö	-4903
bbla	-4904
föra	-4905
ires	-4906
ädde	-4907
ånga	-4908
▁owe	-4909
▁rån	-4910
▁unp	-4911
▁uns	-4912
adies	-4913
agers	-4914
issla	-4915
opped	-4916
ppför	-4917
äppar	-4918
äppte	-4919
ärska	-4920
ödvän	-4921
▁Pass	-4922
▁coma	-4923
▁drev	-4924
▁duns	-4925
▁flat	-4926
▁flit	-4927
▁flug	-4928
▁kron	-4929
▁shel	-4930
▁tysk	-4931
morgon	-4932
rapade	-4933
revlig	-4934
ushing	-4935
veränt	-4936
▁Läser	-4937
▁Maten	-4938
▁Många	-4939
▁Notan	-4940
▁Någon	-4941
▁Några	-4942
▁Nöjet	-4943
▁Shame	-4944
▁Shark	-4945
▁Skada	-4946
▁Skola	-4947
▁Skriv	-4948
▁Smile	-4949
▁Space	-4950
▁Spara	-4951
▁Svara	-4952
▁Sweet	-4953
▁Swiss	-4954
▁Vinka	-4955
▁Vispa	-4956
▁Visst	-4957
▁Water	-4958
▁abhor	-4959
▁absur	-4960
▁accur	-4961
▁adopt	-4962
▁andan	-4963
▁armen	-4964
▁autis	-4965
▁baked	-4966
▁baken	-4967
▁baksl	-4968
▁begag	-4969
▁below	-4970
▁benäg	-4971
▁blood	-4972
▁blush	-4973
▁blöta	-4974
▁breat	-4975
▁brors	-4976
▁brott	-4977
▁bytte	-4978
▁chaot	-4979
▁cheat	-4980
▁chubb	-4981
▁class	-4982
▁colon	-4983
▁cruel	-4984
▁delic	-4985
▁delst	-4986
▁dislo	-4987
▁dived	-4988
▁djupt	-4989
▁drumm	-4990
▁easil	-4991
▁elakt	-4992
▁emble	-4993
▁fanns	-4994
▁fined	-4995
▁firem	-4996
▁fiska	-4997
▁flask	-4998
▁fluga	-4999
vac	-5000
äva	-5001
arva	-5002
näst	-5003
uken	-5004
öken	-5005
▁Glo	-5006
▁exh	-5007
addle	-5008
icide	-5009
inkig	-5010
inkän	-5011
toons	-5012
viker	-5013
▁Cong	-5014
▁Häst	-5015
▁Svar	-5016
▁bait	-5017
▁date	-5018
▁dire	-5019
▁evac	-5020
▁exem	-5021
▁hann	-5022
▁hörs	-5023
▁jong	-5024
▁long	-5025
▁läst	-5026
▁plöt	-5027
▁post	-5028
▁ride	-5029
▁simm	-5030
▁simp	-5031
▁simt	-5032
▁undo	-5033
inking	-5034
▁dilig	-5035
▁fleas	-5036
▁flytt	-5037
▁forty	-5038
▁freck	-5039
▁freez	-5040
▁fussy	-5041
▁fånga	-5042
▁förbi	-5043
▁galna	-5044
▁garag	-5045
▁gifte	-5046
▁girig	-5047
▁glada	-5048
▁golfs	-5049
▁gräva	-5050
▁grått	-5051
▁habit	-5052
▁heavy	-5053
▁hippy	-5054
▁hoppa	-5055
▁human	-5056
▁höger	-5057
▁incur	-5058
▁influ	-5059
▁kaxig	-5060
▁klarv	-5061
▁kropp	-5062
▁känns	-5063
▁label	-5064
▁larva	-5065
▁lasag	-5066
▁legal	-5067
▁liten	-5068
▁lovar	-5069
▁lugna	-5070
▁lydde	-5071
▁lägen	-5072
▁löken	-5073
▁matad	-5074
▁matte	-5075
▁meter	-5076
▁motel	-5077
▁mänsk	-5078
▁mådde	-5079
▁mörkt	-5080
▁nedan	-5081
▁nedst	-5082
▁neråt	-5083
▁norra	-5084
▁nämna	-5085
▁närma	-5086
▁näsan	-5087
▁näsbl	-5088
▁nästa	-5089
▁nådig	-5090
▁ogift	-5091
▁olika	-5092
▁oljud	-5093
▁orden	-5094
▁overs	-5095
▁owner	-5096
▁panic	-5097
▁patet	-5098
▁photo	-5099
Is	-5100
iew	-5101
ote	-5102
yal	-5103
ärp	-5104
dare	-5105
iews	-5106
ktor	-5107
kött	-5108
oans	-5109
odna	-5110
time	-5111
vrig	-5112
ödde	-5113
▁Eld	-5114
▁Haj	-5115
▁gue	-5116
ching	-5117
ishap	-5118
iskor	-5119
itera	-5120
lande	-5121
merik	-5122
vande	-5123
▁Duty	-5124
▁Fisk	-5125
▁Guys	-5126
▁Kött	-5127
▁Slog	-5128
▁athe	-5129
▁barb	-5130
▁dare	-5131
▁evak	-5132
▁fäll	-5133
▁inut	-5134
▁sans	-5135
▁show	-5136
▁shut	-5137
▁sött	-5138
▁tend	-5139
▁vänd	-5140
arglig	-5141
attare	-5142
iggled	-5143
otligt	-5144
rugged	-5145
äcktes	-5146
ämnade	-5147
▁Hajar	-5148
▁Skick	-5149
▁Skärp	-5150
▁Släng	-5151
▁aside	-5152
▁beröm	-5153
▁brill	-5154
▁chess	-5155
▁handt	-5156
▁inuti	-5157
▁ivrig	-5158
▁piece	-5159
▁plane	-5160
▁plent	-5161
▁plöts	-5162
▁popul	-5163
▁rains	-5164
▁raise	-5165
▁reply	-5166
▁resan	-5167
▁retas	-5168
▁risks	-5169
▁rodna	-5170
▁rutin	-5171
▁rådig	-5172
▁röker	-5173
▁rösta	-5174
▁safer	-5175
▁saint	-5176
▁sakta	-5177
▁saved	-5178
▁score	-5179
▁screw	-5180
▁segel	-5181
▁sexig	-5182
▁shift	-5183
▁shots	-5184
▁sings	-5185
▁skrat	-5186
▁skrev	-5187
▁skäll	-5188
▁skäms	-5189
▁snobb	-5190
▁snävt	-5191
▁snöat	-5192
▁socks	-5193
▁sorry	-5194
▁sovit	-5195
▁spara	-5196
▁spoke	-5197
▁språk	-5198
▁stack	-5199
nit	-5200
xib	-5201
▁On	-5202
▁Ov	-5203
blöt	-5204
eous	-5205
fäng	-5206
ndas	-5207
rbet	-5208
sköt	-5209
▁One	-5210
▁Our	-5211
▁Out	-5212
▁few	-5213
▁ice	-5214
▁ors	-5215
bborn	-5216
fängt	-5217
kerna	-5218
lexib	-5219
oller	-5220
rbeta	-5221
skill	-5222
unnit	-5223
yblöt	-5224
ängen	-5225
▁Once	-5226
▁chem	-5227
▁fäng	-5228
▁hemm	-5229
▁häng	-5230
▁koma	-5231
▁lapp	-5232
▁mice	-5233
▁shin	-5234
▁snob	-5235
▁snut	-5236
▁svin	-5237
▁svär	-5238
▁svår	-5239
▁swam	-5240
▁säng	-5241
▁upst	-5242
skille	-5243
useous	-5244
ärligt	-5245
▁Andas	-5246
▁Ovill	-5247
▁Press	-5248
▁Skäms	-5249
▁brake	-5250
▁bribe	-5251
▁eight	-5252
▁fotot	-5253
▁hurry	-5254
▁lever	-5255
▁orsak	-5256
▁shiny	-5257
▁stamg	-5258
▁state	-5259
▁stink	-5260
▁store	-5261
▁ställ	-5262
▁surfa	-5263
▁svara	-5264
▁svärd	-5265
▁sweet	-5266
▁sårar	-5267
▁talas	-5268
▁talks	-5269
▁taxes	-5270
▁third	-5271
▁threw	-5272
▁tiden	-5273
▁tidig	-5274
▁tonår	-5275
▁tools	-5276
▁torrt	-5277
▁tower	-5278
▁treat	-5279
▁trips	-5280
▁truck	-5281
▁tufft	-5282
▁twins	-5283
▁tysta	-5284
▁tände	-5285
▁tänka	-5286
▁tålam	-5287
▁utmär	-5288
▁vakna	-5289
▁vinet	-5290
▁volym	-5291
▁vägra	-5292
▁vände	-5293
▁växel	-5294
▁växte	-5295
▁walks	-5296
▁weary	-5297
▁write	-5298
▁wrote	-5299
ept	-5300
nig	-5301
ölp	-5302
▁Er	-5303
▁Ru	-5304
aken	-5305
akfa	-5306
akna	-5307
aply	-5308
fund	-5309
känd	-5310
mmer	-5311
ople	-5312
rist	-5313
ulat	-5314
▁Bär	-5315
▁Mår	-5316
▁Rod	-5317
▁avg	-5318
▁avo	-5319
▁jam	-5320
▁tak	-5321
▁tev	-5322
aster	-5323
okare	-5324
relev	-5325
ristm	-5326
ungit	-5327
änner	-5328
▁Beer	-5329
▁Fung	-5330
▁Make	-5331
▁Wake	-5332
▁brag	-5333
▁bull	-5334
▁dark	-5335
▁evil	-5336
▁gray	-5337
▁hist	-5338
▁kept	-5339
▁kitt	-5340
▁land	-5341
▁mail	-5342
▁muta	-5343
▁rece	-5344
▁scar	-5345
▁team	-5346
▁teen	-5347
▁tiss	-5348
▁tölp	-5349
▁vana	-5350
▁vits	-5351
▁wink	-5352
akfast	-5353
derade	-5354
iktigt	-5355
äktade	-5356
▁Rules	-5357
▁Vakna	-5358
▁Whose	-5359
▁avoid	-5360
▁badly	-5361
▁brand	-5362
▁chain	-5363
▁fånig	-5364
▁inför	-5365
▁nålar	-5366
▁stoll	-5367
▁stung	-5368
▁teven	-5369
▁ängel	-5370
▁ärely	-5371
▁återl	-5372
▁öppen	-5373
▁öppna	-5374
▁örfil	-5375
▁överv	-5376
acation	-5377
ankrike	-5378
antiskt	-5379
aptenen	-5380
arching	-5381
attebet	-5382
avlönad	-5383
barrass	-5384
började	-5385
cension	-5386
cessary	-5387
emorize	-5388
ensasäs	-5389
ethical	-5390
fylleri	-5391
förande	-5392
förbart	-5393
förstod	-5394
gligent	-5395
höjning	-5396
iderade	-5397
indlare	-5398
ktering	-5399
jöd	-5400
nan	-5401
riv	-5402
viv	-5403
▁Ol	-5404
allt	-5405
ball	-5406
drar	-5407
driv	-5408
herr	-5409
omma	-5410
rite	-5411
ugor	-5412
urse	-5413
▁Str	-5414
▁deb	-5415
▁fåg	-5416
▁sil	-5417
▁soc	-5418
▁spo	-5419
apped	-5420
bilen	-5421
gande	-5422
hetic	-5423
sbara	-5424
äglig	-5425
▁Amer	-5426
▁Bjöd	-5427
▁Kruk	-5428
▁Olja	-5429
▁Vila	-5430
▁deal	-5431
▁even	-5432
▁främ	-5433
▁held	-5434
▁helg	-5435
▁hisp	-5436
▁port	-5437
▁reag	-5438
▁spit	-5439
▁spän	-5440
▁thin	-5441
▁twin	-5442
▁usel	-5443
▁word	-5444
addrar	-5445
vivlad	-5446
▁Cherr	-5447
▁Prova	-5448
▁Strun	-5449
▁Write	-5450
▁allen	-5451
▁debat	-5452
▁fågel	-5453
▁nurse	-5454
▁petty	-5455
▁reser	-5456
▁spoon	-5457
▁varma	-5458
landade	-5459
lappade	-5460
leasure	-5461
ledning	-5462
lexibla	-5463
married	-5464
merikan	-5465
nissade	-5466
nternet	-5467
oarkant	-5468
ocknade	-5469
omderar	-5470
ommaren	-5471
ontakta	-5472
orligen	-5473
ossades	-5474
ratulat	-5475
repared	-5476
ristmas	-5477
stegrar	-5478
sterson	-5479
stinate	-5480
svulten	-5481
utchers	-5482
uveränt	-5483
varligt	-5484
verdriv	-5485
vetande	-5486
ärkligt	-5487
▁Aldrig	-5488
▁Americ	-5489
▁Anfall	-5490
▁Apolog	-5491
▁Arabic	-5492
▁Arbeta	-5493
▁Attack	-5494
▁Behave	-5495
▁Blanda	-5496
▁Blidka	-5497
▁Bussen	-5498
▁Cheers	-5499
aut	-5500
läg	-5501
olk	-5502
oln	-5503
rya	-5504
vag	-5505
ffas	-5506
lägs	-5507
olut	-5508
ryll	-5509
rätt	-5510
ulla	-5511
vagn	-5512
▁Lag	-5513
▁bry	-5514
▁bug	-5515
▁fej	-5516
▁utg	-5517
cykel	-5518
fulla	-5519
jäsen	-5520
olade	-5521
rella	-5522
solut	-5523
ättar	-5524
▁Krya	-5525
▁Sänk	-5526
▁bete	-5527
▁else	-5528
▁folk	-5529
▁komp	-5530
▁lust	-5531
▁moln	-5532
▁same	-5533
▁soap	-5534
▁åtta	-5535
brella	-5536
bsolut	-5537
lägsna	-5538
ryllad	-5539
▁Arabs	-5540
▁Denna	-5541
▁beaut	-5542
▁fejka	-5543
▁fläkt	-5544
▁light	-5545
▁lustj	-5546
▁löpte	-5547
▁medde	-5548
▁reste	-5549
▁stare	-5550
▁tears	-5551
▁utant	-5552
▁utgör	-5553
▁villr	-5554
agsrätt	-5555
mbrella	-5556
▁Coffee	-5557
▁Europa	-5558
▁Europe	-5559
▁Flytta	-5560
▁France	-5561
▁Friday	-5562
▁Frukta	-5563
▁Funkar	-5564
▁German	-5565
▁Ghosts	-5566
▁Goddag	-5567
▁Grinar	-5568
▁Grytan	-5569
▁Gråter	-5570
▁Hinner	-5571
▁Hästar	-5572
▁Håller	-5573
▁Kannan	-5574
▁Kanske	-5575
▁Krukan	-5576
▁Käften	-5577
▁Ladies	-5578
▁Lagade	-5579
▁Luften	-5580
▁Lägger	-5581
▁Mjölka	-5582
▁Nageln	-5583
▁Pottan	-5584
▁Regler	-5585
▁Remove	-5586
▁Ringde	-5587
▁Rodnar	-5588
▁Rymden	-5589
▁Rödvin	-5590
▁Sharks	-5591
▁Skicka	-5592
▁Skolan	-5593
▁Smaken	-5594
▁Streta	-5595
▁Stämde	-5596
▁Summer	-5597
▁Svaret	-5598
▁Säljer	-5599
hop	-5600
old	-5601
roa	-5602
hoot	-5603
ints	-5604
lder	-5605
llös	-5606
ober	-5607
okus	-5608
usan	-5609
usar	-5610
ämma	-5611
änkt	-5612
▁Fus	-5613
▁Ing	-5614
▁Isn	-5615
▁blo	-5616
▁jap	-5617
▁mic	-5618
▁non	-5619
ighet	-5620
itivt	-5621
ittig	-5622
onger	-5623
▁Duck	-5624
▁Dust	-5625
▁Fold	-5626
▁Oroa	-5627
▁anan	-5628
▁blan	-5629
▁blod	-5630
▁dörr	-5631
▁frid	-5632
▁idel	-5633
▁ihop	-5634
▁känd	-5635
▁seat	-5636
▁seen	-5637
▁teor	-5638
▁tumm	-5639
▁tänd	-5640
▁väls	-5641
▁wasn	-5642
entlig	-5643
hittig	-5644
ögubbe	-5645
▁Enjoy	-5646
▁Fuska	-5647
▁Gissa	-5648
▁Shoot	-5649
▁bloom	-5650
▁falla	-5651
▁focus	-5652
▁fokus	-5653
▁grate	-5654
▁helst	-5655
▁nonch	-5656
▁rusar	-5657
▁sober	-5658
▁teori	-5659
▁tills	-5660
▁tusan	-5661
▁ålder	-5662
ankrutt	-5663
märksam	-5664
▁Spöken	-5665
▁Sådant	-5666
▁Tackar	-5667
▁Tjejer	-5668
▁Tråkar	-5669
▁Vatten	-5670
▁abroad	-5671
▁absurd	-5672
▁actors	-5673
▁afford	-5674
▁allena	-5675
▁ananas	-5676
▁anyone	-5677
▁anyway	-5678
▁apkött	-5679
▁apples	-5680
▁armbåg	-5681
▁assume	-5682
▁asthma	-5683
▁ateist	-5684
▁autism	-5685
▁autist	-5686
▁avoids	-5687
▁avslöj	-5688
▁backup	-5689
▁bakade	-5690
▁banana	-5691
▁beggar	-5692
▁begrän	-5693
▁behand	-5694
▁beredd	-5695
▁berömd	-5696
▁blankt	-5697
▁blomma	-5698
▁bluffa	-5699
våt	-5700
ämn	-5701
▁Sj	-5702
erly	-5703
iant	-5704
odet	-5705
tyck	-5706
▁Trä	-5707
▁ant	-5708
▁böt	-5709
▁err	-5710
▁mir	-5711
▁våg	-5712
alant	-5713
esick	-5714
ftigt	-5715
ickan	-5716
kable	-5717
lutet	-5718
tyckt	-5719
unker	-5720
ycken	-5721
ämnde	-5722
▁Blev	-5723
▁Fick	-5724
▁Kram	-5725
▁Kyck	-5726
▁Ropa	-5727
▁body	-5728
▁brom	-5729
▁fall	-5730
▁goes	-5731
▁into	-5732
▁knit	-5733
▁mirr	-5734
▁sett	-5735
▁stod	-5736
▁sval	-5737
▁takt	-5738
agious	-5739
amnade	-5740
icklig	-5741
▁Krama	-5742
▁Tröst	-5743
▁antar	-5744
▁böter	-5745
▁gärna	-5746
▁modet	-5747
▁reads	-5748
▁stick	-5749
▁tårar	-5750
▁vågar	-5751
▁öppet	-5752
eslutet	-5753
famnade	-5754
omesick	-5755
stickan	-5756
▁Trösta	-5757
▁blödde	-5758
▁braked	-5759
▁brakes	-5760
▁brandm	-5761
▁brevet	-5762
▁bright	-5763
▁brutet	-5764
▁brände	-5765
▁bråkar	-5766
▁bråket	-5767
▁burped	-5768
▁bussen	-5769
▁början	-5770
▁börjar	-5771
▁cheats	-5772
▁cheese	-5773
▁chocol	-5774
▁circle	-5775
▁cirkel	-5776
▁cloudy	-5777
▁cookie	-5778
▁coward	-5779
▁cultur	-5780
▁danced	-5781
▁dejtar	-5782
▁desire	-5783
▁direct	-5784
▁disapp	-5785
▁diskut	-5786
▁doable	-5787
▁doktor	-5788
▁double	-5789
▁doubts	-5790
▁dreams	-5791
▁driven	-5792
▁drogad	-5793
▁dubbla	-5794
▁dubier	-5795
▁dumpad	-5796
▁dumped	-5797
▁dyblöt	-5798
▁emblem	-5799
bil	-5800
ila	-5801
sky	-5802
▁Ye	-5803
orch	-5804
▁Död	-5805
▁Far	-5806
▁Mom	-5807
▁Oil	-5808
▁ars	-5809
▁feb	-5810
▁mät	-5811
▁pål	-5812
▁san	-5813
arlig	-5814
itlig	-5815
itted	-5816
änker	-5817
▁Fill	-5818
▁Save	-5819
▁Stir	-5820
▁cand	-5821
▁ever	-5822
▁fris	-5823
▁hats	-5824
▁kila	-5825
▁lang	-5826
▁neka	-5827
▁osky	-5828
▁rest	-5829
▁skid	-5830
▁uppf	-5831
olting	-5832
▁Klaga	-5833
▁Think	-5834
▁Varna	-5835
▁Years	-5836
▁along	-5837
▁arson	-5838
▁astma	-5839
▁gifta	-5840
▁goats	-5841
▁langu	-5842
▁notes	-5843
▁numer	-5844
▁plikt	-5845
▁porch	-5846
▁saken	-5847
▁serve	-5848
▁sover	-5849
▁stund	-5850
▁whist	-5851
▁witch	-5852
klarade	-5853
längtan	-5854
shändel	-5855
talsjuk	-5856
ärkning	-5857
ållande	-5858
▁Dödade	-5859
▁Stirra	-5860
▁Tänker	-5861
▁candid	-5862
▁etiskt	-5863
▁faking	-5864
▁falska	-5865
▁farlig	-5866
▁faster	-5867
▁febrig	-5868
▁finger	-5869
▁flitig	-5870
▁flower	-5871
▁fooled	-5872
▁framed	-5873
▁fredag	-5874
▁frisör	-5875
▁frites	-5876
▁futile	-5877
▁fyndig	-5878
▁fyrtio	-5879
▁fåglar	-5880
▁fångad	-5881
▁fången	-5882
▁fårska	-5883
▁följer	-5884
▁försov	-5885
▁fötter	-5886
▁garage	-5887
▁genast	-5888
▁giftig	-5889
▁giving	-5890
▁golfer	-5891
▁gravid	-5892
▁grejer	-5893
▁gripas	-5894
▁groans	-5895
▁grälet	-5896
▁gubbar	-5897
▁guests	-5898
▁guitar	-5899
ela	-5900
emi	-5901
får	-5902
ues	-5903
▁år	-5904
ages	-5905
anka	-5906
apon	-5907
ardr	-5908
elax	-5909
heel	-5910
jock	-5911
ryta	-5912
sues	-5913
xlar	-5914
ålig	-5915
▁Aim	-5916
▁Dam	-5917
▁Ler	-5918
▁Lär	-5919
▁ges	-5920
▁kam	-5921
▁lån	-5922
▁obe	-5923
▁oen	-5924
▁omk	-5925
▁utk	-5926
apade	-5927
istry	-5928
▁Post	-5929
▁digg	-5930
▁dish	-5931
▁fela	-5932
▁kemi	-5933
▁loan	-5934
▁obey	-5935
▁pine	-5936
▁skar	-5937
▁sägs	-5938
▁trän	-5939
▁wasp	-5940
ardröm	-5941
beredd	-5942
petent	-5943
xlarna	-5944
▁Posta	-5945
▁Relax	-5946
▁Start	-5947
▁Still	-5948
▁Tanka	-5949
▁angel	-5950
▁beats	-5951
▁board	-5952
▁elbow	-5953
▁gears	-5954
▁oenig	-5955
▁toget	-5956
▁tävla	-5957
▁utkik	-5958
▁wheel	-5959
plained	-5960
▁Stilla	-5961
▁chased	-5962
▁gånger	-5963
▁gömmer	-5964
▁halsen	-5965
▁haltar	-5966
▁handla	-5967
▁hardly	-5968
▁hattar	-5969
▁helger	-5970
▁helgon	-5971
▁hemmet	-5972
▁hinner	-5973
▁hispig	-5974
▁hollow	-5975
▁hästar	-5976
▁hästen	-5977
▁hörsel	-5978
▁hövlig	-5979
▁idiots	-5980
▁igenom	-5981
▁inkorg	-5982
▁intend	-5983
▁invite	-5984
▁issues	-5985
▁jagade	-5986
▁jobbat	-5987
▁joints	-5988
▁joking	-5989
▁juggle	-5990
▁jumped	-5991
▁jämrar	-5992
▁jättef	-5993
▁jättem	-5994
▁kallar	-5995
▁kastad	-5996
▁kicked	-5997
▁kinkig	-5998
▁klocka	-5999
jär	-6000
ole	-6001
tyg	-6002
▁DJ	-6003
▁Då	-6004
▁Hi	-6005
▁hi	-6006
atto	-6007
ggen	-6008
lept	-6009
ppat	-6010
ådig	-6011
▁Beg	-6012
▁Bil	-6013
▁Kor	-6014
▁Sen	-6015
▁Vik	-6016
▁bou	-6017
▁haj	-6018
▁jul	-6019
▁lin	-6020
▁lov	-6021
▁ost	-6022
▁sti	-6023
▁tol	-6024
attat	-6025
attoo	-6026
järta	-6027
tygad	-6028
▁Vems	-6029
▁Well	-6030
▁boun	-6031
▁djup	-6032
▁hole	-6033
▁krav	-6034
▁liar	-6035
▁oroa	-6036
▁past	-6037
▁rabb	-6038
▁stig	-6039
▁tolv	-6040
åaktig	-6041
▁Begin	-6042
▁Bless	-6043
▁Cover	-6044
▁argue	-6045
▁barsk	-6046
▁bills	-6047
▁crime	-6048
▁drawn	-6049
▁linje	-6050
▁tires	-6051
▁Äggen	-6052
erstood	-6053
▁Anyone	-6054
▁Hundar	-6055
▁Tittar	-6056
▁examen	-6057
▁glupsk	-6058
▁hjärta	-6059
▁kläder	-6060
▁knappt	-6061
▁kolade	-6062
▁kollat	-6063
▁kompis	-6064
▁kronan	-6065
▁kräsen	-6066
▁krönet	-6067
▁kurage	-6068
▁kvinna	-6069
▁kvävas	-6070
▁käften	-6071
▁kännet	-6072
▁labbet	-6073
▁laughs	-6074
▁lessen	-6075
▁liksom	-6076
▁limits	-6077
▁listan	-6078
▁listig	-6079
▁livlig	-6080
▁ljuset	-6081
▁locked	-6082
▁loppet	-6083
▁loppor	-6084
▁lortig	-6085
▁lottad	-6086
▁lugnet	-6087
▁lurade	-6088
▁lyckas	-6089
▁läkare	-6090
▁läppar	-6091
▁läskig	-6092
▁lättad	-6093
▁lögner	-6094
▁mannen	-6095
▁matter	-6096
▁menade	-6097
▁milked	-6098
▁mirror	-6099
gs	-6100
ckl	-6101
eta	-6102
key	-6103
llo	-6104
oot	-6105
teg	-6106
vap	-6107
▁Vä	-6108
cuse	-6109
fing	-6110
illy	-6111
ingy	-6112
inna	-6113
itat	-6114
itet	-6115
uckl	-6116
äron	-6117
▁Cut	-6118
▁Sån	-6119
▁Väx	-6120
▁Won	-6121
▁ain	-6122
▁ens	-6123
▁git	-6124
▁göm	-6125
▁lun	-6126
▁mär	-6127
▁pit	-6128
▁row	-6129
▁ski	-6130
ciful	-6131
ckade	-6132
fusig	-6133
onkey	-6134
ooter	-6135
varig	-6136
▁Cool	-6137
▁Dogs	-6138
▁Reta	-6139
▁Sånt	-6140
▁Wave	-6141
▁cere	-6142
▁grow	-6143
▁luns	-6144
▁pris	-6145
▁sköt	-6146
▁sort	-6147
▁steg	-6148
ucklan	-6149
vapnet	-6150
äspade	-6151
▁Guess	-6152
▁Hello	-6153
▁Kaffe	-6154
▁Mamma	-6155
▁claps	-6156
▁eaten	-6157
▁märke	-6158
▁päron	-6159
▁ritat	-6160
▁silly	-6161
▁skate	-6162
▁stood	-6163
sningar	-6164
▁Barnet	-6165
▁Excuse	-6166
▁almost	-6167
▁blinka	-6168
▁burned	-6169
▁cereal	-6170
▁drömma	-6171
▁gitarr	-6172
▁mishap	-6173
▁misund	-6174
▁mocked	-6175
▁monkey	-6176
▁mordbr	-6177
▁motell	-6178
▁munter	-6179
▁mäktig	-6180
▁målade	-6181
▁målare	-6182
▁målarf	-6183
▁mållös	-6184
▁måltid	-6185
▁namnet	-6186
▁nearly	-6187
▁nickar	-6188
▁notice	-6189
▁numera	-6190
▁nyckel	-6191
▁nämnde	-6192
▁nödvän	-6193
▁oartig	-6194
▁obeyed	-6195
▁onions	-6196
▁opened	-6197
▁orkade	-6198
▁osäker	-6199
gis	-6200
sin	-6201
ves	-6202
åst	-6203
misk	-6204
▁Hit	-6205
▁Ras	-6206
▁flu	-6207
▁hid	-6208
▁kar	-6209
▁pet	-6210
▁sly	-6211
▁tat	-6212
▁wet	-6213
erted	-6214
odiga	-6215
stans	-6216
ämdes	-6217
▁Godn	-6218
▁Move	-6219
▁bord	-6220
▁låst	-6221
▁ratt	-6222
▁rörd	-6223
▁yell	-6224
▁Raska	-6225
▁Sorry	-6226
▁birds	-6227
▁carry	-6228
▁fegis	-6229
▁karta	-6230
▁länge	-6231
▁notan	-6232
▁petig	-6233
▁roade	-6234
▁shave	-6235
▁skydd	-6236
▁takes	-6237
▁Klarar	-6238
▁Tastes	-6239
▁Väckte	-6240
▁använd	-6241
▁bekväm	-6242
▁bottle	-6243
▁easily	-6244
▁erkänt	-6245
▁finkän	-6246
▁handen	-6247
▁hiding	-6248
▁intrig	-6249
▁marken	-6250
▁micken	-6251
▁ogjort	-6252
▁otålig	-6253
▁oväder	-6254
▁packar	-6255
▁parker	-6256
▁parrot	-6257
▁patter	-6258
▁people	-6259
▁peppad	-6260
▁pilots	-6261
▁pistol	-6262
▁pjäsen	-6263
▁planer	-6264
▁plenty	-6265
▁pojkar	-6266
▁pommes	-6267
▁porten	-6268
▁pratas	-6269
▁provar	-6270
▁provet	-6271
▁rapade	-6272
▁rarely	-6273
▁refund	-6274
▁regnar	-6275
▁relied	-6276
▁replik	-6277
▁report	-6278
▁rested	-6279
▁risken	-6280
▁rollen	-6281
▁rubbet	-6282
▁rummet	-6283
▁ryckte	-6284
▁räknar	-6285
▁rånade	-6286
▁råttor	-6287
▁rödvin	-6288
▁röstat	-6289
▁rösten	-6290
▁safely	-6291
▁saltet	-6292
▁scarce	-6293
▁schack	-6294
▁season	-6295
▁seglen	-6296
▁shoppa	-6297
▁signal	-6298
▁silent	-6299
ces	-6300
edj	-6301
ued	-6302
ärg	-6303
▁Dö	-6304
▁gy	-6305
adan	-6306
ikta	-6307
teck	-6308
▁Ask	-6309
▁Sed	-6310
▁bre	-6311
▁gyl	-6312
▁kin	-6313
▁pig	-6314
▁syn	-6315
▁ten	-6316
▁vit	-6317
adana	-6318
aglar	-6319
edjan	-6320
orses	-6321
ycket	-6322
▁Fish	-6323
▁bled	-6324
▁comb	-6325
▁egen	-6326
▁elev	-6327
▁fina	-6328
▁gylf	-6329
▁hake	-6330
▁kaka	-6331
▁noon	-6332
▁park	-6333
▁pigs	-6334
▁shed	-6335
▁skrä	-6336
▁tand	-6337
▁ätit	-6338
hövlig	-6339
nuftig	-6340
▁Kamma	-6341
▁Sedan	-6342
▁Sikta	-6343
▁aches	-6344
▁being	-6345
▁fries	-6346
▁hatad	-6347
▁körda	-6348
▁large	-6349
▁ought	-6350
▁smalt	-6351
▁theor	-6352
omebody	-6353
▁Bromsa	-6354
▁Flugor	-6355
▁Horses	-6356
▁Killar	-6357
▁Ticket	-6358
▁anteck	-6359
▁braces	-6360
▁drives	-6361
▁exempt	-6362
▁fisken	-6363
▁haglar	-6364
▁himlen	-6365
▁kedjan	-6366
▁lämnat	-6367
▁medlem	-6368
▁moving	-6369
▁number	-6370
▁nummer	-6371
▁return	-6372
▁sighed	-6373
▁simple	-6374
▁simtur	-6375
▁singel	-6376
▁single	-6377
▁sinned	-6378
▁skidor	-6379
▁skjuts	-6380
▁skratt	-6381
▁skriva	-6382
▁skryta	-6383
▁skynda	-6384
▁skärpt	-6385
▁slagsm	-6386
▁sleepy	-6387
▁slutet	-6388
▁smells	-6389
▁smiles	-6390
▁snuten	-6391
▁soccer	-6392
▁sounds	-6393
▁spelar	-6394
▁spelet	-6395
▁staten	-6396
▁stilig	-6397
▁stingy	-6398
▁stoned	-6399
lle	-6400
ära	-6401
▁To	-6402
oman	-6403
reep	-6404
synt	-6405
▁Nej	-6406
▁Red	-6407
▁slå	-6408
attad	-6409
ecken	-6410
▁Gift	-6411
▁Laga	-6412
▁Live	-6413
▁Need	-6414
▁bird	-6415
▁bära	-6416
▁fars	-6417
▁gett	-6418
▁gåva	-6419
▁pull	-6420
▁slug	-6421
▁thud	-6422
▁ändå	-6423
aterat	-6424
▁Hörde	-6425
▁Which	-6426
▁akade	-6427
▁belie	-6428
▁creep	-6429
▁crude	-6430
▁ljuga	-6431
▁lägga	-6432
▁remar	-6433
▁repar	-6434
▁rymde	-6435
▁tries	-6436
▁varva	-6437
▁woman	-6438
ovärdig	-6439
▁Kärlek	-6440
▁Ovillk	-6441
▁Spiken	-6442
▁beslut	-6443
▁fällde	-6444
▁förväg	-6445
▁genial	-6446
▁getter	-6447
▁holler	-6448
▁klädde	-6449
▁streck	-6450
▁ställt	-6451
▁stämma	-6452
▁svarta	-6453
▁sweets	-6454
▁syndat	-6455
▁syster	-6456
▁sällan	-6457
▁sättet	-6458
▁sårade	-6459
▁sömnig	-6460
▁talang	-6461
▁talent	-6462
▁tappat	-6463
▁tattoo	-6464
▁tecken	-6465
▁testar	-6466
▁theory	-6467
▁things	-6468
▁thirty	-6469
▁throat	-6470
▁tissue	-6471
▁tittar	-6472
▁tjänar	-6473
▁tragic	-6474
▁trusts	-6475
▁trygga	-6476
▁tränar	-6477
▁tråkig	-6478
▁trångt	-6479
▁tvätta	-6480
▁tydlig	-6481
▁tänkte	-6482
▁underh	-6483
▁undrar	-6484
▁unsure	-6485
▁unwind	-6486
▁utföra	-6487
▁utslag	-6488
▁vaksam	-6489
▁vatten	-6490
▁viljes	-6491
▁vinden	-6492
▁vindsv	-6493
▁vissla	-6494
▁vresig	-6495
▁vunnit	-6496
▁värkte	-6497
▁warned	-6498
▁washed	-6499
oat	-6500
åde	-6501
lish	-6502
oard	-6503
▁Bra	-6504
▁Tär	-6505
▁fet	-6506
▁hes	-6507
▁läx	-6508
▁rök	-6509
▁sem	-6510
▁söt	-6511
▁tie	-6512
apple	-6513
björn	-6514
ingor	-6515
lands	-6516
▁Allt	-6517
▁Food	-6518
▁Vart	-6519
▁byta	-6520
▁både	-6521
▁cows	-6522
▁likt	-6523
▁send	-6524
▁tick	-6525
▁vart	-6526
lauded	-6527
▁Tappa	-6528
▁Trust	-6529
▁delta	-6530
▁fresh	-6531
▁gloat	-6532
▁inbox	-6533
▁läxor	-6534
▁names	-6535
▁några	-6536
▁study	-6537
▁tease	-6538
▁älska	-6539
stecken	-6540
▁Blunda	-6541
▁Katter	-6542
▁aboard	-6543
▁araber	-6544
▁driver	-6545
▁gäster	-6546
▁member	-6547
▁nervös	-6548
▁nights	-6549
▁pesten	-6550
▁rather	-6551
▁rädsla	-6552
▁sister	-6553
▁slutat	-6554
▁smokes	-6555
▁weapon	-6556
▁wimped	-6557
▁winked	-6558
▁wonder	-6559
▁wouldn	-6560
▁writer	-6561
▁writes	-6562
▁yawned	-6563
▁äcklad	-6564
▁ägaren	-6565
▁äpplen	-6566
▁äpplet	-6567
▁ärliga	-6568
bjudande	-6569
liggande	-6570
nderbart	-6571
ningarna	-6572
olämpade	-6573
relevant	-6574
rriterar	-6575
sättning	-6576
▁Absolut	-6577
▁Använde	-6578
▁Awesome	-6579
▁Blommor	-6580
▁Bucklan	-6581
▁Chicken	-6582
▁Chinese	-6583
▁Comfort	-6584
▁Control	-6585
▁Damerna	-6586
▁Egypten	-6587
▁Fattade	-6588
▁Flowers	-6589
▁Forgive	-6590
▁Frågade	-6591
▁Förstod	-6592
▁Förstår	-6593
▁Förvara	-6594
▁Godnatt	-6595
▁Granska	-6596
▁Grattis	-6597
▁Haschet	-6598
▁Klarade	-6599
▁If	-6600
▁hej	-6601
▁set	-6602
▁öde	-6603
alare	-6604
slåda	-6605
▁Grow	-6606
▁Sing	-6607
▁Wood	-6608
▁alls	-6609
▁heta	-6610
▁hänt	-6611
▁jobs	-6612
▁meal	-6613
▁nosy	-6614
▁rund	-6615
▁slag	-6616
▁wash	-6617
▁wide	-6618
▁Förta	-6619
▁Marry	-6620
▁Shake	-6621
▁Skaka	-6622
▁biten	-6623
▁calls	-6624
▁glömt	-6625
▁grass	-6626
▁kalla	-6627
▁rånad	-6628
▁rörde	-6629
▁sword	-6630
▁syltb	-6631
▁table	-6632
▁trist	-6633
▁trott	-6634
▁äckel	-6635
▁Answer	-6636
▁Fattar	-6637
▁Skämta	-6638
▁bricka	-6639
▁chubby	-6640
▁geting	-6641
▁nykter	-6642
▁rabatt	-6643
▁ratten	-6644
▁skådes	-6645
▁öronen	-6646
ckslagen	-6647
▁Klockan	-6648
▁Klättra	-6649
▁Knuffas	-6650
▁Körsbär	-6651
▁Lighten	-6652
▁Missade	-6653
▁Mondays	-6654
▁Nothing	-6655
▁Ondskan	-6656
▁Perfect	-6657
▁Perfekt	-6658
▁Plikten	-6659
▁Provade	-6660
▁Påbörja	-6661
▁Saknade	-6662
▁Seriöst	-6663
▁Sjunker	-6664
▁Skämtar	-6665
▁Slappna	-6666
▁Smaklig	-6667
▁Smittar	-6668
▁Spegeln	-6669
▁Spiders	-6670
▁Strunta	-6671
▁Sundays	-6672
▁Tryckte	-6673
▁Tvivlar	-6674
▁Varnade	-6675
▁Vattnet	-6676
▁acrobat	-6677
▁admired	-6678
▁adopted	-6679
▁affären	-6680
▁agerade	-6681
▁akrobat	-6682
▁alerten	-6683
▁allting	-6684
▁anfalla	-6685
▁anlände	-6686
▁another	-6687
▁anpassa	-6688
▁används	-6689
▁arrange	-6690
▁atheist	-6691
▁avgjort	-6692
▁axlarna	-6693
▁babblar	-6694
▁baddare	-6695
▁baffled	-6696
▁bakslug	-6697
▁barbers	-6698
▁barking	-6699
▁bedtime	-6700
▁befängt	-6701
▁begåvad	-6702
▁behaved	-6703
▁behålla	-6704
▁bekvämt	-6705
▁believe	-6706
▁benägen	-6707
▁betalad	-6708
▁blicken	-6709
▁blinked	-6710
▁blommar	-6711
▁bounced	-6712
▁brinner	-6713
▁brorson	-6714
▁bränner	-6715
▁brådska	-6716
▁bråkade	-6717
▁bråttom	-6718
▁bröllop	-6719
▁bullied	-6720
▁callous	-6721
▁captain	-6722
▁chaotic	-6723
▁charmig	-6724
▁cheated	-6725
▁checked	-6726
▁cheered	-6727
▁chewing	-6728
▁choking	-6729
▁choklad	-6730
▁clearly	-6731
▁company	-6732
▁content	-6733
▁control	-6734
▁cooking	-6735
▁country	-6736
▁cousins	-6737
▁curious	-6738
▁dancing	-6739
▁dansade	-6740
▁deppiga	-6741
▁destiny	-6742
▁dieting	-6743
▁digging	-6744
▁dislike	-6745
▁driftig	-6746
▁drugged	-6747
▁drummel	-6748
▁drömmer	-6749
▁dubious	-6750
▁elected	-6751
▁eländig	-6752
▁enemies	-6753
▁ensamma	-6754
▁ethical	-6755
▁excited	-6756
▁farligt	-6757
▁fastnat	-6758
▁fattiga	-6759
▁fiender	-6760
▁fingret	-6761
▁firemen	-6762
▁fishing	-6763
▁flaskan	-6764
▁flingor	-6765
▁flyttat	-6766
▁fläcken	-6767
▁fläkten	-6768
▁flämtar	-6769
▁flåsade	-6770
▁fortare	-6771
▁franskt	-6772
▁frukost	-6773
▁fräknar	-6774
▁fuktigt	-6775
▁förlora	-6776
▁förstod	-6777
▁garaget	-6778
▁geväret	-6779
▁giftigt	-6780
▁giggled	-6781
▁glanced	-6782
▁glänser	-6783
▁grinden	-6784
▁grälade	-6785
▁gäspade	-6786
▁hailing	-6787
▁haltade	-6788
▁handduk	-6789
▁handlar	-6790
▁handtag	-6791
▁happens	-6792
▁hatched	-6793
▁himself	-6794
▁hoppade	-6795
▁hurrade	-6796
▁hurried	-6797
▁husvagn	-6798
▁huvudet	-6799
▁häftigt	-6800
▁hälften	-6801
▁hämtade	-6802
▁härnäst	-6803
▁idioter	-6804
▁ihåliga	-6805
▁illojal	-6806
▁imorgon	-6807
▁invited	-6808
▁justice	-6809
▁kaniner	-6810
▁kidding	-6811
▁kittlig	-6812
▁klassen	-6813
▁klippte	-6814
▁knubbig	-6815
▁knäcken	-6816
▁korkade	-6817
▁kroppen	-6818
▁kräktes	-6819
▁kulspet	-6820
▁kusiner	-6821
▁lagligt	-6822
▁lasagna	-6823
▁lasagne	-6824
▁lederna	-6825
▁levande	-6826
▁looking	-6827
▁lyssnar	-6828
▁löneför	-6829
▁mardröm	-6830
▁matchen	-6831
▁miserly	-6832
▁mobbade	-6833
▁molnigt	-6834
▁musiker	-6835
▁mätaren	-6836
▁möjligt	-6837
▁mönster	-6838
▁needles	-6839
▁nervous	-6840
▁nodding	-6841
▁nyligen	-6842
▁närmast	-6843
▁näsblod	-6844
▁oartiga	-6845
▁ofarlig	-6846
▁ogillar	-6847
▁ohövlig	-6848
▁olydiga	-6849
▁omkring	-6850
▁omtyckt	-6851
▁ostadig	-6852
▁packing	-6853
▁painted	-6854
▁painter	-6855
▁paraply	-6856
▁parents	-6857
▁parkera	-6858
▁pattern	-6859
▁picnics	-6860
▁piloter	-6861
▁planted	-6862
▁plastic	-6863
▁pluggar	-6864
▁plumber	-6865
▁poliser	-6866
▁politik	-6867
▁populär	-6868
▁positiv	-6869
▁poängen	-6870
▁pratade	-6871
▁pratsam	-6872
▁praying	-6873
▁priests	-6874
▁provade	-6875
▁präster	-6876
▁påkarna	-6877
▁påklädd	-6878
▁quietly	-6879
▁rabbits	-6880
▁raccoon	-6881
▁reacted	-6882
▁refused	-6883
▁respond	-6884
▁results	-6885
▁reviews	-6886
▁riktigt	-6887
▁rutinen	-6888
▁ryggrad	-6889
▁räddade	-6890
▁scooter	-6891
▁screwed	-6892
▁servett	-6893
▁shelves	-6894
▁shifted	-6895
▁simmade	-6896
▁simning	-6897
▁sinking	-6898
▁skakade	-6899
▁skallig	-6900
▁skatter	-6901
▁skjuter	-6902
▁skjutsa	-6903
▁skojigt	-6904
▁skratta	-6905
▁skrinna	-6906
▁skäller	-6907
▁skämdes	-6908
▁skämtar	-6909
▁skåpmat	-6910
▁slapped	-6911
▁slipsen	-6912
▁slängde	-6913
▁släppte	-6914
▁smoking	-6915
▁snowing	-6916
▁snowman	-6917
▁someone	-6918
▁somnade	-6919
▁sportig	-6920
▁starved	-6921
▁staying	-6922
▁stickar	-6923
▁sticket	-6924
▁stjärna	-6925
▁stollig	-6926
▁stopped	-6927
▁studera	-6928
▁stycken	-6929
▁stängde	-6930
▁suckade	-6931
▁suicide	-6932
▁surfing	-6933
▁surgery	-6934
▁suspect	-6935
▁svarade	-6936
▁svimmat	-6937
▁säkrare	-6938
▁tackade	-6939
▁teacher	-6940
▁teaches	-6941
▁tecknat	-6942
▁thanked	-6943
▁tiggare	-6944
▁toaster	-6945
▁tonight	-6946
▁touched	-6947
▁trailer	-6948
▁treason	-6949
▁trettio	-6950
▁trubbel	-6951
▁träffar	-6952
▁träffat	-6953
▁tränade	-6954
▁tummade	-6955
▁tuppade	-6956
▁tvekade	-6957
▁tvungna	-6958
▁tvätten	-6959
▁typiskt	-6960
▁tävling	-6961
▁tålamod	-6962
▁unlucky	-6963
▁unusual	-6964
▁upprätt	-6965
▁upstate	-6966
▁utanför	-6967
▁utmärkt	-6968
▁utomord	-6969
▁utvilad	-6970
▁vaknade	-6971
▁vanligt	-6972
▁vattnet	-6973
▁veggies	-6974
▁veranda	-6975
▁verklig	-6976
▁vittnen	-6977
▁volymen	-6978
▁vomited	-6979
▁vägrade	-6980
▁vänliga	-6981
▁whistle	-6982
▁writing	-6983
▁öppnade	-6984
▁övergav	-6985
fortunate	-6986
frisknade	-6987
ningsbara	-6988
oarkanten	-6989
ontrollen	-6990
shändelse	-6991
sköterska	-6992
ställning	-6993
▁American	-6994
▁Anything	-6995
▁Behärska	-6996
▁Beslutet	-6997
▁Betalade	-6998
▁Cherries	-6999
▁Fungerar	-7000
▁Fåglarna	-7001
▁Förebrår	-7002
▁Internet	-7003
▁Klandrar	-7004
▁Knuffade	-7005
▁Kontakta	-7006
▁Kyckling	-7007
▁Memorize	-7008
▁Pressade	-7009
▁Remember	-7010
▁Saturnus	-7011
▁Skadades	-7012
▁Somebody	-7013
▁Sommaren	-7014
▁Spindlar	-7015
▁Suveränt	-7016
▁Svimmade	-7017
▁Tjejerna	-7018
▁Varsågod	-7019
▁Visitera	-7020
▁accurate	-7021
▁agitated	-7022
▁amerikan	-7023
▁annonser	-7024
▁ansvarig	-7025
▁answered	-7026
▁arabiska	-7027
▁armbågen	-7028
▁arrested	-7029
▁avlägsna	-7030
▁avskedat	-7031
▁balloons	-7032
▁bankrutt	-7033
▁begagnad	-7034
▁begraven	-7035
▁behandla	-7036
▁belöning	-7037
▁berättar	-7038
▁besviken	-7039
▁beväpnad	-7040
▁bleknade	-7041
▁blushing	-7042
▁brandmän	-7043
▁bromsade	-7044
▁brödrost	-7045
▁butchers	-7046
▁canceled	-7047
▁cartoons	-7048
▁chairman	-7049
▁charming	-7050
▁cheating	-7051
▁colonels	-7052
▁complain	-7053
▁credible	-7054
▁cultured	-7055
▁dejected	-7056
▁delicate	-7057
▁deserted	-7058
▁deserved	-7059
▁despises	-7060
▁diligent	-7061
▁diskreta	-7062
▁disloyal	-7063
▁domderar	-7064
▁effektiv	-7065
▁embraced	-7066
▁energisk	-7067
▁epilepsi	-7068
▁epilepsy	-7069
▁everyone	-7070
▁exciting	-7071
▁faktiskt	-7072
▁fastnade	-7073
▁feverish	-7074
▁flexibla	-7075
▁flintska	-7076
▁flygplan	-7077
▁flämtade	-7078
▁fnissade	-7079
▁fokusera	-7080
▁football	-7081
▁forgiven	-7082
▁freckles	-7083
▁freezing	-7084
▁frisörer	-7085
▁främling	-7086
▁fängslad	-7087
▁förfärad	-7088
▁förkylde	-7089
▁förlåten	-7090
▁försvann	-7091
▁förtjust	-7092
▁förälder	-7093
▁fötterna	-7094
▁generösa	-7095
▁genomvåt	-7096
▁gladlynt	-7097
▁godsaker	-7098
▁grateful	-7099
▁gräsliga	-7100
▁guidance	-7101
▁handsome	-7102
▁headache	-7103
▁hemifrån	-7104
▁historia	-7105
▁homesick	-7106
▁homework	-7107
▁horrible	-7108
▁hyllorna	-7109
▁händerna	-7110
▁hängiven	-7111
▁härifrån	-7112
▁hästarna	-7113
▁inbjuden	-7114
▁insisted	-7115
▁insulted	-7116
▁interest	-7117
▁internet	-7118
▁islander	-7119
▁japanska	-7120
▁jonglera	-7121
▁kaotiskt	-7122
▁kaptenen	-7123
▁klappade	-7124
▁kläcktes	-7125
▁kreativa	-7126
▁likadana	-7127
▁lustjakt	-7128
▁lyckligt	-7129
▁läggdags	-7130
▁meningen	-7131
▁merciful	-7132
▁mjölkade	-7133
▁musician	-7134
▁märkligt	-7135
▁måndagar	-7136
▁mördaren	-7137
▁mörkhyad	-7138
▁nauseous	-7139
▁nedstämd	-7140
▁noggrann	-7141
▁någonsin	-7142
▁objektiv	-7143
▁obotligt	-7144
▁olycklig	-7145
▁opereras	-7146
▁orättvis	-7147
▁osanning	-7148
▁oskyldig	-7149
▁otrevlig	-7150
▁oturligt	-7151
▁ovanligt	-7152
▁panicked	-7153
▁papegoja	-7154
▁partiska	-7155
▁passerat	-7156
▁pathetic	-7157
▁pladdrar	-7158
▁pleasure	-7159
▁politics	-7160
▁positiva	-7161
▁positivt	-7162
▁possible	-7163
▁pratglad	-7164
▁prepared	-7165
▁punished	-7166
▁punktlig	-7167
▁påhittig	-7168
▁pålitlig	-7169
▁received	-7170
▁reglerna	-7171
▁reliable	-7172
▁relieved	-7173
▁reporter	-7174
▁resigned	-7175
▁resultat	-7176
▁riskerna	-7177
▁romantic	-7178
▁rättfram	-7179
▁rättvisa	-7180
▁semester	-7181
▁sensible	-7182
▁shrugged	-7183
▁skadades	-7184
▁skicklig	-7185
▁skrämmer	-7186
▁skyndade	-7187
▁slaktare	-7188
▁slingrar	-7189
▁slutsålt	-7190
▁smutsigt	-7191
▁småaktig	-7192
▁sneglade	-7193
▁snögubbe	-7194
▁sorgligt	-7195
▁sparkade	-7196
▁speciell	-7197
▁spottade	-7198
▁sprungit	-7199
▁spädbarn	-7200
▁stamgäst	-7201
▁stamkund	-7202
▁startled	-7203
▁straffas	-7204
▁stranger	-7205
▁struggle	-7206
▁strumpor	-7207
▁stubborn	-7208
▁studerar	-7209
▁studsade	-7210
▁störtade	-7211
▁suddenly	-7212
▁surprise	-7213
▁sällskap	-7214
▁söndagar	-7215
▁talented	-7216
▁teachers	-7217
▁ticklish	-7218
▁together	-7219
▁tragiskt	-7220
▁trevliga	-7221
▁trevligt	-7222
▁träffats	-7223
▁trådarna	-7224
▁tvilling	-7225
▁tvättade	-7226
▁tvättdag	-7227
▁tänderna	-7228
▁umbrella	-7229
▁undviker	-7230
▁upstairs	-7231
▁utantill	-7232
▁utmattad	-7233
▁vacation	-7234
▁vaksamma	-7235
▁välsigne	-7236
▁watching	-7237
▁weddings	-7238
▁weekends	-7239
▁worrying	-7240
▁äregirig	-7241
▁återvänt	-7242
▁överallt	-7243
▁överkörd	-7244
▁överstar	-7245
▁översynt	-7246
barrassing	-7247
ensasäsong	-7248
▁Apologize	-7249
▁Berättade	-7250
▁Biljetten	-7251
▁Christmas	-7252
▁Fantastic	-7253
▁Flickorna	-7254
▁Frankrike	-7255
▁Förolämpa	-7256
▁Handduken	-7257
▁Ingenting	-7258
▁Irriterar	-7259
▁Någonting	-7260
▁Tärningen	-7261
▁Varsågoda	-7262
▁Wonderful	-7263
▁adopterad	-7264
▁akademisk	-7265
▁ambitious	-7266
▁apologize	-7267
▁applauded	-7268
▁arroganta	-7269
▁astronomi	-7270
▁astronomy	-7271
▁atletiska	-7272
▁attackera	-7273
▁autentisk	-7274
▁autistisk	-7275
▁avslöjade	-7276
▁backwards	-7277
▁ballonger	-7278
▁beautiful	-7279
▁bedridden	-7280
▁bedräglig	-7281
▁beställde	-7282
▁beundrade	-7283
▁beundrare	-7284
▁breakfast	-7285
▁breathing	-7286
▁brilliant	-7287
▁chemistry	-7288
▁chocolate	-7289
▁committed	-7290
▁confessed	-7291
▁contacted	-7292
▁convinced	-7293
▁cykelpump	-7294
▁debatable	-7295
▁delighted	-7296
▁disagrees	-7297
▁disgusted	-7298
▁dishonest	-7299
▁effective	-7300
▁energiska	-7301
▁engagerad	-7302
▁etiketten	-7303
▁exercised	-7304
▁exercises	-7305
▁exhausted	-7306
▁existerar	-7307
▁explained	-7308
▁framfusig	-7309
▁frisknade	-7310
▁färgblind	-7311
▁fårskalle	-7312
▁föreställ	-7313
▁förflytta	-7314
▁förlovade	-7315
▁förnuftig	-7316
▁förräderi	-7317
▁föräldrar	-7318
▁genialisk	-7319
▁gräsmatta	-7320
▁grönsaker	-7321
▁hesitated	-7322
▁horrified	-7323
▁hybridbil	-7324
▁högljudda	-7325
▁idrottare	-7326
▁immunitet	-7327
▁impatient	-7328
▁incurable	-7329
▁insomniac	-7330
▁intresset	-7331
▁intrigued	-7332
▁juryplikt	-7333
▁jättefint	-7334
▁jättestor	-7335
▁kinesiska	-7336
▁klarvaken	-7337
▁klättring	-7338
▁kompetent	-7339
▁kontanter	-7340
▁kraschade	-7341
▁krossades	-7342
▁kvällsmat	-7343
▁languages	-7344
▁lastbilen	-7345
▁listening	-7346
▁lunchdags	-7347
▁mentioned	-7348
▁misstänkt	-7349
▁mordbrand	-7350
▁motiverad	-7351
▁människor	-7352
▁mänskligt	-7353
▁målarfärg	-7354
▁necessary	-7355
▁negligent	-7356
▁nightmare	-7357
▁noggranna	-7358
▁objective	-7359
▁obstinate	-7360
▁oförskämd	-7361
▁olyckligt	-7362
▁omfamnade	-7363
▁orättvisa	-7364
▁orättvist	-7365
▁overslept	-7366
▁patetiskt	-7367
▁pineapple	-7368
▁planterat	-7369
▁plötsligt	-7370
▁pointless	-7371
▁politiker	-7372
▁punktliga	-7373
▁påbörjade	-7374
▁reagerade	-7375
▁recension	-7376
▁relaterat	-7377
▁relatives	-7378
▁repareras	-7379
▁revolting	-7380
▁räkningar	-7381
▁rättighet	-7382
▁rörmokare	-7383
▁sanningen	-7384
▁searching	-7385
▁självmord	-7386
▁skattebet	-7387
▁skedaddle	-7388
▁slocknade	-7389
▁sovmorgon	-7390
▁speciella	-7391
▁spännande	-7392
▁standards	-7393
▁stressade	-7394
▁succeeded	-7395
▁surprises	-7396
▁surviving	-7397
▁svindlare	-7398
▁systerson	-7399
▁tacksamma	-7400
▁tatuering	-7401
▁taxpayers	-7402
▁teenagers	-7403
▁tillgiven	-7404
▁toleranta	-7405
▁treatable	-7406
▁trovärdig	-7407
▁tålmodiga	-7408
▁underkänd	-7409
▁undervisa	-7410
▁ungjävlar	-7411
▁unmarried	-7412
▁uppenbart	-7413
▁uppfattat	-7414
▁uppkäftig	-7415
▁upptäckte	-7416
▁utomlands	-7417
▁utsvulten	-7418
▁vanvettig	-7419
▁villrådig	-7420
▁witnesses	-7421
▁ärelysten	-7422
▁övergiven	-7423
▁övertygad	-7424
ratulations	-7425
▁Allvarligt	-7426
▁Definitivt	-7427
▁Everything	-7428
▁alltsamman	-7429
▁applåderar	-7430
▁arresterad	-7431
▁autentiskt	-7432
▁avundsjuka	-7433
▁besläktade	-7434
▁contagious	-7435
▁delstatens	-7436
▁diskuteras	-7437
▁evacuating	-7438
▁evakuering	-7439
▁exaggerate	-7440
▁fantastisk	-7441
▁farsighted	-7442
▁fascinated	-7443
▁finkänslig	-7444
▁framåtanda	-7445
▁frustrated	-7446
▁frustrerad	-7447
▁förbryllad	-7448
▁författare	-7449
▁förfärliga	-7450
▁förklarade	-7451
▁försiktiga	-7452
▁förskräckt	-7453
▁förtjänade	-7454
▁förtvivlad	-7455
▁förälskade	-7456
▁hemlängtan	-7457
▁improvised	-7458
▁insisterar	-7459
▁intressant	-7460
▁irrelevant	-7461
▁jättestort	-7462
▁jättetjock	-7463
▁kallhamrad	-7464
▁kontaktade	-7465
▁kontrollen	-7466
▁kultiverad	-7467
▁lägenheten	-7468
▁lögnhalsar	-7469
▁meddelande	-7470
▁medvetande	-7471
▁mentalsjuk	-7472
▁nonchalant	-7473
▁någonstans	-7474
▁nödvändigt	-7475
▁oförarglig	-7476
▁oförberedd	-7477
▁ordförande	-7478
▁picknickar	-7479
▁politician	-7480
▁punktering	-7481
▁remarkable	-7482
▁respectful	-7483
▁romantiskt	-7484
▁schweizare	-7485
▁självsäker	-7486
▁slagsmålet	-7487
▁sparkcykel	-7488
▁speechless	-7489
▁springande	-7490
▁studerande	-7491
▁syltburken	-7492
▁tillverkar	-7493
▁tonåringar	-7494
▁tvillingar	-7495
▁tvättbjörn	-7496
▁undantagen	-7497
▁undervisar	-7498
▁unprepared	-7499
▁uppmärksam	-7500
▁vägledning	-7501
▁välavlönad	-7502
▁återhämtar	-7503
▁återvänder	-7504
▁Fantastiskt	-7505
▁alltsammans	-7506
▁applåderade	-7507
▁barskrapade	-7508
▁beställning	-7509
▁disappeared	-7510
▁eftermiddag	-7511
▁fantastiskt	-7512
▁fascinerade	-7513
▁fördomsfull	-7514
▁förolämpade	-7515
▁föräldralös	-7516
▁golfspelare	-7517
▁hänsynslösa	-7518
▁insisterade	-7519
▁interesting	-7520
▁jättemycket	-7521
▁kolliderade	-7522
▁kommentarer	-7523
▁kännetecken	-7524
▁missförstod	-7525
▁motbjudande	-7526
▁oförskräckt	-7527
▁promenerade	-7528
▁rattfylleri	-7529
▁respekterar	-7530
▁respektfull	-7531
▁skjutvapnet	-7532
▁tegelstenar	-7533
▁tillsammans	-7534
▁tjänstledig	-7535
▁tändstickan	-7536
▁unfortunate	-7537
▁vänsterhänt	-7538
▁återhämtade	-7539
▁återlämnade	-7540
▁överstegrar	-7541
▁anteckningar	-7542
▁embarrassing	-7543
▁flintskallig	-7544
▁fortsättning	-7545
▁fördomsfulla	-7546
▁förstärkning	-7547
▁föräldralöst	-7548
▁genomförbart	-7549
▁idrottskille	-7550
▁jättetråkigt	-7551
▁konstnärligt	-7552
▁ordenstecken	-7553
▁skräckslagen	-7554
▁skådespelare	-7555
▁sängliggande	-7556
▁tillräknelig	-7557
▁verktygslåda	-7558
▁vändningarna	-7559
▁överraskning	-7560
▁övervåningen	-7561
▁Ovillkorligen	-7562
▁begränsningar	-7563
▁improviserade	-7564
▁kraschlandade	-7565
▁kulspetspenna	-7566
▁misunderstood	-7567
▁recensionerna	-7568
▁sjuksköterska	-7569
▁tandställning	-7570
▁tillfrisknade	-7571
▁tillräkneliga	-7572
▁undantagsrätt	-7573
▁underhållande	-7574
▁utomordentlig	-7575
▁vindsvåningen	-7576
▁löneförhöjning	-7577
▁olyckshändelse	-7578
▁skattebetalare	-7579
▁trottoarkanten	-7580
▁överraskningar	-7581
▁Congratulations	-7582
▁anpassningsbara	-7583
▁föreställningen	-7584
▁influensasäsong	-7585
bts	-7586
egl	-7587
ggr	-7588
gpl	-7589
gum	-7590
khy	-7591
kyl	-7592
löj	-7593
oja	-7594
psi	-7595
psy	-7596
ruk	-7597
slå	-7598
svå	-7599
bla	-7600
lau	-7601
sla	-7602
säk	-7603
umb	-7604
vla	-7605
vud	-7606
väv	-7607
ymd	-7608
yns	-7609
ypl	-7610
äpm	-7611
äpn	-7612
ävl	-7613
ävt	-7614
äxa	-7615
äxt	-7616
öne	-7617
önt	-7618
ösa	-7619
ösh	-7620
▁äk	-7621
affe	-7622
aksl	-7623
arkc	-7624
asta	-7625
bara	-7626
ccur	-7627
cern	-7628
coon	-7629
crob	-7630
desp	-7631
dska	-7632
eace	-7633
ends	-7634
erno	-7635
fuse	-7636
geth	-7637
gled	-7638
gypt	-7639
ifik	-7640
ifte	-7641
ilep	-7642
ippy	-7643
iöst	-7644
jekt	-7645
judd	-7646
kiga	-7647
krob	-7648
kväm	-7649
lapp	-7650
lass	-7651
lies	-7652
ljud	-7653
ljut	-7654
lsen	-7655
läkt	-7656
länt	-7657
lösa	-7658
löst	-7659
marr	-7660
midd	-7661
morg	-7662
mrad	-7663
niac	-7664
nlös	-7665
nter	-7666
nuft	-7667
offe	-7668
ogiz	-7669
ordb	-7670
oriz	-7671
ormt	-7672
ovis	-7673
pris	-7674
psen	-7675
pten	-7676
rabs	-7677
rann	-7678
rass	-7679
rebr	-7680
rikt	-7681
rova	-7682
rugg	-7683
räck	-7684
räff	-7685
rörd	-7686
röst	-7687
sjuk	-7688
skyr	-7689
ssum	-7690
svin	-7691
svul	-7692
säkt	-7693
terg	-7694
ucky	-7695
uded	-7696
udet	-7697
uens	-7698
uffa	-7699
avi	-7700
läd	-7701
ädb	-7702
assa	-7703
eför	-7704
erös	-7705
förh	-7706
hink	-7707
ifta	-7708
kyld	-7709
malt	-7710
omsa	-7711
reez	-7712
rong	-7713
ropp	-7714
ugnt	-7715
ults	-7716
urns	-7717
uros	-7718
vann	-7719
vimm	-7720
volt	-7721
vänt	-7722
ymen	-7723
yssl	-7724
äckl	-7725
ägga	-7726
äkar	-7727
älav	-7728
ändr	-7729
ådar	-7730
åket	-7731
åkig	-7732
åkor	-7733
åkte	-7734
ålam	-7735
ölja	-7736
▁Apr	-7737
▁Exc	-7738
▁Fru	-7739
▁Köp	-7740
▁Nöj	-7741
▁Sjö	-7742
▁Toy	-7743
▁abr	-7744
▁ash	-7745
▁bab	-7746
▁bud	-7747
▁böj	-7748
▁dia	-7749
▁dip	-7750
▁diz	-7751
▁dyr	-7752
▁ela	-7753
▁emp	-7754
▁fli	-7755
▁flä	-7756
▁flå	-7757
▁flö	-7758
▁gev	-7759
▁idr	-7760
▁ihå	-7761
▁imm	-7762
▁irr	-7763
▁kav	-7764
▁klä	-7765
▁köp	-7766
▁löp	-7767
▁nyh	-7768
▁nöj	-7769
▁osä	-7770
▁que	-7771
▁qui	-7772
▁rac	-7773
▁sjö	-7774
▁suc	-7775
▁sud	-7776
▁syl	-7777
▁tum	-7778
▁wav	-7779
▁änn	-7780
agoda	-7781
aktig	-7782
alsar	-7783
altet	-7784
amnet	-7785
amrad	-7786
amsen	-7787
anana	-7788
arned	-7789
ashed	-7790
assed	-7791
asser	-7792
asses	-7793
atuer	-7794
bered	-7795
bridb	-7796
bster	-7797
btful	-7798
börja	-7799
bju	-7800
ctu	-7801
ect	-7802
los	-7803
low	-7804
loy	-7805
mpr	-7806
que	-7807
uat	-7808
appe	-7809
days	-7810
enne	-7811
ersö	-7812
fect	-7813
hank	-7814
iary	-7815
jken	-7816
jtar	-7817
lect	-7818
ltar	-7819
mpad	-7820
mpat	-7821
mpol	-7822
mpon	-7823
mpor	-7824
mpre	-7825
nvar	-7826
ovar	-7827
rank	-7828
rect	-7829
svar	-7830
svär	-7831
tact	-7832
tend	-7833
tful	-7834
ttar	-7835
unct	-7836
weep	-7837
ända	-7838
ästa	-7839
örda	-7840
▁exp	-7841
▁ext	-7842
▁flo	-7843
▁pla	-7844
caped	-7845
celed	-7846
cised	-7847
cises	-7848
cited	-7849
ckera	-7850
ckles	-7851
ctful	-7852
ctors	-7853
dagen	-7854
denly	-7855
dnade	-7856
domar	-7857
dying	-7858
eliga	-7859
emies	-7860
endly	-7861
enhet	-7862
erate	-7863
erday	-7864
erful	-7865
erget	-7866
errif	-7867
erten	-7868
escap	-7869
esper	-7870
esses	-7871
etråk	-7872
ffekt	-7873
fiken	-7874
finit	-7875
fterm	-7876
först	-7877
gaged	-7878
garna	-7879
giska	-7880
heers	-7881
icate	-7882
ietly	-7883
ieved	-7884
ifist	-7885
iftig	-7886
igers	-7887
igned	-7888
ikten	-7889
iktig	-7890
ilked	-7891
inced	-7892
inite	-7893
ioner	-7894
ippie	-7895
irkel	-7896
irrad	-7897
isera	-7898
ision	-7899
Bj	-7900
Ne	-7901
bo	-7902
jn	-7903
kh	-7904
vö	-7905
åp	-7906
Som	-7907
atc	-7908
cie	-7909
dre	-7910
fik	-7911
gle	-7912
gry	-7913
gue	-7914
hit	-7915
iev	-7916
lue	-7917
sik	-7918
öda	-7919
ödd	-7920
ödr	-7921
ödv	-7922
ömt	-7923
▁Ca	-7924
▁kä	-7925
aint	-7926
anik	-7927
blem	-7928
chen	-7929
fish	-7930
iece	-7931
jupt	-7932
okar	-7933
olon	-7934
ppie	-7935
rang	-7936
rött	-7937
sary	-7938
svik	-7939
trig	-7940
unis	-7941
änad	-7942
ågra	-7943
ömde	-7944
▁Gis	-7945
▁Röd	-7946
▁Skå	-7947
▁Sla	-7948
▁Slu	-7949
▁awf	-7950
▁brö	-7951
▁fyr	-7952
▁ink	-7953
▁orp	-7954
▁pom	-7955
▁sel	-7956
▁swo	-7957
again	-7958
aited	-7959
bblar	-7960
chool	-7961
elare	-7962
enare	-7963
ffing	-7964
genom	-7965
idare	-7966
igrar	-7967
inish	-7968
ition	-7969
ittne	-7970
jerna	-7971
juden	-7972
jälvm	-7973
jälvs	-7974
knade	-7975
kvämt	-7976
lated	-7977
leasu	-7978
leran	-7979
lerna	-7980
letic	-7981
letis	-7982
locka	-7983
loser	-7984
lovad	-7985
lsjuk	-7986
ltade	-7987
lydig	-7988
lände	-7989
makar	-7990
maken	-7991
modig	-7992
munit	-7993
nabba	-7994
nabbt	-7995
nderb	-7996
nslös	-7997
nster	-7998
nälla	-7999
Do	-8000
Nu	-8001
cy	-8002
Sad	-8003
hts	-8004
håg	-8005
lie	-8006
nsw	-8007
omk	-8008
rus	-8009
urd	-8010
äsp	-8011
ånd	-8012
biti	-8013
etik	-8014
ffad	-8015
icid	-8016
iskn	-8017
iskr	-8018
iten	-8019
kerh	-8020
ksam	-8021
lans	-8022
okes	-8023
owes	-8024
oäng	-8025
rans	-8026
rime	-8027
risk	-8028
rown	-8029
räng	-8030
usik	-8031
uspe	-8032
älls	-8033
äsan	-8034
äser	-8035
▁Spa	-8036
▁ele	-8037
▁gut	-8038
▁mam	-8039
▁ork	-8040
▁orä	-8041
▁söm	-8042
▁väs	-8043
▁wis	-8044
dande	-8045
dning	-8046
erlig	-8047
etime	-8048
iskar	-8049
kning	-8050
ngsam	-8051
nsure	-8052
obody	-8053
odded	-8054
offee	-8055
ogize	-8056
ojigt	-8057
oliga	-8058
omför	-8059
omord	-8060
onday	-8061
onely	-8062
ontin	-8063
oppas	-8064
opter	-8065
orced	-8066
ormal	-8067
osamt	-8068
ostar	-8069
ouldn	-8070
ounds	-8071
ource	-8072
ourte	-8073
passa	-8074
pened	-8075
penna	-8076
perat	-8077
piskt	-8078
pnade	-8079
pples	-8080
prise	-8081
rabic	-8082
raced	-8083
ralös	-8084
ranna	-8085
rated	-8086
raven	-8087
rejer	-8088
rerad	-8089
revet	-8090
rived	-8091
rämde	-8092
råter	-8093
sfull	-8094
siner	-8095
sitiv	-8096
släkt	-8097
sterh	-8098
stion	-8099
hu	-8100
mä	-8101
th	-8102
Get	-8103
Sed	-8104
Wer	-8105
bur	-8106
hre	-8107
ina	-8108
jup	-8109
lju	-8110
sju	-8111
▁Pr	-8112
▁På	-8113
▁mä	-8114
alen	-8115
ards	-8116
bbet	-8117
bete	-8118
ckas	-8119
ered	-8120
gnar	-8121
heer	-8122
inea	-8123
itik	-8124
ittn	-8125
jigt	-8126
nark	-8127
oice	-8128
pind	-8129
rack	-8130
roll	-8131
sigt	-8132
vice	-8133
wind	-8134
ären	-8135
▁Par	-8136
▁Pas	-8137
▁Pot	-8138
▁Spö	-8139
▁lev	-8140
▁mov	-8141
▁sku	-8142
▁tim	-8143
▁vom	-8144
▁wan	-8145
amfus	-8146
betar	-8147
cklan	-8148
edsen	-8149
emble	-8150
gligt	-8151
idigt	-8152
ightm	-8153
jligt	-8154
jutsa	-8155
kligt	-8156
ollen	-8157
ortun	-8158
pring	-8159
ringa	-8160
råkad	-8161
skigt	-8162
stigt	-8163
stled	-8164
stron	-8165
sågod	-8166
söker	-8167
tagen	-8168
tenen	-8169
tress	-8170
udvär	-8171
uffar	-8172
uffin	-8173
ugnet	-8174
ulted	-8175
umped	-8176
unish	-8177
unity	-8178
unnen	-8179
unter	-8180
urnus	-8181
uropa	-8182
urypl	-8183
utsig	-8184
veren	-8185
verän	-8186
viden	-8187
vised	-8188
viser	-8189
vived	-8190
vligt	-8191
voted	-8192
väder	-8193
vända	-8194
vände	-8195
vätta	-8196
wered	-8197
xibla	-8198
ybody	-8199
Mem	-8200
ayb	-8201
cef	-8202
edr	-8203
een	-8204
gga	-8205
hap	-8206
hec	-8207
inc	-8208
iti	-8209
kol	-8210
kut	-8211
non	-8212
rce	-8213
rik	-8214
skä	-8215
▁Ap	-8216
▁Op	-8217
▁Or	-8218
▁ly	-8219
alös	-8220
artl	-8221
ceiv	-8222
eist	-8223
ence	-8224
fekt	-8225
fist	-8226
issl	-8227
lied	-8228
mist	-8229
niss	-8230
nsak	-8231
owly	-8232
urag	-8233
vart	-8234
verg	-8235
wiss	-8236
älld	-8237
ätar	-8238
åkar	-8239
åker	-8240
ölka	-8241
▁Hög	-8242
▁Köt	-8243
▁Mil	-8244
▁amb	-8245
▁föt	-8246
▁köt	-8247
▁omb	-8248
▁små	-8249
▁snä	-8250
▁thr	-8251
▁tow	-8252
aknar	-8253
amous	-8254
artig	-8255
artis	-8256
bious	-8257
heist	-8258
isted	-8259
istis	-8260
istor	-8261
itade	-8262
jälvk	-8263
ontri	-8264
uests	-8265
uried	-8266
ymden	-8267
äckel	-8268
äderi	-8269
äffad	-8270
äffar	-8271
äffat	-8272
ägger	-8273
ägrar	-8274
ämnat	-8275
änder	-8276
ändig	-8277
änges	-8278
ängiv	-8279
ängre	-8280
äpple	-8281
ärdig	-8282
ärker	-8283
äslig	-8284
äsmat	-8285
ästen	-8286
äster	-8287
ätteb	-8288
ättem	-8289
ättig	-8290
ående	-8291
ågoda	-8292
ågont	-8293
åkade	-8294
åligt	-8295
ånade	-8296
åriga	-8297
åsade	-8298
åtand	-8299
to	-8300
Lag	-8301
apn	-8302
dap	-8303
epy	-8304
gsl	-8305
had	-8306
hin	-8307
hma	-8308
lap	-8309
mid	-8310
sul	-8311
uls	-8312
vul	-8313
vår	-8314
zin	-8315
allh	-8316
apta	-8317
arig	-8318
atul	-8319
bbel	-8320
bout	-8321
care	-8322
dera	-8323
derf	-8324
deri	-8325
etar	-8326
hake	-8327
heap	-8328
inds	-8329
nisk	-8330
ogan	-8331
onan	-8332
opul	-8333
rung	-8334
uder	-8335
ulär	-8336
undr	-8337
ungr	-8338
xist	-8339
älft	-8340
åder	-8341
▁Jap	-8342
▁Rop	-8343
▁Sop	-8344
▁cap	-8345
▁hop	-8346
▁idi	-8347
▁kep	-8348
▁num	-8349
▁sli	-8350
▁vap	-8351
alist	-8352
anked	-8353
derna	-8354
eping	-8355
ilots	-8356
llied	-8357
ollid	-8358
omder	-8359
onder	-8360
onels	-8361
onous	-8362
opade	-8363
orson	-8364
stisk	-8365
ultat	-8366
ungen	-8367
unger	-8368
veryb	-8369
yster	-8370
älder	-8371
ången	-8372
ånvar	-8373
åttor	-8374
ögnar	-8375
ögner	-8376
öjade	-8377
öljde	-8378
öljer	-8379
ömnig	-8380
öndag	-8381
önder	-8382
örber	-8383
örebr	-8384
örjan	-8385
örren	-8386
östen	-8387
öster	-8388
öters	-8389
▁Blom	-8390
▁Bost	-8391
▁Crow	-8392
▁Danc	-8393
▁Exam	-8394
▁Fren	-8395
▁Förl	-8396
▁Gjor	-8397
▁Godd	-8398
▁Happ	-8399
Hi	-8400
ku	-8401
kå	-8402
tm	-8403
akl	-8404
eft	-8405
esn	-8406
raw	-8407
unt	-8408
usy	-8409
öro	-8410
▁Ev	-8411
ackw	-8412
akom	-8413
alis	-8414
cess	-8415
elak	-8416
gner	-8417
hans	-8418
have	-8419
larf	-8420
lund	-8421
pets	-8422
razy	-8423
▁aft	-8424
▁avs	-8425
▁bri	-8426
▁brå	-8427
▁dec	-8428
▁dee	-8429
▁dri	-8430
▁drö	-8431
▁erk	-8432
▁fac	-8433
▁fas	-8434
▁gri	-8435
▁gro	-8436
▁inn	-8437
▁lju	-8438
▁nud	-8439
▁oft	-8440
▁smi	-8441
▁soa	-8442
▁vir	-8443
▁wou	-8444
akade	-8445
aking	-8446
antag	-8447
arrig	-8448
brand	-8449
chack	-8450
dered	-8451
ettig	-8452
insam	-8453
isken	-8454
oggar	-8455
order	-8456
ously	-8457
reled	-8458
ungry	-8459
ästan	-8460
öning	-8461
▁Henn	-8462
▁Hiss	-8463
▁Häng	-8464
▁Jury	-8465
▁Klag	-8466
▁Kont	-8467
▁Kråk	-8468
▁Mayb	-8469
▁Mång	-8470
▁Papp	-8471
▁Prat	-8472
▁Rela	-8473
▁Russ	-8474
▁Sjun	-8475
▁Skäm	-8476
▁Skär	-8477
▁Spar	-8478
▁Spel	-8479
▁Tapp	-8480
▁Toky	-8481
▁Toyo	-8482
▁Vatt	-8483
▁Visp	-8484
▁Väck	-8485
▁afra	-8486
▁ager	-8487
▁agit	-8488
▁aler	-8489
▁anfa	-8490
▁apel	-8491
▁apol	-8492
▁arab	-8493
▁asle	-8494
▁atta	-8495
▁avsl	-8496
▁badd	-8497
▁badg	-8498
▁bark	-8499
ba	-8500
lb	-8501
rm	-8502
vk	-8503
Fun	-8504
htm	-8505
hty	-8506
irl	-8507
ivl	-8508
jän	-8509
ked	-8510
liv	-8511
lyd	-8512
mak	-8513
ndv	-8514
otå	-8515
ple	-8516
ply	-8517
ppn	-8518
wam	-8519
ymt	-8520
ömd	-8521
▁Ro	-8522
adly	-8523
akes	-8524
alls	-8525
aped	-8526
avel	-8527
bbig	-8528
blar	-8529
eful	-8530
erän	-8531
hted	-8532
ilse	-8533
itiv	-8534
kare	-8535
lain	-8536
lara	-8537
lare	-8538
lart	-8539
larv	-8540
mast	-8541
matt	-8542
migt	-8543
okie	-8544
oled	-8545
orka	-8546
ortf	-8547
port	-8548
skiv	-8549
stma	-8550
ärma	-8551
åtta	-8552
▁Dag	-8553
▁Fun	-8554
▁Lad	-8555
▁Sin	-8556
▁Stä	-8557
▁fog	-8558
▁giv	-8559
▁gon	-8560
▁pri	-8561
▁tro	-8562
▁ups	-8563
▁äls	-8564
essor	-8565
iella	-8566
ingsl	-8567
juder	-8568
lskar	-8569
luens	-8570
nskar	-8571
unate	-8572
uskar	-8573
äknel	-8574
överd	-8575
▁Ever	-8576
▁Själ	-8577
▁Stäm	-8578
▁begr	-8579
▁begå	-8580
▁beky	-8581
▁bias	-8582
▁bliv	-8583
▁boar	-8584
▁boug	-8585
▁bred	-8586
▁brig	-8587
▁brin	-8588
▁brok	-8589
▁brot	-8590
▁bråd	-8591
▁bråt	-8592
▁burn	-8593
▁böck	-8594
▁cart	-8595
▁caug	-8596
▁char	-8597
▁chas	-8598
▁chil	-8599
Ri	-8600
Ru	-8601
mi	-8602
Kan	-8603
You	-8604
chf	-8605
ctf	-8606
eiz	-8607
fft	-8608
ges	-8609
går	-8610
iff	-8611
iol	-8612
lyg	-8613
olo	-8614
oly	-8615
omo	-8616
rol	-8617
räs	-8618
vol	-8619
ybr	-8620
äds	-8621
äga	-8622
ägs	-8623
äsb	-8624
atar	-8625
aust	-8626
cary	-8627
ells	-8628
ffar	-8629
ffic	-8630
iser	-8631
just	-8632
kaff	-8633
kant	-8634
kert	-8635
kigt	-8636
leva	-8637
olan	-8638
olis	-8639
road	-8640
stol	-8641
till	-8642
usts	-8643
vite	-8644
ägen	-8645
äger	-8646
▁Int	-8647
▁Käm	-8648
▁eff	-8649
▁fol	-8650
▁glu	-8651
▁kne	-8652
▁kni	-8653
▁krö	-8654
▁mol	-8655
▁mål	-8656
▁sol	-8657
▁vol	-8658
aller	-8659
allet	-8660
erent	-8661
ervän	-8662
inate	-8663
iskut	-8664
isste	-8665
ktare	-8666
steck	-8667
ustic	-8668
yndat	-8669
åning	-8670
▁Hall	-8671
▁beha	-8672
▁blus	-8673
▁chok	-8674
▁clou	-8675
▁comf	-8676
▁comp	-8677
▁conf	-8678
▁cons	-8679
▁conv	-8680
▁cras	-8681
▁dang	-8682
▁denn	-8683
▁depp	-8684
▁depr	-8685
▁dest	-8686
▁dipl	-8687
▁disc	-8688
▁doct	-8689
▁driv	-8690
▁drug	-8691
▁drum	-8692
▁döen	-8693
▁enke	-8694
▁exag	-8695
▁exer	-8696
▁expl	-8697
▁fain	-8698
▁fakt	-8699
Ki	-8700
Nö	-8701
gu	-8702
kö	-8703
nk	-8704
nw	-8705
Out	-8706
Pas	-8707
Put	-8708
anl	-8709
aug	-8710
båg	-8711
ded	-8712
dry	-8713
eop	-8714
hut	-8715
jus	-8716
lug	-8717
lut	-8718
mom	-8719
nut	-8720
oro	-8721
rut	-8722
try	-8723
uge	-8724
utr	-8725
äre	-8726
▁Vå	-8727
▁wa	-8728
ands	-8729
emem	-8730
enad	-8731
gift	-8732
imma	-8733
inge	-8734
ject	-8735
jkar	-8736
jält	-8737
ligh	-8738
onut	-8739
stry	-8740
ubby	-8741
uger	-8742
urry	-8743
utat	-8744
uten	-8745
utis	-8746
ättd	-8747
ättn	-8748
åtan	-8749
örol	-8750
▁Bör	-8751
▁Fly	-8752
▁Lug	-8753
▁cul	-8754
▁fut	-8755
▁måd	-8756
▁sek	-8757
▁skö	-8758
▁tug	-8759
▁utt	-8760
▁utv	-8761
andar	-8762
anden	-8763
ander	-8764
andle	-8765
istol	-8766
låter	-8767
orätt	-8768
owner	-8769
oying	-8770
stand	-8771
utade	-8772
äpmat	-8773
ättre	-8774
överr	-8775
▁Fruk	-8776
▁Skre	-8777
▁baff	-8778
▁band	-8779
▁blöd	-8780
▁fasc	-8781
▁filt	-8782
▁fink	-8783
▁flak	-8784
▁flas	-8785
▁flow	-8786
▁flyd	-8787
▁flyg	-8788
▁flöj	-8789
▁foll	-8790
▁fotb	-8791
▁fres	-8792
▁funk	-8793
▁funn	-8794
▁fuss	-8795
▁fyll	-8796
▁fårs	-8797
▁gans	-8798
▁garb	-8799
Bo	-8800
tö	-8801
Kor	-8802
Sen	-8803
bag	-8804
eal	-8805
ena	-8806
eno	-8807
fic	-8808
hic	-8809
ici	-8810
icu	-8811
isl	-8812
kna	-8813
ksk	-8814
lic	-8815
lob	-8816
lus	-8817
lär	-8818
nob	-8819
nus	-8820
obs	-8821
ric	-8822
rov	-8823
rte	-8824
räg	-8825
uic	-8826
use	-8827
usp	-8828
agic	-8829
cent	-8830
cing	-8831
dent	-8832
edat	-8833
elic	-8834
enti	-8835
enty	-8836
gent	-8837
hoic	-8838
ical	-8839
ican	-8840
icat	-8841
illb	-8842
iots	-8843
ipas	-8844
itic	-8845
katt	-8846
lent	-8847
ment	-8848
mile	-8849
oble	-8850
obod	-8851
olig	-8852
olor	-8853
stag	-8854
tent	-8855
ukan	-8856
user	-8857
uset	-8858
usig	-8859
utch	-8860
äppl	-8861
▁Anf	-8862
▁Rit	-8863
▁Slä	-8864
▁Sät	-8865
▁mob	-8866
▁nyt	-8867
▁oär	-8868
▁pic	-8869
▁pus	-8870
▁rob	-8871
▁sob	-8872
▁sus	-8873
▁tun	-8874
▁tus	-8875
alöst	-8876
arent	-8877
etent	-8878
ikett	-8879
ilent	-8880
ousin	-8881
rance	-8882
sning	-8883
ultur	-8884
using	-8885
ättra	-8886
▁Kans	-8887
▁blin	-8888
▁blåt	-8889
▁förk	-8890
▁geni	-8891
▁gjor	-8892
▁glan	-8893
▁glup	-8894
▁glän	-8895
▁golv	-8896
▁grav	-8897
▁gräv	-8898
▁gråt	-8899
Mj	-8900
Yo	-8901
go	-8902
sf	-8903
wh	-8904
Bet	-8905
Ser	-8906
Tom	-8907
ekt	-8908
giv	-8909
hoc	-8910
hoi	-8911
kty	-8912
ndo	-8913
ndr	-8914
nds	-8915
ngj	-8916
ngs	-8917
ngt	-8918
nsl	-8919
oli	-8920
reb	-8921
rop	-8922
sol	-8923
udv	-8924
ukt	-8925
vat	-8926
önd	-8927
öng	-8928
▁Bo	-8929
▁Nö	-8930
▁Va	-8931
anes	-8932
arce	-8933
asäs	-8934
egel	-8935
erkt	-8936
hoes	-8937
hopp	-8938
host	-8939
illr	-8940
ktar	-8941
ktet	-8942
ktig	-8943
ktis	-8944
ndat	-8945
raff	-8946
stic	-8947
ärkt	-8948
ödst	-8949
örkt	-8950
▁Gho	-8951
▁Nag	-8952
▁Tho	-8953
▁akt	-8954
▁anp	-8955
▁anv	-8956
▁bät	-8957
▁div	-8958
▁frä	-8959
▁iho	-8960
▁kol	-8961
▁nep	-8962
▁rus	-8963
astic	-8964
deran	-8965
ktade	-8966
lunda	-8967
ärhet	-8968
övers	-8969
▁Bird	-8970
▁Foll	-8971
▁Giss	-8972
▁Hitt	-8973
▁Hurr	-8974
▁Tviv	-8975
▁amer	-8976
▁anim	-8977
▁anst	-8978
▁bitt	-8979
▁fogg	-8980
▁guil	-8981
▁heal	-8982
▁heav	-8983
▁heml	-8984
▁himl	-8985
▁hims	-8986
▁hitt	-8987
▁hjär	-8988
▁hone	-8989
▁horr	-8990
▁hors	-8991
▁hurr	-8992
▁hybr	-8993
▁häls	-8994
▁häns	-8995
▁håll	-8996
▁igno	-8997
▁illo	-8998
▁impr	-8999
Fl	-9000
Hu	-9001
Th	-9002
rj	-9003
Eld	-9004
Någ	-9005
bat	-9006
cam	-9007
mad	-9008
omi	-9009
ova	-9010
pik	-9011
rse	-9012
väm	-9013
yld	-9014
åga	-9015
åld	-9016
öka	-9017
▁Gö	-9018
aive	-9019
anim	-9020
ants	-9021
arap	-9022
eave	-9023
eråt	-9024
give	-9025
ickn	-9026
kend	-9027
live	-9028
nger	-9029
omeb	-9030
omew	-9031
owar	-9032
owed	-9033
rant	-9034
sive	-9035
skäm	-9036
some	-9037
tant	-9038
tive	-9039
usin	-9040
vive	-9041
ysst	-9042
ågel	-9043
ågen	-9044
ågod	-9045
ågon	-9046
ågor	-9047
ånad	-9048
▁Fåg	-9049
▁båt	-9050
▁dan	-9051
▁huv	-9052
▁låt	-9053
▁råt	-9054
▁seg	-9055
▁töl	-9056
▁wea	-9057
▁wep	-9058
▁wer	-9059
ansin	-9060
antar	-9061
anted	-9062
anter	-9063
enter	-9064
grann	-9065
höver	-9066
ilant	-9067
intle	-9068
itive	-9069
omant	-9070
omeon	-9071
rewed	-9072
xious	-9073
äpnad	-9074
äsong	-9075
övera	-9076
överg	-9077
överk	-9078
övert	-9079
▁Lyss	-9080
▁Stan	-9081
▁bedt	-9082
▁inno	-9083
▁jugg	-9084
▁kaot	-9085
▁kapp	-9086
▁kart	-9087
▁kopp	-9088
▁kräk	-9089
▁kvin	-9090
▁kyss	-9091
▁känn	-9092
▁lawy	-9093
▁lett	-9094
▁likn	-9095
▁lort	-9096
▁låts	-9097
▁löne	-9098
▁marr	-9099
Ka	-9100
rd	-9101
vd	-9102
Är	-9103
Lär	-9104
Rod	-9105
air	-9106
dna	-9107
egg	-9108
irc	-9109
irm	-9110
irs	-9111
irt	-9112
iru	-9113
käm	-9114
ldn	-9115
lod	-9116
lyr	-9117
läm	-9118
mir	-9119
mor	-9120
odn	-9121
oss	-9122
rak	-9123
rap	-9124
ski	-9125
ssi	-9126
ssl	-9127
ssn	-9128
ssu	-9129
stl	-9130
ule	-9131
äml	-9132
ämm	-9133
▁Pl	-9134
▁Ry	-9135
Kill	-9136
Pick	-9137
anns	-9138
etir	-9139
hess	-9140
icky	-9141
iell	-9142
kick	-9143
lick	-9144
lock	-9145
olat	-9146
orra	-9147
raig	-9148
rick	-9149
ssed	-9150
ssen	-9151
tick	-9152
ällt	-9153
ågot	-9154
▁Enj	-9155
▁Häm	-9156
▁Sto	-9157
▁bir	-9158
▁dow	-9159
▁dru	-9160
▁gåt	-9161
▁hir	-9162
▁häm	-9163
▁krä	-9164
▁omt	-9165
▁skj	-9166
▁sko	-9167
▁skä	-9168
▁tap	-9169
▁tir	-9170
▁åld	-9171
icker	-9172
ickor	-9173
isund	-9174
ndant	-9175
tayed	-9176
ällan	-9177
▁Dett	-9178
▁Miss	-9179
▁Stän	-9180
▁Tick	-9181
▁begg	-9182
▁clim	-9183
▁frys	-9184
▁förd	-9185
▁kick	-9186
▁limp	-9187
▁matt	-9188
▁medv	-9189
▁mena	-9190
▁mick	-9191
▁midd	-9192
▁mock	-9193
▁mone	-9194
▁mord	-9195
▁morg	-9196
▁moti	-9197
▁mäkt	-9198
▁målt	-9199
Tä	-9200
ca	-9201
rk	-9202
sn	-9203
yp	-9204
adg	-9205
dop	-9206
dra	-9207
ffl	-9208
gra	-9209
ika	-9210
isc	-9211
kra	-9212
lld	-9213
oki	-9214
okl	-9215
oks	-9216
oku	-9217
pre	-9218
raz	-9219
red	-9220
rok	-9221
ron	-9222
tor	-9223
ugn	-9224
ybl	-9225
▁Ba	-9226
▁Bi	-9227
▁Bj	-9228
▁fö	-9229
acks	-9230
andm	-9231
ckor	-9232
eten	-9233
etti	-9234
ever	-9235
inat	-9236
jett	-9237
knar	-9238
lden	-9239
lett	-9240
ogga	-9241
oked	-9242
ongr	-9243
ough	-9244
rett	-9245
ryck	-9246
uxit	-9247
yckl	-9248
ycks	-9249
yckt	-9250
ängt	-9251
änns	-9252
öder	-9253
▁Ara	-9254
▁Bes	-9255
▁Ble	-9256
▁Bur	-9257
▁Föl	-9258
▁arb	-9259
▁dir	-9260
▁doe	-9261
▁dro	-9262
▁eig	-9263
▁eva	-9264
▁fok	-9265
▁goo	-9266
▁nec	-9267
▁neu	-9268
▁nex	-9269
▁tan	-9270
atsam	-9271
erest	-9272
ettas	-9273
ktlig	-9274
onomy	-9275
orade	-9276
ypten	-9277
äggen	-9278
ågade	-9279
▁Fatt	-9280
▁Hurd	-9281
▁Tyck	-9282
▁arou	-9283
▁bett	-9284
▁cred	-9285
▁gena	-9286
▁motb	-9287
▁månd	-9288
▁narr	-9289
▁naug	-9290
▁near	-9291
▁neut	-9292
▁nick	-9293
▁nogg	-9294
▁nois	-9295
▁nykt	-9296
▁nämn	-9297
▁närm	-9298
▁obst	-9299
An	-9300
Co	-9301
Gu	-9302
ga	-9303
ml	-9304
wi	-9305
xe	-9306
Cle	-9307
Mid	-9308
Oil	-9309
aks	-9310
arf	-9311
chw	-9312
ilm	-9313
itn	-9314
kil	-9315
mil	-9316
mle	-9317
mod	-9318
nsk	-9319
oad	-9320
ola	-9321
onb	-9322
sid	-9323
skt	-9324
sti	-9325
tch	-9326
tem	-9327
täm	-9328
ude	-9329
uys	-9330
vsk	-9331
äsk	-9332
ågl	-9333
ålm	-9334
amil	-9335
arch	-9336
arsk	-9337
asch	-9338
asil	-9339
chal	-9340
cher	-9341
chet	-9342
chle	-9343
ckte	-9344
ears	-9345
edin	-9346
emsk	-9347
ffor	-9348
iler	-9349
imil	-9350
itch	-9351
lant	-9352
llen	-9353
mitt	-9354
ogad	-9355
ouch	-9356
älsk	-9357
örsk	-9358
▁Bar	-9359
▁fån	-9360
▁omf	-9361
▁pil	-9362
▁rew	-9363
▁saf	-9364
▁slo	-9365
▁trä	-9366
▁trö	-9367
▁wen	-9368
chful	-9369
enste	-9370
ggrad	-9371
längt	-9372
mired	-9373
ottle	-9374
stake	-9375
ummel	-9376
▁blam	-9377
▁blom	-9378
▁danc	-9379
▁dokt	-9380
▁hail	-9381
▁måll	-9382
▁noth	-9383
▁ocks	-9384
▁olju	-9385
▁orph	-9386
▁oräd	-9387
▁papp	-9388
▁pati	-9389
▁peng	-9390
▁pens	-9391
▁peop	-9392
▁pest	-9393
▁pett	-9394
▁plat	-9395
▁plum	-9396
▁pomm	-9397
▁popc	-9398
▁poss	-9399
Cl	-9400
Rä	-9401
TV	-9402
li	-9403
nv	-9404
sr	-9405
Lun	-9406
bst	-9407
cho	-9408
ean	-9409
edl	-9410
erh	-9411
ias	-9412
iml	-9413
imn	-9414
imp	-9415
ims	-9416
imt	-9417
lät	-9418
nda	-9419
oga	-9420
rim	-9421
rät	-9422
sät	-9423
ton	-9424
uar	-9425
uri	-9426
vät	-9427
vös	-9428
xes	-9429
▁Fo	-9430
▁Fu	-9431
▁Fö	-9432
▁Mi	-9433
▁Mj	-9434
▁Må	-9435
agod	-9436
aoke	-9437
arit	-9438
asög	-9439
ativ	-9440
edst	-9441
ench	-9442
erät	-9443
hout	-9444
imer	-9445
issf	-9446
jlig	-9447
juts	-9448
kelp	-9449
klig	-9450
ligg	-9451
outs	-9452
äffa	-9453
äter	-9454
ätit	-9455
▁Chr	-9456
▁Fan	-9457
▁Fin	-9458
▁Man	-9459
▁Mar	-9460
▁Mem	-9461
▁Mid	-9462
▁Mis	-9463
▁Mit	-9464
▁ass	-9465
▁dim	-9466
▁frå	-9467
▁jät	-9468
▁kra	-9469
▁les	-9470
▁näm	-9471
▁onl	-9472
▁påb	-9473
▁påh	-9474
▁rät	-9475
▁wim	-9476
armig	-9477
cklig	-9478
emlig	-9479
llvar	-9480
otlig	-9481
sters	-9482
urlig	-9483
ällde	-9484
▁atti	-9485
▁canc	-9486
▁dagb	-9487
▁irre	-9488
▁kans	-9489
▁kläd	-9490
▁pref	-9491
▁preg	-9492
▁prep	-9493
▁prob	-9494
▁prof	-9495
▁prou	-9496
▁quar	-9497
▁rais	-9498
▁regl	-9499
Kn	-9500
Pu	-9501
ek	-9502
lä	-9503
pi	-9504
Dan	-9505
Får	-9506
Mår	-9507
ach	-9508
bbl	-9509
cha	-9510
elt	-9511
esc	-9512
esu	-9513
fes	-9514
ier	-9515
lay	-9516
mes	-9517
mna	-9518
nab	-9519
nes	-9520
pay	-9521
ray	-9522
sle	-9523
teb	-9524
vim	-9525
way	-9526
wet	-9527
yta	-9528
äld	-9529
ämr	-9530
års	-9531
▁Li	-9532
▁Ly	-9533
▁Lå	-9534
▁si	-9535
alna	-9536
andt	-9537
ayed	-9538
ayer	-9539
brig	-9540
dant	-9541
emma	-9542
ensi	-9543
erår	-9544
eser	-9545
esom	-9546
ffär	-9547
gler	-9548
here	-9549
hook	-9550
irra	-9551
isen	-9552
mall	-9553
onår	-9554
ping	-9555
ppar	-9556
tere	-9557
väll	-9558
ålar	-9559
årad	-9560
åran	-9561
årig	-9562
öter	-9563
▁Cat	-9564
▁Had	-9565
▁Lit	-9566
▁Low	-9567
▁Sho	-9568
▁Vår	-9569
▁eft	-9570
▁hin	-9571
▁loo	-9572
▁slu	-9573
▁sna	-9574
▁sno	-9575
▁tod	-9576
adful	-9577
allar	-9578
aying	-9579
eated	-9580
iests	-9581
inese	-9582
isapp	-9583
ister	-9584
ktigt	-9585
ngade	-9586
ulden	-9587
ändel	-9588
årade	-9589
▁jack	-9590
▁minn	-9591
▁minu	-9592
▁pape	-9593
▁rela	-9594
▁resp	-9595
▁ruth	-9596
▁rutt	-9597
▁rödv	-9598
▁sail	-9599
kl	-9600
mk	-9601
of	-9602
ov	-9603
rn	-9604
vå	-9605
Här	-9606
Rem	-9607
cal	-9608
cor	-9609
eem	-9610
emb	-9611
eme	-9612
emm	-9613
emo	-9614
ems	-9615
emy	-9616
fad	-9617
hal	-9618
icn	-9619
ilt	-9620
jal	-9621
kak	-9622
lka	-9623
lou	-9624
mok	-9625
nce	-9626
oes	-9627
ols	-9628
räm	-9629
sna	-9630
tir	-9631
uin	-9632
uka	-9633
urs	-9634
xem	-9635
yka	-9636
örä	-9637
▁Lj	-9638
▁Ma	-9639
alad	-9640
alar	-9641
alas	-9642
alet	-9643
arka	-9644
ates	-9645
doms	-9646
emen	-9647
erve	-9648
etal	-9649
ffin	-9650
fyll	-9651
gant	-9652
gave	-9653
hame	-9654
kaka	-9655
kall	-9656
lone	-9657
omes	-9658
real	-9659
samm	-9660
sste	-9661
stor	-9662
unka	-9663
▁Cal	-9664
▁bal	-9665
▁doc	-9666
▁dok	-9667
▁fal	-9668
▁kem	-9669
▁oka	-9670
▁ond	-9671
▁ric	-9672
alade	-9673
annar	-9674
aturn	-9675
kring	-9676
omele	-9677
rying	-9678
ysste	-9679
örjar	-9680
▁Vilk	-9681
▁avun	-9682
▁burp	-9683
▁förn	-9684
▁föro	-9685
▁föru	-9686
▁gigg	-9687
▁läpp	-9688
▁sain	-9689
▁sakn	-9690
▁scre	-9691
▁sear	-9692
▁secr	-9693
▁serv	-9694
▁shav	-9695
▁sigh	-9696
▁sinc	-9697
▁sinn	-9698
▁själ	-9699
Er	-9700
Bil	-9701
Gör	-9702
Mam	-9703
agi	-9704
ama	-9705
amf	-9706
amm	-9707
amo	-9708
amp	-9709
bry	-9710
eam	-9711
eld	-9712
eli	-9713
elp	-9714
erk	-9715
fam	-9716
lam	-9717
lit	-9718
mel	-9719
mig	-9720
nnu	-9721
onv	-9722
pul	-9723
ram	-9724
sel	-9725
ssa	-9726
uel	-9727
vor	-9728
xag	-9729
xam	-9730
xel	-9731
älv	-9732
▁Ai	-9733
▁Ar	-9734
▁Cr	-9735
▁Cu	-9736
▁rä	-9737
amer	-9738
amou	-9739
andd	-9740
beta	-9741
ckel	-9742
eled	-9743
elet	-9744
elig	-9745
elän	-9746
llam	-9747
onel	-9748
sked	-9749
tare	-9750
ully	-9751
unga	-9752
usic	-9753
vänd	-9754
änge	-9755
öräl	-9756
▁Car	-9757
▁Cle	-9758
▁Com	-9759
▁Con	-9760
▁Kam	-9761
▁Ple	-9762
▁Säl	-9763
▁als	-9764
▁ath	-9765
▁gan	-9766
▁sav	-9767
ackar	-9768
anskt	-9769
antis	-9770
elade	-9771
imbed	-9772
ingel	-9773
stick	-9774
ulten	-9775
utist	-9776
älade	-9777
ändra	-9778
ållan	-9779
▁bröd	-9780
▁gods	-9781
▁plug	-9782
▁robb	-9783
▁skak	-9784
▁skat	-9785
▁skre	-9786
▁skri	-9787
▁skär	-9788
▁skåp	-9789
▁slep	-9790
▁slip	-9791
▁slän	-9792
▁smil	-9793
▁smut	-9794
▁sopp	-9795
▁sovm	-9796
▁spar	-9797
▁spin	-9798
▁spor	-9799
Bu	-9800
Ro	-9801
ey	-9802
lg	-9803
mf	-9804
ni	-9805
nr	-9806
nä	-9807
rö	-9808
ani	-9809
ckw	-9810
epp	-9811
gbl	-9812
gig	-9813
jar	-9814
nis	-9815
oar	-9816
ppl	-9817
ppm	-9818
ppr	-9819
rog	-9820
räl	-9821
tur	-9822
uen	-9823
upp	-9824
ägr	-9825
▁Ke	-9826
▁Ko	-9827
▁Ky	-9828
▁Kö	-9829
▁cy	-9830
▁eg	-9831
Ever	-9832
Fatt	-9833
anag	-9834
atti	-9835
barr	-9836
batt	-9837
dral	-9838
ilad	-9839
isör	-9840
ivat	-9841
oade	-9842
osta	-9843
over	-9844
ppad	-9845
pped	-9846
stäm	-9847
vers	-9848
vert	-9849
verv	-9850
zare	-9851
öred	-9852
▁And	-9853
▁Mat	-9854
▁Ond	-9855
▁Sad	-9856
▁bec	-9857
▁bef	-9858
▁dat	-9859
▁env	-9860
▁hab	-9861
▁haf	-9862
▁hai	-9863
▁mem	-9864
▁pos	-9865
▁rea	-9866
▁säl	-9867
▁war	-9868
apans	-9869
attig	-9870
dings	-9871
getar	-9872
inked	-9873
ioned	-9874
perer	-9875
ussen	-9876
verad	-9877
ängsl	-9878
örnar	-9879
▁Katt	-9880
▁bear	-9881
▁beun	-9882
▁späd	-9883
▁stat	-9884
▁stre	-9885
▁stru	-9886
▁stry	-9887
▁stub	-9888
▁stäm	-9889
▁stän	-9890
▁surg	-9891
▁surp	-9892
▁sush	-9893
▁svim	-9894
▁swor	-9895
▁sylt	-9896
▁säkr	-9897
▁sång	-9898
▁taxp	-9899
Am	-9900
Ma	-9901
Ra	-9902
Sj	-9903
di	-9904
nx	-9905
tc	-9906
uf	-9907
xo	-9908
öe	-9909
Bur	-9910
Eur	-9911
Män	-9912
aml	-9913
aun	-9914
bar	-9915
bba	-9916
eng	-9917
enh	-9918
erg	-9919
hom	-9920
hän	-9921
ids	-9922
ith	-9923
jka	-9924
jur	-9925
jög	-9926
ose	-9927
pag	-9928
ppt	-9929
ppy	-9930
pst	-9931
sur	-9932
tam	-9933
tun	-9934
tän	-9935
urg	-9936
urr	-9937
änl	-9938
änn	-9939
äns	-9940
åkt	-9941
▁Ja	-9942
▁ug	-9943
aper	-9944
asag	-9945
enäg	-9946
eran	-9947
ined	-9948
kten	-9949
mped	-9950
orts	-9951
otre	-9952
ppas	-9953
rand	-9954
rekt	-9955
stän	-9956
urad	-9957
ändå	-9958
änst	-9959
örän	-9960
▁Def	-9961
▁Hel	-9962
▁Kon	-9963
▁Ste	-9964
▁Vän	-9965
▁bid	-9966
▁cam	-9967
▁ear	-9968
▁foc	-9969
▁fän	-9970
▁gry	-9971
▁jun	-9972
▁jur	-9973
▁kur	-9974
▁nur	-9975
▁prä	-9976
▁stä	-9977
alked	-9978
anten	-9979
essen	-9980
issed	-9981
otrev	-9982
yckas	-9983
▁fran	-9984
▁fruk	-9985
▁hugg	-9986
▁kast	-9987
▁måst	-9988
▁seas	-9989
▁skry	-9990
▁teac	-9991
▁tear	-9992
▁teck	-9993
▁teet	-9994
▁tenn	-9995
▁test	-9996
▁than	-9997
▁thir	-9998
▁thre	-9999
dä	-10000
jk	-10001
åv	-10002
öc	-10003
Low	-10004
Ple	-10005
ale	-10006
bbt	-10007
bot	-10008
chl	-10009
dst	-10010
ece	-10011
ele	-10012
emp	-10013
env	-10014
fil	-10015
hot	-10016
idb	-10017
isf	-10018
jes	-10019
kti	-10020
lep	-10021
lex	-10022
lun	-10023
onk	-10024
oto	-10025
otu	-10026
owe	-10027
pot	-10028
rer	-10029
run	-10030
rör	-10031
sis	-10032
vot	-10033
vun	-10034
ärd	-10035
▁ai	-10036
▁ok	-10037
ckad	-10038
ckin	-10039
ckle	-10040
diga	-10041
edle	-10042
enen	-10043
erle	-10044
inen	-10045
lear	-10046
orse	-10047
oter	-10048
otis	-10049
otot	-10050
ries	-10051
spel	-10052
spet	-10053
östa	-10054
▁Got	-10055
▁Gry	-10056
▁Hun	-10057
▁Hän	-10058
▁Sor	-10059
▁dut	-10060
▁fle	-10061
▁hun	-10062
▁kus	-10063
▁oke	-10064
▁ple	-10065
▁rap	-10066
▁rec	-10067
▁sto	-10068
▁unm	-10069
▁vat	-10070
cking	-10071
hoice	-10072
iable	-10073
juksk	-10074
ndade	-10075
reams	-10076
verst	-10077
ysten	-10078
ängel	-10079
ättad	-10080
▁Börj	-10081
▁beat	-10082
▁conc	-10083
▁dust	-10084
▁patt	-10085
▁priz	-10086
▁timm	-10087
▁titt	-10088
▁topp	-10089
▁tret	-10090
▁trou	-10091
▁tröt	-10092
▁tuff	-10093
▁tupp	-10094
▁tviv	-10095
▁tvät	-10096
▁tänk	-10097
▁undr	-10098
▁undv	-10099
Dä	-10100
Kö	-10101
Sw	-10102
cc	-10103
ec	-10104
ex	-10105
pf	-10106
Bar	-10107
Ger	-10108
Oke	-10109
Won	-10110
arl	-10111
asp	-10112
ati	-10113
atl	-10114
aus	-10115
ban	-10116
cid	-10117
cku	-10118
col	-10119
did	-10120
eds	-10121
fat	-10122
got	-10123
idk	-10124
kep	-10125
kta	-10126
lid	-10127
lim	-10128
mot	-10129
nta	-10130
när	-10131
ota	-10132
oti	-10133
pta	-10134
pte	-10135
rot	-10136
rta	-10137
tak	-10138
tal	-10139
tle	-10140
tta	-10141
uft	-10142
uid	-10143
ura	-10144
xar	-10145
xig	-10146
yke	-10147
öad	-10148
öta	-10149
▁Al	-10150
▁va	-10151
arar	-10152
atad	-10153
dför	-10154
enet	-10155
enta	-10156
heor	-10157
idor	-10158
made	-10159
onke	-10160
orta	-10161
oten	-10162
ourn	-10163
unna	-10164
vill	-10165
örta	-10166
▁Hid	-10167
▁Kry	-10168
▁Läm	-10169
▁Pre	-10170
▁Tal	-10171
▁ene	-10172
▁jug	-10173
▁jäm	-10174
▁kit	-10175
▁toa	-10176
▁wal	-10177
▁wid	-10178
▁wro	-10179
ained	-10180
anlig	-10181
betal	-10182
ingan	-10183
vered	-10184
▁Vars	-10185
▁migh	-10186
▁reco	-10187
▁smok	-10188
▁tapp	-10189
▁unfa	-10190
▁unlu	-10191
▁uppk	-10192
▁utsl	-10193
▁utsv	-10194
▁vack	-10195
▁varf	-10196
▁varj	-10197
▁varn	-10198
▁varv	-10199
Da	-10200
Hå	-10201
Ol	-10202
Sv	-10203
ac	-10204
bö	-10205
dg	-10206
nm	-10207
nn	-10208
yd	-10209
Bor	-10210
Bör	-10211
Mit	-10212
Ond	-10213
ago	-10214
cit	-10215
elg	-10216
esl	-10217
ida	-10218
itc	-10219
itl	-10220
kik	-10221
rid	-10222
rår	-10223
sic	-10224
sly	-10225
ssy	-10226
tat	-10227
tom	-10228
val	-10229
vid	-10230
▁Ty	-10231
Fill	-10232
ames	-10233
amåt	-10234
angu	-10235
ansa	-10236
ante	-10237
atas	-10238
cksl	-10239
dlig	-10240
emot	-10241
ents	-10242
idar	-10243
iest	-10244
illi	-10245
illk	-10246
init	-10247
iter	-10248
jutv	-10249
mera	-10250
olic	-10251
rill	-10252
roat	-10253
skig	-10254
ssan	-10255
unit	-10256
ured	-10257
wned	-10258
▁Bir	-10259
▁Klo	-10260
▁Tit	-10261
▁blu	-10262
▁dea	-10263
▁fou	-10264
▁gär	-10265
▁jou	-10266
▁lid	-10267
▁mid	-10268
▁nos	-10269
▁onc	-10270
▁sam	-10271
▁wed	-10272
allou	-10273
ammar	-10274
aping	-10275
arker	-10276
bbits	-10277
betet	-10278
cious	-10279
iller	-10280
ingle	-10281
ollig	-10282
ommer	-10283
press	-10284
örvar	-10285
▁fläm	-10286
▁kink	-10287
▁mout	-10288
▁ofar	-10289
▁pill	-10290
▁plad	-10291
▁sill	-10292
▁trot	-10293
▁tyck	-10294
▁vatt	-10295
▁veck	-10296
▁vind	-10297
▁vink	-10298
▁vint	-10299
Ca	-10300
El	-10301
Gö	-10302
ab	-10303
hä	-10304
lk	-10305
pj	-10306
rc	-10307
ti	-10308
vm	-10309
yc	-10310
Che	-10311
Cow	-10312
Dag	-10313
Ras	-10314
Ret	-10315
Vat	-10316
asi	-10317
asu	-10318
asy	-10319
asö	-10320
ckt	-10321
das	-10322
eas	-10323
fas	-10324
ggi	-10325
gin	-10326
hel	-10327
how	-10328
igu	-10329
jun	-10330
köt	-10331
las	-10332
mas	-10333
now	-10334
owl	-10335
pas	-10336
ras	-10337
rra	-10338
sas	-10339
uga	-10340
usk	-10341
vas	-10342
wed	-10343
örn	-10344
▁Hj	-10345
▁Pe	-10346
▁Ti	-10347
▁ri	-10348
▁sj	-10349
amen	-10350
bers	-10351
enor	-10352
ffer	-10353
hade	-10354
ines	-10355
llop	-10356
nigt	-10357
omar	-10358
uick	-10359
vätt	-10360
äson	-10361
öade	-10362
▁Jas	-10363
▁bes	-10364
▁bot	-10365
▁cas	-10366
▁emb	-10367
▁grå	-10368
▁mil	-10369
▁mit	-10370
▁rat	-10371
▁rou	-10372
▁sme	-10373
▁tve	-10374
▁wil	-10375
aming	-10376
anick	-10377
arade	-10378
arded	-10379
asing	-10380
blett	-10381
chade	-10382
ified	-10383
llade	-10384
låder	-10385
ummet	-10386
unchd	-10387
äller	-10388
▁allv	-10389
▁forw	-10390
▁förr	-10391
▁husv	-10392
▁naus	-10393
▁viol	-10394
▁vres	-10395
▁väck	-10396
▁vägl	-10397
▁vägr	-10398
▁väld	-10399
aj	-10400
då	-10401
eo	-10402
hw	-10403
iP	-10404
kn	-10405
Fan	-10406
Mat	-10407
bad	-10408
eir	-10409
ene	-10410
fra	-10411
hor	-10412
häm	-10413
isu	-10414
nre	-10415
onl	-10416
ook	-10417
pig	-10418
pit	-10419
tab	-10420
tas	-10421
ynt	-10422
ärn	-10423
ölk	-10424
örh	-10425
örm	-10426
▁Gh	-10427
▁Gj	-10428
▁Gl	-10429
▁Rä	-10430
▁Su	-10431
▁Ve	-10432
▁Wa	-10433
▁Wr	-10434
▁pi	-10435
▁um	-10436
anet	-10437
attn	-10438
atur	-10439
erta	-10440
fade	-10441
ingd	-10442
ingl	-10443
ingt	-10444
inis	-10445
jade	-10446
jölk	-10447
ller	-10448
oing	-10449
omit	-10450
osam	-10451
otto	-10452
ssia	-10453
urop	-10454
vlar	-10455
wing	-10456
zing	-10457
öron	-10458
▁Ger	-10459
▁Kat	-10460
▁War	-10461
▁Wat	-10462
▁Wor	-10463
▁bly	-10464
▁kna	-10465
▁osk	-10466
▁tis	-10467
apnet	-10468
dligt	-10469
eding	-10470
ening	-10471
ering	-10472
ingen	-10473
inger	-10474
ingin	-10475
nelig	-10476
owers	-10477
urade	-10478
varet	-10479
verle	-10480
väret	-10481
ykelp	-10482
▁coff	-10483
▁dett	-10484
▁harm	-10485
▁stun	-10486
▁surf	-10487
▁vanv	-10488
▁vält	-10489
▁vänt	-10490
▁värk	-10491
▁väsk	-10492
▁weir	-10493
▁wing	-10494
▁wint	-10495
▁witn	-10496
▁worr	-10497
▁yach	-10498
▁ägar	-10499
DJ	-10500
aw	-10501
dr	-10502
fi	-10503
hj	-10504
rä	-10505
yb	-10506
Ät	-10507
Fis	-10508
Gis	-10509
Kis	-10510
Ler	-10511
Lig	-10512
Mis	-10513
Vin	-10514
amr	-10515
anv	-10516
asn	-10517
enk	-10518
fis	-10519
igr	-10520
isa	-10521
isi	-10522
ism	-10523
isp	-10524
kab	-10525
kam	-10526
lec	-10527
lot	-10528
mål	-10529
ois	-10530
omv	-10531
ris	-10532
sty	-10533
tef	-10534
tes	-10535
tis	-10536
tit	-10537
tte	-10538
unn	-10539
wes	-10540
wis	-10541
yin	-10542
ämp	-10543
åka	-10544
öck	-10545
▁dy	-10546
aden	-10547
adin	-10548
cens	-10549
etis	-10550
omis	-10551
rele	-10552
steg	-10553
stis	-10554
står	-10555
teou	-10556
ägra	-10557
▁Sky	-10558
▁doa	-10559
▁fis	-10560
▁oar	-10561
▁ste	-10562
▁sän	-10563
▁sål	-10564
adade	-10565
entis	-10566
ilmer	-10567
jälte	-10568
oring	-10569
ottsk	-10570
veris	-10571
ättef	-10572
▁Gill	-10573
▁Kann	-10574
▁märk	-10575
▁obot	-10576
▁snög	-10577
▁sörj	-10578
▁voic	-10579
▁älsk	-10580
▁äppl	-10581
▁äreg	-10582
▁ärel	-10583
ackade	-10584
acking	-10585
acksam	-10586
adades	-10587
agerad	-10588
agiskt	-10589
agsmål	-10590
ainter	-10591
aiting	-10592
aknade	-10593
allong	-10594
ananas	-10595
ananer	-10596
andade	-10597
andard	-10598
andlar	-10599
Bi	-10600
Lj	-10601
Nä	-10602
Wr	-10603
dy	-10604
gb	-10605
rf	-10606
rg	-10607
rw	-10608
Com	-10609
Hen	-10610
May	-10611
Sor	-10612
ady	-10613
bör	-10614
dea	-10615
enj	-10616
erå	-10617
gon	-10618
kes	-10619
otb	-10620
sör	-10621
uck	-10622
url	-10623
vel	-10624
äsa	-10625
öde	-10626
öra	-10627
örf	-10628
örk	-10629
örr	-10630
ört	-10631
öru	-10632
örv	-10633
▁Sä	-10634
▁ci	-10635
aged	-10636
allo	-10637
ener	-10638
esis	-10639
etas	-10640
etly	-10641
gäst	-10642
heck	-10643
hone	-10644
ilig	-10645
illf	-10646
myck	-10647
pekt	-10648
reas	-10649
söka	-10650
verd	-10651
änka	-10652
ärad	-10653
örer	-10654
▁Lun	-10655
▁Van	-10656
▁Vat	-10657
▁Vin	-10658
▁alm	-10659
▁bev	-10660
▁bör	-10661
▁fur	-10662
▁föl	-10663
▁inb	-10664
▁inc	-10665
▁inu	-10666
▁isl	-10667
▁mea	-10668
▁nic	-10669
▁nör	-10670
▁snå	-10671
▁sve	-10672
allon	-10673
anför	-10674
ender	-10675
erant	-10676
gjort	-10677
larna	-10678
ollat	-10679
ourse	-10680
oward	-10681
ploma	-10682
uggum	-10683
ögubb	-10684
▁List	-10685
▁alon	-10686
▁answ	-10687
▁fräk	-10688
▁förv	-10689
▁grin	-10690
▁holl	-10691
▁inom	-10692
▁pois	-10693
▁tryg	-10694
allous	-10695
andrar	-10696
annade	-10697
anning	-10698
ansinn	-10699
Fa	-10700
Ja	-10701
Ky	-10702
ao	-10703
su	-10704
ua	-10705
äf	-10706
Ble	-10707
Car	-10708
Cat	-10709
För	-10710
Man	-10711
Not	-10712
big	-10713
eck	-10714
eor	-10715
hee	-10716
hei	-10717
heo	-10718
iou	-10719
isg	-10720
jäs	-10721
llv	-10722
lor	-10723
lov	-10724
mde	-10725
mus	-10726
nor	-10727
oor	-10728
orc	-10729
ori	-10730
orm	-10731
orp	-10732
orä	-10733
por	-10734
pän	-10735
stm	-10736
war	-10737
wor	-10738
örs	-10739
▁Sc	-10740
▁dä	-10741
▁nä	-10742
▁pj	-10743
anas	-10744
arel	-10745
attf	-10746
bing	-10747
eris	-10748
etur	-10749
fatt	-10750
fted	-10751
hatt	-10752
illa	-10753
llor	-10754
ntry	-10755
nvän	-10756
omen	-10757
omor	-10758
orad	-10759
ored	-10760
orst	-10761
orty	-10762
otic	-10763
sing	-10764
urat	-10765
äggd	-10766
öger	-10767
▁Dic	-10768
▁Hor	-10769
▁Som	-10770
▁bru	-10771
▁dun	-10772
▁feg	-10773
▁laz	-10774
▁lor	-10775
▁por	-10776
▁pär	-10777
▁sor	-10778
▁tit	-10779
▁vot	-10780
▁whe	-10781
anded	-10782
aning	-10783
emove	-10784
erätt	-10785
etade	-10786
illig	-10787
oment	-10788
ravde	-10789
yldig	-10790
▁bank	-10791
▁härn	-10792
▁jätt	-10793
antags	-10794
antill	-10795
anting	-10796
apanes	-10797
apansk	-10798
arande	-10799
As	-10800
Lo	-10801
Ok	-10802
cl	-10803
jt	-10804
ln	-10805
mm	-10806
pm	-10807
vä	-10808
wm	-10809
xc	-10810
Än	-10811
Fin	-10812
Var	-10813
akn	-10814
amt	-10815
eig	-10816
est	-10817
etl	-10818
ets	-10819
fte	-10820
hes	-10821
hey	-10822
kaf	-10823
lee	-10824
llb	-10825
lon	-10826
lst	-10827
nst	-10828
ppf	-10829
rea	-10830
stb	-10831
sth	-10832
stn	-10833
sto	-10834
stä	-10835
stå	-10836
tag	-10837
tid	-10838
unc	-10839
usv	-10840
utt	-10841
▁As	-10842
▁wi	-10843
▁ye	-10844
anic	-10845
anst	-10846
eall	-10847
edad	-10848
enst	-10849
erst	-10850
hist	-10851
illg	-10852
isst	-10853
llon	-10854
nced	-10855
onch	-10856
rake	-10857
stan	-10858
stat	-10859
stle	-10860
ston	-10861
stär	-10862
utin	-10863
äget	-10864
ängs	-10865
▁Dut	-10866
▁Fis	-10867
▁Mam	-10868
▁Tän	-10869
▁bom	-10870
▁cit	-10871
▁cou	-10872
▁fåt	-10873
▁gåv	-10874
▁thu	-10875
▁wat	-10876
atade	-10877
onomi	-10878
ränad	-10879
ssade	-10880
tebet	-10881
vited	-10882
▁Titt	-10883
▁desp	-10884
▁gras	-10885
▁prov	-10886
▁sink	-10887
▁tatt	-10888
▁ving	-10889
araoke	-10890
arkade	-10891
arkant	-10892
arless	-10893
arligt	-10894
artisk	-10895
artled	-10896
asagna	-10897
asande	-10898
asögon	-10899
Cr	-10900
If	-10901
Sä	-10902
Så	-10903
Wa	-10904
yn	-10905
yw	-10906
Bes	-10907
Lad	-10908
Lit	-10909
ada	-10910
ads	-10911
ami	-10912
bow	-10913
but	-10914
del	-10915
edo	-10916
enl	-10917
fan	-10918
fän	-10919
gad	-10920
lre	-10921
lyn	-10922
nom	-10923
oic	-10924
otl	-10925
reg	-10926
rej	-10927
rem	-10928
rep	-10929
rre	-10930
stj	-10931
tre	-10932
vic	-10933
yad	-10934
▁Wo	-10935
▁ey	-10936
▁gj	-10937
▁jä	-10938
▁vr	-10939
adig	-10940
agis	-10941
eren	-10942
från	-10943
illv	-10944
isag	-10945
kill	-10946
natt	-10947
orde	-10948
otiv	-10949
reag	-10950
reed	-10951
reen	-10952
reet	-10953
rive	-10954
uted	-10955
uter	-10956
vant	-10957
vous	-10958
vung	-10959
ärre	-10960
ättv	-10961
▁Jes	-10962
▁Oro	-10963
▁bod	-10964
▁eth	-10965
▁fre	-10966
▁gig	-10967
▁inf	-10968
▁jon	-10969
▁ked	-10970
▁kre	-10971
▁oug	-10972
▁rad	-10973
▁rig	-10974
▁sal	-10975
▁sha	-10976
▁slä	-10977
▁teg	-10978
▁uts	-10979
▁vig	-10980
▁vre	-10981
iding	-10982
maren	-10983
orlig	-10984
orter	-10985
sjuka	-10986
uffas	-10987
usera	-10988
▁dubb	-10989
artiga	-10990
atchen	-10991
ateful	-10992
athing	-10993
attiga	-10994
bbling	-10995
betade	-10996
burken	-10997
caping	-10998
chland	-10999
Då	-11000
In	-11001
Mi	-11002
Tv	-11003
Ty	-11004
Wi	-11005
ej	-11006
fl	-11007
fs	-11008
gl	-11009
gn	-11010
ks	-11011
rt	-11012
rå	-11013
tw	-11014
vi	-11015
Kon	-11016
Rad	-11017
adi	-11018
aku	-11019
edn	-11020
eou	-11021
esp	-11022
hon	-11023
jon	-11024
kad	-11025
kän	-11026
nte	-11027
onc	-11028
onu	-11029
onå	-11030
oon	-11031
pon	-11032
ppi	-11033
rug	-11034
wan	-11035
wom	-11036
▁Aw	-11037
▁Je	-11038
▁ku	-11039
▁kö	-11040
anks	-11041
arad	-11042
dade	-11043
eder	-11044
edig	-11045
hark	-11046
heat	-11047
igen	-11048
ndig	-11049
oist	-11050
onen	-11051
oner	-11052
onig	-11053
onou	-11054
ppor	-11055
reak	-11056
rell	-11057
ycka	-11058
änar	-11059
▁Per	-11060
▁but	-11061
▁kat	-11062
▁mon	-11063
▁ock	-11064
▁pli	-11065
▁påk	-11066
amade	-11067
kadem	-11068
lkade	-11069
ogant	-11070
sight	-11071
ssnar	-11072
stade	-11073
unden	-11074
ungna	-11075
ätten	-11076
▁Kill	-11077
▁Tråk	-11078
▁barg	-11079
▁lock	-11080
▁poin	-11081
▁somn	-11082
▁stin	-11083
▁ston	-11084
▁unre	-11085
▁weap	-11086
cknade	-11087
ckning	-11088
curate	-11089
despel	-11090
edning	-11091
elfish	-11092
elight	-11093
elsten	-11094
enched	-11095
enerar	-11096
ention	-11097
entisk	-11098
erande	-11099
Kä	-11100
Me	-11101
df	-11102
eb	-11103
jl	-11104
tv	-11105
xh	-11106
add	-11107
ais	-11108
bbe	-11109
dly	-11110
eda	-11111
edi	-11112
edt	-11113
eed	-11114
eml	-11115
eve	-11116
has	-11117
hil	-11118
idn	-11119
kör	-11120
lta	-11121
löt	-11122
med	-11123
mit	-11124
män	-11125
omt	-11126
pis	-11127
rag	-11128
sed	-11129
tel	-11130
tim	-11131
uti	-11132
vie	-11133
xed	-11134
xte	-11135
yed	-11136
zed	-11137
ålt	-11138
örl	-11139
▁Gi	-11140
▁Kn	-11141
▁Mo	-11142
▁ak	-11143
▁au	-11144
▁gä	-11145
▁gö	-11146
agsr	-11147
dele	-11148
ders	-11149
edag	-11150
eded	-11151
elta	-11152
etes	-11153
hite	-11154
ilan	-11155
kepp	-11156
lled	-11157
oint	-11158
orin	-11159
ridd	-11160
rise	-11161
ssad	-11162
stör	-11163
uman	-11164
umer	-11165
unkt	-11166
verk	-11167
ärta	-11168
åkad	-11169
▁Ald	-11170
▁Clo	-11171
▁Jur	-11172
▁Oke	-11173
▁ban	-11174
▁gat	-11175
▁iss	-11176
▁kil	-11177
▁kli	-11178
▁lar	-11179
▁spä	-11180
akuer	-11181
andla	-11182
eting	-11183
ingde	-11184
nappt	-11185
nings	-11186
ontag	-11187
ottan	-11188
ändst	-11189
▁alre	-11190
▁skju	-11191
▁wear	-11192
amerna	-11193
anligt	-11194
erated	-11195
erfect	-11196
erfekt	-11197
erious	-11198
erligt	-11199
Al	-11200
Fu	-11201
Om	-11202
ef	-11203
rh	-11204
tf	-11205
xl	-11206
Cou	-11207
Lou	-11208
Mom	-11209
adl	-11210
anf	-11211
aro	-11212
bod	-11213
bou	-11214
chd	-11215
dat	-11216
eun	-11217
eur	-11218
ght	-11219
iac	-11220
ien	-11221
ily	-11222
jou	-11223
kor	-11224
lak	-11225
lln	-11226
lls	-11227
lly	-11228
llå	-11229
llö	-11230
mou	-11231
nou	-11232
oul	-11233
oun	-11234
sst	-11235
uil	-11236
vou	-11237
wou	-11238
åss	-11239
öen	-11240
▁hu	-11241
▁lå	-11242
▁ma	-11243
▁ou	-11244
agne	-11245
amod	-11246
arou	-11247
atet	-11248
ceed	-11249
eing	-11250
erou	-11251
gare	-11252
ging	-11253
hall	-11254
isit	-11255
llan	-11256
llat	-11257
llid	-11258
oran	-11259
uska	-11260
verr	-11261
ärar	-11262
ävla	-11263
öran	-11264
örsö	-11265
▁Liv	-11266
▁Sik	-11267
▁cor	-11268
▁dre	-11269
▁enk	-11270
▁hou	-11271
▁los	-11272
▁lou	-11273
▁mou	-11274
▁sas	-11275
▁sör	-11276
ative	-11277
eturn	-11278
signe	-11279
tiver	-11280
undar	-11281
veryt	-11282
▁dran	-11283
▁mard	-11284
eglade	-11285
ertain	-11286
erätta	-11287
essjuk	-11288
etande	-11289
etired	-11290
etiskt	-11291
ettade	-11292
finite	-11293
fluens	-11294
fterno	-11295
fyller	-11296
gblind	-11297
gerate	-11298
gether	-11299
Ba	-11300
Le	-11301
eu	-11302
fy	-11303
gö	-11304
nå	-11305
ts	-11306
ub	-11307
vl	-11308
vr	-11309
wf	-11310
wr	-11311
Ber	-11312
Con	-11313
Den	-11314
Let	-11315
Pot	-11316
Pre	-11317
act	-11318
agn	-11319
akf	-11320
ali	-11321
ana	-11322
bin	-11323
cin	-11324
ero	-11325
fun	-11326
gat	-11327
gde	-11328
hle	-11329
igs	-11330
ini	-11331
inj	-11332
inu	-11333
jig	-11334
kin	-11335
kom	-11336
lin	-11337
llf	-11338
llr	-11339
mem	-11340
mut	-11341
nin	-11342
oin	-11343
oms	-11344
ory	-11345
pin	-11346
san	-11347
sou	-11348
tet	-11349
tin	-11350
urf	-11351
usu	-11352
vig	-11353
win	-11354
ånt	-11355
▁Hä	-11356
▁Hö	-11357
▁Tj	-11358
▁wo	-11359
amla	-11360
atin	-11361
icul	-11362
ific	-11363
llar	-11364
llet	-11365
riga	-11366
used	-11367
▁Kis	-11368
▁Kär	-11369
▁Läg	-11370
▁Sun	-11371
▁Vak	-11372
▁chu	-11373
▁cop	-11374
▁dar	-11375
▁hig	-11376
▁mod	-11377
▁sla	-11378
aglig	-11379
marka	-11380
ästar	-11381
▁Cher	-11382
▁chan	-11383
▁guit	-11384
▁mish	-11385
▁phon	-11386
▁rikt	-11387
▁uppm	-11388
gillar	-11389
granna	-11390
gusted	-11391
hämtar	-11392
idance	-11393
idding	-11394
ieving	-11395
iftigt	-11396
ighten	-11397
ildren	-11398
ilepsi	-11399
Ai	-11400
Be	-11401
CD	-11402
Di	-11403
Gj	-11404
Or	-11405
ez	-11406
po	-11407
si	-11408
ux	-11409
wk	-11410
zz	-11411
Eat	-11412
Fat	-11413
Men	-11414
atu	-11415
ben	-11416
dda	-11417
eni	-11418
enu	-11419
enä	-11420
erm	-11421
esi	-11422
etr	-11423
fel	-11424
gal	-11425
hen	-11426
hok	-11427
kat	-11428
llg	-11429
llh	-11430
lsk	-11431
län	-11432
men	-11433
ogi	-11434
oub	-11435
pat	-11436
vik	-11437
wen	-11438
älj	-11439
älp	-11440
▁Di	-11441
▁bj	-11442
▁fn	-11443
▁hj	-11444
alla	-11445
bade	-11446
edde	-11447
enag	-11448
enig	-11449
enom	-11450
esit	-11451
förb	-11452
gill	-11453
hick	-11454
håll	-11455
idig	-11456
inar	-11457
inor	-11458
irke	-11459
issu	-11460
llou	-11461
ppla	-11462
pple	-11463
rust	-11464
unta	-11465
ylig	-11466
älet	-11467
äsbl	-11468
ådes	-11469
årar	-11470
▁Cou	-11471
▁ahe	-11472
▁avl	-11473
▁fak	-11474
▁fir	-11475
▁gas	-11476
▁hea	-11477
▁hen	-11478
▁lad	-11479
▁otå	-11480
▁unl	-11481
ammal	-11482
erand	-11483
fford	-11484
ights	-11485
juter	-11486
ktiga	-11487
ortar	-11488
reata	-11489
unday	-11490
▁ante	-11491
▁brac	-11492
▁kväv	-11493
attern	-11494
ilepsy	-11495
illade	-11496
illigt	-11497
illver	-11498
iloter	-11499
Ly	-11500
Na	-11501
Ni	-11502
So	-11503
bu	-11504
cs	-11505
dl	-11506
ee	-11507
mo	-11508
oo	-11509
sg	-11510
sw	-11511
tk	-11512
äc	-11513
Can	-11514
Han	-11515
Min	-11516
Wor	-11517
ano	-11518
anp	-11519
anx	-11520
ase	-11521
ead	-11522
erv	-11523
erä	-11524
fet	-11525
han	-11526
hou	-11527
ire	-11528
jan	-11529
jej	-11530
jet	-11531
kan	-11532
ldr	-11533
oan	-11534
oet	-11535
ran	-11536
rst	-11537
sig	-11538
skö	-11539
tad	-11540
uns	-11541
urk	-11542
urv	-11543
xer	-11544
äft	-11545
öva	-11546
▁cu	-11547
▁fy	-11548
▁mi	-11549
▁mj	-11550
▁nö	-11551
▁tä	-11552
aner	-11553
aran	-11554
aret	-11555
arks	-11556
bbor	-11557
empt	-11558
erer	-11559
etan	-11560
ibla	-11561
ikan	-11562
inga	-11563
omet	-11564
ules	-11565
unde	-11566
äret	-11567
ättf	-11568
▁Gra	-11569
▁Tan	-11570
▁ach	-11571
▁nat	-11572
▁ärl	-11573
athet	-11574
betes	-11575
isker	-11576
jning	-11577
jälvf	-11578
mkund	-11579
orget	-11580
ouder	-11581
sklig	-11582
sligt	-11583
▁Some	-11584
▁Varn	-11585
▁anot	-11586
▁häft	-11587
▁lörd	-11588
▁syst	-11589
bition	-11590
imbing	-11591
imerad	-11592
immigt	-11593
imning	-11594
inated	-11595
ineapp	-11596
inging	-11597
ingret	-11598
inning	-11599
Ha	-11600
Kl	-11601
No	-11602
Pi	-11603
ev	-11604
gp	-11605
lf	-11606
me	-11607
på	-11608
rb	-11609
ri	-11610
tj	-11611
Now	-11612
Rör	-11613
Wat	-11614
aln	-11615
bär	-11616
cke	-11617
det	-11618
ede	-11619
eet	-11620
eri	-11621
err	-11622
ete	-11623
fta	-11624
fyr	-11625
jad	-11626
ktf	-11627
lan	-11628
lat	-11629
nag	-11630
oni	-11631
pol	-11632
råt	-11633
utv	-11634
wat	-11635
yon	-11636
you	-11637
ysk	-11638
ögl	-11639
▁Cl	-11640
▁Hu	-11641
▁Ju	-11642
▁Lu	-11643
▁ef	-11644
▁gi	-11645
▁if	-11646
▁ko	-11647
▁tå	-11648
agel	-11649
ager	-11650
amed	-11651
anot	-11652
arer	-11653
ccer	-11654
enar	-11655
enin	-11656
etet	-11657
etim	-11658
ffat	-11659
hort	-11660
hten	-11661
llow	-11662
pera	-11663
pete	-11664
sent	-11665
unat	-11666
änna	-11667
▁Ans	-11668
▁Hum	-11669
▁Tim	-11670
▁bek	-11671
▁bro	-11672
▁cal	-11673
▁dom	-11674
▁lip	-11675
▁sat	-11676
▁sco	-11677
▁smo	-11678
alent	-11679
etisk	-11680
illen	-11681
kylde	-11682
orsta	-11683
skall	-11684
yckel	-11685
änlig	-11686
▁awes	-11687
▁brut	-11688
▁hemi	-11689
▁lear	-11690
▁skäm	-11691
▁youn	-11692
atable	-11693
ceived	-11694
insamt	-11695
ipster	-11696
ishing	-11697
ishone	-11698
iskret	-11699
Bä	-11700
Bö	-11701
Fr	-11702
Hö	-11703
My	-11704
Pr	-11705
bi	-11706
hs	-11707
nf	-11708
nl	-11709
pn	-11710
sh	-11711
sä	-11712
xy	-11713
yk	-11714
Bär	-11715
Far	-11716
Fig	-11717
For	-11718
Kat	-11719
Kär	-11720
Our	-11721
Par	-11722
agl	-11723
aid	-11724
ari	-11725
asä	-11726
dar	-11727
eer	-11728
erb	-11729
fär	-11730
hem	-11731
här	-11732
imi	-11733
ips	-11734
kär	-11735
log	-11736
lve	-11737
oml	-11738
onf	-11739
par	-11740
pär	-11741
sak	-11742
urp	-11743
vak	-11744
won	-11745
älf	-11746
ärh	-11747
ärm	-11748
äro	-11749
ärt	-11750
▁Ir	-11751
▁bä	-11752
▁oc	-11753
▁Äg	-11754
adad	-11755
agit	-11756
amin	-11757
ankt	-11758
arag	-11759
dren	-11760
edar	-11761
etic	-11762
etin	-11763
isks	-11764
islo	-11765
ngad	-11766
sinn	-11767
test	-11768
vämt	-11769
▁alw	-11770
▁döt	-11771
▁sag	-11772
▁shi	-11773
▁vun	-11774
arved	-11775
isses	-11776
ivlad	-11777
kward	-11778
åkigt	-11779
överv	-11780
▁Star	-11781
▁fyrt	-11782
▁grat	-11783
▁grog	-11784
▁mann	-11785
▁myck	-11786
▁seri	-11787
▁whis	-11788
ansade	-11789
iktiga	-11790
issing	-11791
istake	-11792
istisk	-11793
iterar	-11794
ittlig	-11795
ittnen	-11796
jected	-11797
jektiv	-11798
jävlar	-11799
At	-11800
La	-11801
Ry	-11802
Rö	-11803
Si	-11804
To	-11805
Va	-11806
ci	-11807
dt	-11808
gd	-11809
kr	-11810
lh	-11811
pä	-11812
xp	-11813
Her	-11814
Jag	-11815
Kom	-11816
Rel	-11817
agg	-11818
atn	-11819
bis	-11820
cen	-11821
edå	-11822
enb	-11823
erf	-11824
ern	-11825
ery	-11826
etu	-11827
gna	-11828
hos	-11829
ino	-11830
jag	-11831
kig	-11832
lir	-11833
oid	-11834
opu	-11835
oän	-11836
rin	-11837
röt	-11838
sag	-11839
vok	-11840
ykt	-11841
ält	-11842
öpp	-11843
▁Pa	-11844
▁Te	-11845
▁Tu	-11846
▁Tä	-11847
▁hå	-11848
▁hö	-11849
▁ti	-11850
▁tö	-11851
anti	-11852
ding	-11853
eken	-11854
eter	-11855
etig	-11856
iger	-11857
obat	-11858
slut	-11859
tall	-11860
ting	-11861
ädda	-11862
älln	-11863
örar	-11864
örst	-11865
▁Dog	-11866
▁Tje	-11867
▁anf	-11868
▁bär	-11869
▁jok	-11870
▁ohy	-11871
▁rar	-11872
arage	-11873
erous	-11874
ioter	-11875
istle	-11876
larar	-11877
owing	-11878
stämd	-11879
utent	-11880
åring	-11881
▁Körs	-11882
▁bidr	-11883
▁brib	-11884
▁itch	-11885
▁prec	-11886
agligt	-11887
jörnar	-11888
ktfull	-11889
ktliga	-11890
ktygsl	-11891
learly	-11892
lerant	-11893
letisk	-11894
levant	-11895
ligent	-11896
llorna	-11897
lovade	-11898
lyckas	-11899
Aw	-11900
Cu	-11901
Je	-11902
Ke	-11903
Pe	-11904
Sa	-11905
bå	-11906
cn	-11907
db	-11908
fn	-11909
hd	-11910
kc	-11911
mb	-11912
mg	-11913
mv	-11914
nh	-11915
oe	-11916
pc	-11917
tb	-11918
tg	-11919
tr	-11920
ui	-11921
vf	-11922
vy	-11923
Äg	-11924
Äl	-11925
åe	-11926
öb	-11927
Are	-11928
Mar	-11929
Nag	-11930
agd	-11931
bom	-11932
ckn	-11933
com	-11934
dad	-11935
dor	-11936
eag	-11937
gir	-11938
irr	-11939
kap	-11940
min	-11941
oma	-11942
omd	-11943
omf	-11944
omn	-11945
oom	-11946
oär	-11947
pom	-11948
raf	-11949
ted	-11950
usi	-11951
vom	-11952
ärl	-11953
öat	-11954
ögt	-11955
▁At	-11956
▁Rö	-11957
▁ki	-11958
▁vå	-11959
▁ög	-11960
emed	-11961
fred	-11962
lätt	-11963
otan	-11964
rigu	-11965
tsam	-11966
uess	-11967
årta	-11968
önad	-11969
▁Thr	-11970
▁abo	-11971
▁apk	-11972
▁bla	-11973
▁cav	-11974
▁glo	-11975
▁gra	-11976
▁hag	-11977
▁pas	-11978
▁ref	-11979
▁rit	-11980
▁tho	-11981
oligt	-11982
wards	-11983
▁Hopp	-11984
▁agre	-11985
▁brän	-11986
▁doub	-11987
▁shar	-11988
▁shou	-11989
▁stup	-11990
lykter	-11991
member	-11992
mpress	-11993
munity	-11994
nalist	-11995
narkar	-11996
ndersö	-11997
neförh	-11998
neliga	-11999
Bl	-12000
Dö	-12001
Eu	-12002
Ir	-12003
Oi	-12004
Ou	-12005
Pa	-12006
På	-12007
Tj	-12008
Ve	-12009
We	-12010
Wo	-12011
ah	-12012
bh	-12013
dk	-12014
gä	-12015
ha	-12016
hå	-12017
jo	-12018
kw	-12019
mö	-12020
oc	-12021
pk	-12022
pö	-12023
rl	-12024
rr	-12025
wl	-12026
yf	-12027
yh	-12028
äx	-12029
åa	-12030
öa	-12031
Kör	-12032
Run	-12033
abb	-12034
arb	-12035
ata	-12036
bor	-12037
cou	-12038
din	-12039
elb	-12040
gre	-12041
hir	-12042
lli	-12043
llt	-12044
met	-12045
mis	-12046
mta	-12047
omp	-12048
opc	-12049
opt	-12050
orr	-12051
psk	-12052
rac	-12053
ref	-12054
ril	-12055
rou	-12056
ryt	-12057
stö	-12058
uag	-12059
van	-12060
öns	-12061
▁Wi	-12062
atta	-12063
emor	-12064
erin	-12065
etad	-12066
gisk	-12067
ille	-12068
imal	-12069
inns	-12070
ppte	-12071
ssna	-12072
ullt	-12073
ångt	-12074
▁Tur	-12075
▁bea	-12076
▁enj	-12077
▁fig	-12078
▁kap	-12079
▁kis	-12080
▁knä	-12081
▁mar	-12082
▁tab	-12083
aksam	-12084
atisf	-12085
ereal	-12086
igent	-12087
levde	-12088
mport	-12089
äkten	-12090
ödade	-12091
▁Tast	-12092
▁hals	-12093
▁repl	-12094
inkade	-12095
nesses	-12096
ningsb	-12097
noying	-12098
närlig	-12099
Ab	-12100
Ap	-12101
Ev	-12102
Fi	-12103
Fö	-12104
Ge	-12105
Gi	-12106
Ov	-12107
Sl	-12108
Vå	-12109
Ye	-12110
au	-12111
bä	-12112
cu	-12113
hl	-12114
hr	-12115
iö	-12116
jd	-12117
lm	-12118
md	-12119
mh	-12120
mn	-12121
mr	-12122
ms	-12123
oä	-12124
ru	-12125
wa	-12126
ws	-12127
ya	-12128
yt	-12129
za	-12130
När	-12131
Sin	-12132
agb	-12133
arg	-12134
arv	-12135
can	-12136
ech	-12137
erd	-12138
har	-12139
kre	-12140
lom	-12141
lte	-12142
oky	-12143
ora	-12144
orw	-12145
pad	-12146
ppk	-12147
rke	-12148
råg	-12149
sar	-12150
yet	-12151
ygg	-12152
ögn	-12153
▁iP	-12154
▁ky	-12155
▁mu	-12156
▁oh	-12157
aked	-12158
andr	-12159
edan	-12160
ella	-12161
fast	-12162
hopa	-12163
isar	-12164
lykt	-12165
onst	-12166
pile	-12167
tely	-12168
vera	-12169
yone	-12170
ägar	-12171
änsk	-12172
ärle	-12173
▁Fig	-12174
▁Sta	-12175
▁fry	-12176
▁knu	-12177
▁sät	-12178
▁wom	-12179
ffect	-12180
igger	-12181
itarr	-12182
jölka	-12183
stort	-12184
urope	-12185
▁Spid	-12186
▁bakl	-12187
▁behå	-12188
▁chat	-12189
▁parr	-12190
▁regu	-12191
▁ryck	-12192
▁sock	-12193
ething	-12194
oganta	-12195
ogging	-12196
ollera	-12197
olnigt	-12198
ologiz	-12199
Få	-12200
Gh	-12201
Gl	-12202
Gr	-12203
Lu	-12204
Lä	-12205
Mo	-12206
On	-12207
Se	-12208
Sn	-12209
Te	-12210
Tr	-12211
bs	-12212
dv	-12213
fä	-12214
gy	-12215
hm	-12216
kj	-12217
lv	-12218
mj	-12219
mu	-12220
np	-12221
sj	-12222
uc	-12223
vo	-12224
wy	-12225
yl	-12226
ök	-12227
Mon	-12228
aff	-12229
arj	-12230
cat	-12231
gno	-12232
kid	-12233
kon	-12234
llk	-12235
rec	-12236
sor	-12237
tio	-12238
ugh	-12239
wim	-12240
äla	-12241
äls	-12242
äri	-12243
ärs	-12244
äta	-12245
▁Lä	-12246
▁ho	-12247
▁il	-12248
agar	-12249
agre	-12250
arta	-12251
bbit	-12252
elst	-12253
icka	-12254
icks	-12255
idka	-12256
inet	-12257
lind	-12258
llad	-12259
rush	-12260
sist	-12261
skra	-12262
tist	-12263
ygsl	-12264
äcks	-12265
älte	-12266
▁Skj	-12267
▁atl	-12268
▁ble	-12269
▁cur	-12270
▁grä	-12271
▁gäs	-12272
▁neg	-12273
▁nod	-12274
▁oni	-12275
▁rod	-12276
ading	-12277
agnad	-12278
alled	-12279
askan	-12280
illed	-12281
judda	-12282
meric	-12283
öshet	-12284
▁Hell	-12285
▁Spik	-12286
▁Sund	-12287
▁fynd	-12288
▁häri	-12289
▁stol	-12290
▁vegg	-12291
ations	-12292
odding	-12293
olymen	-12294
omeone	-12295
omniac	-12296
omsade	-12297
ongrat	-12298
onight	-12299
By	-12300
Ch	-12301
Dr	-12302
Eg	-12303
Ex	-12304
Fe	-12305
Go	-12306
Gå	-12307
Hj	-12308
Må	-12309
Nå	-12310
Pl	-12311
Po	-12312
Sh	-12313
Sm	-12314
Sp	-12315
Tu	-12316
Vä	-12317
ax	-12318
cd	-12319
ei	-12320
kä	-12321
lw	-12322
må	-12323
nb	-12324
oa	-12325
oi	-12326
tn	-12327
tå	-12328
vt	-12329
vu	-12330
ye	-12331
åb	-12332
All	-12333
Vad	-12334
apt	-12335
con	-12336
ein	-12337
eiv	-12338
eon	-12339
erl	-12340
erö	-12341
eti	-12342
gan	-12343
god	-12344
igi	-12345
off	-12346
omh	-12347
ouc	-12348
oup	-12349
rom	-12350
ror	-12351
tig	-12352
uit	-12353
uro	-12354
urt	-12355
ärr	-12356
åen	-12357
▁ah	-12358
▁ga	-12359
Ryck	-12360
else	-12361
enly	-12362
ieve	-12363
isun	-12364
itig	-12365
kett	-12366
meri	-12367
ndsk	-12368
otur	-12369
rest	-12370
tand	-12371
uice	-12372
▁Cow	-12373
▁Lig	-12374
▁Sän	-12375
▁Tid	-12376
▁kro	-12377
▁nöd	-12378
▁stj	-12379
▁äre	-12380
adion	-12381
andst	-12382
issue	-12383
oming	-12384
oting	-12385
pster	-12386
▁Flug	-12387
▁musi	-12388
▁skil	-12389
▁spid	-12390
▁suck	-12391
▁viss	-12392
itious	-12393
ontant	-12394
ontrib	-12395
oppade	-12396
opular	-12397
orable	-12398
ordent	-12399
Ar	-12400
Fo	-12401
Ho	-12402
Ko	-12403
Li	-12404
Mä	-12405
OK	-12406
Re	-12407
Sk	-12408
Ti	-12409
Wh	-12410
az	-12411
cr	-12412
dj	-12413
dn	-12414
gh	-12415
gj	-12416
gt	-12417
hf	-12418
ih	-12419
jä	-12420
kf	-12421
ki	-12422
lr	-12423
lö	-12424
nc	-12425
nö	-12426
rp	-12427
rs	-12428
rv	-12429
wo	-12430
zi	-12431
Sat	-12432
She	-12433
Vet	-12434
adf	-12435
agr	-12436
eat	-12437
ggs	-12438
lis	-12439
nde	-12440
pan	-12441
ppe	-12442
som	-12443
tsk	-12444
yst	-12445
ägl	-12446
äkn	-12447
äsm	-12448
öts	-12449
▁Da	-12450
▁Si	-12451
▁bå	-12452
▁öm	-12453
acku	-12454
anin	-12455
elen	-12456
hees	-12457
iday	-12458
ingr	-12459
irig	-12460
lken	-12461
oger	-12462
ongl	-12463
ppet	-12464
raft	-12465
sset	-12466
tell	-12467
ättb	-12468
▁ald	-12469
▁cre	-12470
▁lif	-12471
▁län	-12472
▁nig	-12473
▁shr	-12474
▁sty	-12475
essed	-12476
ident	-12477
▁Flyt	-12478
▁alli	-12479
▁cous	-12480
▁drin	-12481
▁förs	-12482
▁oran	-12483
arming	-12484
assing	-12485
hyfsad	-12486
orgive	-12487
orkade	-12488
orning	-12489
ortare	-12490
ostade	-12491
othing	-12492
ottade	-12493
ottare	-12494
ouched	-12495
oughed	-12496
ountry	-12497
ournal	-12498
perate	-12499
Ea	-12500
En	-12501
Hä	-12502
Ju	-12503
Op	-12504
St	-12505
Vi	-12506
ai	-12507
dm	-12508
dö	-12509
lj	-12510
nj	-12511
py	-12512
qu	-12513
sp	-12514
tl	-12515
tä	-12516
uy	-12517
vg	-12518
we	-12519
xi	-12520
yi	-12521
åh	-12522
Där	-12523
Per	-12524
War	-12525
aiv	-12526
alö	-12527
aot	-12528
bby	-12529
bje	-12530
car	-12531
eys	-12532
git	-12533
gör	-12534
hea	-12535
ief	-12536
lja	-12537
lår	-12538
mma	-12539
nic	-12540
owm	-12541
phe	-12542
son	-12543
vit	-12544
öss	-12545
▁Ab	-12546
▁Bu	-12547
▁da	-12548
▁pu	-12549
agad	-12550
andl	-12551
asan	-12552
athe	-12553
aund	-12554
bbar	-12555
blod	-12556
dlar	-12557
enna	-12558
hyfs	-12559
jakt	-12560
llde	-12561
nick	-12562
nons	-12563
ppig	-12564
rave	-12565
uver	-12566
▁Dan	-12567
▁Whi	-12568
▁itc	-12569
▁mys	-12570
▁pac	-12571
▁plu	-12572
▁sju	-12573
attis	-12574
ifted	-12575
odnar	-12576
orten	-12577
ssant	-12578
ummer	-12579
under	-12580
urate	-12581
ärare	-12582
▁drun	-12583
▁genu	-12584
▁merc	-12585
▁thes	-12586
▁trut	-12587
▁wort	-12588
nuffas	-12589
omland	-12590
pileps	-12591
ppnade	-12592
prises	-12593
raight	-12594
ralöst	-12595
ranska	-12596
reakfa	-12597
reamed	-12598
reativ	-12599
Br	-12600
De	-12601
Du	-12602
It	-12603
Lå	-12604
Ta	-12605
bj	-12606
do	-12607
fu	-12608
gi	-12609
ji	-12610
oh	-12611
sm	-12612
så	-12613
td	-12614
tu	-12615
vs	-12616
wn	-12617
ze	-12618
Det	-12619
Har	-12620
Kän	-12621
Rin	-12622
Rit	-12623
ams	-12624
aps	-12625
bel	-12626
bre	-12627
dsk	-12628
enc	-12629
gor	-12630
gär	-12631
ifr	-12632
jäv	-12633
kun	-12634
lik	-12635
oen	-12636
röm	-12637
tär	-12638
tör	-12639
▁Fe	-12640
▁Hå	-12641
▁Kä	-12642
▁fä	-12643
▁ic	-12644
aber	-12645
adem	-12646
alan	-12647
alks	-12648
arle	-12649
edår	-12650
eget	-12651
fint	-12652
gade	-12653
gust	-12654
gång	-12655
hisk	-12656
ickl	-12657
istm	-12658
nete	-12659
orät	-12660
rike	-12661
räns	-12662
tlig	-12663
visk	-12664
väng	-12665
ärke	-12666
ågar	-12667
▁eng	-12668
▁lim	-12669
▁sne	-12670
▁tra	-12671
▁tri	-12672
▁unf	-12673
agade	-12674
ement	-12675
kämta	-12676
olate	-12677
olice	-12678
ratul	-12679
usual	-12680
äkare	-12681
önade	-12682
östat	-12683
ötter	-12684
▁Hjäl	-12685
▁disl	-12686
▁flin	-12687
▁mobb	-12688
▁snar	-12689
ialisk	-12690
ontent	-12691
ressad	-12692
resset	-12693
rested	-12694
rester	-12695
ringan	-12696
ringer	-12697
rottsk	-12698
rovade	-12699
He	-12700
Of	-12701
Sc	-12702
Su	-12703
dd	-12704
du	-12705
ea	-12706
eh	-12707
fo	-12708
få	-12709
fö	-12710
hi	-12711
hö	-12712
ko	-12713
my	-12714
pu	-12715
öv	-12716
Red	-12717
Van	-12718
aig	-12719
amn	-12720
atg	-12721
ath	-12722
bed	-12723
bic	-12724
cle	-12725
där	-12726
eak	-12727
eel	-12728
erc	-12729
etj	-12730
fec	-12731
ilj	-12732
iny	-12733
lag	-12734
lse	-12735
mär	-12736
nsu	-12737
omy	-12738
ots	-12739
tac	-12740
uly	-12741
ven	-12742
xor	-12743
zar	-12744
ögu	-12745
örb	-12746
▁ax	-12747
aget	-12748
aska	-12749
eröm	-12750
hitt	-12751
inje	-12752
ists	-12753
kera	-12754
llin	-12755
ndan	-12756
olit	-12757
ratt	-12758
wake	-12759
ättr	-12760
▁Rel	-12761
▁Wer	-12762
▁kla	-12763
▁lan	-12764
▁lör	-12765
▁nar	-12766
▁trå	-12767
alisk	-12768
enade	-12769
ngent	-12770
state	-12771
ögonb	-12772
ördar	-12773
▁Förs	-12774
▁Hors	-12775
▁Varf	-12776
▁appl	-12777
▁drow	-12778
▁outs	-12779
▁smar	-12780
▁suic	-12781
▁vide	-12782
areras	-12783
illing	-12784
mittar	-12785
ryckte	-12786
shände	-12787
sitive	-12788
skligt	-12789
skräck	-12790
stenar	-12791
stions	-12792
stiskt	-12793
ställd	-12794
sviken	-12795
sågoda	-12796
taying	-12797
uffade	-12798
uffing	-12799
Kr	-12800
ön	-12801
arc	-12802
hef	-12803
jde	-12804
▁iv	-12805
Ring	-12806
ckar	-12807
jörn	-12808
omin	-12809
ours	-12810
slug	-12811
ustj	-12812
▁Hin	-12813
▁Ret	-12814
▁hom	-12815
▁utf	-12816
▁kedj	-12817
▁kräs	-12818
kterar	-12819
larade	-12820
uffins	-12821
uggumm	-12822
ughing	-12823
ullied	-12824
ummade	-12825
unchen	-12826
ungera	-12827
ungrig	-12828
unknar	-12829
unning	-12830
uppade	-12831
urable	-12832
urdays	-12833
urligt	-12834
ustice	-12835
uteras	-12836
utiful	-12837
utsigt	-12838
uvudet	-12839
varlig	-12840
veksam	-12841
verish	-12842
vänder	-12843
väpnad	-12844
värdig	-12845
yckade	-12846
ycklar	-12847
ycklig	-12848
yssnar	-12849
ything	-12850
äcklad	-12851
äkaren	-12852
äkning	-12853
älften	-12854
ällska	-12855
älskar	-12856
ämling	-12857
ämpade	-12858
änglig	-12859
änslig	-12860
äpnade	-12861
äpplet	-12862
ärksam	-12863
ärliga	-12864
ärning	-12865
äsliga	-12866
ätaren	-12867
ättest	-12868
ättetj	-12869
ättvis	-12870
ävling	-12871
ådarna	-12872
åderar	-12873
ångsam	-12874
ögonen	-12875
öjligt	-12876
öjning	-12877
ölkade	-12878
ömnlös	-12879
örande	-12880
ördare	-12881
örjade	-12882
örstig	-12883
örtade	-12884
östade	-12885
överen	-12886
överle	-12887
överst	-12888
▁Arbet	-12889
▁Behär	-12890
▁Bland	-12891
▁Blomm	-12892
▁Blund	-12893
▁Buckl	-12894
▁Chick	-12895
▁Conta	-12896
▁Contr	-12897
▁Excus	-12898
▁Fanta	-12899
▁Firef	-12900
▁Frank	-12901
▁Förol	-12902
▁Försv	-12903
▁Försö	-12904
▁Goodn	-12905
▁Irrit	-12906
▁Konta	-12907
▁Kontr	-12908
▁Körsb	-12909
▁Pleas	-12910
▁Plikt	-12911
▁Reall	-12912
▁Satur	-12913
▁Skaff	-12914
▁Skynd	-12915
▁Slapp	-12916
▁Spind	-12917
▁Stret	-12918
▁Träff	-12919
▁Visit	-12920
▁acrob	-12921
▁advok	-12922
▁allde	-12923
▁allti	-12924
▁annor	-12925
▁ansik	-12926
▁appla	-12927
▁asham	-12928
▁avfyr	-12929
▁avläg	-12930
▁avund	-12931
▁axlar	-12932
▁backu	-12933
▁backw	-12934
▁bankr	-12935
▁bedår	-12936
▁begra	-12937
▁behav	-12938
▁behin	-12939
▁behöv	-12940
▁bekym	-12941
▁bered	-12942
▁bestä	-12943
▁blick	-12944
▁bredv	-12945
▁brått	-12946
▁bröll	-12947
▁caref	-12948
▁chair	-12949
▁chang	-12950
▁chees	-12951
▁cloud	-12952
▁coffe	-12953
▁compl	-12954
▁consc	-12955
▁conta	-12956
▁corre	-12957
▁crack	-12958
▁craft	-12959
▁crank	-12960
▁decis	-12961
▁deser	-12962
▁disag	-12963
▁dress	-12964
▁drown	-12965
▁drugg	-12966
▁dödst	-12967
▁embra	-12968
▁enkel	-12969
▁ethic	-12970
▁excit	-12971
▁expen	-12972
▁exper	-12973
▁faint	-12974
▁fanta	-12975
▁fastn	-12976
▁fling	-12977
▁flint	-12978
▁fläck	-12979
▁footb	-12980
▁fortf	-12981
▁forts	-12982
▁frans	-12983
▁frant	-12984
▁frien	-12985
▁frite	-12986
▁frust	-12987
▁födde	-12988
▁föred	-12989
▁förnu	-12990
▁förol	-12991
▁försk	-12992
▁förso	-12993
▁försv	-12994
▁förtv	-12995
▁förut	-12996
▁förän	-12997
▁greed	-12998
▁grind	-12999
▁grogg	-13000
▁gröns	-13001
▁handd	-13002
▁handl	-13003
▁hatch	-13004
▁heada	-13005
▁healt	-13006
▁hemif	-13007
▁hjält	-13008
▁homew	-13009
▁hälso	-13010
▁hänsy	-13011
▁härif	-13012
▁illam	-13013
▁illoj	-13014
▁impat	-13015
▁impol	-13016
▁impon	-13017
▁impro	-13018
▁innoc	-13019
▁insan	-13020
▁insid	-13021
▁insom	-13022
▁insul	-13023
▁inter	-13024
▁irrit	-13025
▁itche	-13026
▁joint	-13027
▁kallh	-13028
▁kanin	-13029
▁klass	-13030
▁klipp	-13031
▁kläck	-13032
▁knubb	-13033
▁knäck	-13034
▁konta	-13035
▁kontr	-13036
▁korre	-13037
▁kysst	-13038
▁lastb	-13039
▁laund	-13040
▁leder	-13041
▁likad	-13042
▁läggd	-13043
▁lättn	-13044
▁lögnh	-13045
▁manag	-13046
▁mardr	-13047
▁medle	-13048
▁menta	-13049
▁minor	-13050
▁miser	-13051
▁missf	-13052
▁missl	-13053
▁motiv	-13054
▁notic	-13055
▁nyhet	-13056
▁nylig	-13057
▁olive	-13058
▁onion	-13059
▁orang	-13060
▁ostad	-13061
▁otrev	-13062
▁pacif	-13063
▁papeg	-13064
▁parap	-13065
▁pickn	-13066
▁pleas	-13067
▁poäng	-13068
▁pratg	-13069
▁prett	-13070
▁punct	-13071
▁påkar	-13072
▁pålit	-13073
▁quick	-13074
▁racco	-13075
▁reall	-13076
▁relat	-13077
▁resig	-13078
▁resou	-13079
▁resul	-13080
▁revie	-13081
▁rättf	-13082
▁rättv	-13083
▁schwe	-13084
▁scoot	-13085
▁secon	-13086
▁shall	-13087
▁shopp	-13088
▁shout	-13089
▁simil	-13090
▁sjung	-13091
▁skaff	-13092
▁skall	-13093
▁skatt	-13094
▁skick	-13095
▁skrin	-13096
▁skriv	-13097
▁skräm	-13098
▁skull	-13099
▁skyld	-13100
▁skynd	-13101
▁slags	-13102
▁slakt	-13103
▁slapp	-13104
▁sling	-13105
▁slipp	-13106
▁slock	-13107
▁sluts	-13108
▁släng	-13109
▁släpp	-13110
▁snowm	-13111
▁speci	-13112
▁spind	-13113
▁sport	-13114
▁stall	-13115
▁sting	-13116
▁stopp	-13117
▁stric	-13118
▁strug	-13119
▁stubb	-13120
▁studs	-13121
▁styck	-13122
▁stäng	-13123
▁succe	-13124
▁svimm	-13125
▁svind	-13126
▁sweat	-13127
▁swimm	-13128
▁talan	-13129
▁tatto	-13130
▁thing	-13131
▁tillb	-13132
▁tillf	-13133
▁tillg	-13134
▁tillr	-13135
▁tomor	-13136
▁trail	-13137
▁train	-13138
▁treas	-13139
▁trett	-13140
▁trubb	-13141
▁tystl	-13142
▁unpre	-13143
▁uppen	-13144
▁upptä	-13145
▁upsta	-13146
▁utför	-13147
▁utvil	-13148
▁varan	-13149
▁verkt	-13150
▁välav	-13151
▁vänst	-13152
▁yours	-13153
▁återb	-13154
▁ögonb	-13155
▁överd	-13156
▁överg	-13157
▁överk	-13158
▁överr	-13159
▁övers	-13160
▁övert	-13161
agerade	-13162
alloons	-13163
antagen	-13164
anterat	-13165
apanska	-13166
aptable	-13167
arsight	-13168
askning	-13169
assning	-13170
atchful	-13171
atching	-13172
autiful	-13173
aveling	-13174
bitious	-13175
bletter	-13176
cceeded	-13177
covered	-13178
cuating	-13179
curable	-13180
delande	-13181
derande	-13182
dningar	-13183
echless	-13184
eddings	-13185
elsiner	-13186
elysten	-13187
emember	-13188
emester	-13189
enagers	-13190
enerade	-13191
enheten	-13192
ensible	-13193
entarer	-13194
entiskt	-13195
ercised	-13196
ercises	-13197
ettades	-13198
fattade	-13199
ffektiv	-13200
gagerad	-13201
gelsten	-13202
gerated	-13203
hausted	-13204
herries	-13205
hämtade	-13206
icklish	-13207
ickorna	-13208
iddagen	-13209
igilant	-13210
iketten	-13211
inerade	-13212
intless	-13213
ionerad	-13214
ionerna	-13215
isknade	-13216
isterar	-13217
istolen	-13218
istoria	-13219
ivorced	-13220
jective	-13221
jejerna	-13222
judande	-13223
jälvisk	-13224
jölkade	-13225
kningar	-13226
landrar	-13227
leeding	-13228
leknade	-13229
leranta	-13230
letiska	-13231
lämnade	-13232
låderar	-13233
nuffade	-13234
okusera	-13235
ollowed	-13236
ologize	-13237
omantic	-13238
onglera	-13239
ontinue	-13240
orgligt	-13241
ortable	-13242
ortsätt	-13243
ottoark	-13244
pereras	-13245
petspen	-13246
pressed	-13247
readful	-13248
reaming	-13249
reativa	-13250
reative	-13251
reckles	-13252
related	-13253
ressade	-13254
ressant	-13255
reställ	-13256
revliga	-13257
revligt	-13258
riterar	-13259
rottare	-13260
rovised	-13261
sammare	-13262
siktiga	-13263
siktigt	-13264
skallig	-13265
skyldig	-13266
slöjade	-13267
spelare	-13268
starrig	-13269
statens	-13270
stening	-13271
sterday	-13272
stronom	-13273
ställde	-13274
stämmer	-13275
svärlig	-13276
tackera	-13277
taktade	-13278
tastisk	-13279
tiverad	-13280
uggummi	-13281
undrade	-13282
undrare	-13283
undsjuk	-13284
ungerar	-13285
unished	-13286
uvudvär	-13287
veryone	-13288
vimmade	-13289
vändigt	-13290
väpnade	-13291
yckades	-13292
yckligt	-13293
yckling	-13294
yssland	-13295
ällning	-13296
ängiven	-13297
ängslad	-13298
ängslig	-13299
ännande	-13300
ättning	-13301
ättrade	-13302
ättring	-13303
ättvisa	-13304
ättvist	-13305
åglarna	-13306
åringar	-13307
ördagar	-13308
ördaren	-13309
örebrår	-13310
öterska	-13311
ötterna	-13312
överall	-13313
överlev	-13314
överste	-13315
▁Allvar	-13316
▁Christ	-13317
▁Everyb	-13318
▁Everyt	-13319
▁Frankr	-13320
▁Förvar	-13321
▁Handdu	-13322
▁Kontak	-13323
▁Påbörj	-13324
▁Självf	-13325
▁Självk	-13326
▁Sommar	-13327
▁Spegel	-13328
▁alliho	-13329
▁alread	-13330
▁ambiti	-13331
▁amerik	-13332
▁annons	-13333
▁annorl	-13334
▁ansikt	-13335
▁ansvar	-13336
▁arrang	-13337
▁artist	-13338
▁athlet	-13339
▁avlägs	-13340
▁bedräg	-13341
▁befäng	-13342
▁berätt	-13343
▁bestäm	-13344
▁brilli	-13345
▁concer	-13346
▁confid	-13347
▁confus	-13348
▁contag	-13349
▁convin	-13350
▁courte	-13351
▁cykelp	-13352
▁dement	-13353
▁desert	-13354
▁destin	-13355
▁diabet	-13356
▁diffic	-13357
▁discre	-13358
▁disloy	-13359
▁dödstr	-13360
▁efterm	-13361
▁everyt	-13362
▁eviden	-13363
▁expens	-13364
▁finish	-13365
▁flexib	-13366
▁forgiv	-13367
▁förbry	-13368
▁förfly	-13369
▁förskr	-13370
▁förvir	-13371
▁föränd	-13372
▁genomv	-13373
▁gladly	-13374
▁happen	-13375
▁hemlig	-13376
▁homele	-13377
▁horrif	-13378
▁husvag	-13379
▁illamå	-13380
▁import	-13381
▁inbjud	-13382
▁ingent	-13383
▁intell	-13384
▁island	-13385
▁jurypl	-13386
▁jätteb	-13387
▁kapten	-13388
▁kollid	-13389
▁kompet	-13390
▁kräkte	-13391
▁kvälls	-13392
▁lunchd	-13393
▁lögnar	-13394
▁medvet	-13395
▁minder	-13396
▁misera	-13397
▁musici	-13398
▁mörkhy	-13399
▁naught	-13400
▁needle	-13401
▁neglig	-13402
▁närhet	-13403
▁någons	-13404
▁någont	-13405
▁obstin	-13406
▁oförar	-13407
▁oförsk	-13408
▁olycks	-13409
▁omtyck	-13410
▁ordför	-13411
▁panick	-13412
▁papego	-13413
▁partis	-13414
▁passer	-13415
▁pathet	-13416
▁poison	-13417
▁politi	-13418
▁promis	-13419
▁påbörj	-13420
▁quarre	-13421
▁review	-13422
▁revolt	-13423
▁reward	-13424
▁risker	-13425
▁romant	-13426
▁rättfr	-13427
▁rättig	-13428
▁rörmok	-13429
▁shelve	-13430
▁sjuksk	-13431
▁självm	-13432
▁självs	-13433
▁skatte	-13434
▁skedad	-13435
▁skjutv	-13436
▁skämde	-13437
▁småakt	-13438
▁sparkc	-13439
▁sprung	-13440
▁straff	-13441
▁strang	-13442
▁strugg	-13443
▁strump	-13444
▁sudden	-13445
▁surger	-13446
▁surviv	-13447
▁säkerh	-13448
▁söndag	-13449
▁teache	-13450
▁thirst	-13451
▁tillfr	-13452
▁trovär	-13453
▁tvättb	-13454
▁tvättd	-13455
▁tändst	-13456
▁tålmod	-13457
▁undanf	-13458
▁underk	-13459
▁underv	-13460
▁unfort	-13461
▁upptag	-13462
▁ursinn	-13463
▁utmatt	-13464
▁uttråk	-13465
▁varand	-13466
▁verand	-13467
▁villrå	-13468
▁vägled	-13469
▁välavl	-13470
▁weeken	-13471
▁äregir	-13472
▁ögonbl	-13473
▁överen	-13474
▁överle	-13475
▁överst	-13476
▁översy	-13477
▁överty	-13478
aggerate	-13479
agsmålet	-13480
akuering	-13481
andställ	-13482
angerous	-13483
anningen	-13484
ansinnig	-13485
antastic	-13486
appeared	-13487
atisfied	-13488
atuering	-13489
ckningar	-13490
eresting	-13491
errified	-13492
erättade	-13493
esitated	-13494
esterday	-13495
ffective	-13496
fluensas	-13497
fortable	-13498
fternoon	-13499
getarian	-13500
händelse	-13501
hållande	-13502
ightmare	-13503
iljetten	-13504
illingar	-13505
inesiska	-13506
ishonest	-13507
isterade	-13508
kademisk	-13509
korligen	-13510
ltburken	-13511
lyckades	-13512
markable	-13513
neförhöj	-13514
ngenting	-13515
onderful	-13516
ontented	-13517
ordbrand	-13518
ourceful	-13519
passning	-13520
pologize	-13521
primerad	-13522
raskning	-13523
reakfast	-13524
reatable	-13525
reathing	-13526
ringande	-13527
räknelig	-13528
skrapade	-13529
synslösa	-13530
tastiskt	-13531
uestions	-13532
ulations	-13533
undsjuka	-13534
ustrated	-13535
ustrerad	-13536
viserade	-13537
våningen	-13538
äkningar	-13539
ärningen	-13540
ättetråk	-13541
ågonting	-13542
öreställ	-13543
▁Christm	-13544
▁Congrat	-13545
▁Definit	-13546
▁Föroläm	-13547
▁Japanes	-13548
▁Serious	-13549
▁adopter	-13550
▁alltiho	-13551
▁alltsam	-13552
▁applaud	-13553
▁bakläng	-13554
▁ballong	-13555
▁bankrut	-13556
▁bedridd	-13557
▁begräns	-13558
▁besläkt	-13559
▁chemist	-13560
▁committ	-13561
▁confess	-13562
▁contrib	-13563
▁delight	-13564
▁energet	-13565
▁explain	-13566
▁forgive	-13567
▁fortfar	-13568
▁framfus	-13569
▁frånvar	-13570
▁författ	-13571
▁förflyt	-13572
▁förklar	-13573
▁föroläm	-13574
▁förstär	-13575
▁förstör	-13576
▁förtjus	-13577
▁förtjän	-13578
▁förtviv	-13579
▁förälsk	-13580
▁gräsmat	-13581
▁hemläng	-13582
▁hybridb	-13583
▁hänsyns	-13584
▁högljut	-13585
▁immunit	-13586
▁impress	-13587
▁intrigu	-13588
▁irrelev	-13589
▁jättetj	-13590
▁kallham	-13591
▁klarvak	-13592
▁kläckte	-13593
▁komment	-13594
▁kännete	-13595
▁languag	-13596
▁likadan	-13597
▁lyckade	-13598
▁mentals	-13599
▁missför	-13600
▁misstän	-13601
▁motbjud	-13602
▁motiver	-13603
▁människ	-13604
▁nonchal	-13605
▁någonst	-13606
▁oförber	-13607
▁oförskr	-13608
▁oversle	-13609
▁pension	-13610
▁pineapp	-13611
▁politic	-13612
▁profess	-13613
▁punkter	-13614
▁relater	-13615
▁sinness	-13616
▁skräcks	-13617
▁slutsål	-13618
▁sällska	-13619
▁sänglig	-13620
▁sömnlös	-13621
▁tacksam	-13622
▁tillräk	-13623
▁tillsam	-13624
▁tillver	-13625
▁uppfatt	-13626
▁uppmärk	-13627
▁upptäck	-13628
▁upstair	-13629
▁utsvult	-13630
▁vanvett	-13631
▁välavlö	-13632
▁välträn	-13633
▁överall	-13634
▁överste	-13635
▁övertyg	-13636
aggerated	-13637
▁	-13638
e	-13639
a	-13640
t	-13641
r	-13642
.	-13643
o	-13644
n	-13645
i	-13646
s	-13647
m	-13648
g	-13649
d	-13650
l	-13651
h	-13652
u	-13653
k	-13654
ä	-13655
T	-13656
y	-13657
v	-13658
I	-13659
p	-13660
?	-13661
c	-13662
b	-13663
f	-13664
J	-13665
'	-13666
w	-13667
å	-13668
D	-13669
ö	-13670
H	-13671
j	-13672
S	-13673
V	-13674
G	-13675
W	-13676
!	-13677
K	-13678
A	-13679
C	-13680
Ä	-13681
L	-13682
M	-13683
F	-13684
Y	-13685
,	-13686
B	-13687
x	-13688
N	-13689
R	-13690
E	-13691
z	-13692
O	-13693
P	-13694
q	-13695
