<unk>	0
<s>	0
</s>	0
<pad>	0
er	-0
▁t	-1
▁a	-2
en	-3
▁"	-4
in	-5
▁s	-6
▁o	-7
ar	-8
he	-9
▁f	-10
an	-11
▁m	-12
ll	-13
▁d	-14
et	-15
or	-16
▁b	-17
es	-18
on	-19
▁(	-20
at	-21
▁h	-22
is	-23
..	-24
▁the	-25
nd	-26
▁p	-27
om	-28
ch	-29
it	-30
ed	-31
ing	-32
▁in	-33
st	-34
▁w	-35
▁v	-36
ig	-37
re	-38
ör	-39
▁of	-40
▁(1	-41
el	-42
tt	-43
ou	-44
▁c	-45
▁and	-46
ra	-47
▁g	-48
▁och	-49
as	-50
▁k	-51
ad	-52
är	-53
▁S	-54
al	-55
▁i	-56
▁to	-57
▁l	-58
▁n	-59
ill	-60
ag	-61
...	-62
ro	-63
ion	-64
▁M	-65
▁u	-66
ter	-67
ic	-68
▁D	-69
▁I	-70
▁""	-71
il	-72
▁e	-73
iv	-74
▁A	-75
▁E	-76
am	-77
ur	-78
▁för	-79
id	-80
▁T	-81
▁en	-82
▁th	-83
▁att	-84
▁till	-85
se	-86
ot	-87
and	-88
kb	-89
ut	-90
▁st	-91
MB	-92
ver	-93
▁(1.	-94
le	-95
ck	-96
▁J	-97
▁y	-98
▁r	-99
ent	-100
än	-101
ol	-102
pt	-103
ka	-104
▁C	-105
▁av	-106
na	-107
▁1	-108
▁an	-109
▁är	-110
us	-111
▁som	-112
▁j	-113
▁2	-114
pp	-115
▁is	-116
▁P	-117
▁for	-118
▁B	-119
▁"...	-120
▁H	-121
ul	-122
▁!	-123
▁fr	-124
kt	-125
▁be	-126
▁på	-127
av	-128
▁de	-129
te	-130
ay	-131
ow	-132
od	-133
▁G	-134
▁med	-135
im	-136
▁all	-137
▁wh	-138
▁det	-139
▁re	-140
."	-141
▁K	-142
gy	-143
▁you	-144
est	-145
ct	-146
lig	-147
all	-148
▁on	-149
gypt	-150
ning	-151
▁F	-152
un	-153
▁Egypt	-154
ir	-155
ast	-156
▁L	-157
ation	-158
ud	-159
ess	-160
▁W	-161
ade	-162
ik	-163
ok	-164
th	-165
▁pro	-166
00	-167
ak	-168
em	-169
um	-170
▁har	-171
os	-172
ån	-173
ce	-174
▁he	-175
ab	-176
ith	-177
ri	-178
▁den	-179
år	-180
ers	-181
ist	-182
▁-	-183
are	-184
:1	-185
ld	-186
ens	-187
ly	-188
▁var	-189
▁that	-190
▁inte	-191
▁R	-192
ord	-193
ort	-194
▁sk	-195
if	-196
▁sp	-197
▁with	-198
▁V	-199
▁The	-200
▁it	-201
omm	-202
ans	-203
ett	-204
▁jag	-205
ell	-206
▁DV	-207
▁se	-208
▁O	-209
ätt	-210
▁om	-211
▁N	-212
änd	-213
▁ö	-214
ive	-215
gra	-216
▁min	-217
,"	-218
":	-219
äl	-220
igh	-221
ant	-222
▁ut	-223
▁DVD	-224
end	-225
ande	-226
ust	-227
▁or	-228
▁tr	-229
▁con	-230
▁my	-231
op	-232
art	-233
▁sh	-234
sk	-235
▁ex	-236
▁...	-237
▁ett	-238
ve	-239
sta	-240
our	-241
ore	-242
ang	-243
▁was	-244
ia	-245
het	-246
▁St	-247
▁(15	-248
:2	-249
ara	-250
gh	-251
":"	-252
ear	-253
▁from	-254
änn	-255
▁as	-256
▁bl	-257
▁by	-258
eb	-259
ff	-260
▁hav	-261
▁Egypten	-262
de	-263
ga	-264
ger	-265
ip	-266
ere	-267
ose	-268
la	-269
ta	-270
der	-271
els	-272
ity	-273
▁du	-274
ark	-275
ult	-276
▁not	-277
▁(14	-278
▁res	-279
▁(1.6	-280
qu	-281
▁U	-282
▁nå	-283
▁så	-284
▁has	-285
ec	-286
ard	-287
ate	-288
ich	-289
nder	-290
ack	-291
itt	-292
ull	-293
▁Jes	-294
og	-295
▁go	-296
ick	-297
isk	-298
▁are	-299
ap	-300
ie	-301
nt	-302
▁.	-303
bok	-304
för	-305
ind	-306
▁!!	-307
▁have	-308
▁komm	-309
uk	-310
att	-311
und	-312
▁man	-313
▁br	-314
▁do	-315
▁me	-316
▁200	-317
▁upp	-318
:3	-319
ts	-320
▁3	-321
▁Ch	-322
▁ska	-323
▁från	-324
ub	-325
▁”	-326
fter	-327
▁Jag	-328
▁(1.7	-329
iet	-330
orm	-331
use	-332
äng	-333
▁ab	-334
▁pr	-335
ller	-336
).	-337
▁your	-338
▁Jesus	-339
pr	-340
ies	-341
ong	-342
reat	-343
▁kan	-344
▁över	-345
ry	-346
ice	-347
▁"1	-348
▁ch	-349
▁sa	-350
vänd	-351
▁com	-352
▁sin	-353
iz	-354
her	-355
ial	-356
ost	-357
▁this	-358
▁9	-359
per	-360
▁El	-361
▁pl	-362
▁vi	-363
du	-364
ft	-365
ame	-366
▁In	-367
▁im	-368
▁we	-369
ould	-370
▁kon	-371
▁under	-372
ah	-373
ov	-374
iss	-375
ings	-376
▁ver	-377
▁which	-378
cl	-379
ma	-380
▁su	-381
▁sig	-382
-1	-383
ev	-384
ss	-385
▁4	-386
ada	-387
era	-388
iga	-389
inn	-390
ight	-391
▁men	-392
▁(1.5	-393
ild	-394
▁ar	-395
▁at	-396
erna	-397
gram	-398
▁any	-399
ide	-400
ung	-401
▁19	-402
▁få	-403
iska	-404
▁him	-405
▁his	-406
ja	-407
▁6	-408
ass	-409
ram	-410
▁Sh	-411
▁sy	-412
▁mig	-413
▁använd	-414
5)	-415
pl	-416
För	-417
ect	-418
ile	-419
out	-420
▁ne	-421
▁so	-422
▁Hur	-423
▁dem	-424
öd	-425
▁å	-426
ats	-427
ven	-428
▁up	-429
liga	-430
▁but	-431
▁can	-432
gg	-433
ob	-434
▁/	-435
ine	-436
..."	-437
form	-438
ions	-439
onom	-440
▁wor	-441
EN	-442
ac	-443
ber	-444
tal	-445
ure	-446
▁al	-447
▁han	-448
▁Mose	-449
oh	-450
▁5	-451
ays	-452
▁sl	-453
▁sä	-454
▁(12	-455
▁year	-456
-2	-457
En	-458
ake	-459
com	-460
ets	-461
man	-462
one	-463
▁us	-464
▁år	-465
cket	-466
▁några	-467
ek	-468
▁–	-469
ple	-470
rop	-471
ment	-472
▁had	-473
ghada	-474
▁allt	-475
▁ever	-476
▁them	-477
▁what	-478
▁produ	-479
▁Hurghada	-480
▁sj	-481
rist	-482
ännu	-483
▁","	-484
▁int	-485
▁one	-486
▁sam	-487
angel	-488
▁ännu	-489
▁minut	-490
1)	-491
ker	-492
rip	-493
▁MP	-494
▁fl	-495
▁dig	-496
▁stor	-497
▁eller	-498
▁7	-499
▁Q	-500
akt	-501
get	-502
▁".	-503
▁ad	-504
able	-505
▁hot	-506
▁program	-507
".	-508
01	-509
ge	-510
äm	-511
▁,	-512
ach	-513
arm	-514
eth	-515
ful	-516
mer	-517
urs	-518
▁Th	-519
▁er	-520
▁(13	-521
▁yet	-522
▁(1.3	-523
▁alla	-524
▁best	-525
▁spel	-526
▁skall	-527
▁kommer	-528
▁Mosebok	-529
ru	-530
äd	-531
ble	-532
äll	-533
▁Is	-534
clus	-535
▁hel	-536
▁out	-537
▁vär	-538
▁will	-539
Första	-540
▁mycket	-541
angeliet	-542
eg	-543
eh	-544
je	-545
yd	-546
ars	-547
nad	-548
▁po	-549
▁te	-550
avor	-551
▁Sam	-552
▁gen	-553
▁our	-554
▁per	-555
▁vad	-556
▁vis	-557
verter	-558
7)	-559
ely	-560
ous	-561
▁un	-562
ally	-563
ound	-564
▁Gud	-565
▁din	-566
▁mer	-567
▁väl	-568
▁who	-569
▁just	-570
ission	-571
8)	-572
ary	-573
ian	-574
ire	-575
riv	-576
ång	-577
▁kv	-578
▁fil	-579
▁tra	-580
▁mark	-581
▁more	-582
▁favor	-583
▁great	-584
▁shall	-585
▁skull	-586
▁their	-587
!!	-588
0)	-589
3)	-590
ER	-591
da	-592
ms	-593
▁Y	-594
And	-595
age	-596
åll	-597
▁Sa	-598
ater	-599
ther	-600
▁And	-601
▁bör	-602
▁inn	-603
▁när	-604
▁off	-605
▁tim	-606
▁hasn	-607
ningar	-608
▁about	-609
▁there	-610
clusive	-611
▁favorit	-612
4)	-613
aw	-614
cc	-615
rå	-616
","	-617
ann	-618
arn	-619
den	-620
ign	-621
igt	-622
ite	-623
ook	-624
vel	-625
▁"2	-626
▁am	-627
▁el	-628
▁kl	-629
▁qu	-630
edan	-631
ents	-632
port	-633
▁All	-634
▁Det	-635
▁use	-636
▁hans	-637
▁spec	-638
▁efter	-639
▁skulle	-640
IN	-641
rö	-642
äg	-643
ath	-644
cri	-645
ons	-646
ory	-647
ove	-648
pro	-649
ubl	-650
urn	-651
....	-652
ence	-653
ling	-654
olid	-655
ower	-656
▁ser	-657
▁they	-658
ations	-659
▁Sharm	-660
▁honom	-661
ps	-662
ue	-663
▁'	-664
Luk	-665
ips	-666
men	-667
old	-668
ood	-669
own	-670
var	-671
▁le	-672
▁ny	-673
itet	-674
ligt	-675
tern	-676
▁God	-677
▁fly	-678
▁gör	-679
▁här	-680
▁vår	-681
▁bara	-682
▁good	-683
▁hade	-684
:5	-685
ika	-686
ikh	-687
ish	-688
äck	-689
▁kn	-690
eras	-691
ough	-692
▁She	-693
▁bef	-694
▁bra	-695
▁che	-696
▁fram	-697
ningen	-698
▁every	-699
",	-700
6)	-701
ai	-702
ba	-703
ail	-704
ank	-705
iel	-706
ink	-707
jud	-708
ual	-709
▁"-	-710
▁ha	-711
▁må	-712
ated	-713
else	-714
ista	-715
land	-716
ress	-717
stem	-718
▁Con	-719
▁där	-720
▁gam	-721
▁hur	-722
▁mot	-723
▁någ	-724
ition	-725
▁(1.4	-726
▁denna	-727
▁Christ	-728
▁Sheikh	-729
EG	-730
ep	-731
ey	-732
pa	-733
ash	-734
cks	-735
ilj	-736
ins	-737
ken	-738
ser	-739
▁gr	-740
▁op	-741
▁sc	-742
▁ty	-743
enes	-744
ster	-745
▁Her	-746
▁giv	-747
▁lik	-748
▁mån	-749
▁nat	-750
▁web	-751
Andra	-752
boken	-753
ction	-754
pport	-755
▁cour	-756
▁part	-757
▁power	-758
formation	-759
2)	-760
wn	-761
▁8	-762
bar	-763
ohn	-764
pel	-765
ree	-766
som	-767
ste	-768
vis	-769
▁10	-770
▁En	-771
▁ag	-772
▁fö	-773
ance	-774
lick	-775
▁bet	-776
▁del	-777
▁des	-778
cript	-779
ilder	-780
▁Samu	-781
▁back	-782
▁form	-783
▁high	-784
▁over	-785
▁andra	-786
▁start	-787
""	-788
22	-789
ea	-790
ua	-791
▁X	-792
Jag	-793
als	-794
cts	-795
vid	-796
▁Eu	-797
▁bä	-798
▁ro	-799
▁än	-800
erad	-801
gain	-802
iskt	-803
ness	-804
▁acc	-805
▁bes	-806
▁how	-807
▁unt	-808
▁bill	-809
▁cont	-810
▁fått	-811
▁last	-812
▁utan	-813
▁when	-814
▁would	-815
▁course	-816
ef	-817
oc	-818
we	-819
ög	-820
▁*	-821
▁ä	-822
ise	-823
ors	-824
rea	-825
unt	-826
älv	-827
▁"%	-828
▁"(	-829
▁21	-830
▁cm	-831
▁nu	-832
ader	-833
ical	-834
ideo	-835
ouse	-836
ring	-837
usev	-838
▁Dav	-839
▁Den	-840
▁ber	-841
▁mult	-842
▁publ	-843
▁said	-844
▁years	-845
usevangeliet	-846
:4	-847
VI	-848
au	-849
ew	-850
up	-851
yr	-852
ys	-853
aga	-854
ier	-855
isc	-856
lag	-857
lek	-858
red	-859
ren	-860
▁då	-861
▁lå	-862
▁sö	-863
ages	-864
arna	-865
ause	-866
erat	-867
▁Div	-868
▁Min	-869
▁Pur	-870
▁ann	-871
▁app	-872
▁dag	-873
▁dat	-874
▁get	-875
▁its	-876
▁set	-877
Genes	-878
heter	-879
▁name	-880
▁pers	-881
▁take	-882
▁vara	-883
▁very	-884
▁cheap	-885
Genesis	-886
▁should	-887
ommission	-888
▁inclusive	-889
▁information	-890
.1	-891
ib	-892
io	-893
so	-894
▁“	-895
amn	-896
bet	-897
elf	-898
ket	-899
▁CD	-900
▁He	-901
▁Wh	-902
▁gl	-903
▁if	-904
▁no	-905
▁ol	-906
▁sm	-907
aren	-908
atte	-909
iful	-910
ktiv	-911
oken	-912
vert	-913
▁2:1	-914
▁bas	-915
▁beh	-916
▁lag	-917
▁new	-918
▁str	-919
▁tid	-920
▁vid	-921
ender	-922
▁(150	-923
▁Area	-924
▁been	-925
▁kurs	-926
▁play	-927
▁pres	-928
utiful	-929
▁David	-930
▁again	-931
▁genom	-932
▁inter	-933
▁själv	-934
▁Purple	-935
▁special	-936
HE	-937
LL	-938
bb	-939
gr	-940
kl	-941
me	-942
ph	-943
sc	-944
xt	-945
con	-946
ert	-947
fer	-948
ics	-949
ict	-950
ikt	-951
int	-952
jär	-953
les	-954
nen	-955
oll	-956
res	-957
▁gå	-958
▁vä	-959
Matt	-960
ende	-961
irst	-962
ppen	-963
▁eas	-964
▁eff	-965
▁kom	-966
▁liv	-967
▁now	-968
▁oss	-969
▁pos	-970
ather	-971
▁..."	-972
▁namn	-973
▁vill	-974
▁work	-975
ession	-976
lighet	-977
▁Europ	-978
▁bästa	-979
▁säger	-980
-3	-981
IS	-982
cm	-983
sa	-984
vå	-985
yg	-986
öj	-987
eng	-988
ien	-989
kom	-990
mas	-991
nar	-992
org	-993
orn	-994
ral	-995
rek	-996
ärd	-997
▁17	-998
▁Ar	-999
▁Me	-1000
▁cl	-1001
▁ph	-1002
▁ta	-1003
aste	-1004
ckså	-1005
lace	-1006
ligh	-1007
ract	-1008
ston	-1009
ware	-1010
▁(11	-1011
▁Mos	-1012
▁bec	-1013
▁bro	-1014
▁kra	-1015
▁mon	-1016
anden	-1017
änner	-1018
▁(1.8	-1019
▁comp	-1020
▁dess	-1021
▁fast	-1022
▁inst	-1023
▁like	-1024
▁only	-1025
▁rätt	-1026
▁sätt	-1027
▁trip	-1028
▁unto	-1029
▁deras	-1030
▁holid	-1031
▁system	-1032
▁minuten	-1033
.”	-1034
br	-1035
ke	-1036
rä	-1037
▁Ä	-1038
act	-1039
ced	-1040
cke	-1041
eop	-1042
hed	-1043
hes	-1044
hew	-1045
ium	-1046
ize	-1047
led	-1048
ler	-1049
lev	-1050
ock	-1051
rar	-1052
sam	-1053
the	-1054
udg	-1055
val	-1056
▁(2	-1057
▁15	-1058
▁Ab	-1059
▁De	-1060
▁TV	-1061
▁em	-1062
▁ob	-1063
▁ra	-1064
cent	-1065
ends	-1066
eter	-1067
irit	-1068
oker	-1069
ount	-1070
▁Och	-1071
▁Pro	-1072
▁bel	-1073
▁day	-1074
▁see	-1075
▁sen	-1076
▁sna	-1077
▁tre	-1078
Matte	-1079
ality	-1080
ellan	-1081
eople	-1082
ester	-1083
▁Kung	-1084
▁also	-1085
▁börj	-1086
▁förl	-1087
▁icke	-1088
▁first	-1089
▁först	-1090
▁games	-1091
▁också	-1092
▁sedan	-1093
▁sista	-1094
▁stand	-1095
Matthew	-1096
▁before	-1097
▁första	-1098
▁person	-1099
▁things	-1100
),	-1101
7-	-1102
AN	-1103
SF	-1104
aj	-1105
lj	-1106
122	-1107
Jos	-1108
ase	-1109
gen	-1110
jäl	-1111
kap	-1112
log	-1113
nam	-1114
ott	-1115
▁12	-1116
▁14	-1117
▁bu	-1118
▁ge	-1119
▁lä	-1120
▁sv	-1121
▁vå	-1122
ards	-1123
baka	-1124
esta	-1125
håll	-1126
ific	-1127
mark	-1128
omar	-1129
vent	-1130
änna	-1131
▁AVI	-1132
▁Bay	-1133
▁Jer	-1134
▁end	-1135
▁fin	-1136
▁fri	-1137
▁går	-1138
▁mat	-1139
▁ord	-1140
▁sum	-1141
▁tro	-1142
▁vet	-1143
▁vil	-1144
▁öpp	-1145
Click	-1146
igong	-1147
ioner	-1148
▁(1.2	-1149
▁MPEG	-1150
▁Wars	-1151
▁barn	-1152
▁bild	-1153
▁down	-1154
▁fall	-1155
▁finn	-1156
▁förb	-1157
▁göra	-1158
▁hand	-1159
▁know	-1160
▁männ	-1161
▁open	-1162
▁ring	-1163
▁verk	-1164
▁were	-1165
ternet	-1166
▁files	-1167
▁poäng	-1168
▁hotell	-1169
▁använda	-1170
▁billiga	-1171
▁tillbaka	-1172
AS	-1173
CD	-1174
EL	-1175
ID	-1176
OR	-1177
OS	-1178
åt	-1179
▁Z	-1180
Det	-1181
cer	-1182
hem	-1183
ici	-1184
iew	-1185
ims	-1186
kel	-1187
opp	-1188
oth	-1189
röm	-1190
▁11	-1191
▁16	-1192
▁Sp	-1193
▁ca	-1194
▁mu	-1195
▁tw	-1196
bara	-1197
come	-1198
iety	-1199
ores	-1200
ream	-1201
tain	-1202
▁201	-1203
▁App	-1204
▁Saf	-1205
▁ide	-1206
▁ing	-1207
▁lit	-1208
▁may	-1209
▁mod	-1210
▁mus	-1211
▁val	-1212
▁way	-1213
Eston	-1214
ister	-1215
▁Stor	-1216
▁This	-1217
▁even	-1218
▁fant	-1219
▁full	-1220
▁förs	-1221
▁many	-1222
▁milj	-1223
▁mitt	-1224
▁time	-1225
▁webb	-1226
▁antal	-1227
▁detta	-1228
▁kraft	-1229
▁multi	-1230
▁måste	-1231
▁något	-1232
▁olika	-1233
▁resor	-1234
▁video	-1235
▁värld	-1236
Estonia	-1237
▁Europe	-1238
▁mellan	-1239
▁public	-1240
▁Converter	-1241
AM	-1242
AR	-1243
ES	-1244
HN	-1245
ng	-1246
-6)	-1247
:7-	-1248
ING	-1249
ces	-1250
ham	-1251
hua	-1252
mar	-1253
min	-1254
pos	-1255
rel	-1256
rig	-1257
ten	-1258
ute	-1259
▁"4	-1260
▁18	-1261
▁24	-1262
▁It	-1263
▁On	-1264
▁Sy	-1265
▁Un	-1266
▁bo	-1267
▁et	-1268
Luke	-1269
airo	-1270
ible	-1271
ists	-1272
iver	-1273
read	-1274
tter	-1275
usal	-1276
▁(16	-1277
▁199	-1278
▁Som	-1279
▁THE	-1280
▁gra	-1281
▁num	-1282
▁par	-1283
▁und	-1284
:5-6)	-1285
ating	-1286
erade	-1287
nings	-1288
other	-1289
änder	-1290
▁(153	-1291
▁bort	-1292
▁easy	-1293
▁help	-1294
▁into	-1295
▁make	-1296
▁pass	-1297
▁sina	-1298
▁well	-1299
ftware	-1300
▁"....	-1301
▁Moses	-1302
▁after	-1303
▁given	-1304
▁ideal	-1305
▁trans	-1306
▁varje	-1307
▁where	-1308
▁world	-1309
▁alltid	-1310
▁bilder	-1311
▁minute	-1312
▁result	-1313
markerat	-1314
▁Jerusal	-1315
▁because	-1316
▁Christmas	-1317
▁favorited	-1318
▁konverter	-1319
▁favoritmarkerat	-1320
9)	-1321
AL	-1322
AT	-1323
ET	-1324
Ex	-1325
ON	-1326
bo	-1327
fe	-1328
of	-1329
åg	-1330
ök	-1331
:3)	-1332
ain	-1333
app	-1334
avs	-1335
gon	-1336
hip	-1337
ife	-1338
jur	-1339
nas	-1340
ols	-1341
ows	-1342
ric	-1343
ron	-1344
tid	-1345
tro	-1346
ygg	-1347
änt	-1348
ära	-1349
▁"'	-1350
▁"*	-1351
▁13	-1352
▁IN	-1353
▁Mr	-1354
▁Ph	-1355
▁We	-1356
▁ed	-1357
▁fe	-1358
▁kö	-1359
aken	-1360
arth	-1361
asev	-1362
ates	-1363
full	-1364
ield	-1365
ient	-1366
ines	-1367
ital	-1368
ivit	-1369
oner	-1370
post	-1371
uter	-1372
veck	-1373
vers	-1374
ängd	-1375
▁!!!	-1376
▁Kop	-1377
▁cer	-1378
▁fol	-1379
▁hem	-1380
▁hos	-1381
▁hög	-1382
▁own	-1383
▁pre	-1384
▁rec	-1385
▁reg	-1386
▁sem	-1387
▁sur	-1388
▁två	-1389
aniel	-1390
▁"201	-1391
▁2005	-1392
▁Isra	-1393
▁come	-1394
▁comm	-1395
▁flyg	-1396
▁följ	-1397
▁give	-1398
▁jord	-1399
▁kval	-1400
▁made	-1401
▁makt	-1402
▁much	-1403
▁plan	-1404
▁says	-1405
▁sign	-1406
▁slut	-1407
▁than	-1408
▁tour	-1409
▁även	-1410
aboken	-1411
rekord	-1412
scores	-1413
▁Kings	-1414
▁enkel	-1415
▁forts	-1416
▁natet	-1417
▁säker	-1418
Lukasev	-1419
▁Father	-1420
▁Samuel	-1421
▁bränna	-1422
▁contin	-1423
▁images	-1424
▁fantast	-1425
▁quality	-1426
▁Commission	-1427
▁Kungaboken	-1428
▁highscores	-1429
▁poängrekord	-1430
Lukasevangeliet	-1431
AG	-1432
In	-1433
SB	-1434
be	-1435
lö	-1436
yk	-1437
▁q	-1438
:17	-1439
SFB	-1440
The	-1441
ave	-1442
det	-1443
dom	-1444
enn	-1445
fil	-1446
ift	-1447
iva	-1448
jän	-1449
med	-1450
met	-1451
oil	-1452
par	-1453
ras	-1454
sen	-1455
▁(9	-1456
▁..	-1457
▁26	-1458
▁50	-1459
▁Ex	-1460
▁dv	-1461
▁lö	-1462
John	-1463
Judg	-1464
aven	-1465
gång	-1466
inna	-1467
ious	-1468
less	-1469
nade	-1470
ogra	-1471
omen	-1472
self	-1473
▁(10	-1474
▁Bea	-1475
▁art	-1476
▁bud	-1477
▁cal	-1478
▁död	-1479
▁etc	-1480
▁fam	-1481
▁fär	-1482
▁job	-1483
▁jul	-1484
▁kro	-1485
▁met	-1486
▁rel	-1487
▁say	-1488
▁soc	-1489
▁tem	-1490
▁two	-1491
▁tän	-1492
:7-8)	-1493
Domar	-1494
enter	-1495
raham	-1496
velop	-1497
ättre	-1498
▁(142	-1499
▁(143	-1500
▁John	-1501
▁Saul	-1502
▁Size	-1503
▁Star	-1504
▁cons	-1505
▁hjäl	-1506
▁love	-1507
▁most	-1508
▁sade	-1509
▁some	-1510
▁upon	-1511
▁våra	-1512
▁want	-1513
▁åter	-1514
Judges	-1515
dition	-1516
▁mater	-1517
▁month	-1518
▁många	-1519
▁other	-1520
▁snabb	-1521
▁still	-1522
▁stora	-1523
▁think	-1524
▁Safaga	-1525
▁against	-1526
▁convert	-1527
▁världen	-1528
▁Internet	-1529
▁holidays	-1530
▁material	-1531
▁software	-1532
Domarboken	-1533
▁Beautiful	-1534
▁Jerusalem	-1535
▁konvertera	-1536
?"	-1537
BS	-1538
IT	-1539
Th	-1540
ex	-1541
mb	-1542
oo	-1543
äk	-1544
▁:	-1545
▁[	-1546
1-1	-1547
HNV	-1548
ace	-1549
ags	-1550
ala	-1551
ied	-1552
jer	-1553
jus	-1554
ody	-1555
ome	-1556
rak	-1557
ran	-1558
ret	-1559
rom	-1560
unk	-1561
uth	-1562
äns	-1563
▁92	-1564
▁Ad	-1565
▁IS	-1566
▁My	-1567
▁Re	-1568
▁dr	-1569
▁gj	-1570
▁åt	-1571
Exod	-1572
aker	-1573
berg	-1574
bjud	-1575
cker	-1576
erar	-1577
ject	-1578
line	-1579
ords	-1580
psum	-1581
reen	-1582
ures	-1583
vara	-1584
ying	-1585
▁Web	-1586
▁ago	-1587
▁ast	-1588
▁avs	-1589
▁dif	-1590
▁don	-1591
▁exp	-1592
▁får	-1593
▁ger	-1594
▁god	-1595
▁her	-1596
▁lev	-1597
▁nya	-1598
▁pop	-1599
▁red	-1600
▁ter	-1601
ember	-1602
ering	-1603
ghter	-1604
ighet	-1605
ities	-1606
itter	-1607
sning	-1608
urity	-1609
▁Last	-1610
▁Lord	-1611
▁blev	-1612
▁call	-1613
▁hela	-1614
▁land	-1615
▁lätt	-1616
▁ment	-1617
▁port	-1618
▁prof	-1619
▁skol	-1620
▁stad	-1621
▁such	-1622
▁then	-1623
Exodus	-1624
estaur	-1625
▁Apple	-1626
▁field	-1627
▁finns	-1628
▁flera	-1629
▁grund	-1630
▁innan	-1631
▁låter	-1632
▁might	-1633
▁place	-1634
▁såsom	-1635
▁times	-1636
▁while	-1637
andling	-1638
▁bättre	-1639
▁design	-1640
▁number	-1641
▁people	-1642
▁though	-1643
elsboken	-1644
▁Storlek	-1645
▁började	-1646
▁develop	-1647
▁marknad	-1648
▁människ	-1649
▁restaur	-1650
▁variety	-1651
▁Samuelsboken	-1652
!"	-1653
-4	-1654
ND	-1655
RA	-1656
TM	-1657
TO	-1658
ej	-1659
ox	-1660
oz	-1661
to	-1662
vä	-1663
▁)	-1664
0-2	-1665
Ett	-1666
ana	-1667
del	-1668
eck	-1669
esp	-1670
ily	-1671
iqu	-1672
kan	-1673
lar	-1674
len	-1675
nik	-1676
oly	-1677
oun	-1678
ris	-1679
rit	-1680
rol	-1681
ude	-1682
ued	-1683
ydd	-1684
ysk	-1685
ägg	-1686
▁--	-1687
▁2.	-1688
▁20	-1689
▁27	-1690
▁Al	-1691
▁EU	-1692
▁Lu	-1693
▁PR	-1694
Mark	-1695
agen	-1696
aria	-1697
ateg	-1698
ella	-1699
ffer	-1700
figh	-1701
ices	-1702
ider	-1703
itut	-1704
ized	-1705
olja	-1706
oman	-1707
skar	-1708
spel	-1709
▁Hot	-1710
▁Mak	-1711
▁Man	-1712
▁May	-1713
▁VCD	-1714
▁Vis	-1715
▁act	-1716
▁beg	-1717
▁car	-1718
▁cho	-1719
▁fun	-1720
▁gas	-1721
▁gro	-1722
▁ind	-1723
▁lot	-1724
▁lov	-1725
▁ned	-1726
▁pol	-1727
▁sil	-1728
▁trä	-1729
▁whe	-1730
▁won	-1731
0-21)	-1732
ident	-1733
ility	-1734
ldigt	-1735
plats	-1736
rakow	-1737
ypsum	-1738
▁(1.1	-1739
▁(152	-1740
▁(154	-1741
▁(156	-1742
▁2008	-1743
▁21:1	-1744
▁DivX	-1745
▁burn	-1746
▁does	-1747
▁fick	-1748
▁foll	-1749
▁gips	-1750
▁heal	-1751
▁helt	-1752
▁ljus	-1753
▁long	-1754
▁mill	-1755
▁skär	-1756
▁Allah	-1757
▁Poker	-1758
▁arbet	-1759
▁komma	-1760
▁ornam	-1761
▁pract	-1762
▁these	-1763
:20-21)	-1764
fighter	-1765
igheter	-1766
▁Krakow	-1767
▁Minute	-1768
▁appear	-1769
▁heaven	-1770
▁qigong	-1771
▁report	-1772
▁social	-1773
▁travel	-1774
▁utveck	-1775
▁framtid	-1776
▁produkt	-1777
▁started	-1778
▁interest	-1779
▁kvalitet	-1780
▁products	-1781
▁semester	-1782
92	-1783
Ch	-1784
DS	-1785
OK	-1786
OV	-1787
RE	-1788
az	-1789
fö	-1790
oy	-1791
sm	-1792
ug	-1793
000	-1794
2:1	-1795
Den	-1796
air	-1797
aks	-1798
alt	-1799
alv	-1800
but	-1801
duk	-1802
esh	-1803
han	-1804
iah	-1805
ica	-1806
ida	-1807
ief	-1808
iod	-1809
mel	-1810
nan	-1811
ool	-1812
ope	-1813
ork	-1814
rem	-1815
son	-1816
une	-1817
wed	-1818
äst	-1819
▁",	-1820
▁1.	-1821
▁Av	-1822
▁No	-1823
▁Sc	-1824
▁Sk	-1825
▁To	-1826
▁ev	-1827
▁gu	-1828
▁id	-1829
▁ni	-1830
acob	-1831
alen	-1832
andl	-1833
ased	-1834
ator	-1835
blem	-1836
bord	-1837
borg	-1838
ever	-1839
ians	-1840
ieve	-1841
itan	-1842
ited	-1843
ktyg	-1844
oday	-1845
olut	-1846
ouna	-1847
plet	-1848
rens	-1849
samm	-1850
site	-1851
ward	-1852
äder	-1853
ätta	-1854
▁"1.	-1855
▁But	-1856
▁For	-1857
▁För	-1858
▁His	-1859
▁Lev	-1860
▁Men	-1861
▁Viv	-1862
▁ang	-1863
▁ans	-1864
▁bli	-1865
▁col	-1866
▁did	-1867
▁ext	-1868
▁gif	-1869
▁hum	-1870
▁hör	-1871
▁ins	-1872
▁led	-1873
▁lär	-1874
▁mär	-1875
▁möj	-1876
▁old	-1877
▁sec	-1878
▁sky	-1879
▁sou	-1880
▁spe	-1881
▁syn	-1882
▁tar	-1883
▁typ	-1884
▁väg	-1885
:11-1	-1886
aking	-1887
earch	-1888
elsen	-1889
elser	-1890
ement	-1891
iving	-1892
owing	-1893
press	-1894
stand	-1895
ställ	-1896
uring	-1897
▁2003	-1898
▁Dest	-1899
▁Guds	-1900
▁Soma	-1901
▁both	-1902
▁disc	-1903
▁find	-1904
▁food	-1905
▁hist	-1906
▁home	-1907
▁håll	-1908
▁inde	-1909
▁kall	-1910
▁kund	-1911
▁life	-1912
▁mind	-1913
▁must	-1914
▁need	-1915
▁resa	-1916
▁serv	-1917
▁show	-1918
▁sitt	-1919
▁star	-1920
▁stud	-1921
▁tack	-1922
▁used	-1923
▁ögon	-1924
▁Gouna	-1925
▁Jacob	-1926
▁Sista	-1927
▁bland	-1928
▁bread	-1929
▁could	-1930
▁exper	-1931
▁föret	-1932
▁inneh	-1933
▁medic	-1934
▁någon	-1935
▁popul	-1936
▁revid	-1937
▁super	-1938
▁total	-1939
▁trips	-1940
▁Script	-1941
▁better	-1942
▁differ	-1943
▁hotels	-1944
▁jorden	-1945
▁market	-1946
▁spirit	-1947
▁vänner	-1948
▁another	-1949
▁antalet	-1950
▁friends	-1951
▁support	-1952
▁väldigt	-1953
▁använder	-1954
▁eftersom	-1955
▁powerful	-1956
▁kraftfull	-1957
▁människor	-1958
▁reviderad	-1959
▁tradition	-1960
.3	-1961
:6	-1962
:9	-1963
CH	-1964
If	-1965
It	-1966
LE	-1967
LO	-1968
TS	-1969
cy	-1970
ix	-1971
kv	-1972
uv	-1973
äs	-1974
ål	-1975
öm	-1976
▁$	-1977
▁&	-1978
▁^	-1979
▁«	-1980
▁Ö	-1981
Akb	-1982
All	-1983
ELI	-1984
IDI	-1985
Jon	-1986
TOO	-1987
You	-1988
ahw	-1989
alk	-1990
anu	-1991
ari	-1992
ava	-1993
for	-1994
ilt	-1995
ird	-1996
kar	-1997
msl	-1998
not	-1999
pan	-2000
rag	-2001
rev	-2002
rum	-2003
ska	-2004
trä	-2005
ues	-2006
unn	-2007
vir	-2008
ädd	-2009
▁"3	-2010
▁1,	-2011
▁75	-2012
▁Gu	-2013
▁Im	-2014
▁Mp	-2015
▁OF	-2016
▁ig	-2017
▁wr	-2018
▁ye	-2019
▁äl	-2020
-10)	-2021
:11)	-2022
acro	-2023
ades	-2024
akob	-2025
alif	-2026
atic	-2027
band	-2028
cess	-2029
cken	-2030
cond	-2031
djur	-2032
ellt	-2033
ests	-2034
etta	-2035
fatt	-2036
färd	-2037
iken	-2038
ites	-2039
orde	-2040
part	-2041
pril	-2042
sten	-2043
ween	-2044
▁197	-2045
▁Bra	-2046
▁Com	-2047
▁Ger	-2048
▁Hel	-2049
▁Int	-2050
▁Jos	-2051
▁USB	-2052
▁ask	-2053
▁ass	-2054
▁ben	-2055
▁big	-2056
▁cam	-2057
▁esp	-2058
▁fut	-2059
▁hon	-2060
▁hus	-2061
▁inc	-2062
▁kär	-2063
▁mar	-2064
▁mov	-2065
▁mål	-2066
▁ner	-2067
▁rem	-2068
▁ret	-2069
▁she	-2070
▁sim	-2071
▁sub	-2072
▁tur	-2073
▁vän	-2074
▁änd	-2075
:17-1	-2076
Akbar	-2077
ahweh	-2078
aktiv	-2079
eting	-2080
igare	-2081
ights	-2082
innor	-2083
inter	-2084
izard	-2085
ligen	-2086
light	-2087
thers	-2088
thing	-2089
ående	-2090
åller	-2091
▁(114	-2092
▁(140	-2093
▁(145	-2094
▁(146	-2095
▁(148	-2096
▁(155	-2097
▁2002	-2098
▁2011	-2099
▁Amer	-2100
▁Divx	-2101
▁Java	-2102
▁Land	-2103
▁MIDI	-2104
▁Sims	-2105
▁Swed	-2106
▁Trip	-2107
▁What	-2108
▁With	-2109
▁dröm	-2110
▁file	-2111
▁fråg	-2112
▁gett	-2113
▁gick	-2114
▁look	-2115
▁läng	-2116
▁mest	-2117
▁oper	-2118
▁poss	-2119
▁rece	-2120
▁rikt	-2121
▁risk	-2122
▁sent	-2123
▁stra	-2124
▁svar	-2125
▁tips	-2126
▁tool	-2127
▁true	-2128
▁trän	-2129
▁vari	-2130
dukter	-2131
format	-2132
lights	-2133
msläck	-2134
otogra	-2135
ykning	-2136
▁Fader	-2137
▁Jakob	-2138
▁Krist	-2139
▁Titan	-2140
▁beast	-2141
▁creat	-2142
▁dream	-2143
▁earth	-2144
▁gifts	-2145
▁hotel	-2146
▁house	-2147
▁konst	-2148
▁relig	-2149
▁sound	-2150
▁those	-2151
▁three	-2152
▁tillf	-2153
▁varit	-2154
▁worth	-2155
aughter	-2156
▁German	-2157
▁Spirit	-2158
▁Yahweh	-2159
▁access	-2160
▁blivit	-2161
▁enkelt	-2162
▁future	-2163
▁himmel	-2164
▁period	-2165
▁samman	-2166
▁silver	-2167
▁summer	-2168
▁vilken	-2169
cription	-2170
ningarna	-2171
▁intress	-2172
▁players	-2173
▁product	-2174
▁without	-2175
msläckare	-2176
▁resultat	-2177
▁different	-2178
▁Kommission	-2179
4,	-2180
4.	-2181
AV	-2182
An	-2183
DV	-2184
ED	-2185
NG	-2186
Ne	-2187
Su	-2188
Vi	-2189
af	-2190
by	-2191
xf	-2192
yn	-2193
åd	-2194
ön	-2195
▁?	-2196
.""	-2197
DVD	-2198
Jes	-2199
aba	-2200
cle	-2201
cul	-2202
ena	-2203
etr	-2204
ffa	-2205
gan	-2206
går	-2207
hör	-2208
irt	-2209
ism	-2210
lad	-2211
mon	-2212
män	-2213
mär	-2214
onn	-2215
ont	-2216
oon	-2217
pot	-2218
put	-2219
rab	-2220
tet	-2221
uck	-2222
upp	-2223
urb	-2224
uss	-2225
way	-2226
åde	-2227
▁"6	-2228
▁"7	-2229
▁23	-2230
▁28	-2231
▁An	-2232
▁Kj	-2233
▁Kv	-2234
▁Te	-2235
▁Up	-2236
▁ac	-2237
▁fy	-2238
▁hö	-2239
▁kr	-2240
▁ov	-2241
▁py	-2242
▁ur	-2243
▁Är	-2244
▁ås	-2245
▁ök	-2246
▁ön	-2247
...)	-2248
Acts	-2249
High	-2250
OKEN	-2251
alog	-2252
amma	-2253
anks	-2254
ants	-2255
ativ	-2256
bers	-2257
cept	-2258
ctor	-2259
eace	-2260
edik	-2261
fect	-2262
fore	-2263
hets	-2264
ican	-2265
ills	-2266
iner	-2267
ises	-2268
itiz	-2269
ners	-2270
ohim	-2271
olen	-2272
olog	-2273
ours	-2274
over	-2275
pres	-2276
ptim	-2277
ried	-2278
utom	-2279
verk	-2280
vern	-2281
ways	-2282
work	-2283
▁"12	-2284
▁500	-2285
▁Ass	-2286
▁Bet	-2287
▁Eng	-2288
▁ISO	-2289
▁MPG	-2290
▁Net	-2291
▁Pre	-2292
▁Res	-2293
▁Sec	-2294
▁Sin	-2295
▁Tem	-2296
▁Vad	-2297
▁You	-2298
▁abs	-2299
▁add	-2300
▁adv	-2301
▁aff	-2302
▁age	-2303
▁ant	-2304
▁bak	-2305
▁bit	-2306
▁cir	-2307
▁cle	-2308
▁cor	-2309
▁def	-2310
▁dom	-2311
▁dvd	-2312
▁exc	-2313
▁few	-2314
▁häd	-2315
▁jäm	-2316
▁let	-2317
▁log	-2318
▁mag	-2319
▁maj	-2320
▁pra	-2321
▁san	-2322
▁sid	-2323
▁sle	-2324
▁såd	-2325
▁tow	-2326
Apost	-2327
acker	-2328
andet	-2329
annes	-2330
conom	-2331
eding	-2332
ektiv	-2333
ented	-2334
illed	-2335
ining	-2336
inner	-2337
iscip	-2338
ished	-2339
ising	-2340
ittle	-2341
orful	-2342
ungen	-2343
verse	-2344
ädgår	-2345
ånger	-2346
▁....	-2347
▁2000	-2348
▁Call	-2349
▁Dire	-2350
▁Free	-2351
▁Ital	-2352
▁Jesu	-2353
▁Just	-2354
▁Tysk	-2355
▁Wind	-2356
▁anal	-2357
▁auth	-2358
▁blir	-2359
▁body	-2360
▁book	-2361
▁både	-2362
▁driv	-2363
▁each	-2364
▁exem	-2365
▁folk	-2366
▁förm	-2367
▁game	-2368
▁gång	-2369
▁hath	-2370
▁incl	-2371
▁kind	-2372
▁kort	-2373
▁mast	-2374
▁neck	-2375
▁opin	-2376
▁skad	-2377
▁team	-2378
▁tell	-2379
▁test	-2380
▁vikt	-2381
▁värt	-2382
aching	-2383
apital	-2384
atalog	-2385
bilder	-2386
djuret	-2387
enting	-2388
ildren	-2389
ommend	-2390
ording	-2391
ringar	-2392
▁Cairo	-2393
▁ImTOO	-2394
▁Kairo	-2395
▁ceram	-2396
▁datab	-2397
▁espec	-2398
▁fader	-2399
▁forum	-2400
▁genet	-2401
▁havet	-2402
▁incre	-2403
▁ingen	-2404
▁light	-2405
▁order	-2406
▁organ	-2407
▁plats	-2408
▁poker	-2409
▁posit	-2410
▁prote	-2411
▁since	-2412
▁skriv	-2413
itizens	-2414
ohannes	-2415
ovation	-2416
ruction	-2417
▁Daniel	-2418
▁backup	-2419
▁during	-2420
▁effect	-2421
▁endast	-2422
▁friend	-2423
▁health	-2424
▁himlen	-2425
▁opened	-2426
▁others	-2427
▁profet	-2428
▁repres	-2429
▁second	-2430
▁suffer	-2431
Apostlag	-2432
▁Abraham	-2433
▁Germany	-2434
▁Herrens	-2435
▁Israels	-2436
▁complet	-2437
▁million	-2438
▁minuter	-2439
▁minutes	-2440
▁perfect	-2441
▁verktyg	-2442
▁website	-2443
▁whether	-2444
▁European	-2445
▁Tyskland	-2446
▁according	-2447
▁framtiden	-2448
▁understand	-2449
▁programvara	-2450
▁skärmsläckare	-2451
$$	-2452
,1	-2453
.2	-2454
12	-2455
68	-2456
75	-2457
90	-2458
?)	-2459
Ba	-2460
DT	-2461
EC	-2462
JO	-2463
MV	-2464
NE	-2465
Om	-2466
St	-2467
TH	-2468
fy	-2469
hy	-2470
ju	-2471
kn	-2472
kr	-2473
sp	-2474
wh	-2475
yl	-2476
ym	-2477
{"	-2478
äv	-2479
▁x	-2480
▁»	-2481
-2)	-2482
-3)	-2483
-7)	-2484
.”(	-2485
2-2	-2486
3-1	-2487
4-2	-2488
4-3	-2489
:1)	-2490
:38	-2491
:7)	-2492
ATT	-2493
Lid	-2494
REN	-2495
TML	-2496
adi	-2497
aff	-2498
agn	-2499
ait	-2500
anb	-2501
asc	-2502
asp	-2503
beh	-2504
cum	-2505
day	-2506
eep	-2507
eln	-2508
ggl	-2509
gif	-2510
iam	-2511
ids	-2512
itz	-2513
ivt	-2514
jut	-2515
lut	-2516
ner	-2517
oad	-2518
och	-2519
pis	-2520
roy	-2521
sal	-2522
str	-2523
uba	-2524
ves	-2525
vär	-2526
wth	-2527
xor	-2528
},"	-2529
ånd	-2530
▁"5	-2531
▁45	-2532
▁BE	-2533
▁Du	-2534
▁EN	-2535
▁FU	-2536
▁Fl	-2537
▁Go	-2538
▁Om	-2539
▁Or	-2540
▁Pr	-2541
▁Qu	-2542
▁Se	-2543
▁So	-2544
▁Su	-2545
▁Vi	-2546
▁di	-2547
▁dö	-2548
▁ey	-2549
▁mö	-2550
":{"	-2551
:10)	-2552
:15)	-2553
:17)	-2554
:20)	-2555
:24)	-2556
:28)	-2557
:31)	-2558
Lidz	-2559
Mast	-2560
This	-2561
ager	-2562
agit	-2563
ange	-2564
aper	-2565
arta	-2566
atta	-2567
cell	-2568
enge	-2569
fort	-2570
föra	-2571
icka	-2572
iews	-2573
iker	-2574
ined	-2575
ique	-2576
itta	-2577
jekt	-2578
just	-2579
kter	-2580
lägg	-2581
meer	-2582
onda	-2583
orer	-2584
outh	-2585
sför	-2586
udio	-2587
umma	-2588
unkt	-2589
ural	-2590
ured	-2591
uvud	-2592
visa	-2593
växt	-2594
wood	-2595
öder	-2596
▁"15	-2597
▁(95	-2598
▁.."	-2599
▁1,7	-2600
▁100	-2601
▁4:1	-2602
▁9:2	-2603
▁AND	-2604
▁Ang	-2605
▁BEG	-2606
▁Cro	-2607
▁Deb	-2608
▁Han	-2609
▁How	-2610
▁Mar	-2611
▁New	-2612
▁Out	-2613
▁Oxf	-2614
▁Pol	-2615
▁Ref	-2616
▁Son	-2617
▁Spl	-2618
▁bea	-2619
▁bed	-2620
▁bok	-2621
▁cru	-2622
▁dec	-2623
▁dis	-2624
▁dup	-2625
▁fig	-2626
▁gul	-2627
▁ill	-2628
▁inv	-2629
▁kar	-2630
▁kry	-2631
▁kun	-2632
▁leg	-2633
▁läm	-2634
▁map	-2635
▁mor	-2636
▁män	-2637
▁ors	-2638
▁pot	-2639
▁rid	-2640
▁rob	-2641
▁sun	-2642
▁tak	-2643
▁tek	-2644
▁thy	-2645
▁try	-2646
▁äng	-2647
2-23)	-2648
3-14)	-2649
4-35)	-2650
Ester	-2651
Josua	-2652
ables	-2653
andox	-2654
anner	-2655
anska	-2656
arbet	-2657
asket	-2658
assad	-2659
ength	-2660
ennes	-2661
enska	-2662
heten	-2663
ially	-2664
icial	-2665
ingar	-2666
kvens	-2667
ledge	-2668
ments	-2669
oende	-2670
ought	-2671
ption	-2672
reate	-2673
rough	-2674
vised	-2675
▁(1.0	-2676
▁(124	-2677
▁(128	-2678
▁(129	-2679
▁(130	-2680
▁(133	-2681
▁(134	-2682
▁(137	-2683
▁(144	-2684
▁(149	-2685
▁(158	-2686
▁(160	-2687
▁(161	-2688
▁14:1	-2689
▁17:2	-2690
▁2007	-2691
▁Dess	-2692
▁Expl	-2693
▁Fort	-2694
▁Gran	-2695
▁Janu	-2696
▁Jose	-2697
▁Khan	-2698
▁Lind	-2699
▁More	-2700
▁Mour	-2701
▁Mult	-2702
▁Qual	-2703
▁area	-2704
▁behö	-2705
▁came	-2706
▁caus	-2707
▁dest	-2708
▁dina	-2709
▁dire	-2710
▁eder	-2711
▁eget	-2712
▁fact	-2713
▁fasc	-2714
▁feel	-2715
▁fort	-2716
▁gavs	-2717
▁gått	-2718
▁hitt	-2719
▁hope	-2720
▁hopp	-2721
▁hung	-2722
▁igen	-2723
▁inom	-2724
▁lagt	-2725
▁lead	-2726
▁list	-2727
▁lång	-2728
▁mean	-2729
▁mina	-2730
▁minn	-2731
▁nice	-2732
▁nytt	-2733
▁pict	-2734
▁pris	-2735
▁prom	-2736
▁read	-2737
▁rele	-2738
▁resp	-2739
▁same	-2740
▁samt	-2741
▁sequ	-2742
▁sett	-2743
▁sjuk	-2744
▁sour	-2745
▁sure	-2746
▁symb	-2747
▁sänd	-2748
▁text	-2749
▁thou	-2750
▁uppt	-2751
▁vatt	-2752
▁veck	-2753
▁week	-2754
▁året	-2755
DToday	-2756
Daniel	-2757
Joshua	-2758
Mastan	-2759
elcome	-2760
erbjud	-2761
ething	-2762
gether	-2763
gglada	-2764
gifter	-2765
iation	-2766
isning	-2767
tering	-2768
untman	-2769
▁"2012	-2770
▁75...	-2771
▁Ameer	-2772
▁Detta	-2773
▁Honda	-2774
▁Kjell	-2775
▁Luxor	-2776
▁among	-2777
▁annan	-2778
▁blasp	-2779
▁build	-2780
▁dessa	-2781
▁doesn	-2782
▁drink	-2783
▁enter	-2784
▁exist	-2785
▁filer	-2786
▁found	-2787
▁försö	-2788
▁glory	-2789
▁impro	-2790
▁index	-2791
▁kropp	-2792
▁kunde	-2793
▁lever	-2794
▁liten	-2795
▁mouth	-2796
▁månad	-2797
▁parad	-2798
▁peace	-2799
▁point	-2800
▁pyram	-2801
▁quest	-2802
▁right	-2803
▁samma	-2804
▁skydd	-2805
▁small	-2806
▁stjär	-2807
▁stort	-2808
▁taken	-2809
▁tänka	-2810
▁uppen	-2811
▁value	-2812
▁visar	-2813
▁välja	-2814
:11-12)	-2815
:34-35)	-2816
alsband	-2817
ationen	-2818
ationer	-2819
iameter	-2820
ication	-2821
portant	-2822
rapport	-2823
sammans	-2824
▁Debian	-2825
▁Elohim	-2826
▁Hotels	-2827
▁Israel	-2828
▁Makadi	-2829
▁Oxford	-2830
▁Pandox	-2831
▁People	-2832
▁Qigong	-2833
▁Wizard	-2834
▁always	-2835
▁author	-2836
▁berätt	-2837
▁budget	-2838
▁called	-2839
▁choose	-2840
▁cypsum	-2841
▁detail	-2842
▁diving	-2843
▁dotter	-2844
▁format	-2845
▁förlor	-2846
▁growth	-2847
▁having	-2848
▁intern	-2849
▁offici	-2850
▁partic	-2851
▁produc	-2852
▁screen	-2853
▁snabbt	-2854
▁tycker	-2855
▁varand	-2856
▁wonder	-2857
handling	-2858
ligheten	-2859
pression	-2860
▁Fortune	-2861
▁Quality	-2862
▁Scripts	-2863
▁Windows	-2864
▁attract	-2865
▁believe	-2866
▁between	-2867
▁certain	-2868
▁digital	-2869
▁dykning	-2870
▁holiday	-2871
▁medborg	-2872
▁revised	-2873
▁spelare	-2874
▁towards	-2875
▁öppnade	-2876
inclusive	-2877
scription	-2878
▁American	-2879
▁ceramics	-2880
▁colorful	-2881
▁continue	-2882
▁effektiv	-2883
▁institut	-2884
▁miljoner	-2885
▁necklace	-2886
▁opinions	-2887
▁research	-2888
▁security	-2889
▁tillväxt	-2890
▁together	-2891
▁övergång	-2892
Apostlagär	-2893
▁Kjellberg	-2894
▁Preaching	-2895
▁beautiful	-2896
▁continued	-2897
▁fantastic	-2898
▁färgglada	-2899
▁important	-2900
▁marknaden	-2901
▁ornaments	-2902
erbjudanden	-2903
▁everything	-2904
▁innovation	-2905
▁transition	-2906
▁tillsammans	-2907
.)	-2908
.’	-2909
0,	-2910
24	-2911
3,	-2912
3-	-2913
31	-2914
98	-2915
99	-2916
AC	-2917
IG	-2918
OU	-2919
OW	-2920
PP	-2921
PR	-2922
Se	-2923
TR	-2924
ij	-2925
su	-2926
sv	-2927
uf	-2928
uy	-2929
uz	-2930
ze	-2931
”,	-2932
▁Å	-2933
.1,	-2934
:5)	-2935
ANG	-2936
DIS	-2937
HAN	-2938
Men	-2939
OSE	-2940
OST	-2941
Off	-2942
UNG	-2943
aby	-2944
ago	-2945
arr	-2946
arv	-2947
ask	-2948
aul	-2949
awa	-2950
bed	-2951
bör	-2952
chn	-2953
ead	-2954
eat	-2955
eby	-2956
enx	-2957
eph	-2958
esk	-2959
fly	-2960
fol	-2961
gro	-2962
ias	-2963
iat	-2964
iec	-2965
iff	-2966
ila	-2967
iot	-2968
ipp	-2969
irl	-2970
irm	-2971
its	-2972
joy	-2973
juk	-2974
kta	-2975
ldr	-2976
lit	-2977
mot	-2978
mån	-2979
ney	-2980
när	-2981
ogg	-2982
ond	-2983
oot	-2984
ote	-2985
rik	-2986
rän	-2987
rån	-2988
san	-2989
sel	-2990
umm	-2991
usl	-2992
ydr	-2993
ytt	-2994
ått	-2995
öra	-2996
▁!-	-2997
▁!1	-2998
▁25	-2999
▁30	-3000
▁40	-3001
▁64	-3002
▁AB	-3003
▁AM	-3004
▁As	-3005
▁By	-3006
▁Es	-3007
▁Gr	-3008
▁II	-3009
▁If	-3010
▁Jo	-3011
▁Ma	-3012
▁Nu	-3013
▁OR	-3014
▁PC	-3015
▁VD	-3016
▁dy	-3017
▁ek	-3018
▁ju	-3019
▁nä	-3020
▁sw	-3021
.","	-3022
AGRA	-3023
DISK	-3024
NING	-3025
aget	-3026
akar	-3027
aman	-3028
amer	-3029
amin	-3030
arac	-3031
arch	-3032
aris	-3033
atis	-3034
bets	-3035
bruk	-3036
cise	-3037
edje	-3038
enom	-3039
eper	-3040
ides	-3041
imed	-3042
imin	-3043
inst	-3044
ived	-3045
iven	-3046
komm	-3047
lain	-3048
löst	-3049
nger	-3050
olic	-3051
oney	-3052
orna	-3053
osed	-3054
pare	-3055
ries	-3056
ript	-3057
rott	-3058
sign	-3059
skap	-3060
skat	-3061
sled	-3062
sätt	-3063
ters	-3064
ties	-3065
urch	-3066
weet	-3067
yday	-3068
year	-3069
zawa	-3070
ärsk	-3071
▁Act	-3072
▁Art	-3073
▁Bar	-3074
▁Bel	-3075
▁Car	-3076
▁Exp	-3077
▁Fin	-3078
▁Gör	-3079
▁Ish	-3080
▁Jon	-3081
▁Law	-3082
▁Läs	-3083
▁Now	-3084
▁Off	-3085
▁Reb	-3086
▁Rec	-3087
▁Rel	-3088
▁Ser	-3089
▁Set	-3090
▁Sun	-3091
▁Tim	-3092
▁Var	-3093
▁Ver	-3094
▁anv	-3095
▁bar	-3096
▁ble	-3097
▁bot	-3098
▁bus	-3099
▁buy	-3100
▁cou	-3101
▁deb	-3102
▁dev	-3103
▁dra	-3104
▁dry	-3105
▁dvs	-3106
▁eld	-3107
▁enc	-3108
▁ent	-3109
▁equ	-3110
▁era	-3111
▁fac	-3112
▁far	-3113
▁fem	-3114
▁fur	-3115
▁hud	-3116
▁inf	-3117
▁kil	-3118
▁law	-3119
▁läg	-3120
▁mun	-3121
▁non	-3122
▁omv	-3123
▁rev	-3124
▁rik	-3125
▁råd	-3126
▁sch	-3127
▁sea	-3128
▁sit	-3129
▁son	-3130
▁tal	-3131
▁vem	-3132
▁via	-3133
▁äro	-3134
▁åka	-3135
anget	-3136
anske	-3137
ative	-3138
centr	-3139
enxin	-3140
erbar	-3141
filer	-3142
house	-3143
ieces	-3144
ified	-3145
illar	-3146
iness	-3147
isdom	-3148
komst	-3149
medel	-3150
onnem	-3151
ously	-3152
rolog	-3153
tains	-3154
ublic	-3155
undle	-3156
useum	-3157
viron	-3158
words	-3159
ältet	-3160
ätter	-3161
▁"200	-3162
▁"},"	-3163
▁Ande	-3164
▁Down	-3165
▁Fara	-3166
▁From	-3167
▁Mark	-3168
▁Rich	-3169
▁Taba	-3170
▁Wall	-3171
▁When	-3172
▁able	-3173
▁anim	-3174
▁appl	-3175
▁besk	-3176
▁bord	-3177
▁bruk	-3178
▁bröd	-3179
▁cent	-3180
▁ditt	-3181
▁egen	-3182
▁emot	-3183
▁enda	-3184
▁exam	-3185
▁eyes	-3186
▁face	-3187
▁fatt	-3188
▁feat	-3189
▁fine	-3190
▁fler	-3191
▁goda	-3192
▁guld	-3193
▁hour	-3194
▁jobb	-3195
▁jätt	-3196
▁king	-3197
▁kons	-3198
▁käns	-3199
▁kött	-3200
▁less	-3201
▁live	-3202
▁ljud	-3203
▁mapp	-3204
▁meet	-3205
▁miss	-3206
▁ofta	-3207
▁otro	-3208
▁priv	-3209
▁rain	-3210
▁rens	-3211
▁rich	-3212
▁safe	-3213
▁salv	-3214
▁sins	-3215
▁skin	-3216
▁smak	-3217
▁stop	-3218
▁stöd	-3219
▁säga	-3220
▁taga	-3221
▁tank	-3222
▁took	-3223
▁tror	-3224
▁turn	-3225
▁utom	-3226
▁vard	-3227
▁veta	-3228
▁vild	-3229
▁wind	-3230
▁wood	-3231
ategor	-3232
coming	-3233
edikar	-3234
gering	-3235
ically	-3236
iction	-3237
ligare	-3238
ostnad	-3239
samhet	-3240
senord	-3241
▁Dessa	-3242
▁House	-3243
▁Längd	-3244
▁Mount	-3245
▁Peter	-3246
▁Sinai	-3247
▁Under	-3248
▁Video	-3249
▁Vivid	-3250
▁above	-3251
▁added	-3252
▁aktiv	-3253
▁along	-3254
▁attra	-3255
▁blogg	-3256
▁chang	-3257
▁chief	-3258
▁dator	-3259
▁flytt	-3260
▁förut	-3261
▁gjort	-3262
▁going	-3263
▁helig	-3264
▁huvud	-3265
▁inför	-3266
▁means	-3267
▁music	-3268
▁mängd	-3269
▁natur	-3270
▁never	-3271
▁pages	-3272
▁perfe	-3273
▁saver	-3274
▁seger	-3275
▁slide	-3276
▁solen	-3277
▁speci	-3278
▁spela	-3279
▁sweet	-3280
▁särsk	-3281
▁techn	-3282
▁thank	-3283
▁third	-3284
▁trygg	-3285
▁undan	-3286
▁uppfy	-3287
▁using	-3288
▁words	-3289
arkness	-3290
ational	-3291
barelse	-3292
cellent	-3293
valitet	-3294
▁Davids	-3295
▁Length	-3296
▁System	-3297
▁Warsaw	-3298
▁active	-3299
▁adjust	-3300
▁amount	-3301
▁arbets	-3302
▁behind	-3303
▁billig	-3304
▁början	-3305
▁charac	-3306
▁concer	-3307
▁create	-3308
▁därför	-3309
▁enligt	-3310
▁erbjud	-3311
▁familj	-3312
▁family	-3313
▁förstå	-3314
▁gjorde	-3315
▁govern	-3316
▁gånger	-3317
▁hoppas	-3318
▁includ	-3319
▁intell	-3320
▁island	-3321
▁kommit	-3322
▁kontro	-3323
▁kursen	-3324
▁kärlek	-3325
▁mindre	-3326
▁namnet	-3327
▁object	-3328
▁pieces	-3329
▁really	-3330
▁return	-3331
▁search	-3332
▁själva	-3333
▁straff	-3334
▁säkert	-3335
▁teknik	-3336
▁tredje	-3337
▁vatten	-3338
▁within	-3339
astighet	-3340
▁Avraham	-3341
▁Shenxin	-3342
▁Swedish	-3343
▁absolut	-3344
▁created	-3345
▁details	-3346
▁environ	-3347
▁exempel	-3348
▁formats	-3349
▁förhåll	-3350
▁healthy	-3351
▁himself	-3352
▁history	-3353
▁install	-3354
▁kvinnor	-3355
▁levande	-3356
▁masturb	-3357
▁möjligt	-3358
▁picture	-3359
▁problem	-3360
▁sekvens	-3361
▁senaste	-3362
▁utveckl	-3363
▁working	-3364
ictionary	-3365
▁Children	-3366
▁Daughter	-3367
▁Security	-3368
▁Warszawa	-3369
▁astrolog	-3370
▁bildspel	-3371
▁computer	-3372
▁everyday	-3373
▁följande	-3374
▁idealisk	-3375
▁possible	-3376
▁predikar	-3377
▁received	-3378
▁rättvisa	-3379
▁sequence	-3380
▁standard	-3381
▁tillfäll	-3382
▁uppenbar	-3383
▁varandra	-3384
▁användare	-3385
▁converter	-3386
▁excellent	-3387
▁following	-3388
▁justerbar	-3389
▁presented	-3390
▁presenter	-3391
▁produkter	-3392
▁something	-3393
▁therefore	-3394
▁underbara	-3395
▁webbplats	-3396
DISKfighter	-3397
ppenbarelse	-3398
▁adjustable	-3399
▁especially	-3400
▁innehåller	-3401
▁interested	-3402
▁kommission	-3403
▁produktion	-3404
▁restaurang	-3405
▁vilddjuret	-3406
▁Destruction	-3407
▁environment	-3408
▁rättigheter	-3409
Markusevangeliet	-3410
%&	-3411
%?	-3412
**	-3413
-!	-3414
-5	-3415
-6	-3416
.,	-3417
.6	-3418
4"	-3419
70	-3420
81	-3421
89	-3422
9%	-3423
9.	-3424
:)	-3425
:.	-3426
;”	-3427
AY	-3428
Aa	-3429
Ar	-3430
BA	-3431
Ck	-3432
DN	-3433
De	-3434
Du	-3435
EO	-3436
EV	-3437
FD	-3438
FO	-3439
GI	-3440
HP	-3441
He	-3442
IA	-3443
IF	-3444
Le	-3445
Mr	-3446
NA	-3447
OM	-3448
PA	-3449
SD	-3450
SP	-3451
ST	-3452
Sk	-3453
TI	-3454
Ti	-3455
UD	-3456
UP	-3457
We	-3458
bl	-3459
co	-3460
ee	-3461
ho	-3462
hé	-3463
iD	-3464
iö	-3465
lu	-3466
mp	-3467
my	-3468
ns	-3469
ws	-3470
zi	-3471
zz	-3472
ÅK	-3473
ÅT	-3474
Ör	-3475
”(	-3476
▁#	-3477
▁=	-3478
▁>	-3479
▁`	-3480
!!*	-3481
%?*	-3482
-4)	-3483
-5)	-3484
.."	-3485
0-1	-3486
1-4	-3487
3).	-3488
3-2	-3489
5-2	-3490
8).	-3491
:14	-3492
:44	-3493
:6)	-3494
ANS	-3495
Aaa	-3496
Abo	-3497
BRE	-3498
Bir	-3499
Can	-3500
DSL	-3501
ENT	-3502
Fil	-3503
Han	-3504
JOY	-3505
LEX	-3506
LOC	-3507
Man	-3508
Maw	-3509
NES	-3510
Num	-3511
ORD	-3512
ORE	-3513
Och	-3514
Pro	-3515
Reg	-3516
Rev	-3517
Sol	-3518
TSC	-3519
Tub	-3520
Upp	-3521
VET	-3522
Vid	-3523
abo	-3524
aho	-3525
aja	-3526
alf	-3527
alo	-3528
amm	-3529
ane	-3530
apt	-3531
ata	-3532
bär	-3533
cas	-3534
cat	-3535
cef	-3536
che	-3537
chw	-3538
ebr	-3539
eli	-3540
ene	-3541
enm	-3542
erg	-3543
exe	-3544
far	-3545
fig	-3546
foo	-3547
fär	-3548
gic	-3549
gud	-3550
hAn	-3551
hus	-3552
iem	-3553
ige	-3554
iom	-3555
irg	-3556
jör	-3557
kte	-3558
lan	-3559
lau	-3560
lla	-3561
mat	-3562
mos	-3563
ogn	-3564
olo	-3565
opy	-3566
oub	-3567
ply	-3568
por	-3569
ray	-3570
ror	-3571
uan	-3572
ugn	-3573
ulf	-3574
ume	-3575
uni	-3576
urg	-3577
utt	-3578
vet	-3579
viD	-3580
vor	-3581
wer	-3582
wns	-3583
xel	-3584
zte	-3585
Änd	-3586
åga	-3587
årt	-3588
öda	-3589
örk	-3590
öst	-3591
▁!#	-3592
▁!'	-3593
▁!*	-3594
▁22	-3595
▁29	-3596
▁57	-3597
▁72	-3598
▁91	-3599
▁BC	-3600
▁Br	-3601
▁Då	-3602
▁Ev	-3603
▁FR	-3604
▁IV	-3605
▁JO	-3606
▁Ny	-3607
▁Tr	-3608
▁Us	-3609
▁Zh	-3610
▁co	-3611
▁cr	-3612
▁dw	-3613
▁eg	-3614
▁gä	-3615
▁je	-3616
▁ly	-3617
▁mi	-3618
▁mp	-3619
▁ör	-3620
▁”1	-3621
.168	-3622
:27)	-3623
:29)	-3624
:35)	-3625
AMIN	-3626
Andy	-3627
BAba	-3628
BaCk	-3629
DSPR	-3630
ERBS	-3631
Fjär	-3632
IANS	-3633
Jona	-3634
José	-3635
Kash	-3636
King	-3637
ORIN	-3638
Read	-3639
TheM	-3640
Tube	-3641
abLe	-3642
abil	-3643
ahid	-3644
aily	-3645
aith	-3646
alon	-3647
anar	-3648
anta	-3649
arus	-3650
atch	-3651
auer	-3652
bart	-3653
ched	-3654
chen	-3655
cing	-3656
driv	-3657
ects	-3658
edom	-3659
egas	-3660
ehud	-3661
ekly	-3662
ense	-3663
eram	-3664
falk	-3665
gash	-3666
iane	-3667
ijah	-3668
ilot	-3669
inem	-3670
inho	-3671
init	-3672
inte	-3673
ints	-3674
ised	-3675
iser	-3676
issa	-3677
istr	-3678
itle	-3679
itor	-3680
ives	-3681
jörn	-3682
klar	-3683
klus	-3684
kten	-3685
känd	-3686
leas	-3687
live	-3688
mael	-3689
oden	-3690
okal	-3691
områ	-3692
onet	-3693
ongs	-3694
only	-3695
onst	-3696
ooks	-3697
oret	-3698
oser	-3699
osta	-3700
oven	-3701
owed	-3702
prop	-3703
rade	-3704
redi	-3705
rift	-3706
rodu	-3707
rupt	-3708
ryst	-3709
råkr	-3710
serv	-3711
tera	-3712
tjän	-3713
umul	-3714
ustr	-3715
uten	-3716
utit	-3717
värd	-3718
xter	-3719
yget	-3720
ÅKSB	-3721
älla	-3722
▁!!*	-3723
▁!1_	-3724
▁"..	-3725
▁"10	-3726
▁"16	-3727
▁"17	-3728
▁(99	-3729
▁***	-3730
▁193	-3731
▁2:2	-3732
▁6:2	-3733
▁8:5	-3734
▁AMD	-3735
▁ASF	-3736
▁Aus	-3737
▁Avi	-3738
▁Bab	-3739
▁Bad	-3740
▁Big	-3741
▁Bur	-3742
▁CEO	-3743
▁CGI	-3744
▁Can	-3745
▁DEN	-3746
▁DUP	-3747
▁Del	-3748
▁Ett	-3749
▁Him	-3750
▁Hit	-3751
▁Ind	-3752
▁Jul	-3753
▁KAM	-3754
▁Kor	-3755
▁Lab	-3756
▁Las	-3757
▁Lut	-3758
▁MSD	-3759
▁Mac	-3760
▁Mag	-3761
▁Mid	-3762
▁Moz	-3763
▁Mpg	-3764
▁Nor	-3765
▁One	-3766
▁PHP	-3767
▁Poz	-3768
▁QFD	-3769
▁Ret	-3770
▁Sch	-3771
▁Sim	-3772
▁Spa	-3773
▁Str	-3774
▁Swe	-3775
▁Tri	-3776
▁Tur	-3777
▁UFO	-3778
▁WAV	-3779
▁WMV	-3780
▁Who	-3781
▁Wik	-3782
▁YOU	-3783
▁^%&	-3784
▁air	-3785
▁ald	-3786
▁alm	-3787
▁anc	-3788
▁arr	-3789
▁asp	-3790
▁avo	-3791
▁bad	-3792
▁bid	-3793
▁bol	-3794
▁bor	-3795
▁båt	-3796
▁cup	-3797
▁dör	-3798
▁eat	-3799
▁exe	-3800
▁fel	-3801
▁fru	-3802
▁fÖr	-3803
▁gav	-3804
▁gem	-3805
▁got	-3806
▁gud	-3807
▁kat	-3808
▁key	-3809
▁kor	-3810
▁lab	-3811
▁lar	-3812
▁lej	-3813
▁lig	-3814
▁läk	-3815
▁mak	-3816
▁mej	-3817
▁mid	-3818
▁mob	-3819
▁mom	-3820
▁nor	-3821
▁orm	-3822
▁rör	-3823
▁saf	-3824
▁sag	-3825
▁sel	-3826
▁sju	-3827
▁sty	-3828
▁sök	-3829
▁ten	-3830
▁tit	-3831
▁tog	-3832
▁too	-3833
▁tou	-3834
▁ung	-3835
▁utt	-3836
▁vit	-3837
▁war	-3838
▁why	-3839
4-25)	-3840
:25-2	-3841
:41-4	-3842
:6-7)	-3843
;”%?*	-3844
AaaTi	-3845
ELIET	-3846
ERBRE	-3847
ERREN	-3848
EVANG	-3849
Jonah	-3850
Nehem	-3851
Revel	-3852
Solar	-3853
alley	-3854
amera	-3855
asing	-3856
athon	-3857
awirt	-3858
blems	-3859
blick	-3860
board	-3861
delar	-3862
ebyrå	-3863
ellow	-3864
eslag	-3865
ethod	-3866
gress	-3867
icago	-3868
idden	-3869
ikter	-3870
issen	-3871
itted	-3872
itten	-3873
itude	-3874
kenau	-3875
motiv	-3876
märkt	-3877
organ	-3878
orter	-3879
osmet	-3880
pisod	-3881
quire	-3882
remål	-3883
ribut	-3884
romeb	-3885
smile	-3886
ström	-3887
ständ	-3888
ultat	-3889
ument	-3890
useir	-3891
ustav	-3892
veral	-3893
yrkan	-3894
äcker	-3895
ägare	-3896
ärför	-3897
ättef	-3898
▁"12-	-3899
▁(106	-3900
▁(107	-3901
▁(111	-3902
▁(121	-3903
▁(122	-3904
▁(123	-3905
▁(125	-3906
▁(126	-3907
▁(135	-3908
▁(141	-3909
▁10:1	-3910
▁22:1	-3911
▁2:38	-3912
▁32:1	-3913
▁ADSL	-3914
▁Aden	-3915
▁Azte	-3916
▁Bach	-3917
▁Cent	-3918
▁Egic	-3919
▁Elia	-3920
▁Eric	-3921
▁Euro	-3922
▁Find	-3923
▁Fire	-3924
▁Game	-3925
▁Gide	-3926
▁HTML	-3927
▁Head	-3928
▁Heal	-3929
▁Lure	-3930
▁Mall	-3931
▁Maor	-3932
▁Mega	-3933
▁Mini	-3934
▁Mitt	-3935
▁Mpeg	-3936
▁Musl	-3937
▁NTSC	-3938
▁News	-3939
▁PROV	-3940
▁Paul	-3941
▁Prop	-3942
▁Read	-3943
▁Tech	-3944
▁That	-3945
▁Tips	-3946
▁Tour	-3947
▁Vers	-3948
▁XviD	-3949
▁Xvid	-3950
▁agre	-3951
▁anti	-3952
▁away	-3953
▁bely	-3954
▁berg	-3955
▁blod	-3956
▁boat	-3957
▁bygg	-3958
▁calm	-3959
▁care	-3960
▁coll	-3961
▁comb	-3962
▁cook	-3963
▁cost	-3964
▁days	-3965
▁dist	-3966
▁djur	-3967
▁dock	-3968
▁doll	-3969
▁eleg	-3970
▁fail	-3971
▁fakt	-3972
▁fire	-3973
▁fred	-3974
▁free	-3975
▁fulf	-3976
▁förk	-3977
▁gamm	-3978
▁girl	-3979
▁goes	-3980
▁gold	-3981
▁gone	-3982
▁gott	-3983
▁graf	-3984
▁half	-3985
▁hard	-3986
▁holy	-3987
▁hund	-3988
▁händ	-3989
▁hänt	-3990
▁inse	-3991
▁jack	-3992
▁jour	-3993
▁keep	-3994
▁khAn	-3995
▁kill	-3996
▁köpa	-3997
▁leva	-3998
▁lite	-3999
▁livs	-4000
▁luck	-4001
▁lärj	-4002
▁mjuk	-4003
▁mott	-4004
▁mäng	-4005
▁norm	-4006
▁områ	-4007
▁ovan	-4008
▁pain	-4009
▁past	-4010
▁phys	-4011
▁prop	-4012
▁real	-4013
▁redu	-4014
▁runt	-4015
▁rädd	-4016
▁sand	-4017
▁save	-4018
▁seen	-4019
▁self	-4020
▁slår	-4021
▁sold	-4022
▁stat	-4023
▁står	-4024
▁stör	-4025
▁sust	-4026
▁thee	-4027
▁tjän	-4028
▁type	-4029
▁vide	-4030
▁view	-4031
▁warm	-4032
▁went	-4033
▁whom	-4034
▁xVid	-4035
▁Även	-4036
▁åldr	-4037
.168.2	-4038
:9-10)	-4039
Allaho	-4040
Basket	-4041
Fjärde	-4042
Kashif	-4043
Script	-4044
Youcef	-4045
ackert	-4046
ageing	-4047
aktivs	-4048
anblog	-4049
använd	-4050
arskap	-4051
bassad	-4052
cessor	-4053
chwitz	-4054
earing	-4055
ential	-4056
entlig	-4057
gashof	-4058
granar	-4059
ileaks	-4060
imedia	-4061
ources	-4062
riests	-4063
rystal	-4064
stitut	-4065
ulties	-4066
ustral	-4067
utting	-4068
▁"2011	-4069
▁1994.	-4070
▁2014"	-4071
▁72...	-4072
▁Angel	-4073
▁Apart	-4074
▁April	-4075
▁Cross	-4076
▁Dakar	-4077
▁Death	-4078
▁ENJOY	-4079
▁Flash	-4080
▁Herod	-4081
▁Intel	-4082
▁Inter	-4083
▁Macro	-4084
▁Minna	-4085
▁Strip	-4086
▁There	-4087
▁Woman	-4088
▁annat	-4089
▁april	-4090
▁atmos	-4091
▁avail	-4092
▁bakom	-4093
▁beach	-4094
▁begin	-4095
▁being	-4096
▁benef	-4097
▁besök	-4098
▁betyd	-4099
▁blind	-4100
▁blood	-4101
▁bring	-4102
▁cards	-4103
▁cause	-4104
▁chall	-4105
▁child	-4106
▁comes	-4107
▁count	-4108
▁demon	-4109
▁diarr	-4110
▁docum	-4111
▁dwell	-4112
▁dynam	-4113
▁egypt	-4114
▁event	-4115
▁exact	-4116
▁forsk	-4117
▁gamla	-4118
▁gives	-4119
▁graph	-4120
▁gåvor	-4121
▁heard	-4122
▁hjälp	-4123
▁hålla	-4124
▁image	-4125
▁kunna	-4126
▁later	-4127
▁liter	-4128
▁lokal	-4129
▁länge	-4130
▁major	-4131
▁manif	-4132
▁medan	-4133
▁media	-4134
▁metod	-4135
▁migra	-4136
▁miljö	-4137
▁moder	-4138
▁often	-4139
▁optim	-4140
▁paper	-4141
▁polit	-4142
▁punkt	-4143
▁redan	-4144
▁refer	-4145
▁saker	-4146
▁serie	-4147
▁sleep	-4148
▁speed	-4149
▁spend	-4150
▁storm	-4151
▁table	-4152
▁tagit	-4153
▁terms	-4154
▁tours	-4155
▁trees	-4156
▁uppst	-4157
▁users	-4158
▁water	-4159
▁white	-4160
▁works	-4161
▁övert	-4162
:22-23)	-4163
Mawahid	-4164
Numbers	-4165
Session	-4166
Support	-4167
ainable	-4168
andabLe	-4169
atanner	-4170
ensamma	-4171
förande	-4172
ificant	-4173
ktioner	-4174
minuten	-4175
ovember	-4176
problem	-4177
program	-4178
ptember	-4179
▁"(...)	-4180
▁12:31)	-4181
▁2:23-2	-4182
▁5:5-6)	-4183
▁6:7-8)	-4184
▁Allaho	-4185
▁Bundle	-4186
▁DUPLEX	-4187
▁Discip	-4188
▁Elijah	-4189
▁Herren	-4190
▁Hitler	-4191
▁Hotell	-4192
▁Jättef	-4193
▁Kvinna	-4194
▁MSDict	-4195
▁ORDSPR	-4196
▁Online	-4197
▁Poznan	-4198
▁Quseir	-4199
▁Reding	-4200
▁Samson	-4201
▁Scenes	-4202
▁Temple	-4203
▁Thanks	-4204
▁Valley	-4205
▁afford	-4206
▁ageLOC	-4207
▁aldrig	-4208
▁allmän	-4209
▁analys	-4210
▁announ	-4211
▁answer	-4212
▁anyone	-4213
▁became	-4214
▁become	-4215
▁består	-4216
▁bröder	-4217
▁cannot	-4218
▁causes	-4219
▁couple	-4220
▁econom	-4221
▁ekonom	-4222
▁episod	-4223
▁extrem	-4224
▁fascin	-4225
▁father	-4226
▁folder	-4227
▁frågar	-4228
▁färger	-4229
▁förlåt	-4230
▁försäk	-4231
▁gender	-4232
▁gypsum	-4233
▁happen	-4234
▁harmon	-4235
▁heliga	-4236
▁helped	-4237
▁hennes	-4238
▁histor	-4239
▁improv	-4240
▁kanske	-4241
▁karate	-4242
▁kvinna	-4243
▁känner	-4244
▁labour	-4245
▁ligger	-4246
▁little	-4247
▁living	-4248
▁länder	-4249
▁metall	-4250
▁method	-4251
▁migrän	-4252
▁months	-4253
▁online	-4254
▁proper	-4255
▁propos	-4256
▁provid	-4257
▁publik	-4258
▁recent	-4259
▁recogn	-4260
▁rensar	-4261
▁robust	-4262
▁scient	-4263
▁signal	-4264
▁simply	-4265
▁skript	-4266
▁slutet	-4267
▁spoken	-4268
▁stress	-4269
▁tänker	-4270
▁useful	-4271
▁viktig	-4272
▁väljer	-4273
▁vänder	-4274
▁wanted	-4275
▁wisdom	-4276
▁älskar	-4277
92.168.2	-4278
Birkenau	-4279
ERBREVET	-4280
ensioner	-4281
ociation	-4282
otograph	-4283
resident	-4284
ÅKSBOKEN	-4285
▁Barbara	-4286
▁Canaria	-4287
▁Chromeb	-4288
▁Concise	-4289
▁January	-4290
▁KAMAGRA	-4291
▁Kristus	-4292
▁Network	-4293
▁Sweeper	-4294
▁Version	-4295
▁Viviane	-4296
▁YouTube	-4297
▁ability	-4298
▁ancient	-4299
▁appears	-4300
▁behöver	-4301
▁beskriv	-4302
▁capital	-4303
▁central	-4304
▁command	-4305
▁contain	-4306
▁content	-4307
▁control	-4308
▁cookies	-4309
▁databas	-4310
▁definit	-4311
▁deliver	-4312
▁example	-4313
▁flights	-4314
▁framför	-4315
▁förbund	-4316
▁företag	-4317
▁hållbar	-4318
▁inaktiv	-4319
▁ingredi	-4320
▁introdu	-4321
▁justice	-4322
▁meaning	-4323
▁månader	-4324
▁paradis	-4325
▁perfekt	-4326
▁popular	-4327
▁practic	-4328
▁pyramid	-4329
▁relativ	-4330
▁release	-4331
▁several	-4332
▁sociala	-4333
▁strateg	-4334
▁svarade	-4335
▁thought	-4336
▁trädgår	-4337
▁välsign	-4338
▁åsikter	-4339
anbloggen	-4340
▁Adenauer	-4341
▁Explorer	-4342
▁Jagawirt	-4343
▁Johannes	-4344
▁Julmotiv	-4345
▁Kungsled	-4346
▁Mourinho	-4347
▁PROVERBS	-4348
▁Splitter	-4349
▁accident	-4350
▁blasphem	-4351
▁building	-4352
▁business	-4353
▁citizens	-4354
▁contains	-4355
▁erbjuder	-4356
▁försöker	-4357
▁himmelen	-4358
▁innehåll	-4359
▁intellig	-4360
▁konstnär	-4361
▁lösenord	-4362
▁marathon	-4363
▁ornament	-4364
▁position	-4365
▁practice	-4366
▁problems	-4367
▁produced	-4368
▁profeten	-4369
▁progress	-4370
▁regering	-4371
▁resebyrå	-4372
▁rättfärd	-4373
▁standing	-4374
▁suffered	-4375
▁säkerhet	-4376
▁särskilt	-4377
▁tidigare	-4378
▁tillgång	-4379
▁yourself	-4380
EVANGELIET	-4381
Revelation	-4382
tterligare	-4383
▁Auschwitz	-4384
▁Wikileaks	-4385
▁available	-4386
▁certainly	-4387
▁character	-4388
▁countries	-4389
▁documents	-4390
▁faculties	-4391
▁fulfilled	-4392
▁förlorade	-4393
▁genetiska	-4394
▁grundlägg	-4395
▁härlighet	-4396
▁including	-4397
▁julgranar	-4398
▁knowledge	-4399
▁offentlig	-4400
▁potential	-4401
▁recommend	-4402
▁resources	-4403
▁salvation	-4404
atannerfalk	-4405
▁Dictionary	-4406
▁ExpandabLe	-4407
▁JavaScript	-4408
▁Landgashof	-4409
▁användbara	-4410
▁användning	-4411
▁gemensamma	-4412
▁government	-4413
▁protection	-4414
▁Chromebooks	-4415
▁development	-4416
▁intresserad	-4417
▁publication	-4418
▁spanbloggen	-4419
▁sustainable	-4420
▁medborgarskap	-4421
▁understanding	-4422
▁ORDSPRÅKSBOKEN	-4423
▁minnatannerfalk	-4424
',	-4425
02	-4426
AP	-4427
BL	-4428
Ez	-4429
GÅ	-4430
IV	-4431
JV	-4432
KE	-4433
OL	-4434
gj	-4435
gl	-4436
jo	-4437
sh	-4438
ät	-4439
én	-4440
.00	-4441
2-1	-4442
200	-4443
6-1	-4444
Att	-4445
DEN	-4446
EST	-4447
Hej	-4448
Hög	-4449
IAL	-4450
ILL	-4451
KJV	-4452
Mus	-4453
NEL	-4454
När	-4455
SEN	-4456
URE	-4457
Vad	-4458
aar	-4459
aft	-4460
ale	-4461
ape	-4462
atz	-4463
bit	-4464
cis	-4465
cka	-4466
cra	-4467
dem	-4468
dra	-4469
fri	-4470
ged	-4471
gel	-4472
gga	-4473
got	-4474
hög	-4475
inc	-4476
itc	-4477
kra	-4478
lik	-4479
liv	-4480
läm	-4481
olk	-4482
omb	-4483
oud	-4484
pic	-4485
pie	-4486
rad	-4487
sid	-4488
sot	-4489
tan	-4490
try	-4491
tta	-4492
tte	-4493
uge	-4494
uly	-4495
vin	-4496
viv	-4497
yri	-4498
zer	-4499
.'	-4500
/2	-4501
5/	-4502
FB	-4503
IL	-4504
Ms	-4505
ax	-4506
fl	-4507
fr	-4508
ih	-4509
jk	-4510
2).	-4511
:00	-4512
Msg	-4513
Sub	-4514
add	-4515
ama	-4516
can	-4517
ety	-4518
fen	-4519
lon	-4520
mes	-4521
mna	-4522
net	-4523
ppt	-4524
syk	-4525
tes	-4526
ärs	-4527
ård	-4528
éer	-4529
▁3.	-4530
▁31	-4531
▁35	-4532
▁48	-4533
▁AV	-4534
▁Am	-4535
▁Be	-4536
▁Dj	-4537
▁Do	-4538
▁Gl	-4539
▁GÅ	-4540
▁Gö	-4541
▁Le	-4542
▁MA	-4543
▁Na	-4544
▁Pl	-4545
▁Qi	-4546
▁RM	-4547
▁SE	-4548
▁SV	-4549
▁Så	-4550
▁Ty	-4551
▁UR	-4552
▁US	-4553
▁aw	-4554
▁bö	-4555
▁fÃ	-4556
▁la	-4557
▁mä	-4558
▁sn	-4559
▁”(	-4560
:13)	-4561
:4).	-4562
:5).	-4563
ARNA	-4564
Allt	-4565
Core	-4566
INGS	-4567
Kund	-4568
Love	-4569
NNEL	-4570
OREX	-4571
THER	-4572
ably	-4573
abon	-4574
agar	-4575
ains	-4576
anen	-4577
ansk	-4578
arah	-4579
ason	-4580
asts	-4581
aver	-4582
aves	-4583
avig	-4584
ball	-4585
boll	-4586
brev	-4587
core	-4588
ctly	-4589
ears	-4590
ebär	-4591
edde	-4592
elle	-4593
ency	-4594
erve	-4595
evil	-4596
face	-4597
fall	-4598
fast	-4599
'.	-4600
)"	-4601
,”	-4602
No	-4603
To	-4604
US	-4605
]:	-4606
mn	-4607
rl	-4608
sf	-4609
va	-4610
ÄR	-4611
▁0	-4612
▁Ã	-4613
,9%	-4614
bud	-4615
des	-4616
ekt	-4617
hol	-4618
lls	-4619
öjd	-4620
▁Em	-4621
▁Je	-4622
▁MÖ	-4623
▁Po	-4624
▁fj	-4625
.’”(	-4626
följ	-4627
fört	-4628
head	-4629
häll	-4630
iant	-4631
icer	-4632
ided	-4633
igin	-4634
ikte	-4635
illa	-4636
imit	-4637
inar	-4638
inns	-4639
iple	-4640
ired	-4641
isst	-4642
ivia	-4643
iösa	-4644
juta	-4645
ktop	-4646
ktär	-4647
ktör	-4648
ladd	-4649
laim	-4650
lapp	-4651
last	-4652
ldig	-4653
load	-4654
lopp	-4655
lund	-4656
mann	-4657
merg	-4658
nitt	-4659
ocal	-4660
ocks	-4661
ocus	-4662
oger	-4663
okus	-4664
oler	-4665
olik	-4666
olon	-4667
onse	-4668
ools	-4669
orld	-4670
orts	-4671
osen	-4672
oshe	-4673
osse	-4674
otos	-4675
oubt	-4676
pend	-4677
pest	-4678
ppar	-4679
pped	-4680
psam	-4681
punk	-4682
reds	-4683
repr	-4684
rest	-4685
rica	-4686
rost	-4687
röst	-4688
skan	-4689
stad	-4690
strå	-4691
tech	-4692
text	-4693
this	-4694
udes	-4695
ueen	-4696
uins	-4697
undt	-4698
upid	-4699
vagn	-4700
ydda	-4701
ygga	-4702
Änds	-4703
ÅTEN	-4704
ämpa	-4705
ömma	-4706
▁"20	-4707
▁13,	-4708
▁4:3	-4709
▁600	-4710
▁ALL	-4711
▁Aff	-4712
▁Air	-4713
▁Ben	-4714
▁Bol	-4715
▁Buy	-4716
▁Dec	-4717
▁Des	-4718
▁Dra	-4719
▁Feb	-4720
▁Fri	-4721
▁Gol	-4722
▁Inv	-4723
▁Isa	-4724
▁Jab	-4725
▁Key	-4726
▁Krö	-4727
▁Let	-4728
▁MED	-4729
▁MOV	-4730
▁Mat	-4731
▁Med	-4732
▁Mil	-4733
▁Mor	-4734
▁NOW	-4735
▁Not	-4736
▁När	-4737
▁Ove	-4738
▁Per	-4739
▁Pet	-4740
▁REC	-4741
▁Rem	-4742
▁SFB	-4743
▁Sea	-4744
▁Sen	-4745
▁Sib	-4746
▁Sor	-4747
▁Syn	-4748
▁Sök	-4749
▁Tra	-4750
▁UPP	-4751
▁Vil	-4752
▁Yes	-4753
▁bal	-4754
▁bre	-4755
▁bär	-4756
▁cas	-4757
▁cur	-4758
▁der	-4759
▁die	-4760
▁dog	-4761
▁dru	-4762
▁eja	-4763
▁eng	-4764
▁ert	-4765
▁est	-4766
▁fal	-4767
▁fle	-4768
▁flo	-4769
▁fot	-4770
▁fra	-4771
▁fys	-4772
▁gre	-4773
▁hed	-4774
▁häl	-4775
▁imp	-4776
▁iss	-4777
▁kal	-4778
▁lay	-4779
▁lät	-4780
▁låt	-4781
▁mem	-4782
▁nos	-4783
▁nöd	-4784
▁occ	-4785
▁ock	-4786
▁omk	-4787
▁ond	-4788
▁ont	-4789
▁oro	-4790
▁pig	-4791
▁put	-4792
▁rad	-4793
▁ram	-4794
▁ref	-4795
▁rip	-4796
▁räk	-4797
▁saw	-4798
▁sex	-4799
▁slä	-4800
▁små	-4801
▁ste	-4802
▁stö	-4803
▁sud	-4804
▁sus	-4805
▁säl	-4806
▁sån	-4807
▁tab	-4808
▁tel	-4809
▁tio	-4810
▁tol	-4811
▁tot	-4812
▁tri	-4813
▁tus	-4814
▁tyd	-4815
▁ute	-4816
▁ved	-4817
▁vin	-4818
▁von	-4819
▁äld	-4820
...."	-4821
BOKEN	-4822
Efter	-4823
Genom	-4824
IALIS	-4825
YNNEL	-4826
aches	-4827
aging	-4828
alene	-4829
allas	-4830
ament	-4831
aming	-4832
anaan	-4833
angle	-4834
apter	-4835
araoh	-4836
arden	-4837
arnas	-4838
arned	-4839
arter	-4840
asons	-4841
assen	-4842
ativa	-4843
ators	-4844
attle	-4845
avtal	-4846
bered	-4847
bland	-4848
bling	-4849
börja	-4850
comes	-4851
domar	-4852
elius	-4853
elska	-4854
endar	-4855
ended	-4856
enser	-4857
entar	-4858
ermin	-4859
ernas	-4860
etrus	-4861
etsel	-4862
ewish	-4863
filen	-4864
folio	-4865
forsk	-4866
groom	-4867
gräns	-4868
hålla	-4869
iches	-4870
icles	-4871
ierna	-4872
ighte	-4873
ignal	-4874
iklar	-4875
inary	-4876
inese	-4877
injer	-4878
ionen	-4879
ismen	-4880
istic	-4881
iting	-4882
ivers	-4883
ivity	-4884
known	-4885
ktion	-4886
ktiva	-4887
maren	-4888
msida	-4889
månad	-4890
nikeb	-4891
nster	-4892
odies	-4893
ologi	-4894
ology	-4895
olska	-4896
olume	-4897
oning	-4898
ordes	-4899
orset	-4900
otten	-4901
parat	-4902
potek	-4903
präst	-4904
rabic	-4905
reens	-4906
risis	-4907
riven	-4908
sport	-4909
stånd	-4910
terat	-4911
thern	-4912
ually	-4913
uella	-4914
under	-4915
unity	-4916
unnit	-4917
urser	-4918
ustom	-4919
ustry	-4920
virta	-4921
wsing	-4922
ylish	-4923
yrics	-4924
ystem	-4925
ärdig	-4926
éerna	-4927
▁"15"	-4928
▁1933	-4929
▁1:3)	-4930
▁2006	-4931
▁5:3)	-4932
▁ANDE	-4933
▁Also	-4934
▁Axel	-4935
▁Best	-4936
▁Blog	-4937
▁Cert	-4938
▁Comm	-4939
▁Cool	-4940
▁Dead	-4941
▁Dual	-4942
▁Fall	-4943
▁Ford	-4944
▁Fore	-4945
▁Från	-4946
▁Holy	-4947
▁Into	-4948
▁Isak	-4949
▁Jord	-4950
▁June	-4951
▁Kenm	-4952
▁LORD	-4953
▁Life	-4954
▁Lion	-4955
▁MATT	-4956
▁Mail	-4957
▁Make	-4958
▁Mary	-4959
▁Mess	-4960
▁Over	-4961
▁Part	-4962
▁Phar	-4963
▁Phil	-4964
▁Ring	-4965
▁Site	-4966
▁Slau	-4967
▁Somm	-4968
▁Sons	-4969
▁TILL	-4970
▁Vice	-4971
▁View	-4972
▁Virg	-4973
▁YOUR	-4974
▁ande	-4975
▁avse	-4976
▁baby	-4977
▁band	-4978
▁blef	-4979
▁boka	-4980
▁born	-4981
▁capt	-4982
▁card	-4983
▁chef	-4984
▁city	-4985
▁clay	-4986
▁conc	-4987
▁cool	-4988
▁copy	-4989
▁crit	-4990
▁date	-4991
▁deal	-4992
▁deck	-4993
▁disk	-4994
▁done	-4995
▁dubb	-4996
▁döda	-4997
▁ears	-4998
▁edra	-4999
▁else	-5000
▁empl	-5001
▁enkl	-5002
▁fart	-5003
▁felt	-5004
▁film	-5005
▁fina	-5006
▁five	-5007
▁flow	-5008
▁fore	-5009
▁fräl	-5010
▁främ	-5011
▁fyll	-5012
▁fyra	-5013
▁föra	-5014
▁förd	-5015
▁före	-5016
▁gave	-5017
▁genu	-5018
▁gods	-5019
▁haft	-5020
▁halv	-5021
▁hear	-5022
▁here	-5023
▁häda	-5024
▁icon	-5025
▁imag	-5026
▁jung	-5027
▁kara	-5028
▁kast	-5029
▁kont	-5030
▁krig	-5031
▁kysk	-5032
▁lets	-5033
▁link	-5034
▁lost	-5035
▁mine	-5036
▁moon	-5037
▁nose	-5038
▁nost	-5039
▁nära	-5040
▁onan	-5041
▁pack	-5042
▁page	-5043
▁papp	-5044
▁peng	-5045
▁perm	-5046
▁pian	-5047
▁pois	-5048
▁post	-5049
▁psal	-5050
▁rema	-5051
▁rest	-5052
▁riem	-5053
▁roll	-5054
▁rygg	-5055
▁sagt	-5056
▁samm	-5057
▁send	-5058
▁ship	-5059
▁sick	-5060
▁situ	-5061
▁skap	-5062
▁soul	-5063
▁språ	-5064
▁stam	-5065
▁sten	-5066
▁stre	-5067
▁styr	-5068
▁synd	-5069
▁sömn	-5070
▁tang	-5071
▁titt	-5072
▁told	-5073
▁tong	-5074
▁trop	-5075
▁undv	-5076
▁uppv	-5077
▁vare	-5078
▁vibr	-5079
▁vind	-5080
▁viol	-5081
▁visa	-5082
▁wait	-5083
▁word	-5084
▁ändå	-5085
▁åker	-5086
▁åren	-5087
▁öron	-5088
HANNES	-5089
INNING	-5090
Jesaja	-5091
Tender	-5092
antage	-5093
arbete	-5094
ashion	-5095
astity	-5096
bordet	-5097
brevet	-5098
closed	-5099
cribed	-5100
ecause	-5101
ection	-5102
elsens	-5103
enskap	-5104
enters	-5105
eramik	-5106
ethren	-5107
ffande	-5108
följen	-5109
isstän	-5110
iterna	-5111
itions	-5112
iverse	-5113
jektet	-5114
lingen	-5115
logout	-5116
ockhol	-5117
olders	-5118
oliday	-5119
område	-5120
ounter	-5121
reathe	-5122
relsen	-5123
råkrat	-5124
stoden	-5125
urance	-5126
▁(...)	-5127
▁...",	-5128
▁...."	-5129
▁16:3)	-5130
▁2005,	-5131
▁After	-5132
▁Apost	-5133
▁Audio	-5134
▁Award	-5135
▁Bless	-5136
▁Chron	-5137
▁Dumma	-5138
▁FOREX	-5139
▁Finns	-5140
▁Green	-5141
▁Guide	-5142
▁Herre	-5143
▁Josef	-5144
▁Josua	-5145
▁Light	-5146
▁LÅTEN	-5147
▁Makro	-5148
▁Maria	-5149
▁Marri	-5150
▁Queen	-5151
▁Right	-5152
▁Santa	-5153
▁Sedan	-5154
▁Stunt	-5155
▁Super	-5156
▁Users	-5157
▁Water	-5158
▁Women	-5159
▁World	-5160
▁admin	-5161
▁allts	-5162
▁analy	-5163
▁avoid	-5164
▁based	-5165
▁basic	-5166
▁befri	-5167
▁belie	-5168
▁below	-5169
▁björn	-5170
▁black	-5171
▁botar	-5172
▁bride	-5173
▁brott	-5174
▁brudg	-5175
▁built	-5176
▁börja	-5177
▁calam	-5178
▁clear	-5179
▁cloth	-5180
▁const	-5181
▁cough	-5182
▁coven	-5183
▁deals	-5184
▁death	-5185
▁delen	-5186
▁elect	-5187
▁emerg	-5188
▁enjoy	-5189
▁exakt	-5190
▁extra	-5191
▁faith	-5192
▁fight	-5193
▁finna	-5194
▁flygb	-5195
▁force	-5196
▁fråga	-5197
▁fågel	-5198
▁följt	-5199
▁föres	-5200
▁haver	-5201
▁helps	-5202
▁herre	-5203
▁hitta	-5204
▁human	-5205
▁humor	-5206
▁immed	-5207
▁indic	-5208
▁input	-5209
▁kilom	-5210
▁kines	-5211
▁kryss	-5212
▁lager	-5213
▁least	-5214
▁limit	-5215
▁lines	-5216
▁lives	-5217
▁läser	-5218
▁makro	-5219
▁medel	-5220
▁meter	-5221
▁minst	-5222
▁money	-5223
▁moral	-5224
▁moved	-5225
▁movie	-5226
▁märke	-5227
▁målet	-5228
▁navig	-5229
▁nedan	-5230
▁negot	-5231
▁polic	-5232
▁prakt	-5233
▁quite	-5234
▁regna	-5235
▁repar	-5236
▁repro	-5237
▁revel	-5238
▁rundt	-5239
▁sanna	-5240
▁sense	-5241
▁sidor	-5242
▁skapa	-5243
▁skick	-5244
▁skift	-5245
▁skola	-5246
▁solid	-5247
▁state	-5248
▁store	-5249
▁stunt	-5250
▁svart	-5251
▁svårt	-5252
▁sätta	-5253
▁sådan	-5254
▁taste	-5255
▁teach	-5256
▁thing	-5257
▁tiden	-5258
▁toler	-5259
▁towns	-5260
▁trail	-5261
▁truly	-5262
▁truth	-5263
▁until	-5264
▁utfly	-5265
▁utman	-5266
▁uttry	-5267
▁utval	-5268
▁utvid	-5269
▁ville	-5270
▁visas	-5271
▁vissa	-5272
▁vägen	-5273
▁värde	-5274
▁webbh	-5275
▁weeks	-5276
▁whole	-5277
▁woman	-5278
▁young	-5279
▁ängel	-5280
▁öknen	-5281
▁öppna	-5282
▁överv	-5283
:17-18)	-5284
Catalog	-5285
ability	-5286
alified	-5287
aliforn	-5288
farande	-5289
ificate	-5290
ination	-5291
isation	-5292
istered	-5293
ization	-5294
keramer	-5295
klusive	-5296
lappnad	-5297
lösning	-5298
ocation	-5299
otograf	-5300
ounding	-5301
punkter	-5302
reaking	-5303
reaming	-5304
rection	-5305
rologer	-5306
spelare	-5307
ursions	-5308
ännande	-5309
▁Babels	-5310
▁CIALIS	-5311
▁Direct	-5312
▁Diving	-5313
▁Econom	-5314
▁Europa	-5315
▁Events	-5316
▁Faraos	-5317
▁Flight	-5318
▁Gideon	-5319
▁HERREN	-5320
▁Joseph	-5321
▁Joshua	-5322
▁Kristi	-5323
▁Little	-5324
▁Mother	-5325
▁Museum	-5326
▁Petrus	-5327
▁Polish	-5328
▁Return	-5329
▁Rights	-5330
▁Search	-5331
▁Simson	-5332
▁Spaeth	-5333
▁States	-5334
▁Stupid	-5335
▁Sweden	-5336
▁Travel	-5337
▁United	-5338
▁Vacker	-5339
▁Vision	-5340
▁advice	-5341
▁agency	-5342
▁allows	-5343
▁allvar	-5344
▁animal	-5345
▁arbete	-5346
▁around	-5347
▁avslut	-5348
▁barnen	-5349
▁bliver	-5350
▁broder	-5351
▁brödet	-5352
▁casual	-5353
▁choice	-5354
▁chosen	-5355
▁cities	-5356
▁coming	-5357
▁crisis	-5358
▁custom	-5359
▁datorn	-5360
▁dåliga	-5361
▁dörrar	-5362
▁ejacul	-5363
▁expans	-5364
▁failed	-5365
▁fallen	-5366
▁faster	-5367
▁finnas	-5368
▁flesta	-5369
▁former	-5370
▁fältet	-5371
▁föränd	-5372
▁gillar	-5373
▁ground	-5374
▁gäller	-5375
▁gången	-5376
▁highly	-5377
▁hjälpt	-5378
▁hungry	-5379
▁högsta	-5380
▁inclus	-5381
▁invest	-5382
▁konser	-5383
▁känsla	-5384
▁letter	-5385
▁litter	-5386
▁lägger	-5387
▁läkare	-5388
▁miljon	-5389
▁moment	-5390
▁myself	-5391
▁opport	-5392
▁option	-5393
▁ordbok	-5394
▁origin	-5395
▁photos	-5396
▁planer	-5397
▁player	-5398
▁possib	-5399
▁rights	-5400
▁saints	-5401
▁select	-5402
▁senare	-5403
▁server	-5404
▁skolan	-5405
▁skriva	-5406
▁slight	-5407
▁sommar	-5408
▁stabil	-5409
▁stands	-5410
▁starta	-5411
▁states	-5412
▁stjärn	-5413
▁städer	-5414
▁synder	-5415
▁tankar	-5416
▁target	-5417
▁tempel	-5418
▁totala	-5419
▁unique	-5420
▁varför	-5421
▁variab	-5422
▁veckor	-5423
▁vilket	-5424
▁vision	-5425
▁välkom	-5426
▁warmth	-5427
▁önskar	-5428
▁öppnar	-5429
Johannes	-5430
angelium	-5431
bassadör	-5432
beroende	-5433
diameter	-5434
ligheter	-5435
onerande	-5436
pressive	-5437
sningens	-5438
stitutes	-5439
sättning	-5440
▁Blogger	-5441
▁Chinese	-5442
▁Crystal	-5443
▁Finding	-5444
▁Holiday	-5445
▁Italian	-5446
▁Justice	-5447
▁Kenmare	-5448
▁Levande	-5449
▁Manager	-5450
▁Meeting	-5451
▁Muslims	-5452
▁Program	-5453
▁Samaria	-5454
▁Sommard	-5455
▁Stylish	-5456
▁angivit	-5457
▁ansikte	-5458
▁beaches	-5459
▁berätta	-5460
▁beställ	-5461
▁bildäck	-5462
▁brother	-5463
▁brought	-5464
▁calling	-5465
▁centers	-5466
▁comfort	-5467
▁consist	-5468
▁devices	-5469
▁elegant	-5470
▁entered	-5471
▁entrepr	-5472
▁express	-5473
▁fattiga	-5474
▁further	-5475
▁förbjud	-5476
▁förbätt	-5477
▁författ	-5478
▁förklar	-5479
▁förstör	-5480
▁förtjän	-5481
▁genetic	-5482
▁getting	-5483
▁however	-5484
▁innebär	-5485
▁kapital	-5486
▁kategor	-5487
▁keramik	-5488
▁kroppen	-5489
▁kyskhet	-5490
▁medical	-5491
▁menings	-5492
▁mission	-5493
▁misstän	-5494
▁musiker	-5495
▁mängder	-5496
▁månaden	-5497
▁nations	-5498
▁nedladd	-5499
▁officer	-5500
▁omkring	-5501
▁opening	-5502
▁orsaken	-5503
▁outward	-5504
▁portion	-5505
▁process	-5506
▁project	-5507
▁prophet	-5508
▁påbörja	-5509
▁receive	-5510
▁results	-5511
▁reviews	-5512
▁samhäll	-5513
▁sammanh	-5514
▁sanning	-5515
▁schools	-5516
▁service	-5517
▁skadest	-5518
▁taberna	-5519
▁tangent	-5520
▁through	-5521
▁tillägg	-5522
▁touched	-5523
▁utanför	-5524
▁utmärkt	-5525
▁verklig	-5526
▁written	-5527
President	-5528
ilderness	-5529
nikeboken	-5530
otographs	-5531
produkter	-5532
reensaver	-5533
uppgifter	-5534
▁BEGYNNEL	-5535
▁Blessing	-5536
▁Citizens	-5537
▁Diameter	-5538
▁Director	-5539
▁Egyptian	-5540
▁Halsband	-5541
▁Jättefin	-5542
▁Managing	-5543
▁Prophets	-5544
▁Stockhol	-5545
▁Stuntman	-5546
▁appeared	-5547
▁beroende	-5548
▁berättar	-5549
▁browsing	-5550
▁byråkrat	-5551
▁calendar	-5552
▁chastity	-5553
▁complete	-5554
▁concentr	-5555
▁consolid	-5556
▁covenant	-5557
▁darkness	-5558
▁database	-5559
▁designed	-5560
▁download	-5561
▁existing	-5562
▁faktiskt	-5563
▁flyttade	-5564
▁followed	-5565
▁halsband	-5566
▁hittills	-5567
▁kalender	-5568
▁karaktär	-5569
▁kindness	-5570
▁kontroll	-5571
▁literary	-5572
▁manifest	-5573
▁multiple	-5574
▁människa	-5575
▁official	-5576
▁overcome	-5577
▁particip	-5578
▁personal	-5579
▁physical	-5580
▁planning	-5581
▁positiva	-5582
▁positive	-5583
▁presence	-5584
▁proposed	-5585
▁qigongen	-5586
▁reducing	-5587
▁response	-5588
▁returned	-5589
▁services	-5590
▁sommaren	-5591
▁stuntman	-5592
▁trygghet	-5593
▁turister	-5594
▁återvänd	-5595
ommenderas	-5596
onnemanget	-5597
röstningen	-5598
▁BEGINNING	-5599
▁Egyptiska	-5600
▁Inclusive	-5601
▁Multitude	-5602
▁September	-5603
▁Slaughter	-5604
▁administr	-5605
▁advantage	-5606
▁agreement	-5607
▁allmänhet	-5608
▁analysera	-5609
▁authority	-5610
▁databasen	-5611
▁described	-5612
▁developed	-5613
▁effective	-5614
▁encounter	-5615
▁extremely	-5616
▁fortsatte	-5617
▁fortsätta	-5618
▁hastighet	-5619
▁increased	-5620
▁inklusive	-5621
▁insurance	-5622
▁kommentar	-5623
▁paradiset	-5624
▁passwords	-5625
▁portfolio	-5626
▁published	-5627
▁qualified	-5628
▁questions	-5629
▁represent	-5630
▁uppfyller	-5631
▁uppväcker	-5632
▁utflykter	-5633
▁verkligen	-5634
▁välsignar	-5635
▁wonderful	-5636
▁ögonblick	-5637
▁absolutely	-5638
▁avslappnad	-5639
▁bridegroom	-5640
▁completely	-5641
▁concerning	-5642
▁converting	-5643
▁definitivt	-5644
▁depression	-5645
▁ekonomiska	-5646
▁evangelium	-5647
▁excursions	-5648
▁fortsätter	-5649
▁funktioner	-5650
▁förlisning	-5651
▁förlåtelse	-5652
▁förståelse	-5653
▁impression	-5654
▁impressive	-5655
▁increasing	-5656
▁intressant	-5657
▁kraftfullt	-5658
▁kvaliteten	-5659
▁lättanvänd	-5660
▁masturbate	-5661
▁multimedia	-5662
▁omvandling	-5663
▁personalen	-5664
▁programmet	-5665
▁properties	-5666
▁recognized	-5667
▁restaurant	-5668
▁utvecklats	-5669
Subscription	-5670
▁Citizenship	-5671
▁Kungsledens	-5672
▁application	-5673
▁fantastiskt	-5674
▁fortfarande	-5675
▁förhållande	-5676
▁internation	-5677
▁medications	-5678
▁photographs	-5679
▁reparations	-5680
▁significant	-5681
▁slutrapport	-5682
▁tillfälliga	-5683
▁traditional	-5684
▁videoformat	-5685
▁ytterligare	-5686
▁Commissioner	-5687
▁Krönikeboken	-5688
▁Uppenbarelse	-5689
▁frälsningens	-5690
▁kommissionen	-5691
▁subscription	-5692
▁traditionell	-5693
▁Kommissionens	-5694
▁grundläggande	-5695
▁kalendermånad	-5696
▁specialkeramer	-5697
HANNESEVANGELIET	-5698
.37	-5699
.4.	-5700
0-4	-5701
64,	-5702
750	-5703
81,	-5704
904	-5705
:65	-5706
:9)	-5707
AGE	-5708
AMT	-5709
ASS	-5710
BSD	-5711
COM	-5712
DOM	-5713
EIV	-5714
GAL	-5715
IAH	-5716
IFT	-5717
IGY	-5718
ILE	-5719
ION	-5720
Inf	-5721
LAG	-5722
LOW	-5723
MID	-5724
NIT	-5725
OLY	-5726
Str	-5727
TEC	-5728
TIZ	-5729
TTR	-5730
Vfl	-5731
Why	-5732
afe	-5733
ejs	-5734
ozF	-5735
smä	-5736
zzo	-5737
ÄNG	-5738
ÄRA	-5739
ÖPA	-5740
ömd	-5741
▁$5	-5742
▁0,	-5743
▁>>	-5744
▁Åk	-5745
$$$$	-5746
,000	-5747
-54)	-5748
381,	-5749
5/02	-5750
6-17	-5751
9043	-5752
:19)	-5753
:4-6	-5754
:65)	-5755
:7-9	-5756
ALOW	-5757
Arts	-5758
BLER	-5759
Baba	-5760
COME	-5761
DNet	-5762
Dron	-5763
EIVE	-5764
ELIG	-5765
Ezra	-5766
Film	-5767
IDEN	-5768
ILEP	-5769
Info	-5770
SING	-5771
SLOW	-5772
Safe	-5773
Skat	-5774
TRAN	-5775
UNGA	-5776
afol	-5777
aguy	-5778
alko	-5779
bygg	-5780
bädd	-5781
cern	-5782
dags	-5783
demo	-5784
diot	-5785
ecka	-5786
eeps	-5787
enix	-5788
enne	-5789
exas	-5790
gift	-5791
habo	-5792
inCD	-5793
ixte	-5794
jupt	-5795
lymp	-5796
mpos	-5797
nozF	-5798
olyf	-5799
7-5	-5800
OVs	-5801
chef	-5802
jock	-5803
pDet	-5804
pani	-5805
phes	-5806
sala	-5807
ship	-5808
tida	-5809
uPro	-5810
ugga	-5811
wait	-5812
zero	-5813
ÖREN	-5814
ågan	-5815
åtet	-5816
▁!92	-5817
▁"99	-5818
▁(89	-5819
▁(91	-5820
▁11.	-5821
▁156	-5822
▁168	-5823
▁290	-5824
▁981	-5825
▁9:9	-5826
▁Amb	-5827
▁Ank	-5828
▁Asw	-5829
▁BAP	-5830
▁FUT	-5831
▁GÅV	-5832
▁Hsu	-5833
▁III	-5834
▁INC	-5835
▁KIT	-5836
▁MAR	-5837
▁MAX	-5838
▁Noa	-5839
▁OCH	-5840
▁PAL	-5841
▁PCL	-5842
▁Pho	-5843
▁SPA	-5844
▁Taj	-5845
▁UND	-5846
▁USA	-5847
▁Vox	-5848
▁WEL	-5849
▁WTM	-5850
▁bih	-5851
▁max	-5852
▁Äng	-5853
▁”1.	-5854
":"24	-5855
-32).	-5856
0-12)	-5857
0-41)	-5858
1-12)	-5859
12":"	-5860
2-54)	-5861
2:24)	-5862
4-201	-5863
7-10)	-5864
7-58)	-5865
8-10)	-5866
:1-2)	-5867
:14-1	-5868
:3-4)	-5869
:65-6	-5870
Denna	-5871
Detta	-5872
ELIGE	-5873
GÖREN	-5874
ILEPS	-5875
ILIGY	-5876
Jesus	-5877
LAGÄR	-5878
LOMID	-5879
Macro	-5880
OSEVI	-5881
Score	-5882
Summa	-5883
TAMIN	-5884
TIZED	-5885
agnef	-5886
ainig	-5887
airus	-5888
aljer	-5889
almat	-5890
andlh	-5891
anica	-5892
anlan	-5893
apAbo	-5894
arium	-5895
atisf	-5896
atrol	-5897
atzin	-5898
aucra	-5899
2-3	-5900
3-3	-5901
9-3	-5902
AIS	-5903
Isa	-5904
räv	-5905
txt	-5906
ykl	-5907
klud	-5908
meon	-5909
ofer	-5910
reko	-5911
saur	-5912
scar	-5913
uert	-5914
▁Ark	-5915
▁Ars	-5916
▁Laz	-5917
▁RMV	-5918
2-33)	-5919
3-34)	-5920
9-31)	-5921
agnen	-5922
azaar	-5923
catNe	-5924
clean	-5925
duced	-5926
encer	-5927
ences	-5928
enges	-5929
ephth	-5930
ergus	-5931
erhör	-5932
esitz	-5933
etjän	-5934
fokus	-5935
grund	-5936
gudad	-5937
halif	-5938
handl	-5939
heads	-5940
ibson	-5941
icbit	-5942
icias	-5943
iella	-5944
incip	-5945
ineng	-5946
ingzi	-5947
ishes	-5948
jamin	-5949
järna	-5950
lunda	-5951
lycka	-5952
nekly	-5953
nolik	-5954
nvent	-5955
ograf	-5956
oined	-5957
ootst	-5958
pared	-5959
pends	-5960
pptes	-5961
preng	-5962
propå	-5963
ptera	-5964
quila	-5965
racle	-5966
rella	-5967
resor	-5968
rotts	-5969
royed	-5970
räder	-5971
santh	-5972
sidan	-5973
smäkt	-5974
sutit	-5975
uanjo	-5976
uerto	-5977
ufact	-5978
unnel	-5979
unnen	-5980
urgrö	-5981
urpos	-5982
utitI	-5983
uzvar	-5984
vekan	-5985
vetet	-5986
yklon	-5987
yware	-5988
äkter	-5989
▁$500	-5990
▁(109	-5991
▁(110	-5992
▁100%	-5993
▁11:3	-5994
▁12:1	-5995
▁13:2	-5996
▁13:5	-5997
▁15:1	-5998
▁15:2	-5999
.13	-6000
LLE	-6001
ULL	-6002
shy	-6003
-45)	-6004
:40)	-6005
FULL	-6006
agaz	-6007
ewer	-6008
nabb	-6009
opyr	-6010
redo	-6011
roys	-6012
veys	-6013
▁AAC	-6014
▁Lib	-6015
▁URL	-6016
▁VIS	-6017
▁bib	-6018
▁lys	-6019
Aktiv	-6020
abbet	-6021
enned	-6022
larna	-6023
rarna	-6024
redit	-6025
redov	-6026
redth	-6027
ummad	-6028
▁"(2)	-6029
▁12:2	-6030
▁1680	-6031
▁16:3	-6032
▁17).	-6033
▁1972	-6034
▁1989	-6035
▁1991	-6036
▁1995	-6037
▁1996	-6038
▁1:17	-6039
▁2012	-6040
▁24:1	-6041
▁26).	-6042
▁26:4	-6043
▁2:3)	-6044
▁2:6)	-6045
▁4:11	-6046
▁4:3)	-6047
▁4:37	-6048
▁7.1,	-6049
▁7:7)	-6050
▁8:56	-6051
▁9:00	-6052
▁9:5)	-6053
▁Adam	-6054
▁Arch	-6055
▁BUNG	-6056
▁Bapt	-6057
▁Beta	-6058
▁Bond	-6059
▁Brit	-6060
▁Burj	-6061
▁Carl	-6062
▁Disc	-6063
▁Drag	-6064
▁DÖPA	-6065
▁Engl	-6066
▁Engw	-6067
▁Esai	-6068
▁Feat	-6069
▁GAIS	-6070
▁GIFT	-6071
▁Glob	-6072
▁Goog	-6073
▁Gril	-6074
▁GÅVA	-6075
▁HOLY	-6076
▁Halo	-6077
▁Harv	-6078
▁Heik	-6079
▁Help	-6080
▁INCL	-6081
▁INGÅ	-6082
▁Ingr	-6083
▁Jona	-6084
▁Juni	-6085
▁LÄNG	-6086
▁Mech	-6087
▁NKJV	-6088
▁Noir	-6089
▁NÄRA	-6090
▁Outl	-6091
▁PASS	-6092
▁PRES	-6093
▁Parv	-6094
▁Prod	-6095
▁RELI	-6096
▁ROVs	-6097
▁Rece	-6098
▁SVCD	-6099
!""	-6100
224	-6101
922	-6102
hib	-6103
ywn	-6104
▁XL	-6105
▁XP	-6106
HOST	-6107
Thus	-6108
frea	-6109
groz	-6110
grän	-6111
rown	-6112
ögen	-6113
▁122	-6114
▁612	-6115
▁64-	-6116
▁8:1	-6117
▁8:2	-6118
▁8:3	-6119
▁Bef	-6120
▁Kwe	-6121
▁Loc	-6122
▁Soc	-6123
▁ägg	-6124
Based	-6125
ejama	-6126
freax	-6127
grozs	-6128
ospel	-6129
prise	-6130
visor	-6131
weent	-6132
ywney	-6133
▁!922	-6134
▁10:2	-6135
▁10:3	-6136
▁18:3	-6137
▁8:2)	-6138
▁Kwei	-6139
▁Pälv	-6140
▁Sole	-6141
▁Sura	-6142
▁THES	-6143
▁UNDF	-6144
▁Weak	-6145
▁Xmen	-6146
▁Zill	-6147
▁banb	-6148
▁besö	-6149
▁biom	-6150
▁bird	-6151
▁blem	-6152
▁bond	-6153
▁bära	-6154
▁cras	-6155
▁defa	-6156
▁dela	-6157
▁dric	-6158
▁edit	-6159
▁emig	-6160
▁ends	-6161
▁foot	-6162
▁glim	-6163
▁grov	-6164
▁högt	-6165
▁höra	-6166
▁höst	-6167
▁idag	-6168
▁iron	-6169
▁jeal	-6170
▁koll	-6171
▁kras	-6172
▁kron	-6173
▁kryd	-6174
▁köra	-6175
▁laid	-6176
▁lift	-6177
▁lyck	-6178
▁låta	-6179
▁main	-6180
▁midn	-6181
▁muzz	-6182
▁olja	-6183
▁onda	-6184
▁pray	-6185
▁prem	-6186
▁redo	-6187
▁regn	-6188
▁ripp	-6189
▁rörd	-6190
▁size	-6191
▁stöt	-6192
▁subm	-6193
▁summ	-6194
▁suns	-6195
▁surt	-6196
▁symp	-6197
▁tala	-6198
▁task	-6199
uzv	-6200
ashi	-6201
bank	-6202
dash	-6203
eply	-6204
eyer	-6205
owup	-6206
pact	-6207
rror	-6208
ubai	-6209
view	-6210
▁Dep	-6211
▁Rep	-6212
Error	-6213
agues	-6214
aguya	-6215
aknar	-6216
anish	-6217
lains	-6218
racks	-6219
rland	-6220
usual	-6221
▁17:9	-6222
▁Corn	-6223
▁Emma	-6224
▁Herb	-6225
▁Schm	-6226
▁Spar	-6227
▁bank	-6228
▁bjud	-6229
▁cash	-6230
▁cold	-6231
▁hair	-6232
▁porn	-6233
▁scen	-6234
▁troj	-6235
▁tyst	-6236
▁vote	-6237
▁våld	-6238
▁wave	-6239
▁wavs	-6240
▁xing	-6241
▁Åkes	-6242
2-13).	-6243
:8-10)	-6244
Aktivs	-6245
Christ	-6246
ITAMIN	-6247
Isaiah	-6248
ORINTH	-6249
ORINTI	-6250
PILEPS	-6251
Rising	-6252
Skatit	-6253
TTRING	-6254
Wizard	-6255
aboDet	-6256
action	-6257
airman	-6258
ancell	-6259
andise	-6260
andlas	-6261
ansler	-6262
anuari	-6263
askydd	-6264
ayashi	-6265
basket	-6266
behold	-6267
bonnem	-6268
bordas	-6269
brotts	-6270
butant	-6271
cement	-6272
cholic	-6273
cisely	-6274
edikan	-6275
ehudah	-6276
ellert	-6277
enomen	-6278
entMsg	-6279
entium	-6280
ership	-6281
esberg	-6282
eskort	-6283
essler	-6284
etrics	-6285
gainst	-6286
ggress	-6287
ground	-6288
hammar	-6289
heless	-6290
hrough	-6291
höriga	-6292
icious	-6293
ienska	-6294
ifieds	-6295
iktiga	-6296
ilated	-6297
imself	-6298
itants	-6299
:4)	-6300
DER	-6301
ERA	-6302
frå	-6303
▁äg	-6304
:23)	-6305
:30)	-6306
bath	-6307
burn	-6308
irms	-6309
▁"21	-6310
▁"26	-6311
▁Ado	-6312
▁grå	-6313
▁ign	-6314
▁naj	-6315
7:28)	-6316
ampan	-6317
annec	-6318
athan	-6319
devel	-6320
onsin	-6321
▁!!!!	-6322
▁Alla	-6323
▁Allt	-6324
▁JOHN	-6325
▁Love	-6326
▁Rage	-6327
▁Zion	-6328
▁arms	-6329
▁bann	-6330
▁huge	-6331
▁klas	-6332
▁pann	-6333
▁tann	-6334
▁vann	-6335
:7-10)	-6336
Export	-6337
Termin	-6338
aterar	-6339
atient	-6340
erence	-6341
itches	-6342
ixteen	-6343
ktyget	-6344
levant	-6345
lingar	-6346
litlig	-6347
lämnar	-6348
lövern	-6349
mappar	-6350
mester	-6351
nozFit	-6352
nsaker	-6353
oaming	-6354
ograph	-6355
olyfon	-6356
option	-6357
osheim	-6358
osofer	-6359
otland	-6360
pDetal	-6361
porate	-6362
posure	-6363
public	-6364
resser	-6365
riting	-6366
rorist	-6367
saurus	-6368
ställd	-6369
system	-6370
thread	-6371
ulturn	-6372
umulus	-6373
urveys	-6374
ussion	-6375
ustavi	-6376
ustrin	-6377
vivors	-6378
vunnit	-6379
vänner	-6380
ädring	-6381
öjelse	-6382
▁"123-	-6383
▁"2001	-6384
▁"2008	-6385
▁10:35	-6386
▁12:1)	-6387
▁15:15	-6388
▁17:6)	-6389
▁18:38	-6390
▁2000.	-6391
▁2007.	-6392
▁2011.	-6393
▁21.00	-6394
▁21:9)	-6395
▁23:44	-6396
▁25:7)	-6397
▁2:11)	-6398
▁2:16)	-6399
-27)	-6400
alax	-6401
bely	-6402
luer	-6403
rije	-6404
vång	-6405
▁Isl	-6406
▁erf	-6407
▁erv	-6408
▁räd	-6409
▁väx	-6410
6-27)	-6411
ehold	-6412
ianum	-6413
imely	-6414
leken	-6415
ouble	-6416
rival	-6417
ursen	-6418
ustru	-6419
ydnad	-6420
ällen	-6421
▁(131	-6422
▁(136	-6423
▁(139	-6424
▁Adri	-6425
▁Cuba	-6426
▁Zhou	-6427
▁drug	-6428
▁inbo	-6429
▁kids	-6430
▁näst	-6431
▁poll	-6432
▁pool	-6433
▁teor	-6434
▁värd	-6435
lueray	-6436
ounded	-6437
ydnads	-6438
▁2008)	-6439
▁2:15)	-6440
▁3:17)	-6441
▁3:28)	-6442
▁5:15)	-6443
▁6381,	-6444
▁8:20)	-6445
▁Adopt	-6446
▁Adsen	-6447
▁Alice	-6448
▁Allen	-6449
▁Aswan	-6450
▁Aztec	-6451
▁Aztek	-6452
▁Bosse	-6453
▁Copyr	-6454
▁Costa	-6455
▁Darth	-6456
▁Davin	-6457
▁Deals	-6458
▁Degas	-6459
▁Denna	-6460
▁Devil	-6461
▁Djinn	-6462
▁Dream	-6463
▁Enjoy	-6464
▁FRAMT	-6465
▁Falko	-6466
▁Farao	-6467
▁Final	-6468
▁Firef	-6469
▁Found	-6470
▁Frost	-6471
▁GHOST	-6472
▁Guine	-6473
▁Helle	-6474
▁INGÅR	-6475
▁Incas	-6476
▁Islam	-6477
▁Jehud	-6478
▁Kirst	-6479
▁Laban	-6480
▁Linda	-6481
▁Lucas	-6482
▁Luton	-6483
▁MATTE	-6484
▁Marco	-6485
▁Milan	-6486
▁Moshe	-6487
▁Moshé	-6488
▁Mouse	-6489
▁Nonst	-6490
▁OTHER	-6491
▁Olymp	-6492
▁Orsot	-6493
▁PRESS	-6494
▁Paris	-6495
▁Press	-6496
▁Prote	-6497
▁Pälvi	-6498
▁Relig	-6499
"".	-6500
-22	-6501
.”,	-6502
>".	-6503
▁55	-6504
▁70	-6505
▁YU	-6506
-40)	-6507
9-22	-6508
ache	-6509
comp	-6510
eget	-6511
onsb	-6512
rone	-6513
vets	-6514
äker	-6515
▁"30	-6516
▁21)	-6517
▁70.	-6518
▁GEN	-6519
▁Rek	-6520
▁YUV	-6521
▁häm	-6522
▁rop	-6523
▁års	-6524
GALAT	-6525
Optim	-6526
alone	-6527
eking	-6528
ekter	-6529
gment	-6530
orget	-6531
urman	-6532
änkar	-6533
örker	-6534
▁(101	-6535
▁(108	-6536
▁(127	-6537
▁16:2	-6538
▁18:2	-6539
▁Meet	-6540
▁Ways	-6541
▁bure	-6542
▁lock	-6543
▁poor	-6544
▁user	-6545
achine	-6546
estman	-6547
interd	-6548
ouache	-6549
rycket	-6550
uurman	-6551
ånarna	-6552
▁...".	-6553
▁16:28	-6554
▁18:24	-6555
▁Drott	-6556
▁GENES	-6557
▁Guest	-6558
▁Resur	-6559
▁Sauls	-6560
▁Saver	-6561
▁Seren	-6562
▁Sibim	-6563
▁Slain	-6564
▁Songs	-6565
▁Soria	-6566
▁Stena	-6567
▁Stiff	-6568
▁Stift	-6569
▁Stora	-6570
▁Ställ	-6571
▁THESS	-6572
▁Tajan	-6573
▁Taken	-6574
▁Teach	-6575
▁Texas	-6576
▁Toast	-6577
▁Today	-6578
▁Trans	-6579
▁Union	-6580
▁Vegas	-6581
▁Vilka	-6582
▁Walls	-6583
▁ZDNet	-6584
▁alive	-6585
▁anled	-6586
▁annor	-6587
▁anser	-6588
▁appro	-6589
▁armar	-6590
▁aster	-6591
▁audio	-6592
▁autom	-6593
▁baman	-6594
▁basis	-6595
▁begär	-6596
▁behöv	-6597
▁belys	-6598
▁bergs	-6599
PC	-6600
ACH	-6601
oke	-6602
spl	-6603
ugg	-6604
äft	-6605
▁!"	-6606
2":"	-6607
Pass	-6608
Vinn	-6609
bild	-6610
ifik	-6611
lass	-6612
pass	-6613
plan	-6614
rera	-6615
räng	-6616
uild	-6617
▁Ann	-6618
▁Vem	-6619
▁ark	-6620
▁arm	-6621
▁hob	-6622
▁hyr	-6623
...".	-6624
arily	-6625
egram	-6626
merna	-6627
mezzo	-6628
order	-6629
sight	-6630
sliga	-6631
venir	-6632
▁1900	-6633
▁19:1	-6634
▁Cass	-6635
▁Esau	-6636
▁Huru	-6637
▁Nile	-6638
▁Sess	-6639
▁Ship	-6640
▁Skin	-6641
▁bone	-6642
▁häft	-6643
▁judg	-6644
▁kass	-6645
▁smär	-6646
▁upph	-6647
avsett	-6648
ifikat	-6649
ikerna	-6650
verine	-6651
▁Class	-6652
▁Idiot	-6653
▁Ruins	-6654
▁beror	-6655
▁bidra	-6656
▁bitar	-6657
▁bliva	-6658
▁block	-6659
▁borde	-6660
▁camps	-6661
▁check	-6662
▁clean	-6663
▁cloud	-6664
▁corre	-6665
▁credo	-6666
▁daily	-6667
▁datum	-6668
▁desol	-6669
▁disco	-6670
▁drunk	-6671
▁dödar	-6672
▁einem	-6673
▁evigt	-6674
▁falla	-6675
▁femte	-6676
▁final	-6677
▁finan	-6678
▁focus	-6679
▁forty	-6680
▁front	-6681
▁förbl	-6682
▁gener	-6683
▁glada	-6684
▁goals	-6685
▁halvt	-6686
▁hands	-6687
▁hemma	-6688
▁hobby	-6689
▁hosta	-6690
▁huden	-6691
▁högra	-6692
▁iSafe	-6693
▁idiom	-6694
▁ifrån	-6695
▁ignor	-6696
▁illum	-6697
▁inact	-6698
▁inbox	-6699
&"	-6700
UT	-6701
5).	-6702
ACK	-6703
Heb	-6704
iza	-6705
pub	-6706
äss	-6707
▁46	-6708
▁94	-6709
▁95	-6710
▁ES	-6711
arma	-6712
cies	-6713
enör	-6714
erch	-6715
ftan	-6716
järn	-6717
king	-6718
makt	-6719
orma	-6720
pubD	-6721
ödra	-6722
▁"&"	-6723
▁"18	-6724
▁ESV	-6725
▁Inh	-6726
▁KON	-6727
▁Nev	-6728
▁Spr	-6729
▁Upp	-6730
▁ema	-6731
▁las	-6732
▁sov	-6733
Chris	-6734
Hebre	-6735
errel	-6736
ilies	-6737
ingsd	-6738
ipher	-6739
omäss	-6740
opher	-6741
ormat	-6742
oving	-6743
peror	-6744
rying	-6745
ssels	-6746
▁6-7)	-6747
▁Chry	-6748
▁Giza	-6749
▁Pist	-6750
▁chut	-6751
▁dies	-6752
▁host	-6753
▁häng	-6754
▁läck	-6755
▁maps	-6756
▁rank	-6757
▁rika	-6758
▁supp	-6759
▁vise	-6760
Patrol	-6761
Topher	-6762
estera	-6763
illiga	-6764
lomäss	-6765
pubDat	-6766
▁46:5)	-6767
▁6:11)	-6768
▁Creat	-6769
▁Earth	-6770
▁Grilz	-6771
▁Merch	-6772
▁Nevet	-6773
▁Thess	-6774
▁doubt	-6775
▁email	-6776
▁enhet	-6777
▁iniqu	-6778
▁karta	-6779
▁katol	-6780
▁keeps	-6781
▁klang	-6782
▁klara	-6783
▁klass	-6784
▁known	-6785
▁kross	-6786
▁kämpa	-6787
▁köper	-6788
▁lagen	-6789
▁large	-6790
▁layer	-6791
▁leave	-6792
▁links	-6793
▁litet	-6794
▁livet	-6795
▁local	-6796
▁loved	-6797
▁lägga	-6798
▁lämna	-6799
lf	-6800
▁%	-6801
Log	-6802
OLL	-6803
räd	-6804
ubU	-6805
▁GD	-6806
▁[3	-6807
!","	-6808
Natt	-6809
PubU	-6810
apan	-6811
disk	-6812
gert	-6813
ince	-6814
kund	-6815
laub	-6816
nton	-6817
outs	-6818
ratt	-6819
▁"-"	-6820
▁289	-6821
▁3:1	-6822
▁3:5	-6823
▁GDP	-6824
▁Juk	-6825
▁ONE	-6826
▁Sie	-6827
▁Ulf	-6828
▁[37	-6829
▁gap	-6830
▁hig	-6831
▁vik	-6832
Super	-6833
aPubU	-6834
ieval	-6835
indle	-6836
innov	-6837
▁(100	-6838
▁Joel	-6839
▁Matt	-6840
▁Njut	-6841
▁Show	-6842
▁bath	-6843
▁meas	-6844
▁rull	-6845
▁song	-6846
▁uppg	-6847
▁vitt	-6848
▁whol	-6849
5/02/2	-6850
ntonio	-6851
urlaub	-6852
▁6:20)	-6853
▁Chall	-6854
▁Chang	-6855
▁Japan	-6856
▁Jukka	-6857
▁Matti	-6858
▁Sedom	-6859
▁Thank	-6860
▁[37]:	-6861
▁blick	-6862
▁bouts	-6863
▁fornt	-6864
▁förde	-6865
▁highe	-6866
▁längd	-6867
▁lönar	-6868
▁macro	-6869
▁marks	-6870
▁maten	-6871
▁minds	-6872
▁model	-6873
▁mötes	-6874
▁najim	-6875
▁nätet	-6876
▁oense	-6877
▁offer	-6878
▁opens	-6879
▁piano	-6880
▁plays	-6881
▁pleas	-6882
▁plugg	-6883
▁prett	-6884
▁price	-6885
▁proof	-6886
▁prosp	-6887
▁purch	-6888
▁reign	-6889
▁reser	-6890
▁robot	-6891
▁saith	-6892
▁samar	-6893
▁samla	-6894
▁scale	-6895
▁seven	-6896
▁shipy	-6897
▁signs	-6898
▁sjuka	-6899
"(	-6900
ÖR	-6901
öl	-6902
!).	-6903
Rom	-6904
ete	-6905
laz	-6906
orc	-6907
see	-6908
tio	-6909
Hose	-6910
Risk	-6911
asha	-6912
atee	-6913
blaz	-6914
date	-6915
etaj	-6916
iber	-6917
inot	-6918
ipro	-6919
onde	-6920
orca	-6921
osev	-6922
rack	-6923
requ	-6924
risk	-6925
vade	-6926
▁DOS	-6927
▁såg	-6928
▁tas	-6929
0-11)	-6930
Hosea	-6931
ategy	-6932
ately	-6933
atisk	-6934
ecess	-6935
etajs	-6936
figur	-6937
icult	-6938
iproc	-6939
quest	-6940
track	-6941
unich	-6942
▁(!).	-6943
▁Cult	-6944
▁Sold	-6945
▁Tack	-6946
▁bror	-6947
▁byar	-6948
▁fack	-6949
▁fund	-6950
▁meal	-6951
▁nack	-6952
▁shap	-6953
ficult	-6954
necess	-6955
ningst	-6956
▁Pasha	-6957
▁Pinot	-6958
▁Plain	-6959
▁anger	-6960
▁frukt	-6961
▁gatee	-6962
▁liber	-6963
▁resan	-6964
▁sjukv	-6965
▁skärm	-6966
▁snake	-6967
▁spect	-6968
▁staff	-6969
▁stage	-6970
▁stige	-6971
▁stone	-6972
▁story	-6973
▁strip	-6974
▁stuck	-6975
▁stund	-6976
▁ställ	-6977
▁surve	-6978
▁svärd	-6979
▁säkra	-6980
▁sände	-6981
▁södra	-6982
▁talar	-6983
▁tells	-6984
▁tempt	-6985
▁thick	-6986
▁thine	-6987
▁thous	-6988
▁titul	-6989
▁tried	-6990
▁trots	-6991
▁träna	-6992
▁tusen	-6993
▁unika	-6994
▁vemod	-6995
▁views	-6996
▁vilka	-6997
▁visit	-6998
▁vänta	-6999
KF	-7000
wf	-7001
4).	-7002
:1.	-7003
KFC	-7004
Qur	-7005
esn	-7006
gwf	-7007
iao	-7008
kop	-7009
6":"	-7010
:...	-7011
ALON	-7012
Niao	-7013
angu	-7014
arts	-7015
avia	-7016
ehem	-7017
eria	-7018
iain	-7019
iece	-7020
roke	-7021
utop	-7022
veik	-7023
▁Rab	-7024
▁Sem	-7025
▁bom	-7026
▁omg	-7027
6":"6	-7028
agens	-7029
eared	-7030
kopia	-7031
llera	-7032
samma	-7033
sveik	-7034
uster	-7035
▁(118	-7036
▁(151	-7037
▁2004	-7038
▁Mart	-7039
▁Stat	-7040
▁Vang	-7041
▁cond	-7042
▁four	-7043
▁kult	-7044
▁menu	-7045
▁near	-7046
▁para	-7047
▁satt	-7048
▁såld	-7049
▁sånt	-7050
▁triv	-7051
▁tron	-7052
▁wide	-7053
3:3-4)	-7054
anging	-7055
selves	-7056
sveiki	-7057
ternas	-7058
ttavia	-7059
▁Nehem	-7060
▁Night	-7061
▁STRAN	-7062
▁Shang	-7063
▁fresh	-7064
▁givet	-7065
▁inner	-7066
▁kriga	-7067
▁omgiv	-7068
▁piece	-7069
▁share	-7070
▁tings	-7071
▁trust	-7072
▁wheat	-7073
▁whose	-7074
▁worry	-7075
▁write	-7076
▁Övers	-7077
▁öarna	-7078
▁öppen	-7079
12":"12	-7080
24":"24	-7081
:11-13)	-7082
:14-15)	-7083
:25-26)	-7084
:25-27)	-7085
:26-27)	-7086
:33-34)	-7087
:41-42)	-7088
:41-43)	-7089
:57-58)	-7090
Chicago	-7091
Filters	-7092
Innvent	-7093
Kulturn	-7094
LoveKFC	-7095
Nehemja	-7096
VITAMIN	-7097
Welcome	-7098
actions	-7099
ne	-7100
5-1	-7101
Baq	-7102
nal	-7103
niz	-7104
omi	-7105
oph	-7106
väl	-7107
ygn	-7108
▁."	-7109
▁42	-7110
▁Ah	-7111
▁NX	-7112
▁Nr	-7113
▁mn	-7114
;...	-7115
ansa	-7116
egra	-7117
hips	-7118
iram	-7119
länd	-7120
nizu	-7121
rätt	-7122
▁Mog	-7123
▁NXR	-7124
▁Unw	-7125
▁omd	-7126
▁uts	-7127
.18).	-7128
5-17)	-7129
antum	-7130
artor	-7131
elles	-7132
ellul	-7133
emies	-7134
nizuj	-7135
ommar	-7136
ommor	-7137
osoph	-7138
stans	-7139
title	-7140
ugust	-7141
▁Komi	-7142
▁dött	-7143
▁fans	-7144
▁fell	-7145
▁hört	-7146
▁känd	-7147
▁sect	-7148
▁unga	-7149
▁vine	-7150
ensive	-7151
fältet	-7152
nalist	-7153
nerhet	-7154
ramför	-7155
sommar	-7156
thansa	-7157
▁Click	-7158
▁Paper	-7159
▁cover	-7160
▁glimt	-7161
▁ingår	-7162
▁känna	-7163
▁minus	-7164
▁skill	-7165
▁ständ	-7166
▁såväl	-7167
Austral	-7168
Baqarah	-7169
afolket	-7170
akultat	-7171
ambling	-7172
amental	-7173
andlare	-7174
andlhub	-7175
annecig	-7176
assador	-7177
ationsl	-7178
because	-7179
cedural	-7180
centage	-7181
central	-7182
chissen	-7183
closedS	-7184
dashReg	-7185
elegram	-7186
emainig	-7187
ennedys	-7188
enskaps	-7189
entreat	-7190
ephthah	-7191
esitzer	-7192
eslagna	-7193
etselem	-7194
fthansa	-7195
fönster	-7196
föremål	-7197
förgift	-7198
gedomen	-7199
42	-7200
gar	-7201
yan	-7202
önt	-7203
▁38	-7204
▁90	-7205
▁Ut	-7206
▁VO	-7207
▁pd	-7208
abas	-7209
alla	-7210
hone	-7211
ifth	-7212
kort	-7213
lack	-7214
owly	-7215
▁Fly	-7216
▁Nap	-7217
▁Red	-7218
▁VOB	-7219
▁bly	-7220
▁pdf	-7221
▁Åbo	-7222
Black	-7223
Phone	-7224
Title	-7225
indar	-7226
rases	-7227
▁3.1,	-7228
▁38:1	-7229
▁File	-7230
▁Full	-7231
▁Jens	-7232
▁MAXW	-7233
▁Napo	-7234
▁Port	-7235
▁Word	-7236
▁cyan	-7237
▁dead	-7238
▁fara	-7239
▁möta	-7240
▁röst	-7241
▁själ	-7242
▁sker	-7243
▁skon	-7244
▁vars	-7245
▁vice	-7246
angram	-7247
ension	-7248
ootstb	-7249
seende	-7250
▁1:7-9	-7251
▁24:44	-7252
▁Arsys	-7253
▁FileN	-7254
▁MAXWE	-7255
▁Oscar	-7256
▁Split	-7257
▁board	-7258
▁fifth	-7259
▁flesh	-7260
▁testa	-7261
Katalog	-7262
conInfo	-7263
gränsas	-7264
ieejama	-7265
iformat	-7266
illiant	-7267
ingsdat	-7268
install	-7269
interim	-7270
intress	-7271
irement	-7272
issions	-7273
isterna	-7274
iveness	-7275
judiska	-7276
kompani	-7277
komsten	-7278
kostnad	-7279
ktermer	-7280
levande	-7281
lighten	-7282
mposium	-7283
nolikum	-7284
okument	-7285
onering	-7286
onsback	-7287
onsible	-7288
orePass	-7289
orships	-7290
owledge	-7291
partiet	-7292
pendent	-7293
preting	-7294
rabiska	-7295
radelar	-7296
redible	-7297
redning	-7298
rensalo	-7299
gn	-7300
rn	-7301
-52	-7302
.3.	-7303
100	-7304
TAS	-7305
Tis	-7306
umn	-7307
akes	-7308
edic	-7309
inné	-7310
irth	-7311
orum	-7312
▁IDN	-7313
▁Mem	-7314
▁Wol	-7315
▁Yis	-7316
▁bos	-7317
▁fab	-7318
▁föl	-7319
▁lem	-7320
▁los	-7321
▁mur	-7322
▁pan	-7323
▁rum	-7324
▁slå	-7325
-5268	-7326
Video	-7327
salom	-7328
utumn	-7329
▁(120	-7330
▁Away	-7331
▁Face	-7332
▁Fing	-7333
▁INTO	-7334
▁Tere	-7335
▁cult	-7336
▁egna	-7337
▁head	-7338
▁heat	-7339
▁heav	-7340
▁hell	-7341
▁outs	-7342
▁prot	-7343
▁prov	-7344
▁slit	-7345
▁ting	-7346
▁vers	-7347
▁åsna	-7348
1-32).	-7349
agliga	-7350
iately	-7351
porary	-7352
redths	-7353
rother	-7354
▁6:13)	-7355
▁6:25)	-7356
▁Ammon	-7357
▁Faceb	-7358
▁Heikk	-7359
▁Linné	-7360
▁UNDFÅ	-7361
▁Yisra	-7362
▁flykt	-7363
▁följa	-7364
▁murar	-7365
▁pilot	-7366
▁slita	-7367
▁takes	-7368
▁tools	-7369
▁träff	-7370
requent	-7371
ributed	-7372
ripande	-7373
sentMsg	-7374
session	-7375
skatAbo	-7376
smäktig	-7377
strella	-7378
strålar	-7379
ständig	-7380
stående	-7381
textual	-7382
varande	-7383
ventory	-7384
version	-7385
welcome	-7386
ywneych	-7387
zurlaub	-7388
äkerhet	-7389
åringar	-7390
örelsen	-7391
▁"99,9%	-7392
▁10:11)	-7393
▁10:12)	-7394
▁10:22)	-7395
▁10:28)	-7396
▁11:34)	-7397
▁13:27)	-7398
▁13:54)	-7399
Es	-7400
irk	-7401
nos	-7402
ält	-7403
▁41	-7404
▁WM	-7405
▁gÃ	-7406
:30,	-7407
Esra	-7408
ahab	-7409
aten	-7410
atro	-7411
cirk	-7412
iers	-7413
ikas	-7414
lade	-7415
nytt	-7416
rary	-7417
that	-7418
▁CON	-7419
▁JON	-7420
▁Kur	-7421
▁Lim	-7422
▁Tog	-7423
▁WMA	-7424
▁Wal	-7425
▁Wär	-7426
▁jud	-7427
▁run	-7428
▁wav	-7429
4:30,	-7430
aster	-7431
etsen	-7432
ience	-7433
ighth	-7434
ordic	-7435
phere	-7436
stone	-7437
▁(157	-7438
▁(163	-7439
▁Jeft	-7440
▁Magd	-7441
▁THAN	-7442
▁Tess	-7443
▁Togu	-7444
▁Turk	-7445
▁held	-7446
▁klar	-7447
▁läsa	-7448
▁shop	-7449
...","	-7450
andets	-7451
cirkul	-7452
ephant	-7453
refter	-7454
▁28:7)	-7455
▁7:24)	-7456
▁Helen	-7457
▁Isaac	-7458
▁JONAS	-7459
▁Monet	-7460
▁Money	-7461
▁Pharo	-7462
▁Rahab	-7463
▁Turku	-7464
▁Wärts	-7465
▁alone	-7466
▁dryck	-7467
▁lider	-7468
.34:30,	-7469
ertagen	-7470
ewerken	-7471
ignaler	-7472
ikation	-7473
ärefter	-7474
▁14:19)	-7475
▁14:27)	-7476
▁15:17)	-7477
▁15:21)	-7478
▁16:17)	-7479
▁17:25)	-7480
▁18:33)	-7481
▁1972."	-7482
▁19:15)	-7483
▁19:18)	-7484
▁19:35)	-7485
▁1:17-1	-7486
▁1:6-7)	-7487
▁1:7-8)	-7488
▁20:29)	-7489
▁21:17)	-7490
▁22:23)	-7491
▁23:19)	-7492
▁24:10)	-7493
▁26,000	-7494
▁27:35)	-7495
▁29:20)	-7496
▁37:28)	-7497
▁4:7-8)	-7498
▁6:17-1	-7499
rd	-7500
.".	-7501
."”	-7502
800	-7503
]."	-7504
eff	-7505
ime	-7506
ryt	-7507
▁Ai	-7508
▁Gd	-7509
▁Ka	-7510
▁Ky	-7511
,10)	-7512
bund	-7513
ergy	-7514
etim	-7515
film	-7516
gera	-7517
held	-7518
iest	-7519
izad	-7520
mper	-7521
resh	-7522
ttre	-7523
▁Död	-7524
▁Get	-7525
▁Inn	-7526
▁Jim	-7527
▁Kon	-7528
▁Kya	-7529
▁OBS	-7530
▁Rev	-7531
▁öga	-7532
alest	-7533
allad	-7534
andid	-7535
etags	-7536
inder	-7537
kning	-7538
sykhé	-7539
▁"800	-7540
▁Pest	-7541
▁Test	-7542
▁gass	-7543
▁ones	-7544
▁reel	-7545
Jewish	-7546
etimes	-7547
halifa	-7548
icians	-7549
ilizad	-7550
temper	-7551
▁14000	-7552
▁henne	-7553
▁lucky	-7554
▁manag	-7555
▁taket	-7556
▁watch	-7557
▁yttre	-7558
alestin	-7559
overing	-7560
rytande	-7561
ättning	-7562
▁15:31)	-7563
▁3:6-7)	-7564
▁7:5-6)	-7565
▁8:3-5)	-7566
▁8:5-6)	-7567
▁8:56).	-7568
▁9:1-2)	-7569
▁Affair	-7570
▁Anders	-7571
▁Annika	-7572
▁Arabic	-7573
▁Assuan	-7574
▁Assyri	-7575
▁August	-7576
▁Aztecs	-7577
▁Before	-7578
▁Behold	-7579
▁CLOMID	-7580
▁Canaan	-7581
▁Casset	-7582
▁Cellul	-7583
▁Coming	-7584
▁Cosmet	-7585
▁Dalene	-7586
▁Dallas	-7587
▁Dalmat	-7588
▁Depart	-7589
▁Driven	-7590
▁Emmaus	-7591
▁Esaias	-7592
▁Explos	-7593
▁FUTURE	-7594
▁Fadern	-7595
▁Fergus	-7596
▁Gagnef	-7597
▁Garden	-7598
▁Gdansk	-7599
cR	-7600
God	-7601
PEG	-7602
aze	-7603
uls	-7604
▁1:	-7605
▁3,	-7606
▁BÄ	-7607
▁GO	-7608
▁HR	-7609
▁Hi	-7610
▁hj	-7611
HTML	-7612
MPEG	-7613
arly	-7614
ktur	-7615
secR	-7616
ules	-7617
urna	-7618
▁191	-7619
▁3,5	-7620
▁Bot	-7621
▁Eve	-7622
▁GOD	-7623
▁HRC	-7624
▁Hou	-7625
▁Put	-7626
▁Tou	-7627
▁dej	-7628
▁dek	-7629
▁frl	-7630
▁kör	-7631
▁opp	-7632
▁pay	-7633
Great	-7634
brunt	-7635
kbart	-7636
posit	-7637
relse	-7638
utica	-7639
▁1:8)	-7640
▁Kuba	-7641
▁Mord	-7642
▁base	-7643
▁bear	-7644
▁beer	-7645
▁forg	-7646
▁gaze	-7647
▁hack	-7648
▁ital	-7649
▁mätt	-7650
▁seed	-7651
▁stod	-7652
▁sött	-7653
▁ökat	-7654
Musics	-7655
atiska	-7656
ustavs	-7657
vinced	-7658
▁Botan	-7659
▁DHTML	-7660
▁Magaz	-7661
▁Medan	-7662
▁These	-7663
▁books	-7664
▁jackp	-7665
positör	-7666
▁21:12)	-7667
▁Global	-7668
▁Golcon	-7669
▁Guinea	-7670
▁Gustav	-7671
▁HELIGE	-7672
▁Health	-7673
▁Heaven	-7674
▁Heikki	-7675
▁Ingrid	-7676
▁Irland	-7677
▁Jairus	-7678
▁Jakobs	-7679
▁Jeshua	-7680
▁Jordan	-7681
▁Juanjo	-7682
▁Kaguya	-7683
▁Kirsti	-7684
▁Levite	-7685
▁Luther	-7686
▁Lyrics	-7687
▁Maoris	-7688
▁Market	-7689
▁Martin	-7690
▁Mayans	-7691
▁Mellan	-7692
▁Morris	-7693
▁Murgrö	-7694
▁Napole	-7695
▁Nissen	-7696
▁Nordic	-7697
▁Office	-7698
▁Passen	-7699
Ty	-7700
WI	-7701
Är	-7702
.6.	-7703
asi	-7704
cus	-7705
erk	-7706
oro	-7707
pse	-7708
tag	-7709
▁AT	-7710
▁PÅ	-7711
▁UE	-7712
▁qi	-7713
ands	-7714
ebel	-7715
ebra	-7716
enth	-7717
eres	-7718
kans	-7719
otor	-7720
rypt	-7721
sikt	-7722
äcka	-7723
▁"11	-7724
▁Cas	-7725
▁Ele	-7726
▁SWI	-7727
▁UEF	-7728
▁hår	-7729
▁mel	-7730
▁stå	-7731
▁van	-7732
erver	-7733
iacus	-7734
ients	-7735
▁(1.9	-7736
▁Bäck	-7737
▁Resa	-7738
▁Rica	-7739
▁Sion	-7740
▁Spot	-7741
▁UEFA	-7742
▁Will	-7743
▁bark	-7744
▁kris	-7745
▁tort	-7746
▁voro	-7747
Yellow	-7748
ention	-7749
priser	-7750
proble	-7751
▁6:65)	-7752
▁Casin	-7753
▁Quick	-7754
▁costs	-7755
▁melan	-7756
▁stann	-7757
▁sälja	-7758
▁tillå	-7759
▁today	-7760
▁vikar	-7761
:65-67)	-7762
bankens	-7763
gjordes	-7764
▁Casino	-7765
▁Paulus	-7766
▁Philip	-7767
▁Pocket	-7768
▁Prince	-7769
▁Prodig	-7770
▁Public	-7771
▁Puerto	-7772
▁Quiser	-7773
▁Repent	-7774
▁Report	-7775
▁Safety	-7776
▁School	-7777
▁Secret	-7778
▁Sessan	-7779
▁Simple	-7780
▁Soleil	-7781
▁Symeon	-7782
▁Tajani	-7783
▁Tunnel	-7784
▁Viewer	-7785
▁Virgin	-7786
▁Walter	-7787
▁Weekly	-7788
▁Welles	-7789
▁Willet	-7790
▁adware	-7791
▁affärs	-7792
▁ageing	-7793
▁alltså	-7794
▁almast	-7795
▁almost	-7796
▁alread	-7797
▁annual	-7798
▁anpass	-7799
25	-7800
35	-7801
40	-7802
Wh	-7803
140	-7804
Ret	-7805
arl	-7806
bil	-7807
ico	-7808
idt	-7809
ilä	-7810
ivå	-7811
pil	-7812
▁AC	-7813
▁AG	-7814
▁Ba	-7815
▁CP	-7816
▁DC	-7817
▁RP	-7818
▁TR	-7819
▁Tu	-7820
▁^.	-7821
▁ej	-7822
Tack	-7823
amar	-7824
elig	-7825
gile	-7826
ilar	-7827
mask	-7828
onym	-7829
▁33-	-7830
▁CPU	-7831
▁Ced	-7832
▁RPG	-7833
▁SEK	-7834
▁Ska	-7835
▁Was	-7836
▁div	-7837
▁lil	-7838
▁pil	-7839
ersök	-7840
icker	-7841
iding	-7842
ilead	-7843
iljet	-7844
inska	-7845
unkit	-7846
yelse	-7847
▁(115	-7848
▁ACTS	-7849
▁Conf	-7850
▁FULL	-7851
▁Inte	-7852
▁Rico	-7853
▁evil	-7854
▁fjol	-7855
▁mann	-7856
▁sunk	-7857
amaran	-7858
▁""...	-7859
▁Agile	-7860
▁Force	-7861
▁Göran	-7862
▁Karta	-7863
▁Skall	-7864
▁Telig	-7865
▁lilac	-7866
▁night	-7867
▁shock	-7868
▁språk	-7869
▁stått	-7870
▁16:32)	-7871
▁Neveta	-7872
▁Tender	-7873
▁Tuomen	-7874
▁Unleas	-7875
▁apropå	-7876
▁barnet	-7877
▁basket	-7878
▁bazaar	-7879
▁befolk	-7880
▁behold	-7881
▁beslut	-7882
▁besvär	-7883
▁bevara	-7884
▁bilden	-7885
▁bitter	-7886
▁blowup	-7887
▁bordet	-7888
▁breakt	-7889
▁bright	-7890
▁broken	-7891
▁budord	-7892
▁bägare	-7893
▁böcker	-7894
▁circul	-7895
▁circum	-7896
▁clears	-7897
▁common	-7898
▁compan	-7899
,`	-7900
.0	-7901
30	-7902
GG	-7903
ii	-7904
-10	-7905
94)	-7906
Bud	-7907
kah	-7908
kär	-7909
oln	-7910
vad	-7911
▁73	-7912
▁AL	-7913
▁Kö	-7914
▁MN	-7915
▁Mt	-7916
▁TO	-7917
▁vÃ	-7918
ekah	-7919
heme	-7920
ming	-7921
oice	-7922
sequ	-7923
word	-7924
▁"6-	-7925
▁000	-7926
▁ABS	-7927
▁Jeh	-7928
▁Köp	-7929
▁Mon	-7930
▁OGG	-7931
▁Tro	-7932
▁bön	-7933
▁ena	-7934
▁lon	-7935
▁oil	-7936
beigt	-7937
ional	-7938
ioned	-7939
terar	-7940
teras	-7941
thlon	-7942
▁"(3)	-7943
▁'94)	-7944
▁Mill	-7945
▁They	-7946
▁move	-7947
▁unik	-7948
Budget	-7949
agande	-7950
▁9:21)	-7951
▁Daily	-7952
▁hours	-7953
▁plans	-7954
▁plast	-7955
▁veget	-7956
aucracy	-7957
enderar	-7958
verktyg	-7959
▁Athlon	-7960
▁Därför	-7961
▁Jabesh	-7962
▁MÖBLER	-7963
▁ansvar	-7964
▁använt	-7965
▁consum	-7966
▁cruise	-7967
▁debatt	-7968
▁debian	-7969
▁destru	-7970
▁diarré	-7971
▁direkt	-7972
▁disapp	-7973
▁doctor	-7974
▁dollar	-7975
▁dricka	-7976
▁drinks	-7977
▁dubbel	-7978
▁easier	-7979
▁elders	-7980
▁elimin	-7981
▁exempl	-7982
▁expert	-7983
▁export	-7984
▁faller	-7985
▁fallit	-7986
▁figure	-7987
▁finans	-7988
▁finnes	-7989
▁flavor	-7990
▁flicka	-7991
▁flight	-7992
▁flying	-7993
▁forces	-7994
▁formen	-7995
▁fraser	-7996
▁frågor	-7997
▁fördel	-7998
▁föresl	-7999
.»	-8000
8%	-8001
EP	-8002
Gör	-8003
Una	-8004
Var	-8005
nav	-8006
örj	-8007
▁JU	-8008
▁MM	-8009
▁Of	-8010
▁Pe	-8011
▁fo	-8012
-38)	-8013
Chad	-8014
body	-8015
edel	-8016
iate	-8017
navP	-8018
pper	-8019
sida	-8020
ypot	-8021
▁700	-8022
▁GUD	-8023
▁Jan	-8024
▁MMX	-8025
▁Pei	-8026
▁REP	-8027
▁ham	-8028
▁mil	-8029
▁sal	-8030
▁wel	-8031
atest	-8032
innan	-8033
scert	-8034
ånade	-8035
▁1977	-8036
▁Army	-8037
▁data	-8038
▁diet	-8039
▁door	-8040
▁fria	-8041
▁förv	-8042
▁inre	-8043
▁nått	-8044
▁room	-8045
▁uppn	-8046
iteten	-8047
kologi	-8048
ummens	-8049
▁Forth	-8050
▁Genom	-8051
▁Haman	-8052
▁Italy	-8053
▁andel	-8054
▁carry	-8055
▁hypot	-8056
▁scuba	-8057
▁sidan	-8058
▁treat	-8059
▁uppnå	-8060
▁Ölopp	-8061
:32-33)	-8062
▁32:19)	-8063
▁70.000	-8064
▁Ankara	-8065
▁Google	-8066
▁Latest	-8067
▁REPENT	-8068
▁Toller	-8069
▁bought	-8070
▁brukar	-8071
▁gammal	-8072
▁ganska	-8073
▁giving	-8074
▁grafik	-8075
▁gratis	-8076
▁guests	-8077
▁guider	-8078
▁guides	-8079
▁hacker	-8080
▁handel	-8081
▁handen	-8082
▁healed	-8083
▁helige	-8084
▁hälsan	-8085
▁håller	-8086
▁iPhone	-8087
▁income	-8088
▁instru	-8089
▁integr	-8090
▁joined	-8091
▁jungfr	-8092
▁kallar	-8093
▁kallas	-8094
▁killed	-8095
▁klasse	-8096
▁klicka	-8097
▁kläder	-8098
▁korset	-8099
--	-8100
93	-8101
__	-8102
Med	-8103
Pre	-8104
inv	-8105
ned	-8106
sic	-8107
Ând	-8108
▁sÖ	-8109
SPAM	-8110
ames	-8111
ding	-8112
ires	-8113
ving	-8114
▁181	-8115
▁244	-8116
▁3:4	-8117
▁asc	-8118
▁dit	-8119
▁ens	-8120
▁erk	-8121
▁hit	-8122
▁låg	-8123
▁win	-8124
▁öka	-8125
andes	-8126
ching	-8127
ening	-8128
ingen	-8129
järka	-8130
ostad	-8131
▁(159	-8132
▁1970	-8133
▁Barn	-8134
▁Even	-8135
▁Load	-8136
▁MOSE	-8137
▁Webb	-8138
▁förn	-8139
▁vase	-8140
färdat	-8141
▁"2017	-8142
▁1:10)	-8143
▁27:1)	-8144
▁45:1)	-8145
▁Preko	-8146
▁Samar	-8147
▁avser	-8148
▁decor	-8149
▁fears	-8150
▁sight	-8151
▁sträv	-8152
▁tills	-8153
▁turer	-8154
Preface	-8155
förhåll	-8156
▁3:4-5)	-8157
▁Abiram	-8158
▁Egicie	-8159
▁Gibson	-8160
▁Ismael	-8161
▁Yeshua	-8162
▁färdig	-8163
▁ibland	-8164
▁konung	-8165
▁kultur	-8166
▁kunder	-8167
▁kärnan	-8168
▁lesson	-8169
▁linjer	-8170
▁listed	-8171
▁lovade	-8172
▁länkar	-8173
▁lärare	-8174
▁making	-8175
▁mannen	-8176
▁manner	-8177
▁master	-8178
▁matter	-8179
▁medier	-8180
▁memory	-8181
▁meters	-8182
▁mighty	-8183
▁minska	-8184
▁mobile	-8185
▁modell	-8186
▁modern	-8187
▁munnen	-8188
▁museum	-8189
▁muzzle	-8190
▁männen	-8191
▁märket	-8192
▁mörker	-8193
▁nature	-8194
▁negoti	-8195
▁notera	-8196
▁närhet	-8197
▁objekt	-8198
▁oerhör	-8199
do	-8200
Con	-8201
JAV	-8202
Nor	-8203
arb	-8204
bly	-8205
iut	-8206
jar	-8207
rix	-8208
▁MU	-8209
▁ST	-8210
▁af	-8211
Carb	-8212
POST	-8213
förs	-8214
iges	-8215
oren	-8216
pany	-8217
våra	-8218
▁4.3	-8219
▁ASP	-8220
▁Att	-8221
▁Bul	-8222
▁Cor	-8223
▁STA	-8224
▁Sms	-8225
▁WIT	-8226
▁bag	-8227
▁ers	-8228
▁rep	-8229
▁tag	-8230
▁ton	-8231
▁top	-8232
ances	-8233
attte	-8234
talet	-8235
using	-8236
ämmer	-8237
▁(170	-8238
▁Amen	-8239
▁Beat	-8240
▁Braz	-8241
▁Kent	-8242
▁Only	-8243
▁Timo	-8244
▁bäst	-8245
▁elef	-8246
▁kung	-8247
▁reda	-8248
▁rock	-8249
▁skrä	-8250
▁ving	-8251
▁wish	-8252
cepted	-8253
nittet	-8254
papAbo	-8255
rigins	-8256
verkan	-8257
▁17:17	-8258
▁1996)	-8259
▁APOST	-8260
▁Efter	-8261
▁Gösta	-8262
▁Hagar	-8263
▁Jonah	-8264
▁State	-8265
▁anges	-8266
▁crash	-8267
▁dagar	-8268
▁maxim	-8269
▁månen	-8270
▁söker	-8271
▁årets	-8272
Abonnem	-8273
Convert	-8274
oration	-8275
▁Derrel	-8276
▁bodies	-8277
▁cometh	-8278
▁kungen	-8279
▁offers	-8280
▁office	-8281
▁olycka	-8282
▁omfatt	-8283
▁output	-8284
▁overst	-8285
▁pannan	-8286
▁parall	-8287
▁pengar	-8288
▁plants	-8289
▁platta	-8290
▁played	-8291
▁policy	-8292
▁pollut	-8293
▁polska	-8294
▁postas	-8295
▁prayer	-8296
▁pretty	-8297
▁prices	-8298
▁priset	-8299
);	-8300
13	-8301
?’	-8302
JA	-8303
Sh	-8304
UK	-8305
acy	-8306
asy	-8307
iny	-8308
kon	-8309
pit	-8310
▁")	-8311
▁-.	-8312
▁BN	-8313
▁Må	-8314
▁Ra	-8315
▁TC	-8316
▁UP	-8317
▁ak	-8318
▁ax	-8319
▁sÃ	-8320
▁”,	-8321
aket	-8322
name	-8323
poss	-8324
rikt	-8325
roch	-8326
▁BNP	-8327
▁Joe	-8328
▁Koo	-8329
▁Map	-8330
▁Pun	-8331
▁akt	-8332
▁bon	-8333
▁fer	-8334
▁pla	-8335
etica	-8336
lekar	-8337
naden	-8338
▁!926	-8339
▁1798	-8340
▁24:3	-8341
▁8:14	-8342
▁Fund	-8343
▁Line	-8344
▁juni	-8345
▁kejs	-8346
▁lugn	-8347
▁onöd	-8348
▁sons	-8349
▁tiny	-8350
▁vand	-8351
Spreng	-8352
discip	-8353
makten	-8354
rochip	-8355
▁2:13)	-8356
▁3:24)	-8357
▁7:10)	-8358
▁8:4-6	-8359
▁Manet	-8360
▁apost	-8361
▁begra	-8362
▁idéer	-8363
▁ljusa	-8364
▁rippa	-8365
▁slept	-8366
▁sword	-8367
▁track	-8368
▁välut	-8369
▁women	-8370
aPubUrl	-8371
possess	-8372
▁24:16)	-8373
▁32:24)	-8374
▁Helens	-8375
▁employ	-8376
▁purpos	-8377
▁reason	-8378
▁record	-8379
▁regard	-8380
▁rekomm	-8381
▁relief	-8382
▁remind	-8383
▁riches	-8384
▁riding	-8385
▁righte	-8386
▁riktig	-8387
▁safari	-8388
▁satisf	-8389
▁saying	-8390
▁script	-8391
▁secret	-8392
▁sekund	-8393
▁senast	-8394
▁sevärd	-8395
▁simple	-8396
▁skapar	-8397
▁skedde	-8398
▁skolen	-8399
.5	-8400
.:	-8401
2,	-8402
Ef	-8403
GP	-8404
MR	-8405
Oh	-8406
bu	-8407
tz	-8408
▁\	-8409
.5.	-8410
011	-8411
DAT	-8412
ato	-8413
hea	-8414
håg	-8415
jag	-8416
win	-8417
▁("	-8418
▁65	-8419
▁MB	-8420
▁WE	-8421
gäst	-8422
icah	-8423
oder	-8424
ousy	-8425
room	-8426
stav	-8427
▁BMR	-8428
▁Day	-8429
▁Din	-8430
▁Hem	-8431
▁Sex	-8432
▁pat	-8433
.264,	-8434
istor	-8435
nande	-8436
ramat	-8437
urred	-8438
▁Hans	-8439
▁Keep	-8440
▁Moon	-8441
▁Trek	-8442
▁Troy	-8443
▁orag	-8444
▁sell	-8445
▁shoo	-8446
▁wasn	-8447
Winner	-8448
arison	-8449
brukar	-8450
tecken	-8451
▁8:11)	-8452
▁Honom	-8453
▁Levit	-8454
▁Power	-8455
▁Treat	-8456
▁click	-8457
▁filen	-8458
▁grand	-8459
▁polis	-8460
▁söner	-8461
▁veten	-8462
istorik	-8463
rbrukar	-8464
▁11:40)	-8465
▁19:30)	-8466
▁21:14)	-8467
▁27:29)	-8468
▁32:15)	-8469
▁Rising	-8470
▁notice	-8471
▁nästan	-8472
▁skolor	-8473
▁skugga	-8474
▁sounds	-8475
▁source	-8476
▁stable	-8477
▁starka	-8478
▁stated	-8479
▁stilla	-8480
▁stroke	-8481
▁strong	-8482
▁ställa	-8483
▁stöder	-8484
▁större	-8485
▁sudden	-8486
▁summan	-8487
▁survey	-8488
▁suspic	-8489
▁sådana	-8490
▁sådant	-8491
▁såldes	-8492
▁sökord	-8493
▁söners	-8494
▁talade	-8495
▁teatro	-8496
▁tecken	-8497
▁temple	-8498
▁teorin	-8499
Ad	-8500
Do	-8501
Fr	-8502
Så	-8503
mö	-8504
But	-8505
HEW	-8506
dar	-8507
dot	-8508
ees	-8509
oma	-8510
rif	-8511
tog	-8512
▁GM	-8513
▁TH	-8514
ovia	-8515
ufos	-8516
▁(?)	-8517
▁INT	-8518
▁Ned	-8519
▁Reg	-8520
▁Sil	-8521
▁Säg	-8522
▁dar	-8523
▁frn	-8524
▁föd	-8525
▁sat	-8526
aying	-8527
laget	-8528
▁(...	-8529
▁RMVB	-8530
▁hydr	-8531
▁jude	-8532
▁kaff	-8533
▁left	-8534
▁mass	-8535
▁matk	-8536
▁role	-8537
▁roof	-8538
▁sail	-8539
▁sens	-8540
▁surr	-8541
▁äter	-8542
90430)	-8543
hidden	-8544
▁3:11)	-8545
▁Andas	-8546
▁Dubai	-8547
▁Lions	-8548
▁Meyer	-8549
▁absur	-8550
▁false	-8551
▁girls	-8552
▁laget	-8553
▁tillg	-8554
▁vinna	-8555
enterar	-8556
fulness	-8557
▁9:2-3)	-8558
▁Jeftas	-8559
▁Mozart	-8560
▁Munich	-8561
▁VISTAS	-8562
▁fyllda	-8563
▁heders	-8564
▁issued	-8565
▁längre	-8566
▁medium	-8567
▁mental	-8568
▁spelar	-8569
▁thanks	-8570
▁theirs	-8571
▁threat	-8572
▁throne	-8573
▁timmar	-8574
▁tittar	-8575
▁titulo	-8576
▁transl	-8577
▁trends	-8578
▁trying	-8579
▁träffa	-8580
▁tränat	-8581
▁tvekan	-8582
▁undrar	-8583
▁united	-8584
▁uppman	-8585
▁utform	-8586
▁vacker	-8587
▁values	-8588
▁veckan	-8589
▁verket	-8590
▁videos	-8591
▁vinden	-8592
▁visade	-8593
▁visdom	-8594
▁värdet	-8595
▁värmen	-8596
▁växter	-8597
▁warned	-8598
▁webbad	-8599
By	-8600
hu	-8601
».	-8602
Rätt	-8603
besk	-8604
märk	-8605
▁hol	-8606
▁(132	-8607
▁Then	-8608
▁didn	-8609
▁enig	-8610
▁frisk	-8611
▁klädd	-8612
$$$$...	-8613
entligt	-8614
olution	-8615
▁15:15)	-8616
▁2:1-2)	-8617
▁dödade	-8618
▁wholes	-8619
▁youcan	-8620
▁Ängeln	-8621
▁äldste	-8622
▁älskat	-8623
▁öppnas	-8624
:31-32).	-8625
Dronning	-8626
Estrella	-8627
Internet	-8628
Kundvagn	-8629
NINGARNA	-8630
Nehemiah	-8631
Upphandl	-8632
abitants	-8633
abonents	-8634
alonians	-8635
ancellor	-8636
andalone	-8637
breaking	-8638
brottsår	-8639
demoLidz	-8640
ditional	-8641
ellertid	-8642
enomenal	-8643
eslagare	-8644
fattning	-8645
fokusera	-8646
formance	-8647
iciasdot	-8648
iepDetal	-8649
ilizados	-8650
iljetter	-8651
inerande	-8652
ligSumma	-8653
nosutitI	-8654
nowledge	-8655
nozFitri	-8656
olyfonia	-8657
onsbacka	-8658
ordinary	-8659
parateth	-8660
phesians	-8661
predikan	-8662
ribution	-8663
räffande	-8664
semester	-8665
shypotek	-8666
skansler	-8667
sommarco	-8668
splitter	-8669
stepräst	-8670
stränder	-8671
tainment	-8672
utopilot	-8673
xLoveKFC	-8674
▁05/02/2	-8675
▁12:1-3)	-8676
▁12:7-8)	-8677
▁14:15).	-8678
▁14:5-6)	-8679
▁17:2-3)	-8680
▁19:5-6)	-8681
▁21:1-2)	-8682
▁21:7-8)	-8683
▁28:5-6)	-8684
▁2:1,10)	-8685
▁2:23-24	-8686
▁33:3-4)	-8687
▁5:7-10)	-8688
▁8:16-17	-8689
▁Absalom	-8690
▁Adsense	-8691
▁Against	-8692
▁Allhabo	-8693
▁Antonio	-8694
▁Arrival	-8695
▁Austral	-8696
▁Baptist	-8697
▁Believe	-8698
▁Between	-8699
▁Billiga	-8700
▁Bolivia	-8701
▁Bootstb	-8702
▁Bracken	-8703
▁Brainst	-8704
▁Breathe	-8705
▁CORINTH	-8706
▁Centres	-8707
▁Chapter	-8708
▁Chicago	-8709
▁Compare	-8710
▁Creator	-8711
▁Culture	-8712
▁Cutting	-8713
▁Deliver	-8714
▁Desktop	-8715
▁Dragons	-8716
▁Dykning	-8717
▁EPILEPS	-8718
▁Egicpie	-8719
▁Ekologi	-8720
▁England	-8721
▁English	-8722
▁Engwall	-8723
▁Falling	-8724
▁Fingers	-8725
▁Firefox	-8726
▁Foreign	-8727
▁Fosheim	-8728
▁FreeBSD	-8729
▁Friends	-8730
▁GENESIS	-8731
▁Gotland	-8732
▁Harvard	-8733
▁Hayashi	-8734
▁Healing	-8735
▁Helpful	-8736
▁Himself	-8737
▁Houston	-8738
▁However	-8739
▁Insight	-8740
▁Ishmael	-8741
▁Italien	-8742
▁Januari	-8743
▁KORINTI	-8744
▁Kessler	-8745
▁Khalifa	-8746
▁Klövern	-8747
▁Kustavi	-8748
▁Kvinnor	-8749
▁Labtech	-8750
▁Lasarus	-8751
▁Lazarus	-8752
▁Leagues	-8753
▁Limited	-8754
▁Located	-8755
▁MATTEUS	-8756
▁MAXWELL	-8757
▁Machine	-8758
▁Million	-8759
▁Mozilla	-8760
▁Norberg	-8761
▁Origins	-8762
▁Ottavia	-8763
▁Outlook	-8764
▁PRILIGY	-8765
▁Patient	-8766
▁Pentium	-8767
▁Pharoah	-8768
▁Phoenix	-8769
▁Pistols	-8770
▁Planner	-8771
▁Putting	-8772
▁Quantum	-8773
▁RECEIVE	-8774
▁Reasons	-8775
▁Rebecka	-8776
▁Rebekah	-8777
▁Roaming	-8778
▁Scanlan	-8779
▁Schmidt	-8780
▁Siegert	-8781
▁Sixteen	-8782
▁Society	-8783
▁Stabbet	-8784
▁Strange	-8785
▁Stripes	-8786
▁Surveys	-8787
▁Synonym	-8788
▁Teacher	-8789
▁Technik	-8790
▁Trädgår	-8791
▁Univers	-8792
▁Uppsala	-8793
▁VITAMIN	-8794
▁Vackert	-8795
▁Vestman	-8796
▁WELCOME	-8797
▁Website	-8798
▁Wounded	-8799
▁Yehudah	-8800
▁Zhineng	-8801
▁account	-8802
▁aggress	-8803
▁already	-8804
▁amounts	-8805
▁analyze	-8806
▁andliga	-8807
▁animals	-8808
▁anvÄnds	-8809
▁används	-8810
▁arbetet	-8811
▁aspects	-8812
▁avgudad	-8813
▁banners	-8814
▁becomes	-8815
▁besegra	-8816
▁blommor	-8817
▁borders	-8818
▁brindle	-8819
▁brukade	-8820
▁calinem	-8821
▁capture	-8822
▁categor	-8823
▁changes	-8824
▁charter	-8825
▁chutney	-8826
▁clients	-8827
▁colours	-8828
▁consult	-8829
▁corrupt	-8830
▁covered	-8831
▁dagarna	-8832
▁default	-8833
▁depends	-8834
▁deserve	-8835
▁destroy	-8836
▁diverse	-8837
▁dollars	-8838
▁driving	-8839
▁drömmen	-8840
▁dynamic	-8841
▁economy	-8842
▁effects	-8843
▁elefant	-8844
▁enemies	-8845
▁enquire	-8846
▁exacted	-8847
▁experts	-8848
▁fashion	-8849
▁feature	-8850
▁feeling	-8851
▁flowers	-8852
▁folders	-8853
▁formler	-8854
▁fotboll	-8855
▁fysiska	-8856
▁förblir	-8857
▁föremål	-8858
▁förmörk	-8859
▁förstod	-8860
▁förstär	-8861
▁försöka	-8862
▁gammalt	-8863
▁gassing	-8864
▁gouache	-8865
▁greatly	-8866
▁helpful	-8867
▁hemsida	-8868
▁highest	-8869
▁hjälper	-8870
▁hungrar	-8871
▁hädelse	-8872
▁hädiskt	-8873
▁imagine	-8874
▁improve	-8875
▁include	-8876
▁interim	-8877
▁interpr	-8878
▁islands	-8879
▁jackpot	-8880
▁januari	-8881
▁journey	-8882
▁jämfört	-8883
▁komfort	-8884
▁koncern	-8885
▁korrupt	-8886
▁kostnad	-8887
▁kroppar	-8888
▁kunskap	-8889
▁lawless	-8890
▁leading	-8891
▁legrica	-8892
▁lejonet	-8893
▁logical	-8894
▁lärjung	-8895
▁lönekly	-8896
▁magical	-8897
▁markets	-8898
▁married	-8899
▁medicin	-8900
▁mentala	-8901
▁migrain	-8902
▁millenn	-8903
▁miracle	-8904
▁moderna	-8905
▁monitor	-8906
▁musiken	-8907
▁natural	-8908
▁numbers	-8909
▁närings	-8910
▁oavsett	-8911
▁objects	-8912
▁odjuret	-8913
▁områden	-8914
▁området	-8915
▁optimal	-8916
▁ormring	-8917
▁otrolig	-8918
▁outside	-8919
▁overall	-8920
▁parties	-8921
▁persons	-8922
▁pharaoh	-8923
▁planera	-8924
▁politik	-8925
▁priests	-8926
▁princip	-8927
▁private	-8928
▁protect	-8929
▁protest	-8930
▁rapport	-8931
▁reading	-8932
▁require	-8933
▁riktigt	-8934
▁rundtur	-8935
▁samarit	-8936
▁samling	-8937
▁sammant	-8938
▁section	-8939
▁serious	-8940
▁session	-8941
▁sinking	-8942
▁sjunkit	-8943
▁skapare	-8944
▁skrivet	-8945
▁skyddar	-8946
▁society	-8947
▁somliga	-8948
▁spanska	-8949
▁spyware	-8950
▁stepped	-8951
▁stjärna	-8952
▁storlek	-8953
▁student	-8954
▁stycket	-8955
▁summary	-8956
▁symbols	-8957
▁synders	-8958
▁syssels	-8959
▁systems	-8960
▁thereof	-8961
▁thereon	-8962
▁tillhör	-8963
▁titeres	-8964
▁tongues	-8965
▁totally	-8966
▁tourist	-8967
▁tournam	-8968
▁trender	-8969
▁trofast	-8970
▁trouble	-8971
▁tydliga	-8972
▁uppfyll	-8973
▁utvalda	-8974
▁vackert	-8975
▁vardags	-8976
▁varying	-8977
▁viktigt	-8978
▁vitamin	-8979
▁vädring	-8980
▁välkänd	-8981
▁welcome	-8982
▁whereas	-8983
▁younger	-8984
▁Åkesons	-8985
▁övervak	-8986
Innventia	-8987
Katalogab	-8988
Oberoende	-8989
Optimized	-8990
PCfighter	-8991
Sessionen	-8992
Sprengung	-8993
addBasket	-8994
andlhuber	-8995
belysning	-8996
catAktivs	-8997
etjänster	-8998
forskning	-8999
hantering	-9000
ificerade	-9001
industrin	-9002
installer	-9003
isningens	-9004
kompanija	-9005
osophists	-9006
projektet	-9007
publicets	-9008
rapporten	-9009
ställande	-9010
ställdhet	-9011
sutitLidz	-9012
threading	-9013
visoriskt	-9014
ögenheter	-9015
▁14:19-22	-9016
▁14:8-10)	-9017
▁18:9-10)	-9018
▁1:11-12)	-9019
▁21:9-10)	-9020
▁2:11-12)	-9021
▁2:13-14)	-9022
▁2:15-17)	-9023
▁2:23-25)	-9024
▁2:32-33)	-9025
▁4:13-14)	-9026
▁4:37-38)	-9027
▁6:20-21)	-9028
▁7:22-23)	-9029
▁8:52-54)	-9030
▁9:24-25)	-9031
▁9:34-35)	-9032
▁Archives	-9033
▁BAPTIZED	-9034
▁BUNGALOW	-9035
▁Bachmann	-9036
▁Benjamin	-9037
▁Betselem	-9038
▁Brethren	-9039
▁BÄTTRING	-9040
▁Carrying	-9041
▁Chairman	-9042
▁Darkness	-9043
▁December	-9044
▁Disciple	-9045
▁Facebook	-9046
▁Features	-9047
▁Ferguson	-9048
▁FileName	-9049
▁Gambling	-9050
▁Golconda	-9051
▁Jacobson	-9052
▁Jephthah	-9053
▁Kaesberg	-9054
▁Kaliforn	-9055
▁Kennedys	-9056
▁Keyboard	-9057
▁Kvalitet	-9058
▁Lewerken	-9059
▁Lighting	-9060
▁Lindborg	-9061
▁Magazine	-9062
▁Mallorca	-9063
▁Mourning	-9064
▁Murgröna	-9065
▁Napoleon	-9066
▁National	-9067
▁November	-9068
▁Partners	-9069
▁Parviain	-9070
▁Prodigal	-9071
▁Recorder	-9072
▁Religion	-9073
▁Resultat	-9074
▁Richards	-9075
▁STRANDEN	-9076
▁Shuurman	-9077
▁Software	-9078
▁Tessalon	-9079
▁Upcoming	-9080
▁Vangstad	-9081
▁Wärtsilä	-9082
▁accepted	-9083
▁accessed	-9084
▁adoption	-9085
▁anhöriga	-9086
▁artistic	-9087
▁asterisk	-9088
▁bakgrund	-9089
▁becoming	-9090
▁betweent	-9091
▁beutiful	-9092
▁bihustru	-9093
▁changing	-9094
▁cheapest	-9095
▁children	-9096
▁combined	-9097
▁composer	-9098
▁creating	-9099
▁criteria	-9100
▁cruising	-9101
▁cultures	-9102
▁daughter	-9103
▁debutant	-9104
▁demonstr	-9105
▁dessutom	-9106
▁diarrhea	-9107
▁dokument	-9108
▁därefter	-9109
▁economic	-9110
▁elephant	-9111
▁emerging	-9112
▁engelska	-9113
▁enklaste	-9114
▁equality	-9115
▁estetica	-9116
▁everyone	-9117
▁exciting	-9118
▁experien	-9119
▁experter	-9120
▁exposure	-9121
▁fakultat	-9122
▁fartyget	-9123
▁features	-9124
▁flygande	-9125
▁forntida	-9126
▁fotograf	-9127
▁function	-9128
▁förbered	-9129
▁förlorat	-9130
▁förmågan	-9131
▁förstöra	-9132
▁giftsand	-9133
▁greatest	-9134
▁happened	-9135
▁hjälpsam	-9136
▁hotellen	-9137
▁hängiven	-9138
▁industry	-9139
▁jealousy	-9140
▁keywords	-9141
▁kindreds	-9142
▁koncentr	-9143
▁konsolid	-9144
▁kontoret	-9145
▁konungen	-9146
▁leverera	-9147
▁manufact	-9148
▁markerar	-9149
▁medicine	-9150
▁medieval	-9151
▁medvetet	-9152
▁missbruk	-9153
▁moreover	-9154
▁mottager	-9155
▁normally	-9156
▁november	-9157
▁någonsin	-9158
▁operated	-9159
▁original	-9160
▁otroligt	-9161
▁particol	-9162
▁partners	-9163
▁password	-9164
▁personer	-9165
▁populära	-9166
▁portable	-9167
▁premises	-9168
▁programs	-9169
▁promised	-9170
▁promises	-9171
▁provides	-9172
▁prydnads	-9173
▁pyramids	-9174
▁pålitlig	-9175
▁question	-9176
▁realized	-9177
▁recently	-9178
▁reciproc	-9179
▁relation	-9180
▁released	-9181
▁relevant	-9182
▁religion	-9183
▁resurser	-9184
▁riktning	-9185
▁riskerna	-9186
▁räddning	-9187
▁samtliga	-9188
▁selected	-9189
▁serverar	-9190
▁shipyard	-9191
▁slightly	-9192
▁släpptes	-9193
▁snabbare	-9194
▁southern	-9195
▁souvenir	-9196
▁speaking	-9197
▁specific	-9198
▁starting	-9199
▁stranden	-9200
▁strategi	-9201
▁strategy	-9202
▁studying	-9203
▁supports	-9204
▁surprise	-9205
▁symbolen	-9206
▁systemet	-9207
▁targeted	-9208
▁teachers	-9209
▁teosofer	-9210
▁thankful	-9211
▁tillåter	-9212
▁tillåtet	-9213
▁tourists	-9214
▁training	-9215
▁transfer	-9216
▁trädgård	-9217
▁undervis	-9218
▁ungdomar	-9219
▁unnecess	-9220
▁untimely	-9221
▁utfärdat	-9222
▁utmaning	-9223
▁utveckla	-9224
▁vardagen	-9225
▁variable	-9226
▁vemodigt	-9227
▁verkliga	-9228
▁verkligt	-9229
▁violence	-9230
▁withheld	-9231
▁överdriv	-9232
▁överföra	-9233
92.168.2.0	-9234
Abonnemang	-9235
Kulturnytt	-9236
Registered	-9237
Terminated	-9238
bassadören	-9239
chissenste	-9240
handlingar	-9241
iepDetalas	-9242
liveTender	-9243
ningsmedel	-9244
uzvaretajs	-9245
vertheless	-9246
▁10:13-14)	-9247
▁10:34-35)	-9248
▁10:41-42)	-9249
▁11:41-43)	-9250
▁12:29-31)	-9251
▁13:20-21)	-9252
▁13:24-25)	-9253
▁15:20-21)	-9254
▁16:20-21)	-9255
▁17:14-15)	-9256
▁17:22-23)	-9257
▁18:11-12)	-9258
▁18:11-13)	-9259
▁18:38-40)	-9260
▁19:11-12)	-9261
▁19:25-27)	-9262
▁20090430)	-9263
▁20:22-23)	-9264
▁21:10-11)	-9265
▁21:17-18)	-9266
▁21:34-35)	-9267
▁22:10-12)	-9268
▁22:20-21)	-9269
▁23:44-45)	-9270
▁24:26-27)	-9271
▁24:65-67)	-9272
▁26:40-41)	-9273
▁27:33-34)	-9274
▁27:57-58)	-9275
▁41:25-26)	-9276
▁4:12-13).	-9277
▁Ammonites	-9278
▁Apartment	-9279
▁Appearing	-9280
▁Aztekerna	-9281
▁Cellulose	-9282
▁Challenge	-9283
▁Chrysanth	-9284
▁Copyright	-9285
▁Cosmetics	-9286
▁Destroyed	-9287
▁Directory	-9288
▁Disciples	-9289
▁Egyptians	-9290
▁FRAMTIDEN	-9291
▁Granström	-9292
▁Inventory	-9293
▁LucasArts	-9294
▁Lufthansa	-9295
▁MOSEBOKEN	-9296
▁Maorierna	-9297
▁Marketing	-9298
▁Mechanica	-9299
▁Nonstatic	-9300
▁Orrensalo	-9301
▁Passenger	-9302
▁Polyfonia	-9303
▁Powerball	-9304
▁Processor	-9305
▁Programme	-9306
▁Receiving	-9307
▁Reference	-9308
▁Relations	-9309
▁SaveruPro	-9310
▁Sibimotor	-9311
▁Sommardal	-9312
▁Spiritual	-9313
▁Stockholm	-9314
▁Symposium	-9315
▁THESSALON	-9316
▁Therefore	-9317
▁Thesaurus	-9318
▁Unleashed	-9319
▁Wolverine	-9320
▁Wordpress	-9321
▁Zilliacus	-9322
▁announced	-9323
▁attraktiv	-9324
▁beginning	-9325
▁begränsas	-9326
▁bestående	-9327
▁betydelse	-9328
▁blaspheme	-9329
▁blasphemy	-9330
▁brilliant	-9331
▁challenge	-9332
▁contained	-9333
▁convinced	-9334
▁corporate	-9335
▁correctly	-9336
▁customers	-9337
▁dataskydd	-9338
▁decentral	-9339
▁delicious	-9340
▁designers	-9341
▁difficult	-9342
▁direction	-9343
▁effektivt	-9344
▁egyptiska	-9345
▁emotional	-9346
▁enjoyment	-9347
▁existence	-9348
▁expansive	-9349
▁flygplats	-9350
▁foreheads	-9351
▁framhålla	-9352
▁förbjudet	-9353
▁förbättra	-9354
▁fördummad	-9355
▁förklarar	-9356
▁förtjänar	-9357
▁genomföra	-9358
▁harmonisk	-9359
▁havererat	-9360
▁historien	-9361
▁inclusice	-9362
▁kryssning	-9363
▁litterära	-9364
▁lärjungen	-9365
▁materials	-9366
▁medeltida	-9367
▁mediciner	-9368
▁mentioned	-9369
▁migraines	-9370
▁naturliga	-9371
▁objective	-9372
▁operators	-9373
▁oragnizuj	-9374
▁poisoning	-9375
▁practiced	-9376
▁praktiken	-9377
▁precisely	-9378
▁psalmerna	-9379
▁purposely	-9380
▁reference	-9381
▁relatives	-9382
▁religious	-9383
▁religiösa	-9384
▁remaining	-9385
▁remission	-9386
▁righteous	-9387
▁samarbete	-9388
▁speciellt	-9389
▁spiritual	-9390
▁streaming	-9391
▁submitted	-9392
▁survivors	-9393
▁synnerhet	-9394
▁säkerhets	-9395
▁söktermer	-9396
▁technique	-9397
▁temporary	-9398
▁terrorist	-9399
▁tolerance	-9400
▁turnering	-9401
▁underhåll	-9402
▁uppgifter	-9403
▁utlösning	-9404
▁utstrålar	-9405
▁variabler	-9406
▁variables	-9407
Babaannecig	-9408
SPAMfighter	-9409
catNeaktivs	-9410
ensionering	-9411
förgiftning	-9412
liveCatalog	-9413
logoutTitle	-9414
navPieejama	-9415
nosutitIesn	-9416
restorePass	-9417
scertifikat	-9418
secRemainig	-9419
sportföljen	-9420
▁...$$$$...	-9421
▁05/02/2011	-9422
▁APOSTLAGÄR	-9423
▁Ambassador	-9424
▁Bäckhammar	-9425
▁Chancellor	-9426
▁Europeiska	-9427
▁Foundation	-9428
▁Guesthouse	-9429
▁Institutes	-9430
▁Intermezzo	-9431
▁Invocation	-9432
▁Jerusalmes	-9433
▁Kurzurlaub	-9434
▁Mayafolket	-9435
▁PestPatrol	-9436
▁Procedural	-9437
▁QuickScore	-9438
▁Spotlights	-9439
▁Stiftelsen	-9440
▁Wilderness	-9441
▁additional	-9442
▁allsmäktig	-9443
▁allvarliga	-9444
▁annorlunda	-9445
▁appearance	-9446
▁astrologer	-9447
▁atmosphere	-9448
▁attractive	-9449
▁avhandling	-9450
▁avslutades	-9451
▁background	-9452
▁befrielsen	-9453
▁behandling	-9454
▁beneficial	-9455
▁billigaste	-9456
▁businesses	-9457
▁byråkratin	-9458
▁calamities	-9459
▁casualties	-9460
▁categories	-9461
▁challenges	-9462
▁collection	-9463
▁comparison	-9464
▁conditions	-9465
▁contextual	-9466
▁conversion	-9467
▁emellertid	-9468
▁exponering	-9469
▁fantastisk	-9470
▁fortsattte	-9471
▁fullbordas	-9472
▁företräder	-9473
▁förstöring	-9474
▁försvunnit	-9475
▁försäkring	-9476
▁handlingar	-9477
▁harmonious	-9478
▁helgedomen	-9479
▁highlights	-9480
▁hundredths	-9481
▁inactivity	-9482
▁innehållet	-9483
▁installera	-9484
▁introduced	-9485
▁italienska	-9486
▁journalist	-9487
▁kompositör	-9488
▁kraftfulla	-9489
▁kraftigare	-9490
▁kulturerna	-9491
▁känslomäss	-9492
▁leverbrunt	-9493
▁liberation	-9494
▁limitation	-9495
▁ljudformat	-9496
▁minneskort	-9497
▁nospartiet	-9498
▁officially	-9499
▁officiella	-9500
▁officiellt	-9501
▁omfattande	-9502
▁overstated	-9503
▁permission	-9504
▁population	-9505
▁practicing	-9506
▁presentera	-9507
▁producerad	-9508
▁profession	-9509
▁profeterna	-9510
▁programmer	-9511
▁revelation	-9512
▁rättfärdig	-9513
▁scientific	-9514
▁scientists	-9515
▁separateth	-9516
▁skadestÂnd	-9517
▁soundtrack	-9518
▁synpunkter	-9519
▁tabernacle	-9520
▁technology	-9521
▁theability	-9522
▁themselves	-9523
▁tillfället	-9524
▁trädgården	-9525
▁uppenbarar	-9526
▁uppkomsten	-9527
▁vandringar	-9528
▁vedertagen	-9529
▁vegetables	-9530
▁åldrandets	-9531
▁återvänder	-9532
Uppenbarelse	-9533
aktivsSkatit	-9534
closedServer	-9535
intresserade	-9536
steprästerna	-9537
▁Association	-9538
▁BEGYNNELSEN	-9539
▁Brandlhuber	-9540
▁CORINTHIANS	-9541
▁Certificate	-9542
▁Classifieds	-9543
▁Fundamental	-9544
▁Gustavianum	-9545
▁Information	-9546
▁Merchandise	-9547
▁Multiformat	-9548
▁Noticiasdot	-9549
▁Simonsbacka	-9550
▁Tenderhouse	-9551
▁Tuomenvirta	-9552
▁association	-9553
▁astrologisk	-9554
▁attractions	-9555
▁banbrytande	-9556
▁berättelsen	-9557
▁blasphemies	-9558
▁brudgummens	-9559
▁bureaucracy	-9560
▁capitalists	-9561
▁circulation	-9562
▁description	-9563
▁disappeared	-9564
▁ejaculating	-9565
▁entreprenör	-9566
▁fantastiska	-9567
▁fascinating	-9568
▁fotografier	-9569
▁hundradelar	-9570
▁immediately	-9571
▁imponerande	-9572
▁improvement	-9573
▁inaktivitet	-9574
▁ingredients	-9575
▁institution	-9576
▁intelligent	-9577
▁interesting	-9578
▁konstaterar	-9579
▁kontrollera	-9580
▁löneklyftan	-9581
▁marknadsför	-9582
▁materialism	-9583
▁matkvalitet	-9584
▁meaningless	-9585
▁melancholic	-9586
▁meningslöst	-9587
▁mentorships	-9588
▁människorna	-9589
▁nedladdning	-9590
▁opportunity	-9591
▁positioning	-9592
▁possibility	-9593
▁presenteras	-9594
▁progressive	-9595
▁pyramiderna	-9596
▁recommended	-9597
▁restaurants	-9598
▁ryggproblem	-9599
▁screensaver	-9600
▁sevärdheter	-9601
▁skicklighet	-9602
▁tangentbord	-9603
▁webbplatser	-9604
catAktivsLidz	-9605
cirkulationen	-9606
▁Econometrics	-9607
▁Interpreting	-9608
▁Landshypotek	-9609
▁Resurrection	-9610
▁Stabbetorget	-9611
▁Theosophists	-9612
▁astrological	-9613
▁avgudadyrkan	-9614
▁befolkningen	-9615
▁breakthrough	-9616
▁commandments	-9617
▁delrapporten	-9618
▁fascinerande	-9619
▁följeslagare	-9620
▁förhållanden	-9621
▁förändringar	-9622
▁härlighetens	-9623
▁ingredienser	-9624
▁institutions	-9625
▁jämställdhet	-9626
▁kapitalister	-9627
▁kommissionär	-9628
▁negotiations	-9629
▁nostandalone	-9630
▁omröstningen	-9631
▁organisation	-9632
▁organization	-9633
▁provisoriskt	-9634
▁representing	-9635
▁sammanhanget	-9636
▁teknikområde	-9637
▁utvecklingen	-9638
▁webbadresser	-9639
▁webbhistorik	-9640
▁översättning	-9641
addBasketError	-9642
nolikumaPubUrl	-9643
redovisningens	-9644
▁Rekommenderas	-9645
▁Thessalonians	-9646
▁bergspredikan	-9647
▁beskrivningen	-9648
▁betweentracks	-9649
▁concentration	-9650
▁entertainment	-9651
▁especilizados	-9652
▁extraordinary	-9653
▁flygbiljetter	-9654
▁förmögenheter	-9655
▁genombrottsår	-9656
▁institutioner	-9657
▁kvalificerade	-9658
▁positionering	-9659
▁rättfärdighet	-9660
▁traditionellt	-9661
ageingforskning	-9662
▁Bootstbesitzer	-9663
▁administration	-9664
▁recommendation	-9665
▁sammanfattning	-9666
▁uppenbarelsens	-9667
▁FileNameFilters	-9668
▁KORINTIERBREVET	-9669
▁angeschissenste	-9670
▁fakultatywneych	-9671
▁hittillsvarande	-9672
▁koncentrationsl	-9673
▁prydnadsföremål	-9674
.8%	-9675
934	-9676
AJA	-9677
FÖR	-9678
JUS	-9679
ojk	-9680
ÄRD	-9681
3.8%	-9682
933)	-9683
?’”(	-9684
ARJA	-9685
Efes	-9686
Norr	-9687
Soma	-9688
Sörj	-9689
Verk	-9690
When	-9691
fråg	-9692
ihil	-9693
möss	-9694
opsf	-9695
puls	-9696
regn	-9697
ruhu	-9698
träd	-9699
Vät	-9700
uhu	-9701
ADEN	-9702
IEST	-9703
dygn	-9704
like	-9705
ombs	-9706
ÄLLE	-9707
Ätta	-9708
ÖRST	-9709
▁95/	-9710
▁Jez	-9711
▁LUK	-9712
▁NUT	-9713
▁SEM	-9714
▁UPW	-9715
▁hjr	-9716
▁mnn	-9717
▁öva	-9718
!!!""	-9719
5:5).	-9720
6-17)	-9721
ARFÖR	-9722
Boshe	-9723
DATED	-9724
ESAJA	-9725
Frost	-9726
FÄLLE	-9727
LUNGA	-9728
Prije	-9729
THERE	-9730
Uppfr	-9731
Vätsk	-9732
WinCD	-9733
aarin	-9734
anasi	-9735
bygga	-9736
craft	-9737
doors	-9738
drawn	-9739
fråga	-9740
iezer	-9741
imacy	-9742
ivuhu	-9743
koder	-9744
laten	-9745
lming	-9746
mnast	-9747
ntime	-9748
nyttj	-9749
olete	-9750
oudly	-9751
pestu	-9752
piece	-9753
riftt	-9754
sidor	-9755
snabb	-9756
stadg	-9757
stavl	-9758
tired	-9759
tryck	-9760
tvång	-9761
tzung	-9762
vivel	-9763
ÄRDAS	-9764
ÖRSTA	-9765
äljar	-9766
▁"---	-9767
▁1325	-9768
▁6:4)	-9769
▁ALLT	-9770
▁Bojk	-9771
▁CONT	-9772
▁Djup	-9773
▁EDER	-9774
▁Glim	-9775
▁Golg	-9776
▁INTE	-9777
▁JUNE	-9778
▁Jehu	-9779
▁Karl	-9780
▁MAKE	-9781
▁Moln	-9782
▁PAGE	-9783
▁Språ	-9784
▁TACK	-9785
▁THIS	-9786
▁Tyst	-9787
▁URLs	-9788
▁USER	-9789
▁afra	-9790
▁anii	-9791
▁dygn	-9792
▁earl	-9793
▁fabr	-9794
▁flew	-9795
▁flex	-9796
▁foal	-9797
▁frrn	-9798
▁fält	-9799
CKE	-9800
EBL	-9801
OOL	-9802
Ezek	-9803
joic	-9804
▁NIV	-9805
EBLES	-9806
glass	-9807
glats	-9808
▁ICKE	-9809
▁POOL	-9810
▁bomb	-9811
▁grät	-9812
▁gömd	-9813
▁hamt	-9814
▁hjul	-9815
▁hård	-9816
▁ihåg	-9817
▁kräv	-9818
▁kört	-9819
▁laun	-9820
▁lemm	-9821
▁moln	-9822
▁omdö	-9823
▁otry	-9824
▁pigg	-9825
▁plac	-9826
▁psyk	-9827
▁puts	-9828
▁sälj	-9829
▁tolk	-9830
▁tolv	-9831
▁växa	-9832
▁woke	-9833
▁ägna	-9834
'...."	-9835
Adding	-9836
CDbesk	-9837
Faster	-9838
Förkär	-9839
Gilead	-9840
Lindar	-9841
OLLDOM	-9842
PPIEST	-9843
Psykhé	-9844
Retail	-9845
aftung	-9846
alaxen	-9847
ameser	-9848
ampanj	-9849
amruhu	-9850
ancies	-9851
argrän	-9852
arkomb	-9853
butter	-9854
bäddad	-9855
bördes	-9856
cludes	-9857
design	-9858
ebréer	-9859
effect	-9860
effekt	-9861
ektric	-9862
erländ	-9863
esgäst	-9864
esvåra	-9865
eviate	-9866
faller	-9867
gnoser	-9868
gränsa	-9869
icolon	-9870
ildrad	-9871
incarn	-9872
isoler	-9873
itcase	-9874
jkarna	-9875
järngy	-9876
kontro	-9877
kortet	-9878
laimer	-9879
lundar	-9880
lurred	-9881
mössor	-9882
nologi	-9883
omains	-9884
onsaft	-9885
osevic	-9886
oterat	-9887
oubted	-9888
pitome	-9889
planet	-9890
pterat	-9891
ratisk	-9892
ruktur	-9893
rypted	-9894
skratt	-9895
tagare	-9896
trycks	-9897
ularly	-9898
urnace	-9899
Därför	-9900
värtes	-9901
ärelse	-9902
▁-3.8%	-9903
▁1970-	-9904
▁95/98	-9905
▁9:4).	-9906
▁Affil	-9907
▁Agera	-9908
▁Attem	-9909
▁Baals	-9910
▁Bears	-9911
▁Benej	-9912
▁Build	-9913
▁Dödar	-9914
▁Döden	-9915
▁Elect	-9916
▁Elekt	-9917
▁Forex	-9918
▁Getse	-9919
▁Jehus	-9920
▁KINGS	-9921
▁KONTR	-9922
▁Kalla	-9923
▁Langu	-9924
▁Liban	-9925
▁Micah	-9926
▁Month	-9927
▁Pluck	-9928
▁Punkl	-9929
▁RECAP	-9930
▁RELIC	-9931
▁RELIK	-9932
▁Regul	-9933
▁Sabas	-9934
▁Senna	-9935
▁Silos	-9936
▁Sorro	-9937
▁Surah	-9938
▁Webbk	-9939
▁Whale	-9940
▁WinCD	-9941
▁Wrest	-9942
▁agera	-9943
▁aniii	-9944
▁bibel	-9945
▁bomba	-9946
▁bones	-9947
▁boska	-9948
▁byggd	-9949
▁bärga	-9950
▁casts	-9951
▁chefs	-9952
▁crown	-9953
▁dares	-9954
▁darin	-9955
▁djupt	-9956
▁druck	-9957
▁early	-9958
▁emplo	-9959
▁estab	-9960
▁exhib	-9961
▁falsk	-9962
▁ferie	-9963
▁floor	-9964
▁fokus	-9965
▁fotok	-9966
▁frakt	-9967
▁födes	-9968
▁gains	-9969
▁galax	-9970
▁glömd	-9971
▁gömma	-9972
▁hette	-9973
▁hjärn	-9974
▁hända	-9975
▁hölls	-9976
▁jungf	-9977
▁knees	-9978
▁krigs	-9979
▁krävs	-9980
▁kända	-9981
▁lemon	-9982
▁lowly	-9983
▁lycka	-9984
▁memor	-9985
▁omdöm	-9986
▁oroar	-9987
▁prova	-9988
▁påbud	-9989
▁radio	-9990
▁refle	-9991
▁repla	-9992
▁rules	-9993
▁rulla	-9994
▁rädda	-9995
▁sandy	-9996
▁shape	-9997
▁skräp	-9998
▁släpa	-9999
woven	-10000
Äxter	-10001
▁Burd	-10002
▁Magy	-10003
▁Midv	-10004
▁Trib	-10005
▁fÖrt	-10006
▁jerk	-10007
▁larg	-10008
▁midj	-10009
▁norr	-10010
▁svrd	-10011
▁vita	-10012
HERREN	-10013
bidden	-10014
fitted	-10015
kamera	-10016
maskin	-10017
riftst	-10018
ritten	-10019
råkrör	-10020
skrift	-10021
tjänst	-10022
vÄxter	-10023
▁Babyl	-10024
▁DENNA	-10025
▁Trial	-10026
▁Trium	-10027
▁Turen	-10028
▁fruit	-10029
▁guden	-10030
▁jerks	-10031
▁källa	-10032
▁lejon	-10033
▁makes	-10034
▁north	-10035
▁sorts	-10036
▁sovit	-10037
▁styrk	-10038
▁tires	-10039
▁tombs	-10040
▁trivs	-10041
▁utbud	-10042
▁utebl	-10043
▁utläm	-10044
▁uttal	-10045
▁voice	-10046
▁ägget	-10047
.13:5).	-10048
ACHINGS	-10049
Because	-10050
Blueray	-10051
Bosheth	-10052
Crystal	-10053
Exportk	-10054
Gumulus	-10055
Hebréer	-10056
ILOSEVI	-10057
Vinterd	-10058
abonför	-10059
agicbit	-10060
aksÄtta	-10061
amilies	-10062
anguage	-10063
attlebr	-10064
bathers	-10065
bildade	-10066
blazers	-10067
blicken	-10068
buerade	-10069
ccusing	-10070
ceptera	-10071
cleanse	-10072
compagn	-10073
discipl	-10074
ekterna	-10075
elsförs	-10076
ematisk	-10077
ermined	-10078
friends	-10079
förelse	-10080
galaxen	-10081
helming	-10082
hemsida	-10083
idsplan	-10084
inarium	-10085
inately	-10086
jvÄxter	-10087
jälpsam	-10088
kampanj	-10089
kludera	-10090
krafter	-10091
ktionsk	-10092
mannens	-10093
nabbare	-10094
ontoren	-10095
opteras	-10096
organic	-10097
orterar	-10098
orterna	-10099
ergi	-10100
färg	-10101
mörk	-10102
tige	-10103
▁57,	-10104
▁FRÅ	-10105
Djupt	-10106
drivs	-10107
elugn	-10108
enmut	-10109
laugh	-10110
loden	-10111
umbär	-10112
▁57,6	-10113
▁Bene	-10114
▁FRÅN	-10115
▁axel	-10116
▁coff	-10117
▁föda	-10118
▁hlla	-10119
▁ogud	-10120
apabil	-10121
atchar	-10122
ebrate	-10123
editor	-10124
eliest	-10125
ergäll	-10126
förfar	-10127
irgins	-10128
jefärg	-10129
laughs	-10130
mature	-10131
orgebr	-10132
väldig	-10133
ärtige	-10134
örkret	-10135
▁Faith	-10136
▁Scene	-10137
▁batch	-10138
▁hämsk	-10139
▁lyder	-10140
▁mirak	-10141
▁uppgå	-10142
afloden	-10143
anschen	-10144
bäddens	-10145
härtige	-10146
klaring	-10147
oréerna	-10148
ppersta	-10149
priests	-10150
quarium	-10151
reshing	-10152
ronsaft	-10153
ryptera	-10154
seeking	-10155
sportar	-10156
stances	-10157
tzivuhu	-10158
ubstans	-10159
udience	-10160
umenten	-10161
unusual	-10162
usually	-10163
verträd	-10164
Önsaker	-10165
ärleken	-10166
örjning	-10167
▁(1933)	-10168
▁1933.)	-10169
▁3:12).	-10170
▁57,631	-10171
▁8:4-6.	-10172
▁Bjärka	-10173
▁Brazen	-10174
▁Brazil	-10175
▁Bulgar	-10176
▁Buyers	-10177
▁CONTEN	-10178
▁Cedars	-10179
▁Certic	-10180
▁Commit	-10181
▁Corpse	-10182
▁Credit	-10183
▁Dagens	-10184
▁Dathan	-10185
▁Delila	-10186
▁Dragon	-10187
▁Fishes	-10188
▁Flames	-10189
▁Flocks	-10190
▁Friend	-10191
▁FÄRDAS	-10192
▁FÖRSTA	-10193
▁Genomt	-10194
▁INCLUD	-10195
▁Ibland	-10196
▁Indien	-10197
▁IntelÂ	-10198
▁Karlav	-10199
29.	-10200
AYM	-10201
AYS	-10202
Ard	-10203
NIA	-10204
gzi	-10205
hlu	-10206
ALIF	-10207
AMST	-10208
Ardm	-10209
ECIA	-10210
ONST	-10211
Prov	-10212
blod	-10213
mynt	-10214
nabl	-10215
picu	-10216
KONST	-10217
ORNIA	-10218
PECIA	-10219
Skrev	-10220
akhlu	-10221
ammah	-10222
ammid	-10223
cknet	-10224
ghane	-10225
sträv	-10226
▁"29.	-10227
▁"39.	-10228
▁DAYS	-10229
▁PAYM	-10230
▁hamm	-10231
▁“29.	-10232
AMSTUD	-10233
OPECIA	-10234
Skicka	-10235
TKONST	-10236
aneous	-10237
bärare	-10238
▁CALIF	-10239
▁Enabl	-10240
▁adapt	-10241
▁fiest	-10242
▁influ	-10243
▁svaja	-10244
▁sökte	-10245
AMSTUDI	-10246
Ardmore	-10247
Project	-10248
akhluqu	-10249
retched	-10250
umbered	-10251
▁Kammah	-10252
▁Leader	-10253
▁Lighth	-10254
▁LÄNGRE	-10255
▁Mathem	-10256
▁Moshés	-10257
▁Muslim	-10258
▁Nedtag	-10259
▁Nightl	-10260
▁Nightw	-10261
▁Patzin	-10262
▁Polska	-10263
▁Psykhé	-10264
▁Punish	-10265
▁Remove	-10266
▁Saints	-10267
▁Saying	-10268
▁Senast	-10269
▁Senmut	-10270
▁Sharma	-10271
▁Skratt	-10272
▁Slaget	-10273
▁Sorrow	-10274
▁Spared	-10275
▁Spring	-10276
▁THINGS	-10277
▁UPPDAT	-10278
▁Vammid	-10279
▁Volume	-10280
▁Zyklon	-10281
▁abirth	-10282
▁absurd	-10283
▁afraid	-10284
▁approx	-10285
▁arrive	-10286
▁ascend	-10287
▁atmosf	-10288
▁autumn	-10289
▁awards	-10290
▁awoman	-10291
▁bidrar	-10292
▁binder	-10293
▁bjuder	-10294
▁björnh	-10295
▁blodad	-10296
▁bomull	-10297
▁brotts	-10298
▁colloc	-10299
Ord	-10300
FORE	-10301
MERA	-10302
Ords	-10303
IMERA	-10304
▁1917	-10305
Public	-10306
▁stops	-10307
▁tanke	-10308
▁"20000	-10309
▁BEFORE	-10310
▁Beasts	-10311
▁aktivt	-10312
▁borden	-10313
▁bundle	-10314
▁crimin	-10315
▁deeply	-10316
▁dieser	-10317
▁divine	-10318
▁djuren	-10319
▁dyrkan	-10320
▁eighte	-10321
▁enbart	-10322
▁engine	-10323
▁ersätt	-10324
▁establ	-10325
▁fackte	-10326
▁fattat	-10327
▁fellow	-10328
▁financ	-10329
▁fitted	-10330
▁flexib	-10331
▁frbund	-10332
▁främja	-10333
▁förkyl	-10334
▁förutb	-10335
▁förväg	-10336
▁galaxy	-10337
▁garden	-10338
▁gjorts	-10339
▁glömma	-10340
▁gospel	-10341
▁greker	-10342
▁haftet	-10343
▁hamtat	-10344
▁hospit	-10345
▁humane	-10346
▁huvuds	-10347
▁imagin	-10348
▁intiut	-10349
▁judeen	-10350
▁julaft	-10351
▁kaffek	-10352
▁kartor	-10353
▁katast	-10354
▁klagar	-10355
▁klangl	-10356
▁kosmet	-10357
▁krasch	-10358
▁kronor	-10359
▁krydda	-10360
▁kvorum	-10361
▁köttet	-10362
▁laying	-10363
▁leaves	-10364
▁lejong	-10365
▁lifted	-10366
▁lockar	-10367
▁loudly	-10368
▁lyrics	-10369
▁läppar	-10370
▁lånade	-10371
▁mappar	-10372
▁matrix	-10373
▁miljöb	-10374
▁miljöv	-10375
▁missed	-10376
▁mnnisk	-10377
▁nacken	-10378
▁nackkn	-10379
▁nearby	-10380
▁observ	-10381
▁omedel	-10382
▁onödan	-10383
▁oumbär	-10384
▁panter	-10385
▁papper	-10386
▁patzin	-10387
▁pengat	-10388
▁privat	-10389
▁psalms	-10390
▁quorum	-10391
▁regnet	-10392
▁repeat	-10393
▁räddar	-10394
▁rånade	-10395
▁safety	-10396
▁sawest	-10397
▁scenen	-10398
▁season	-10399
▁PCs	-10400
▁nät	-10401
IAGRA	-10402
bruks	-10403
firms	-10404
frica	-10405
komma	-10406
▁BelÃ	-10407
▁Serv	-10408
▁dyra	-10409
▁ekol	-10410
▁kilo	-10411
▁näsa	-10412
▁riks	-10413
Zyklon	-10414
cified	-10415
icides	-10416
isorna	-10417
olaget	-10418
skript	-10419
▁;”%?*	-10420
▁Faris	-10421
▁Jonas	-10422
▁Offec	-10423
▁Times	-10424
▁Varde	-10425
▁drabb	-10426
▁drama	-10427
▁emigr	-10428
▁encou	-10429
▁equiv	-10430
▁riksd	-10431
▁schol	-10432
▁swall	-10433
▁swift	-10434
▁vinst	-10435
▁åkall	-10436
bolaget	-10437
urchase	-10438
▁Africa	-10439
▁Carpel	-10440
▁Farisé	-10441
▁Timote	-10442
▁Timoth	-10443
▁VIAGRA	-10444
▁Verant	-10445
▁alters	-10446
▁blindo	-10447
▁bliven	-10448
▁botade	-10449
▁closed	-10450
▁debate	-10451
▁dragon	-10452
▁ekolod	-10453
▁entire	-10454
▁entity	-10455
▁erfara	-10456
▁facing	-10457
▁föruts	-10458
▁infirm	-10459
▁krimin	-10460
▁nätver	-10461
▁pillar	-10462
▁placer	-10463
▁revive	-10464
▁school	-10465
▁sensor	-10466
▁serene	-10467
▁sexual	-10468
▁shareh	-10469
▁skjuta	-10470
▁skonar	-10471
▁skonat	-10472
▁skrift	-10473
▁skydda	-10474
▁slowly	-10475
▁smärta	-10476
▁sports	-10477
▁spräng	-10478
▁status	-10479
▁statut	-10480
▁stenen	-10481
▁strejk	-10482
▁styrka	-10483
▁supple	-10484
▁svartv	-10485
▁tanken	-10486
▁tenant	-10487
▁teoret	-10488
▁tongue	-10489
▁tortyr	-10490
▁tusent	-10491
▁tvivel	-10492
▁ungdom	-10493
▁utbild	-10494
▁vaknar	-10495
▁valfri	-10496
▁vardag	-10497
▁vassen	-10498
▁versus	-10499
,”,	-10500
?”,	-10501
ijn	-10502
Glit	-10503
LOSE	-10504
Marv	-10505
OSTÄ	-10506
What	-10507
börj	-10508
kias	-10509
liot	-10510
udsv	-10511
uzar	-10512
ydsv	-10513
zijn	-10514
▁40-	-10515
▁Usu	-10516
▁huf	-10517
▁osv	-10518
PRUNG	-10519
iotvå	-10520
ippan	-10521
itarr	-10522
kvila	-10523
liten	-10524
riket	-10525
ränkt	-10526
scape	-10527
svars	-10528
sving	-10529
takta	-10530
ädsel	-10531
▁Dipp	-10532
▁fiff	-10533
▁fjll	-10534
▁hufv	-10535
▁mask	-10536
▁rytt	-10537
▁zijn	-10538
▁Åter	-10539
.6:4).	-10540
Offers	-10541
SPRUNG	-10542
bingzi	-10543
eneurs	-10544
esides	-10545
folket	-10546
ghudsv	-10547
gitarr	-10548
ibliot	-10549
idkias	-10550
ipping	-10551
irming	-10552
keriot	-10553
ldriga	-10554
märkta	-10555
neying	-10556
riking	-10557
sliten	-10558
sunder	-10559
tiotvå	-10560
▁BOSTÄ	-10561
▁CLOSE	-10562
▁Sydsv	-10563
▁Whirl	-10564
▁ababy	-10565
▁embed	-10566
▁låsan	-10567
Glitche	-10568
Marvels	-10569
Tangram	-10570
bibliot	-10571
börjare	-10572
nessjuk	-10573
skränkt	-10574
▁Akvila	-10575
▁Dipper	-10576
▁Escape	-10577
▁Hereby	-10578
▁Leviat	-10579
▁bemärk	-10580
▁embedd	-10581
▁hufvud	-10582
▁synago	-10583
▁vilsel	-10584
▁vinbär	-10585
▁vunnit	-10586
▁waarin	-10587
▁welcom	-10588
▁window	-10589
▁änkans	-10590
▁önskan	-10591
▁öronen	-10592
:17-18).	-10593
AMSTUDIO	-10594
EACHINGS	-10595
ILOSEVIC	-10596
Kärleken	-10597
OSEVILLE	-10598
Publicer	-10599
,31	-10600
?31	-10601
ACE	-10602
,199	-10603
EACE	-10604
IGHE	-10605
IGIN	-10606
PPOR	-10607
▁-3,	-10608
,1999	-10609
IGHET	-10610
PPORT	-10611
▁(199	-10612
▁2,31	-10613
▁WEBS	-10614
LIGHET	-10615
PPORTU	-10616
onkort	-10617
▁-3,8%	-10618
▁PEACE	-10619
▁fortn	-10620
▁sourd	-10621
▁sända	-10622
JLIGHET	-10623
ekunder	-10624
sekvens	-10625
terskan	-10626
▁ORIGIN	-10627
▁WEBSIT	-10628
▁buildt	-10629
▁gengzi	-10630
▁helvet	-10631
▁hittar	-10632
▁kastar	-10633
▁priser	-10634
▁promot	-10635
▁sjuksk	-10636
▁symbol	-10637
▁turned	-10638
Sekunder	-10639
Snabbare	-10640
Stranden	-10641
Telegram	-10642
Uppfrisk	-10643
acancies	-10644
aciteten	-10645
aftungsa	-10646
aggering	-10647
ampanjer	-10648
andidate	-10649
armacies	-10650
atamaran	-10651
attering	-10652
bilarnas	-10653
cleaning	-10654
cticides	-10655
deringar	-10656
edicated	-10657
efonkort	-10658
ellously	-10659
etagsinn	-10660
etsavtal	-10661
evisning	-10662
fallande	-10663
ferences	-10664
ferenser	-10665
fotograf	-10666
företags	-10667
gifterna	-10668
gripande	-10669
iciously	-10670
ignalens	-10671
indarici	-10672
ineernas	-10673
ingsboll	-10674
involume	-10675
isktoler	-10676
kluderar	-10677
kommelse	-10678
likheter	-10679
medaljer	-10680
ografisk	-10681
ographic	-10682
okratisk	-10683
oniterna	-10684
oriteten	-10685
ormously	-10686
ositions	-10687
oubtedly	-10688
pendence	-10689
prästast	-10690
raméerna	-10691
resurser	-10692
rukturer	-10693
servativ	-10694
skrattar	-10695
skriftsk	-10696
smannens	-10697
sprogram	-10698
sträviga	-10699
huvud	-10700
månen	-10701
▁2.31	-10702
▁Afri	-10703
▁susp	-10704
▁takr	-10705
ficial	-10706
huvudt	-10707
▁Angab	-10708
▁Croat	-10709
▁Crown	-10710
▁Funkt	-10711
▁Polis	-10712
▁beder	-10713
▁bedrö	-10714
▁bibeh	-10715
▁karri	-10716
▁legat	-10717
▁legum	-10718
▁orsak	-10719
▁titta	-10720
arbetas	-10721
nadsför	-10722
▁Afrika	-10723
▁Gennes	-10724
▁Marian	-10725
▁Output	-10726
▁Police	-10727
▁Sermon	-10728
▁anlägg	-10729
▁bokens	-10730
▁discom	-10731
▁dishes	-10732
▁inlägg	-10733
▁lämnar	-10734
▁raised	-10735
▁riders	-10736
▁tables	-10737
▁änglar	-10738
arbetare	-10739
arbetena	-10740
ehagliga	-10741
enskaper	-10742
märksamm	-10743
svarshög	-10744
telegram	-10745
undersök	-10746
unghudsv	-10747
vandlare	-10748
ydration	-10749
äproblem	-10750
ödelsens	-10751
▁(25:5).	-10752
▁6:17-18	-10753
▁Airport	-10754
▁Angaben	-10755
▁Attempt	-10756
▁Bearing	-10757
▁Besides	-10758
▁Beställ	-10759
▁Blueray	-10760
▁Blurred	-10761
▁Bojkott	-10762
▁Bolaget	-10763
▁British	-10764
▁Burdens	-10765
▁Central	-10766
▁Command	-10767
▁Company	-10768
▁Confess	-10769
▁Crowned	-10770
▁Descent	-10771
▁Eliezer	-10772
▁Golgata	-10773
▁Herodes	-10774
▁Israeli	-10775
▁Leviten	-10776
▁Library	-10777
▁MUEBLES	-10778
▁Messeng	-10779
▁Messias	-10780
▁Monthly	-10781
▁Morovia	-10782
▁OPPORTU	-10783
▁Outputs	-10784
▁Overall	-10785
▁PAYMENT	-10786
▁PRIMERA	-10787
▁Polisen	-10788
▁Prophet	-10789
▁Protect	-10790
▁Reading	-10791
▁Rebuild	-10792
▁Refresh	-10793
▁Regulat	-10794
▁Remains	-10795
▁Seminar	-10796
▁Senaste	-10797
▁Sennach	-10798
▁Serenad	-10799
Skr	-10800
"},"	-10801
MATT	-10802
Wait	-10803
flut	-10804
jupa	-10805
knut	-10806
spap	-10807
speg	-10808
what	-10809
when	-10810
ylsk	-10811
ävda	-10812
▁45.	-10813
▁Ord	-10814
▁döp	-10815
▁eye	-10816
▁tju	-10817
Skrik	-10818
ffeln	-10819
oneym	-10820
ostym	-10821
salms	-10822
spets	-10823
where	-10824
which	-10825
while	-10826
ylskå	-10827
åndet	-10828
▁Tvär	-10829
▁armé	-10830
flutna	-10831
iatric	-10832
knolog	-10833
knutna	-10834
length	-10835
sträck	-10836
ttager	-10837
ylskåp	-10838
ymliga	-10839
ävande	-10840
▁BEACH	-10841
▁Febru	-10842
▁Prins	-10843
▁bilar	-10844
▁diary	-10845
▁djupa	-10846
▁dömer	-10847
▁konju	-10848
▁möten	-10849
▁range	-10850
▁spjut	-10851
▁tenth	-10852
MATTHEW	-10853
Waiting	-10854
beskriv	-10855
ryffeln	-10856
skostym	-10857
spapers	-10858
speglar	-10859
▁Psalms	-10860
▁Tvärte	-10861
▁basbeh	-10862
▁bespis	-10863
▁change	-10864
▁honeym	-10865
▁kompis	-10866
▁kvävda	-10867
▁skicka	-10868
▁sympat	-10869
▁tenths	-10870
▁tjugon	-10871
▁tryggt	-10872
ediatric	-10873
engeance	-10874
sträckta	-10875
teknolog	-10876
▁Rymliga	-10877
▁Seating	-10878
▁Service	-10879
▁Silence	-10880
▁Simplev	-10881
▁Spanish	-10882
▁Statens	-10883
▁Statist	-10884
▁Sägande	-10885
▁Tangram	-10886
▁Tequila	-10887
▁Tourism	-10888
▁Tribute	-10889
▁Viewing	-10890
▁Virgins	-10891
▁Yamruhu	-10892
▁airport	-10893
▁apostol	-10894
▁arrange	-10895
▁artonde	-10896
▁atmosfÃ	-10897
▁avsevär	-10898
▁bargain	-10899
,11	-10900
,116	-10901
ARTH	-10902
JOHN	-10903
Saul	-10904
Stöd	-10905
amSt	-10906
▁rhy	-10907
CamSt	-10908
▁logi	-10909
atsbud	-10910
därför	-10911
eslöst	-10912
rädgår	-10913
▁EARTH	-10914
▁cirka	-10915
▁corps	-10916
▁domän	-10917
▁driva	-10918
▁drivs	-10919
▁frlor	-10920
▁rhyth	-10921
▁tower	-10922
batsbud	-10923
bringar	-10924
isciple	-10925
lasting	-10926
olandet	-10927
olorful	-10928
rädgård	-10929
sbilder	-10930
▁Sånger	-10931
▁Window	-10932
▁antika	-10933
▁circle	-10934
▁dinner	-10935
▁drives	-10936
▁exampl	-10937
▁hinner	-10938
▁lining	-10939
▁praise	-10940
▁rhythm	-10941
▁skaded	-10942
▁skador	-10943
▁tested	-10944
▁winner	-10945
Disciple	-10946
amenting	-10947
resented	-10948
▁Stjärna	-10949
▁befrias	-10950
▁begäran	-10951
▁behövde	-10952
▁belyser	-10953
▁benefit	-10954
▁berömma	-10955
▁beskrev	-10956
▁besöker	-10957
▁bokstav	-10958
▁bolagen	-10959
▁bolaget	-10960
▁breathe	-10961
▁bringar	-10962
▁brudgum	-10963
▁bärbara	-10964
▁cashier	-10965
▁catalog	-10966
▁causeth	-10967
▁centrum	-10968
▁ceramic	-10969
▁chapter	-10970
▁cleared	-10971
▁clearer	-10972
▁combine	-10973
▁compact	-10974
▁company	-10975
▁compete	-10976
▁coolest	-10977
▁corpses	-10978
▁decrypt	-10979
▁desired	-10980
▁detects	-10981
▁ditches	-10982
▁domäner	-10983
▁drabbas	-10984
▁druckit	-10985
▁döparen	-10986
▁döttrar	-10987
▁easiest	-10988
▁efforts	-10989
▁emperor	-10990
▁enklare	-10991
▁equally	-10992
▁eslagna	-10993
▁exactly	-10994
▁extremt	-10995
▁failure	-10996
▁fantasi	-10997
▁fiffiga	-10998
▁focuses	-10999
Conn	-11000
Cont	-11001
Stor	-11002
cuss	-11003
irty	-11004
luss	-11005
▁"64	-11006
▁öns	-11007
Drott	-11008
Musel	-11009
alcul	-11010
eglad	-11011
ftena	-11012
ontar	-11013
ptime	-11014
racul	-11015
tills	-11016
ussch	-11017
ussin	-11018
xamin	-11019
▁"64%	-11020
▁Glad	-11021
▁affl	-11022
▁fynd	-11023
▁höga	-11024
▁ohör	-11025
▁rena	-11026
▁sjön	-11027
▁snur	-11028
▁ökad	-11029
Storbr	-11030
Thanks	-11031
avours	-11032
etwork	-11033
except	-11034
inerel	-11035
iracul	-11036
klusiv	-11037
onnent	-11038
ontass	-11039
prises	-11040
skaffa	-11041
▁Sinim	-11042
▁Templ	-11043
▁Tempt	-11044
▁advoc	-11045
▁altog	-11046
▁antar	-11047
▁aspir	-11048
▁orena	-11049
▁pills	-11050
Förutom	-11051
bership	-11052
ologian	-11053
ontassl	-11054
owntime	-11055
percuss	-11056
tillsag	-11057
workers	-11058
▁Allmän	-11059
▁Calcul	-11060
▁Dussin	-11061
▁Uptime	-11062
▁apotek	-11063
▁funded	-11064
▁naturb	-11065
▁thirty	-11066
Contract	-11067
Muselman	-11068
Storbrit	-11069
forskare	-11070
ologians	-11071
ternativ	-11072
tillsagd	-11073
▁Gladare	-11074
▁Miracul	-11075
▁afflict	-11076
▁altoget	-11077
▁concept	-11078
▁franska	-11079
▁frlorad	-11080
▁fysiskt	-11081
▁födelse	-11082
▁följakt	-11083
▁föreslå	-11084
▁förfråg	-11085
▁förstås	-11086
▁gasmask	-11087
▁genuint	-11088
▁hackers	-11089
▁halvtim	-11090
▁hanging	-11091
▁heavily	-11092
▁hedersb	-11093
▁hjälpte	-11094
▁hungrig	-11095
▁huvuden	-11096
▁häftiga	-11097
▁hårstrå	-11098
▁höstfär	-11099
.4,	-11100
AVE	-11101
Anv	-11102
LAY	-11103
yyn	-11104
äby	-11105
Kyyn	-11106
LAYA	-11107
folk	-11108
skåd	-11109
▁$4,	-11110
▁$4.	-11111
▁gyn	-11112
▁mön	-11113
Suger	-11114
xfree	-11115
▁$4,8	-11116
▁$4.8	-11117
▁HAVE	-11118
▁Säby	-11119
▁utby	-11120
Kyynel	-11121
ything	-11122
▁PLAYA	-11123
▁gynna	-11124
▁risks	-11125
▁stead	-11126
▁strax	-11127
▁åskåd	-11128
AnvÄnds	-11129
akligen	-11130
rikande	-11131
▁Amerik	-11132
▁Vinter	-11133
▁Winter	-11134
▁enorma	-11135
▁kändes	-11136
▁mestad	-11137
▁operas	-11138
▁riktar	-11139
▁sights	-11140
▁surely	-11141
▁tjänst	-11142
▁utbyta	-11143
▁worthy	-11144
istående	-11145
▁America	-11146
▁Kristna	-11147
▁Without	-11148
▁drömmar	-11149
▁ignored	-11150
▁illustr	-11151
▁impregn	-11152
▁indexes	-11153
▁infring	-11154
▁inkomst	-11155
▁intense	-11156
▁judarna	-11157
▁judging	-11158
▁jungfru	-11159
▁karriär	-11160
▁kejsare	-11161
▁kilomet	-11162
▁konstpa	-11163
▁konstru	-11164
▁kortare	-11165
▁kryddar	-11166
▁kvällen	-11167
▁lageröl	-11168
▁legumes	-11169
▁lektion	-11170
▁livsmed	-11171
▁livsvis	-11172
▁locking	-11173
▁lysande	-11174
▁längsta	-11175
▁measure	-11176
▁meeting	-11177
▁midnatt	-11178
▁mirakul	-11179
▁missade	-11180
▁mjukare	-11181
▁mjukvar	-11182
▁moments	-11183
▁mönster	-11184
▁network	-11185
▁normalt	-11186
▁notably	-11187
▁nyttiga	-11188
▁nödvänd	-11189
▁ogudakt	-11190
▁oneself	-11191
▁onödiga	-11192
▁operate	-11193
▁opinion	-11194
▁oppress	-11195
▁optimum	-11196
▁orsakar	-11197
▁ovanför	-11198
▁ovänner	-11199
flät	-11200
tunn	-11201
värj	-11202
▁"3-	-11203
▁1,8	-11204
▁Imp	-11205
▁åsn	-11206
behör	-11207
conds	-11208
iellt	-11209
ktrum	-11210
ratic	-11211
▁Josu	-11212
▁Tues	-11213
▁brev	-11214
▁igår	-11215
▁kunn	-11216
▁kärn	-11217
▁marv	-11218
▁subs	-11219
▁ända	-11220
cision	-11221
esvärj	-11222
flätad	-11223
merday	-11224
ogades	-11225
orites	-11226
rummet	-11227
tunnat	-11228
ulsten	-11229
unatic	-11230
unnare	-11231
winter	-11232
▁Brain	-11233
▁Intif	-11234
▁Prije	-11235
▁Trade	-11236
▁apart	-11237
▁asked	-11238
▁benet	-11239
▁benev	-11240
▁honor	-11241
▁markb	-11242
▁pests	-11243
▁scrum	-11244
▁simpl	-11245
▁skrev	-11246
▁tyska	-11247
▁väska	-11248
▁wrink	-11249
▁ändra	-11250
ianites	-11251
manfatt	-11252
ocratic	-11253
revious	-11254
seconds	-11255
ydrates	-11256
ågkomst	-11257
▁Helgon	-11258
▁Josuas	-11259
▁Unique	-11260
▁assets	-11261
▁camest	-11262
▁excess	-11263
▁kärnor	-11264
▁pappas	-11265
▁remove	-11266
▁utsign	-11267
▁vagnen	-11268
▁åsninn	-11269
Hågkomst	-11270
atically	-11271
ebesvärj	-11272
ersiellt	-11273
loppsled	-11274
previous	-11275
ummerday	-11276
urtunnat	-11277
▁Lunatic	-11278
▁benevol	-11279
▁cameras	-11280
▁fogades	-11281
▁främsta	-11282
▁package	-11283
▁panther	-11284
▁permiss	-11285
▁placera	-11286
▁poisons	-11287
▁polisen	-11288
▁populÄr	-11289
▁potatis	-11290
▁praktis	-11291
▁prepare	-11292
▁prisons	-11293
▁proband	-11294
▁provoke	-11295
▁ramlade	-11296
▁ranking	-11297
▁realize	-11298
▁redskap	-11299
RCH	-11300
juv	-11301
jäs	-11302
läs	-11303
▁«&	-11304
Drag	-11305
ITLE	-11306
ifix	-11307
ilty	-11308
åkar	-11309
ömda	-11310
▁PLE	-11311
▁six	-11312
Youll	-11313
alked	-11314
chiff	-11315
cifix	-11316
endix	-11317
forer	-11318
foris	-11319
iency	-11320
rency	-11321
uiner	-11322
zeich	-11323
▁ARCH	-11324
▁akut	-11325
▁bekv	-11326
▁fräs	-11327
▁ljuv	-11328
▁pjäs	-11329
▁sjöm	-11330
▁skym	-11331
▁vägk	-11332
▁walk	-11333
ATITLE	-11334
ompany	-11335
onders	-11336
stands	-11337
zeichn	-11338
▁PLEAS	-11339
▁kalla	-11340
▁walks	-11341
.37:4).	-11342
Company	-11343
Inställ	-11344
iciency	-11345
läsaren	-11346
panions	-11347
rucifix	-11348
ställda	-11349
▁Destro	-11350
▁PLEASE	-11351
▁aforis	-11352
▁bekväm	-11353
▁bråkar	-11354
▁fräsch	-11355
▁guilty	-11356
▁indeed	-11357
▁någont	-11358
▁ruiner	-11359
▁showen	-11360
▁sjömän	-11361
▁sonden	-11362
▁speaks	-11363
▁talked	-11364
▁totalt	-11365
ETATITLE	-11366
attforer	-11367
elserikt	-11368
innelser	-11369
ställiga	-11370
▁ARCHANG	-11371
▁Pharise	-11372
▁Showing	-11373
▁Wonders	-11374
▁bekvämt	-11375
▁berömda	-11376
▁dechiff	-11377
▁fräscha	-11378
▁registr	-11379
▁rensade	-11380
▁reprodu	-11381
▁respect	-11382
▁revolut	-11383
▁ridande	-11384
▁rolling	-11385
▁ryttare	-11386
▁rörande	-11387
▁sailors	-11388
▁salvers	-11389
▁samband	-11390
▁scripts	-11391
▁seasons	-11392
▁seeking	-11393
▁segment	-11394
▁selects	-11395
▁shaping	-11396
▁shooter	-11397
▁similar	-11398
▁skapade	-11399
spe	-11400
ekiah	-11401
otope	-11402
ästab	-11403
▁Noah	-11404
▁Skri	-11405
▁Skär	-11406
▁colt	-11407
▁crem	-11408
▁curr	-11409
▁evig	-11410
▁idio	-11411
▁ledt	-11412
▁lida	-11413
▁skyl	-11414
abalen	-11415
atorer	-11416
atorna	-11417
hances	-11418
kläder	-11419
orkade	-11420
relief	-11421
songer	-11422
städer	-11423
teborg	-11424
▁Skull	-11425
▁angel	-11426
▁insan	-11427
▁leder	-11428
▁märkt	-11429
▁skyen	-11430
▁skylt	-11431
atorisk	-11432
edekiah	-11433
nkläder	-11434
speaker	-11435
ästabud	-11436
▁Förent	-11437
▁Screen	-11438
▁angels	-11439
▁befäst	-11440
▁farhåg	-11441
▁gläder	-11442
▁insign	-11443
▁ledare	-11444
▁ledtrå	-11445
▁möjlig	-11446
▁reward	-11447
▁usward	-11448
sammaste	-11449
▁Förenta	-11450
▁Isotope	-11451
▁extends	-11452
▁forward	-11453
▁gatorna	-11454
▁idioter	-11455
▁kabalen	-11456
▁ledande	-11457
▁läraren	-11458
▁märktes	-11459
▁segerns	-11460
▁skyldig	-11461
▁skärmst	-11462
▁släkter	-11463
▁slående	-11464
▁smärtan	-11465
▁sorgebr	-11466
▁sounder	-11467
▁spetsen	-11468
▁stammar	-11469
▁sticker	-11470
▁stormen	-11471
▁straffa	-11472
▁streets	-11473
▁sträcka	-11474
▁strävan	-11475
▁studier	-11476
▁stämmer	-11477
▁subscri	-11478
▁svenska	-11479
▁sympath	-11480
▁tacksam	-11481
▁takräck	-11482
▁taxfree	-11483
▁templet	-11484
▁terräng	-11485
▁testbed	-11486
▁thicken	-11487
▁thinner	-11488
▁torkade	-11489
▁trading	-11490
▁trained	-11491
▁trivial	-11492
▁tryggad	-11493
▁träffas	-11494
▁tränade	-11495
▁tunnare	-11496
▁tydligt	-11497
▁typical	-11498
▁undrade	-11499
REE	-11500
azz	-11501
oyc	-11502
smö	-11503
2:15	-11504
Char	-11505
OKER	-11506
alty	-11507
föll	-11508
smån	-11509
▁joy	-11510
▁lug	-11511
akshe	-11512
altic	-11513
smöbl	-11514
▁Boyc	-11515
▁FREE	-11516
▁blyg	-11517
▁dazz	-11518
▁flee	-11519
▁joya	-11520
▁pair	-11521
▁silf	-11522
:42:15	-11523
Charge	-11524
NITURE	-11525
enalty	-11526
eshach	-11527
hemesh	-11528
verige	-11529
äldigt	-11530
▁POKER	-11531
▁began	-11532
▁lugnt	-11533
RNITURE	-11534
elsfärd	-11535
platser	-11536
shemesh	-11537
▁Baltic	-11538
▁Visdom	-11539
▁anföll	-11540
▁bakshe	-11541
▁barely	-11542
▁begins	-11543
▁funnen	-11544
▁gråter	-11545
▁indisc	-11546
▁ljusly	-11547
▁lovely	-11548
melsfärd	-11549
▁Boycott	-11550
▁Meshach	-11551
▁Sverige	-11552
▁Unident	-11553
▁Väldigt	-11554
▁arbetar	-11555
▁burneth	-11556
▁hårsmån	-11557
▁indiscr	-11558
▁longest	-11559
▁nedgång	-11560
▁penalty	-11561
▁reports	-11562
▁silence	-11563
▁silfret	-11564
▁skärmen	-11565
▁socialt	-11566
▁undanrö	-11567
▁unknown	-11568
▁upphöjd	-11569
▁upprätt	-11570
▁uppstod	-11571
▁upptakt	-11572
▁uppteck	-11573
▁utnyttj	-11574
▁utsidan	-11575
▁utställ	-11576
▁utsätta	-11577
▁utvidga	-11578
▁varvets	-11579
▁veckors	-11580
▁vibrant	-11581
▁viewing	-11582
▁vingård	-11583
▁virgins	-11584
▁välfärd	-11585
▁waiting	-11586
▁whoever	-11587
▁windows	-11588
▁Återupp	-11589
▁Öloppet	-11590
▁ändarna	-11591
▁åkallan	-11592
▁överträ	-11593
92.168.2"	-11594
CDbeskydd	-11595
CamStudio	-11596
Christmas	-11597
KERBREVET	-11598
METATITLE	-11599
NDA	-11600
RAF	-11601
väx	-11602
2006	-11603
ASTM	-11604
CRAF	-11605
EGRA	-11606
ISTM	-11607
Isot	-11608
cued	-11609
olym	-11610
▁Alm	-11611
CRAFT	-11612
RISTM	-11613
aziah	-11614
espej	-11615
iques	-11616
offer	-11617
pplen	-11618
▁Aloo	-11619
▁ENDA	-11620
▁bevä	-11621
▁moun	-11622
▁rude	-11623
ASTMER	-11624
ENEGRA	-11625
HRISTM	-11626
anaans	-11627
andlar	-11628
bitvis	-11629
delade	-11630
delens	-11631
enskan	-11632
geteck	-11633
ndagen	-11634
Äpplen	-11635
ädspel	-11636
▁Offer	-11637
▁Roman	-11638
▁UPWAR	-11639
▁Volym	-11640
▁avdel	-11641
▁beväp	-11642
▁grovt	-11643
▁roman	-11644
CHCRAFT	-11645
Isotope	-11646
osmetic	-11647
växande	-11648
ågeteck	-11649
▁Bespej	-11650
▁Better	-11651
▁UPWARD	-11652
▁distri	-11653
▁easily	-11654
▁räknar	-11655
▁slider	-11656
HRISTMAS	-11657
aniterna	-11658
atÄpplen	-11659
iderable	-11660
ragement	-11661
ädspelet	-11662
▁Ahaziah	-11663
▁Almight	-11664
▁FASTMER	-11665
▁Kanaans	-11666
▁Nyström	-11667
▁Rescued	-11668
▁ZENEGRA	-11669
▁kleding	-11670
▁minskar	-11671
▁privacy	-11672
Vinterdag	-11673
adopteras	-11674
alifornia	-11675
allrelief	-11676
andidaten	-11677
anständig	-11678
arhemsida	-11679
ateriella	-11680
attlebrid	-11681
batsbudet	-11682
bibliotek	-11683
censioner	-11684
disciples	-11685
edicinska	-11686
ekännande	-11687
eneurship	-11688
erificate	-11689
ersmaskin	-11690
ewishness	-11691
fastighet	-11692
ficiality	-11693
habitants	-11694
ierbrevet	-11695
igheterna	-11696
interdröm	-11697
isationer	-11698
issenting	-11699
!")	-11700
ÄND	-11701
VÄND	-11702
smär	-11703
▁20.	-11704
▁Myl	-11705
▁drj	-11706
NVÄND	-11707
Sätta	-11708
based	-11709
▁asth	-11710
▁avsl	-11711
▁term	-11712
Jeshua	-11713
iserar	-11714
ologer	-11715
raying	-11716
screen	-11717
smärke	-11718
▁3:12)	-11719
▁Rural	-11720
▁asthm	-11721
▁botat	-11722
▁calls	-11723
▁drjde	-11724
▁farao	-11725
▁landt	-11726
▁lords	-11727
▁lättr	-11728
▁oroad	-11729
▁stadg	-11730
NVÄNDAR	-11731
alities	-11732
cedures	-11733
ensberg	-11734
eringen	-11735
isering	-11736
ndighet	-11737
sningss	-11738
ulously	-11739
▁20.224	-11740
▁Autumn	-11741
▁Mylans	-11742
▁adject	-11743
▁avslöj	-11744
▁avsänt	-11745
▁buying	-11746
▁godhet	-11747
▁hudens	-11748
▁landet	-11749
▁portab	-11750
▁staden	-11751
▁termin	-11752
▁Britain	-11753
▁Praying	-11754
▁glitter	-11755
▁julgäst	-11756
▁lättare	-11757
▁lättrör	-11758
▁lösning	-11759
▁ofärdig	-11760
▁stadion	-11761
▁svärdet	-11762
▁ägandet	-11763
Attention	-11764
NVÄNDAREN	-11765
affirming	-11766
itiveness	-11767
itronsaft	-11768
ittningst	-11769
jocklekar	-11770
judisoler	-11771
kostnader	-11772
lightened	-11773
lxLoveKFC	-11774
mentering	-11775
minnelser	-11776
mörkelsen	-11777
ndafloden	-11778
ohydrates	-11779
olutionen	-11780
pporterar	-11781
prognoser	-11782
punkterna	-11783
qualities	-11784
riftstopp	-11785
ronically	-11786
ryterskan	-11787
smöblerna	-11788
songernas	-11789
stavlorna	-11790
sundervis	-11791
tainrarna	-11792
tryckande	-11793
ubstansfy	-11794
unikation	-11795
verything	-11796
ädprogram	-11797
▁1:17-19)	-11798
▁2:16-17)	-11799
)?"	-11800
ITE	-11801
loo	-11802
läk	-11803
Aloo	-11804
Bran	-11805
räns	-11806
ävul	-11807
▁ISA	-11808
▁ISV	-11809
ecret	-11810
jävul	-11811
lljus	-11812
lohim	-11813
londe	-11814
skydd	-11815
änsla	-11816
▁Adul	-11817
▁Bala	-11818
▁Prom	-11819
▁Punk	-11820
▁Root	-11821
▁SITE	-11822
▁UPPF	-11823
▁armb	-11824
▁died	-11825
▁döds	-11826
▁euth	-11827
▁färg	-11828
▁inex	-11829
▁knee	-11830
▁reli	-11831
▁ökar	-11832
Branch	-11833
Elohim	-11834
Gillar	-11835
Secret	-11836
adjust	-11837
egräns	-11838
känsla	-11839
läkare	-11840
untran	-11841
yrkans	-11842
äkning	-11843
▁Synag	-11844
▁UPPFY	-11845
▁armbå	-11846
▁hjälm	-11847
▁inexp	-11848
▁julps	-11849
▁space	-11850
▁stiff	-11851
▁viney	-11852
jävulen	-11853
kyrkans	-11854
lljuset	-11855
londeel	-11856
muntran	-11857
olskydd	-11858
▁Balaam	-11859
▁Bättre	-11860
▁ISAIAH	-11861
▁Isaiah	-11862
▁earned	-11863
▁euthan	-11864
▁jobbet	-11865
▁livsbe	-11866
▁tränga	-11867
enskapsb	-11868
eräkning	-11869
ightwood	-11870
ståndare	-11871
untarily	-11872
▁Adulter	-11873
▁Promise	-11874
▁Synagog	-11875
▁UPPFYLL	-11876
▁armbåge	-11877
▁dödsors	-11878
▁julpsal	-11879
▁largely	-11880
▁livsbej	-11881
▁löftena	-11882
▁related	-11883
▁stillar	-11884
Ephesians	-11885
Nightwood	-11886
▁Accusing	-11887
▁Actually	-11888
▁Adultery	-11889
▁Aposteln	-11890
▁Apostles	-11891
▁Arabiska	-11892
▁Artiklar	-11893
▁Attempts	-11894
▁BOSTÄDER	-11895
▁Blondeel	-11896
▁Boycotts	-11897
▁Breaking	-11898
▁Carpelan	-11899
NEH	-11900
AGEN	-11901
NEHÅ	-11902
löde	-11903
obbe	-11904
onlö	-11905
sras	-11906
ådet	-11907
▁DAG	-11908
▁Exh	-11909
▁MAG	-11910
being	-11911
gjuta	-11912
gångs	-11913
obbex	-11914
skiva	-11915
snade	-11916
älsen	-11917
▁MAGI	-11918
▁Nato	-11919
▁Tjän	-11920
▁fras	-11921
▁nift	-11922
Hälsen	-11923
NEHÅLL	-11924
Sårade	-11925
aflöde	-11926
claves	-11927
ikonlö	-11928
ittras	-11929
▁MAGIC	-11930
▁artic	-11931
▁artik	-11932
▁dödas	-11933
▁krona	-11934
▁lärde	-11935
▁löven	-11936
▁nifty	-11937
▁probe	-11938
▁rådet	-11939
▁skiva	-11940
▁stift	-11941
parated	-11942
reativa	-11943
▁Exhort	-11944
▁Hobbex	-11945
▁Matrix	-11946
▁Tjänst	-11947
▁artist	-11948
▁helmet	-11949
▁hemmet	-11950
▁hiding	-11951
▁kaffet	-11952
▁kvalit	-11953
▁mäster	-11954
pestuous	-11955
srasande	-11956
sterious	-11957
▁DAGARNA	-11958
▁Tjänstk	-11959
▁antagit	-11960
▁article	-11961
▁artikel	-11962
▁artists	-11963
▁continu	-11964
▁fikonlö	-11965
▁induced	-11966
▁jordens	-11967
▁kvalité	-11968
▁stiftat	-11969
▁utgjuta	-11970
gångsrikt	-11971
▁Committe	-11972
▁Compared	-11973
▁Crucifix	-11974
▁Dalmatia	-11975
▁Direktör	-11976
▁Downtime	-11977
▁EPILEPSI	-11978
▁EPILEPSY	-11979
▁Electron	-11980
▁Elektron	-11981
▁Erection	-11982
▁Fariséen	-11983
▁Friendly	-11984
▁Gennesar	-11985
▁Getseman	-11986
▁INNEHÅLL	-11987
▁Includes	-11988
▁Intifada	-11989
▁Laughter	-11990
▁Mathemat	-11991
▁Meyervar	-11992
▁Muslimer	-11993
▁Nehemiah	-11994
▁PASSAGEN	-11995
▁PROPECIA	-11996
▁Palestin	-11997
▁Pharisee	-11998
▁Plucking	-11999
lära	-12000
▁"*"	-12001
artha	-12002
fully	-12003
utera	-12004
▁Bulg	-12005
▁Lära	-12006
▁Verk	-12007
▁dära	-12008
▁feet	-12009
▁hemm	-12010
▁högk	-12011
▁pilo	-12012
duates	-12013
edient	-12014
ifield	-12015
verses	-12016
▁2005.	-12017
▁Gates	-12018
▁Nebel	-12019
▁alias	-12020
▁baken	-12021
▁därav	-12022
▁fient	-12023
▁högav	-12024
▁igång	-12025
▁könen	-12026
▁semik	-12027
▁surge	-12028
istines	-12029
ivities	-12030
usfully	-12031
venient	-12032
▁Guided	-12033
▁Martha	-12034
▁Vaders	-12035
▁commit	-12036
▁folkom	-12037
▁följer	-12038
▁gasens	-12039
▁hemmab	-12040
▁larger	-12041
▁precon	-12042
▁regler	-12043
ificates	-12044
nstercon	-12045
obedient	-12046
▁Abirams	-12047
▁Qifield	-12048
▁annihil	-12049
▁comment	-12050
▁demoner	-12051
▁följden	-12052
▁högavka	-12053
▁högkval	-12054
▁piloter	-12055
▁seriösa	-12056
▁surgeon	-12057
▁winding	-12058
▁Bulgaren	-12059
▁Magdalen	-12060
▁Nebelong	-12061
▁Pojkarna	-12062
▁Pressure	-12063
▁Sibelius	-12064
▁Signaler	-12065
▁Skallens	-12066
▁Skrifter	-12067
▁Soldiers	-12068
▁Sounding	-12069
▁Systemet	-12070
▁TROLLDOM	-12071
▁Teligent	-12072
▁UPPDATER	-12073
▁URSPRUNG	-12074
▁abonnent	-12075
▁activity	-12076
▁actually	-12077
▁alltsamm	-12078
▁ambassad	-12079
▁angivits	-12080
▁anseende	-12081
▁answered	-12082
▁appendix	-12083
▁approxim	-12084
▁arbetare	-12085
▁arbetena	-12086
▁articles	-12087
▁artiklar	-12088
▁ascended	-12089
▁aspekter	-12090
▁atmosfär	-12091
▁attended	-12092
▁attraher	-12093
▁audience	-12094
▁avseende	-12095
▁avsevärd	-12096
▁avslutar	-12097
▁basbehov	-12098
▁befästas	-12099
ALK	-12100
ATO	-12101
KET	-12102
ONG	-12103
ofa	-12104
Rapp	-12105
fron	-12106
nygg	-12107
ökan	-12108
ökat	-12109
▁DET	-12110
ASKET	-12111
ONGER	-12112
front	-12113
äntar	-12114
ärnet	-12115
▁Happ	-12116
▁NATO	-12117
▁Otro	-12118
▁Sofa	-12119
▁WALK	-12120
▁känt	-12121
▁sänt	-12122
Hennes	-12123
ricity	-12124
ricult	-12125
serves	-12126
äntade	-12127
▁Snygg	-12128
▁borta	-12129
▁stygg	-12130
▁sändl	-12131
ansökan	-12132
riangle	-12133
troende	-12134
▁BASKET	-12135
▁LONGER	-12136
▁besöka	-12137
▁bother	-12138
▁dennas	-12139
▁erkänt	-12140
▁famous	-12141
▁händer	-12142
▁järnet	-12143
▁passag	-12144
▁passar	-12145
▁pianom	-12146
▁refrig	-12147
▁sitter	-12148
▁street	-12149
▁transm	-12150
▁väntar	-12151
▁wherew	-12152
Triangle	-12153
sansökan	-12154
▁Beatles	-12155
▁Flykten	-12156
▁Happier	-12157
▁Hearing	-12158
▁WALKING	-12159
▁ankomst	-12160
▁avhålla	-12161
▁förökat	-12162
▁helping	-12163
▁passeth	-12164
▁upfront	-12165
▁Beatlesl	-12166
▁Families	-12167
▁Otroligt	-12168
▁agricult	-12169
▁begining	-12170
▁beginner	-12171
▁begränsa	-12172
▁benefits	-12173
▁bespisar	-12174
▁beställt	-12175
▁brethren	-12176
▁brothers	-12177
▁byggsten	-12178
▁calamity	-12179
▁captions	-12180
▁chutneys	-12181
▁collagen	-12182
▁confirms	-12183
▁conspicu	-12184
▁constant	-12185
▁contrary	-12186
▁coolaste	-12187
▁creative	-12188
▁cremator	-12189
▁critical	-12190
▁currants	-12191
▁currency	-12192
▁deciding	-12193
▁decipher	-12194
▁direktör	-12195
▁discover	-12196
▁distance	-12197
▁djävulen	-12198
▁drunknar	-12199
ngre	-12200
relä	-12201
alten	-12202
esmin	-12203
itute	-12204
liver	-12205
marka	-12206
omten	-12207
rigen	-12208
ötter	-12209
▁1999	-12210
▁Ahas	-12211
▁Some	-12212
▁Syri	-12213
▁grad	-12214
▁grav	-12215
▁äten	-12216
agsida	-12217
eskönt	-12218
gnings	-12219
iating	-12220
ningsh	-12221
ningsp	-12222
ottrig	-12223
relian	-12224
relser	-12225
römmar	-12226
▁Ahasu	-12227
▁Anard	-12228
▁aroma	-12229
▁grade	-12230
▁grain	-12231
▁needs	-12232
▁numer	-12233
▁owner	-12234
▁river	-12235
▁utter	-12236
▁yngre	-12237
alnings	-12238
altenen	-12239
atholic	-12240
ielding	-12241
iserade	-12242
olerade	-12243
related	-12244
relater	-12245
reläser	-12246
skrigen	-12247
▁Korset	-12248
▁boards	-12249
▁clouds	-12250
▁energi	-12251
▁läckra	-12252
▁nötter	-12253
▁parter	-12254
▁tänkte	-12255
▁välbeh	-12256
itiating	-12257
markable	-12258
ningsart	-12259
ommerade	-12260
reliance	-12261
rikesmin	-12262
ultomten	-12263
▁1:17-19	-12264
▁Ahasuer	-12265
▁Syrians	-12266
▁bedrift	-12267
▁gravval	-12268
▁noterar	-12269
▁prospek	-12270
▁utterly	-12271
alningsin	-12272
antningsp	-12273
försäljar	-12274
ningshast	-12275
thaltenen	-12276
▁Anardana	-12277
▁catholic	-12278
▁cyanides	-12279
▁dwelleth	-12280
▁dynamisk	-12281
▁egenskap	-12282
▁embedded	-12283
▁emigrate	-12284
▁emigrera	-12285
▁enclaves	-12286
▁enclosed	-12287
▁ersätter	-12288
▁eventful	-12289
▁examples	-12290
▁existent	-12291
▁explains	-12292
▁fabriken	-12293
▁faithful	-12294
▁families	-12295
▁faraoner	-12296
▁fastnade	-12297
▁flavours	-12298
▁flygblad	-12299
ZAR	-12300
UZAR	-12301
JUZAR	-12302
laims	-12303
othen	-12304
rison	-12305
▁Appr	-12306
▁Both	-12307
▁Dims	-12308
▁Kopp	-12309
▁kopp	-12310
▁lita	-12311
▁lovs	-12312
▁twel	-12313
▁twig	-12314
▁vald	-12315
▁valt	-12316
▁valu	-12317
EJUZAR	-12318
cancer	-12319
icient	-12320
iscell	-12321
oppers	-12322
othenb	-12323
tained	-12324
▁Safeg	-12325
▁Spies	-12326
▁ideas	-12327
▁musen	-12328
▁twigs	-12329
▁twink	-12330
▁valut	-12331
agelser	-12332
▁Church	-12333
▁Dimsyn	-12334
▁Koppar	-12335
▁Prison	-12336
▁Safegu	-12337
▁claims	-12338
▁evenly	-12339
▁liters	-12340
▁modest	-12341
▁modiga	-12342
▁niches	-12343
▁shores	-12344
▁twelve	-12345
▁valuta	-12346
▁världs	-12347
▁webben	-12348
▁wrongs	-12349
ENEJUZAR	-12350
ultister	-12351
ändelser	-12352
▁Apprent	-12353
▁Gothenb	-12354
▁Miscell	-12355
▁Nameser	-12356
▁Stories	-12357
▁allowed	-12358
▁careers	-12359
▁concret	-12360
▁disturb	-12361
▁evening	-12362
▁exister	-12363
▁fullhet	-12364
▁fullkom	-12365
▁fågelst	-12366
▁lovsång	-12367
▁modesty	-12368
▁sjukhus	-12369
▁twinkle	-12370
agolandet	-12371
entilated	-12372
ttagelser	-12373
östcancer	-12374
▁Cedrarna	-12375
▁Marriage	-12376
▁concrete	-12377
▁desolate	-12378
▁follower	-12379
▁football	-12380
▁forskare	-12381
▁framtida	-12382
▁framträd	-12383
▁friendly	-12384
▁frluster	-12385
▁fÖrtjock	-12386
▁fördelar	-12387
▁föreslår	-12388
▁graphics	-12389
▁gästabud	-12390
▁haveriut	-12391
▁helandet	-12392
▁hjärnska	-12393
▁humanity	-12394
▁hydrated	-12395
▁hårddisk	-12396
▁improved	-12397
▁inbäddad	-12398
▁includes	-12399
EOS	-12400
FOR	-12401
IDA	-12402
MOS	-12403
▁:(	-12404
FORM	-12405
MOSA	-12406
SIDA	-12407
Shem	-12408
▁VID	-12409
aShem	-12410
lehem	-12411
ävent	-12412
▁Zare	-12413
▁coun	-12414
▁evol	-12415
▁onto	-12416
▁trod	-12417
▁trog	-12418
▁utåt	-12419
FORMAT	-12420
▁:(","	-12421
▁Betel	-12422
▁Jerik	-12423
▁Sårad	-12424
▁barns	-12425
▁camel	-12426
▁falls	-12427
▁indis	-12428
▁matro	-12429
▁ordna	-12430
▁troll	-12431
▁vetek	-12432
hemliga	-12433
sammare	-12434
ventive	-12435
äventyr	-12436
▁Expuls	-12437
▁HaShem	-12438
▁Sister	-12439
▁VIDEOS	-12440
▁Zareph	-12441
▁advent	-12442
▁bildte	-12443
▁breads	-12444
▁cancer	-12445
▁gifter	-12446
▁handle	-12447
▁indisp	-12448
▁matros	-12449
▁orders	-12450
▁rivers	-12451
▁sevent	-12452
▁svarar	-12453
▁trodde	-12454
▁trogna	-12455
▁trohet	-12456
▁unvent	-12457
stranden	-12458
ventions	-12459
äventyrs	-12460
▁ALLMOSA	-12461
▁Jerikos	-12462
▁counsel	-12463
▁förbann	-12464
▁heavens	-12465
▁hotells	-12466
▁knoweth	-12467
▁sammans	-12468
▁seventh	-12469
▁troende	-12470
▁wrought	-12471
FORMATION	-12472
butterfly	-12473
ionerande	-12474
▁Betlehem	-12475
▁Levitens	-12476
▁evolving	-12477
▁iniquity	-12478
▁insanity	-12479
▁insekter	-12480
▁internet	-12481
▁inverkan	-12482
▁investig	-12483
▁jackpott	-12484
▁jungfrun	-12485
▁jättebra	-12486
▁kallades	-12487
▁keyboard	-12488
▁kilometr	-12489
▁klangläg	-12490
▁kläderna	-12491
▁kontakta	-12492
▁kopparen	-12493
▁kosmetik	-12494
▁kraftres	-12495
▁kraschen	-12496
▁kreativa	-12497
▁krigsför	-12498
▁kunderna	-12499
Maj	-12500
Gott	-12501
genÄ	-12502
själ	-12503
åtar	-12504
▁!),	-12505
▁ENT	-12506
▁våg	-12507
ERING	-12508
Majak	-12509
chase	-12510
chfil	-12511
gener	-12512
genÄm	-12513
sklog	-12514
▁Cott	-12515
▁Prof	-12516
▁belö	-12517
▁case	-12518
▁läge	-12519
▁lära	-12520
▁nöjd	-12521
▁snab	-12522
▁svår	-12523
chmark	-12524
ewards	-12525
figure	-12526
hållit	-12527
skloge	-12528
uredly	-12529
▁domar	-12530
▁erase	-12531
▁ihåll	-12532
▁modul	-12533
▁stjäl	-12534
▁svind	-12535
▁sväng	-12536
▁vågat	-12537
▁vågen	-12538
Majakka	-12539
ieägare	-12540
ionskap	-12541
öskloge	-12542
▁Chatta	-12543
▁börjar	-12544
▁fråges	-12545
▁förlos	-12546
▁helgen	-12547
▁rejoic	-12548
▁snabba	-12549
▁svindl	-12550
anschfil	-12551
ificance	-12552
ischmark	-12553
onstverk	-12554
▁Cottage	-12555
▁Procent	-12556
▁angenÄm	-12557
▁depress	-12558
▁familjÃ	-12559
▁förloss	-12560
▁ordered	-12561
▁regener	-12562
▁stjälpa	-12563
▁svängig	-12564
▁träffat	-12565
ewardship	-12566
ranschfil	-12567
▁ENTERING	-12568
▁Profeter	-12569
▁Purchase	-12570
▁episodes	-12571
▁exemplif	-12572
▁kundvagn	-12573
▁kvorumsk	-12574
▁lagstadg	-12575
▁landtlig	-12576
▁language	-12577
▁leverant	-12578
▁lighting	-12579
▁liknande	-12580
▁linkages	-12581
▁låsanord	-12582
▁lönarbet	-12583
▁majority	-12584
▁managers	-12585
▁markbund	-12586
▁marketed	-12587
▁maximala	-12588
▁meanings	-12589
▁mentally	-12590
▁mightest	-12591
▁miljövän	-12592
▁misstänk	-12593
▁mjukvara	-12594
▁mnniskor	-12595
▁monument	-12596
▁märkbart	-12597
▁namnserv	-12598
▁national	-12599
bler	-12600
juka	-12601
leda	-12602
leva	-12603
lock	-12604
ocka	-12605
▁Nej	-12606
▁TVs	-12607
▁obs	-12608
▁obv	-12609
adium	-12610
ounts	-12611
shirt	-12612
unnan	-12613
▁Abis	-12614
▁Dock	-12615
▁Inde	-12616
▁Midd	-12617
▁Rock	-12618
▁bapt	-12619
▁edic	-12620
▁emph	-12621
▁klev	-12622
▁obje	-12623
▁rage	-12624
▁raka	-12625
anleda	-12626
estrar	-12627
fällen	-12628
herrar	-12629
ledare	-12630
möbler	-12631
nunnan	-12632
parens	-12633
varium	-12634
▁Abish	-12635
▁Abram	-12636
▁knock	-12637
▁mjuka	-12638
▁parag	-12639
4-2010)	-12640
amounts	-12641
ensible	-12642
ffektiv	-12643
iminate	-12644
▁Abisai	-12645
▁Indeed	-12646
▁Middle	-12647
▁Transl	-12648
▁Varför	-12649
▁edicts	-12650
▁emphas	-12651
▁funger	-12652
▁förval	-12653
▁klocka	-12654
▁unlock	-12655
4-2010),	-12656
ffektivt	-12657
hensible	-12658
▁Abishai	-12659
▁Emperor	-12660
▁Stadium	-12661
▁Verantw	-12662
▁baptism	-12663
▁expense	-12664
▁förvalt	-12665
▁körning	-12666
▁massivt	-12667
▁obvious	-12668
▁onanera	-12669
▁paragra	-12670
▁percent	-12671
▁procent	-12672
▁sommarf	-12673
▁trojans	-12674
▁uppleva	-12675
illfällen	-12676
▁akvarium	-12677
▁döparens	-12678
▁fungerar	-12679
▁naturlig	-12680
▁navigate	-12681
▁navigera	-12682
▁nosspets	-12683
▁numbered	-12684
▁närheten	-12685
▁nödtvång	-12686
▁obsolete	-12687
▁obtained	-12688
▁oerhörda	-12689
▁offended	-12690
▁onanerar	-12691
▁opportun	-12692
▁optimala	-12693
▁orsakade	-12694
▁outdoors	-12695
▁ovanligt	-12696
▁oväntade	-12697
▁paradise	-12698
▁paragraf	-12699
IGH	-12700
▁ÄN	-12701
▁Äl	-12702
Data	-12703
IGHT	-12704
INAR	-12705
bröd	-12706
ches	-12707
kret	-12708
segl	-12709
▁TRY	-12710
▁drä	-12711
▁Äkt	-12712
athed	-12713
keäng	-12714
ornet	-12715
place	-12716
sbröd	-12717
vaste	-12718
▁Arms	-12719
▁Cpan	-12720
▁Korn	-12721
▁clot	-12722
▁korg	-12723
▁krav	-12724
▁load	-12725
▁phra	-12726
▁torn	-12727
▁Älsk	-12728
active	-12729
gsbröd	-12730
hesion	-12731
känner	-12732
rekomm	-12733
▁LIGHT	-12734
▁angiv	-12735
▁brown	-12736
▁class	-12737
▁clone	-12738
▁close	-12739
▁loads	-12740
▁monum	-12741
▁rätta	-12742
▁snaps	-12743
keängel	-12744
orlekar	-12745
ractive	-12746
▁Cathed	-12747
▁Cpanel	-12748
▁comply	-12749
▁coughs	-12750
▁dramat	-12751
▁dräper	-12752
▁instin	-12753
▁phrase	-12754
▁påverk	-12755
▁snapsh	-12756
▁sätter	-12757
▁Älsken	-12758
degsbröd	-12759
järvaste	-12760
seglaren	-12761
▁SEMINAR	-12762
▁angivna	-12763
▁classes	-12764
▁clothes	-12765
▁compare	-12766
▁konkret	-12767
▁kunders	-12768
▁patches	-12769
▁avsevärt	-12770
▁bekänner	-12771
▁cohesion	-12772
▁förekomm	-12773
▁glitches	-12774
▁morality	-12775
▁parallel	-12776
▁pastries	-12777
▁patzinak	-12778
▁pharaohs	-12779
▁pictures	-12780
▁placerar	-12781
▁pleasant	-12782
▁pleasure	-12783
▁pluggade	-12784
▁policies	-12785
▁politisk	-12786
▁prepared	-12787
▁prisvärd	-12788
▁profeter	-12789
▁profetia	-12790
▁profound	-12791
▁prospect	-12792
▁protects	-12793
▁psykiskt	-12794
▁purchase	-12795
▁påverkat	-12796
▁reaction	-12797
▁referend	-12798
▁reflects	-12799
___	-12800
-3).	-12801
That	-12802
___"	-12803
gnen	-12804
resa	-12805
önen	-12806
▁Möj	-12807
▁WIS	-12808
▁ryg	-12809
artyg	-12810
ienna	-12811
komna	-12812
äppen	-12813
▁Body	-12814
▁ease	-12815
▁låsa	-12816
▁räds	-12817
:2-3).	-12818
fartyg	-12819
ingles	-12820
lkomna	-12821
läppen	-12822
mappen	-12823
nappen	-12824
roppen	-12825
▁Bönen	-12826
▁Språk	-12827
▁agnar	-12828
▁kompl	-12829
▁lived	-12830
▁skönt	-12831
▁slows	-12832
▁ugnen	-12833
▁väder	-12834
knappen	-12835
komliga	-12836
komster	-12837
ningsst	-12838
ristmas	-12839
tlighet	-12840
▁(...)”	-12841
▁Europä	-12842
▁Herres	-12843
▁JESAJA	-12844
▁Möjlig	-12845
▁Nether	-12846
▁Vienna	-12847
▁WISDOM	-12848
▁bostad	-12849
▁church	-12850
▁dignar	-12851
▁effort	-12852
▁minnen	-12853
▁ryggra	-12854
▁rädsla	-12855
▁trivia	-12856
▁väster	-12857
fartygss	-12858
invester	-12859
lighetss	-12860
yrbilder	-12861
▁1:2-3).	-12862
▁Kroppen	-12863
▁Möjligg	-12864
▁Singles	-12865
▁consequ	-12866
▁defence	-12867
▁privata	-12868
▁subject	-12869
▁village	-12870
▁workers	-12871
▁Europäis	-12872
▁komplett	-12873
▁reformat	-12874
▁relative	-12875
▁remember	-12876
▁reminded	-12877
▁removing	-12878
▁reported	-12879
▁roligare	-12880
▁ropandes	-12881
▁rörelsen	-12882
▁segerrik	-12883
▁sekunden	-12884
▁shooters	-12885
▁shoppers	-12886
▁simplest	-12887
▁situated	-12888
▁sjukvård	-12889
▁självhus	-12890
▁skadliga	-12891
▁skickats	-12892
▁skildrad	-12893
▁skillnad	-12894
▁skärmupp	-12895
▁slagsida	-12896
▁slutliga	-12897
▁snapshot	-12898
▁solskydd	-12899
ALL	-12900
Eph	-12901
See	-12902
ALLS	-12903
aint	-12904
kläd	-12905
edict	-12906
erted	-12907
inten	-12908
print	-12909
rötta	-12910
xture	-12911
▁Folk	-12912
▁Sikt	-12913
▁Upon	-12914
▁fint	-12915
▁fjär	-12916
▁robb	-12917
▁tids	-12918
Använd	-12919
behåll	-12920
cerade	-12921
ictory	-12922
länder	-12923
trötta	-12924
önhets	-12925
▁Jabes	-12926
▁Saint	-12927
▁Sikta	-12928
▁krank	-12929
▁läkem	-12930
▁maker	-12931
▁omått	-12932
▁paint	-12933
▁prokl	-12934
▁strid	-12935
▁strik	-12936
▁säten	-12937
▁timme	-12938
▁vergr	-12939
Hebrews	-12940
convert	-12941
intliga	-12942
klädnad	-12943
▁Gender	-12944
▁Wisdom	-12945
▁fartyg	-12946
▁finanz	-12947
▁preser	-12948
▁robbed	-12949
▁strike	-12950
▁tender	-12951
▁Mainten	-12952
▁figures	-12953
▁fjärran	-12954
▁healing	-12955
▁mixture	-12956
▁predict	-12957
▁present	-12958
▁preserv	-12959
▁stillas	-12960
▁uttryck	-12961
▁victory	-12962
▁weather	-12963
tribution	-12964
▁Skönhets	-12965
▁concerts	-12966
▁deserted	-12967
▁provided	-12968
▁självför	-12969
▁solution	-12970
▁specials	-12971
▁spendera	-12972
▁språkrör	-12973
▁språktur	-12974
▁standeth	-12975
▁stannade	-12976
▁steadily	-12977
▁stjärnor	-12978
▁strömmar	-12979
▁students	-12980
▁suitcase	-12981
▁surveyed	-12982
▁svartvit	-12983
▁sweeties	-12984
▁symboler	-12985
▁sympathy	-12986
▁särskild	-12987
▁sökandet	-12988
▁söndagen	-12989
▁takräcke	-12990
▁tempelet	-12991
▁tempting	-12992
▁thoughts	-12993
▁thousand	-12994
▁threaten	-12995
▁tillgäng	-12996
▁tjänster	-12997
▁tolerans	-12998
▁tolkades	-12999
39.	-13000
ibn	-13001
CHAR	-13002
erib	-13003
gren	-13004
safe	-13005
such	-13006
ECHAR	-13007
Norge	-13008
ettio	-13009
ittén	-13010
maibn	-13011
xious	-13012
▁2:17	-13013
▁Anar	-13014
▁CDEN	-13015
▁Fren	-13016
▁appo	-13017
▁frib	-13018
▁glad	-13019
▁gläd	-13020
▁welf	-13021
▁”39.	-13022
ibland	-13023
iserat	-13024
nmaibn	-13025
▁About	-13026
▁Peace	-13027
▁appet	-13028
▁behag	-13029
▁behav	-13030
▁carri	-13031
▁dagen	-13032
▁dålig	-13033
▁fåren	-13034
▁glitt	-13035
▁noise	-13036
▁olive	-13037
▁smile	-13038
erators	-13039
ickaren	-13040
ramaren	-13041
veloped	-13042
▁2:17).	-13043
▁French	-13044
▁ZECHAR	-13045
▁annons	-13046
▁behavi	-13047
▁behver	-13048
▁dagbok	-13049
▁glädje	-13050
▁lagade	-13051
▁poised	-13052
▁police	-13053
▁strand	-13054
▁strang	-13055
▁sönder	-13056
▁unsafe	-13057
▁välren	-13058
enderade	-13059
eramerna	-13060
kramaren	-13061
▁anxious	-13062
▁appoint	-13063
▁balance	-13064
▁fribord	-13065
▁funding	-13066
▁mentalt	-13067
▁persist	-13068
▁projekt	-13069
▁strvade	-13070
▁trettio	-13071
▁utomhus	-13072
▁welfare	-13073
developed	-13074
▁annonser	-13075
▁appetite	-13076
▁behavior	-13077
▁carriage	-13078
▁glittrar	-13079
▁inbördes	-13080
▁julafton	-13081
▁location	-13082
▁shoulder	-13083
▁svävande	-13084
▁touching	-13085
▁trailers	-13086
▁triangel	-13087
▁trofasta	-13088
▁tänkbart	-13089
▁undvikas	-13090
▁undviker	-13091
▁universe	-13092
▁uppstått	-13093
▁upptäcka	-13094
▁utformad	-13095
▁utlämnar	-13096
▁utmärkta	-13097
▁utseende	-13098
▁utvidgar	-13099
HEC	-13100
-202	-13101
HECK	-13102
ewel	-13103
lagt	-13104
rors	-13105
slag	-13106
upat	-13107
vaga	-13108
yrus	-13109
▁CDs	-13110
▁Jew	-13111
▁fyr	-13112
▁lau	-13113
Svaga	-13114
ceded	-13115
ctors	-13116
iquid	-13117
lague	-13118
mänsk	-13119
oppet	-13120
unten	-13121
vring	-13122
▁Fier	-13123
▁Röda	-13124
▁hunt	-13125
▁saga	-13126
▁segr	-13127
▁tors	-13128
▁trev	-13129
edical	-13130
olicyn	-13131
slagna	-13132
övring	-13133
▁CHECK	-13134
▁Cyrus	-13135
▁Fiery	-13136
▁Vader	-13137
▁doors	-13138
▁jewel	-13139
▁mouse	-13140
▁rider	-13141
▁svåra	-13142
artlagt	-13143
atavtal	-13144
ckkoder	-13145
ierande	-13146
policyn	-13147
ranates	-13148
▁Plague	-13149
▁assyri	-13150
▁bidrag	-13151
▁errors	-13152
▁liquid	-13153
▁loppet	-13154
▁lämnad	-13155
▁punten	-13156
▁reader	-13157
▁segrat	-13158
▁spring	-13159
▁stupat	-13160
▁utföra	-13161
▁ängeln	-13162
▁Utmärkt	-13163
▁doctors	-13164
▁erfarna	-13165
▁hunting	-13166
▁kylskåp	-13167
▁launder	-13168
▁lyckats	-13169
▁testade	-13170
▁trevlig	-13171
egranates	-13172
imatavtal	-13173
mänskliga	-13174
reckkoder	-13175
▁1994-201	-13176
▁erövring	-13177
▁kartlagt	-13178
▁lämnades	-13179
▁preceded	-13180
▁torsdags	-13181
▁utsignal	-13182
▁utvärtes	-13183
▁villages	-13184
▁vilseled	-13185
▁visioner	-13186
▁visiting	-13187
▁vägkarta	-13188
▁väninnor	-13189
▁världens	-13190
▁watching	-13191
▁wrinkles	-13192
▁Öloppets	-13193
▁Översätt	-13194
▁åldrande	-13195
▁åskådare	-13196
▁åsninnas	-13197
▁åtagande	-13198
▁överfall	-13199
"""	-13200
""*	-13201
""7	-13202
▁ät	-13203
""7.	-13204
brut	-13205
udea	-13206
▁rot	-13207
""*""	-13208
alska	-13209
forum	-13210
nappt	-13211
pacts	-13212
ärvid	-13213
▁Abim	-13214
▁Wise	-13215
▁acts	-13216
▁flög	-13217
▁road	-13218
▁Över	-13219
▁ätit	-13220
Därvid	-13221
avbrut	-13222
edness	-13223
etiskt	-13224
ignals	-13225
nesses	-13226
ocents	-13227
▁Judea	-13228
▁Mylan	-13229
▁accur	-13230
▁bespr	-13231
▁beste	-13232
▁rotsk	-13233
▁seals	-13234
▁träet	-13235
▁älska	-13236
aktiskt	-13237
ethical	-13238
indness	-13239
▁Abimel	-13240
▁besteg	-13241
▁brands	-13242
▁falska	-13243
▁friskt	-13244
▁hidden	-13245
▁hördes	-13246
▁knappt	-13247
▁likvid	-13248
▁medals	-13249
▁roligt	-13250
▁skräpp	-13251
▁taking	-13252
akedness	-13253
avbrutet	-13254
ristider	-13255
undström	-13256
▁Signals	-13257
▁besprut	-13258
▁billion	-13259
▁contest	-13260
▁earthly	-13261
▁ethical	-13262
▁impacts	-13263
▁likvida	-13264
▁Överlag	-13265
problemen	-13266
▁Abimelek	-13267
▁Faktiskt	-13268
▁KONTROLL	-13269
▁Kindness	-13270
▁accurate	-13271
▁rotskott	-13272
▁scholars	-13273
▁startade	-13274
▁växterna	-13275
▁översätt	-13276
▁övertram	-13277
Australian	-13278
Bekännande	-13279
Branschfil	-13280
Connection	-13281
IKERBREVET	-13282
Retirement	-13283
aketformat	-13284
alestinier	-13285
armhärtige	-13286
bohydrates	-13287
cknowledge	-13288
drivningen	-13289
ebranschen	-13290
ektricitet	-13291
enskapliga	-13292
enskapsmän	-13293
ergällning	-13294
ethshemesh	-13295
hållningen	-13296
ikerbrevet	-13297
innovators	-13298
iskfighter	-13299
/20	-13300
/20"	-13301
Este	-13302
free	-13303
hydr	-13304
tree	-13305
▁(2)	-13306
▁10.	-13307
▁109	-13308
▁800	-13309
▁ryn	-13310
stern	-13311
▁Damn	-13312
▁Opel	-13313
▁buss	-13314
▁giva	-13315
▁mste	-13316
▁natu	-13317
▁rynk	-13318
▁scal	-13319
▁scan	-13320
▁scor	-13321
▁tyck	-13322
cernen	-13323
itance	-13324
olhydr	-13325
terbar	-13326
verkar	-13327
Östern	-13328
▁agile	-13329
▁aging	-13330
▁badge	-13331
▁betra	-13332
▁cours	-13333
▁court	-13334
▁delar	-13335
▁giver	-13336
▁score	-13337
▁tjäna	-13338
▁tyder	-13339
ftersom	-13340
verance	-13341
visible	-13342
▁"7/20"	-13343
▁Herens	-13344
▁bolags	-13345
▁closer	-13346
▁givare	-13347
▁kallat	-13348
▁liksom	-13349
▁miniat	-13350
▁native	-13351
▁natura	-13352
▁rynkor	-13353
▁scales	-13354
▁scorch	-13355
▁trance	-13356
▁tyckas	-13357
▁Committ	-13358
▁Through	-13359
▁UPDATED	-13360
▁betrakt	-13361
▁courses	-13362
▁equival	-13363
▁folkets	-13364
▁kolhydr	-13365
▁tropics	-13366
criptions	-13367
heritance	-13368
pletteras	-13369
severance	-13370
teftersom	-13371
▁Turismen	-13372
▁WEBSITES	-13373
▁bolagsst	-13374
▁naturall	-13375
▁proposes	-13376
▁thinking	-13377
▁underbar	-13378
itetsavtal	-13379
kandidaten	-13380
ligatorisk	-13381
materiella	-13382
nessjukdom	-13383
ningsplats	-13384
ningstider	-13385
oluntarily	-13386
omvandlare	-13387
ontasslare	-13388
ordentligt	-13389
ordförande	-13390
otographic	-13391
procedures	-13392
rehensible	-13393
sbelysning	-13394
seffektivt	-13395
skligheten	-13396
suppgifter	-13397
ultationen	-13398
verksamhet	-13399
,10	-13400
bey	-13401
,109	-13402
asht	-13403
axed	-13404
bapt	-13405
cksÅ	-13406
iljs	-13407
kenf	-13408
nära	-13409
ospa	-13410
Samma	-13411
ashti	-13412
endey	-13413
engör	-13414
fatta	-13415
paign	-13416
umier	-13417
▁Obey	-13418
▁deep	-13419
▁därp	-13420
▁inga	-13421
▁lysa	-13422
▁mots	-13423
▁repa	-13424
ectual	-13425
erospa	-13426
inated	-13427
inkarn	-13428
judice	-13429
landet	-13430
nabapt	-13431
rition	-13432
▁Const	-13433
▁Jesaj	-13434
▁LUKAS	-13435
▁Sarah	-13436
▁Sheba	-13437
▁Soffa	-13438
▁avsed	-13439
▁delta	-13440
▁därpå	-13441
▁gamle	-13442
▁gosse	-13443
▁grate	-13444
▁grind	-13445
▁hurry	-13446
▁korre	-13447
▁metal	-13448
▁ocksÅ	-13449
▁prins	-13450
▁skyld	-13451
▁Ökenf	-13452
ashings	-13453
derland	-13454
ykresor	-13455
▁Vashti	-13456
▁avsedd	-13457
▁grindb	-13458
▁hjrtan	-13459
▁launch	-13460
▁mumier	-13461
▁rengör	-13462
▁repaid	-13463
▁skiljs	-13464
▁varken	-13465
endeytan	-13466
erospace	-13467
utrition	-13468
ökningen	-13469
▁Anabapt	-13470
▁Jesajas	-13471
▁Relaxed	-13472
▁korrekt	-13473
▁omfatta	-13474
onderland	-13475
talarkomb	-13476
unication	-13477
▁Dykresor	-13478
▁beväpnad	-13479
▁campaign	-13480
▁grateful	-13481
▁grindbro	-13482
▁jordnära	-13483
▁lashings	-13484
▁motsvara	-13485
▁producen	-13486
▁reinkarn	-13487
▁1:17-19).	-13488
▁8:16-17).	-13489
▁9:17-18).	-13490
▁ARCHANGEL	-13491
▁Adoptions	-13492
▁Ahasuerus	-13493
▁Australia	-13494
▁Bojkotter	-13495
▁CAMSTUDIO	-13496
▁CHRISTMAS	-13497
▁Constitut	-13498
▁Dalmatien	-13499
IFF	-13500
Key	-13501
Mika	-13502
wish	-13503
IFFER	-13504
heikh	-13505
ieras	-13506
ishim	-13507
lagov	-13508
skäck	-13509
äckts	-13510
▁Mika	-13511
▁däck	-13512
▁kniv	-13513
▁knob	-13514
▁knän	-13515
▁vårt	-13516
▁äggd	-13517
Klagov	-13518
Sheikh	-13519
olämpa	-13520
ternal	-13521
▁Bygga	-13522
▁INCLU	-13523
▁Iwish	-13524
▁Mordo	-13525
▁befog	-13526
▁brass	-13527
▁broom	-13528
▁chock	-13529
▁drive	-13530
▁flyer	-13531
▁flyga	-13532
▁knäna	-13533
▁split	-13534
ishimov	-13535
utanasi	-13536
▁DIFFER	-13537
▁Priska	-13538
▁framst	-13539
▁härlig	-13540
▁täckts	-13541
▁äggdon	-13542
ishimovn	-13543
skningen	-13544
▁Eternal	-13545
▁INCLUID	-13546
▁Mordoka	-13547
▁analyse	-13548
▁befogen	-13549
▁handlar	-13550
▁härliga	-13551
▁härligt	-13552
▁knobbly	-13553
▁längden	-13554
▁tillits	-13555
▁vattnas	-13556
ningslöst	-13557
▁Amorites	-13558
▁Eutanasi	-13559
▁Marianne	-13560
▁clothing	-13561
▁framsteg	-13562
▁undersök	-13563
raskningen	-13564
▁Bishimovn	-13565
▁DIFFERENT	-13566
▁Daughters	-13567
▁Delivered	-13568
▁Deliverer	-13569
▁Drottning	-13570
▁Dussintal	-13571
▁Economics	-13572
▁Exhorting	-13573
▁FURNITURE	-13574
▁Getsemane	-13575
▁Haftungsa	-13576
▁Hydration	-13577
▁Händelser	-13578
▁INCLUIDOS	-13579
▁Ishkeriot	-13580
▁Jättefint	-13581
▁Koncernen	-13582
▁Kopparorm	-13583
▁Lamenting	-13584
▁Languages	-13585
▁Lundström	-13586
▁Marketers	-13587
▁Midwinter	-13588
▁Milosevic	-13589
▁Mordokais	-13590
▁MÖJLIGHET	-13591
▁Nightlife	-13592
▁Nutrition	-13593
▁Patzinaks	-13594
▁President	-13595
▁Punishing	-13596
▁Punklåtar	-13597
▁ROSEVILLE	-13598
▁Recession	-13599
cue	-13600
▁'-	-13601
Ladd	-13602
gips	-13603
good	-13604
nown	-13605
tmen	-13606
told	-13607
vari	-13608
ipses	-13609
mense	-13610
uslim	-13611
venue	-13612
ytmen	-13613
▁Cold	-13614
▁FRUK	-13615
▁Good	-13616
▁Town	-13617
▁lova	-13618
▁oliv	-13619
Muslim	-13620
itetar	-13621
iteter	-13622
lipses	-13623
oldest	-13624
varade	-13625
variab	-13626
ämling	-13627
▁Kling	-13628
▁Known	-13629
▁LÄNGS	-13630
▁Tours	-13631
▁agree	-13632
▁armen	-13633
▁dress	-13634
▁grått	-13635
▁indiv	-13636
▁liken	-13637
▁lilla	-13638
▁mäter	-13639
▁serve	-13640
▁ships	-13641
▁stood	-13642
antitet	-13643
aserade	-13644
ettling	-13645
rämling	-13646
▁FRUKTS	-13647
▁Unwire	-13648
▁awaren	-13649
▁belast	-13650
▁heligt	-13651
▁härbär	-13652
▁märken	-13653
▁provar	-13654
▁rescue	-13655
▁rytmen	-13656
▁stängd	-13657
▁trojan	-13658
Laddning	-13659
aktioner	-13660
baserade	-13661
eclipses	-13662
izations	-13663
oljefärg	-13664
orations	-13665
settling	-13666
▁Gustavs	-13667
▁Nations	-13668
▁Sidkias	-13669
▁boldest	-13670
▁decided	-13671
▁dressed	-13672
▁immense	-13673
▁individ	-13674
▁knowing	-13675
▁praying	-13676
▁revenue	-13677
▁tillvar	-13678
▁tjänare	-13679
variablen	-13680
▁FRUKTSAM	-13681
▁Främling	-13682
▁bevarade	-13683
▁shipping	-13684
▁tillvaro	-13685
▁trojaner	-13686
▁Klingande	-13687
▁Repentant	-13688
▁Safeguard	-13689
▁Semestrar	-13690
▁Something	-13691
▁Sommardag	-13692
▁Synagogue	-13693
▁TILLFÄLLE	-13694
▁Translate	-13695
▁Webbkamer	-13696
▁Wrestling	-13697
▁Zarephath	-13698
▁adjective	-13699
aza	-13700
rön	-13701
säg	-13702
▁),	-13703
,224	-13704
Publ	-13705
furn	-13706
love	-13707
strö	-13708
ygad	-13709
▁"2.	-13710
▁"22	-13711
▁CET	-13712
▁LIN	-13713
▁bäg	-13714
▁grö	-13715
▁mix	-13716
....,	-13717
above	-13718
athol	-13719
repro	-13720
äglad	-13721
▁1935	-13722
▁Gaza	-13723
▁Grön	-13724
▁Home	-13725
▁LINE	-13726
▁Publ	-13727
▁amen	-13728
▁elev	-13729
▁hook	-13730
▁klon	-13731
▁träg	-13732
ements	-13733
furnit	-13734
onents	-13735
quence	-13736
resurs	-13737
rrepro	-13738
ströss	-13739
▁LINEA	-13740
▁cream	-13741
▁crime	-13742
▁idols	-13743
▁klätt	-13744
▁quant	-13745
▁seeds	-13746
▁trägt	-13747
ingsugn	-13748
oquence	-13749
portion	-13750
Ändrade	-13751
ödandet	-13752
▁20,224	-13753
▁Allden	-13754
▁Cathol	-13755
▁seaman	-13756
▁theory	-13757
dödandet	-13758
strössel	-13759
▁Babylon	-13760
▁bägaren	-13761
▁irrepro	-13762
▁präglad	-13763
▁sjukvår	-13764
▁snurren	-13765
▁specter	-13766
▁tannins	-13767
Published	-13768
furniture	-13769
iloquence	-13770
▁Alldenst	-13771
▁Publican	-13772
▁quantity	-13773
meringsugn	-13774
resurserna	-13775
▁Catholics	-13776
▁aerospace	-13777
▁affärsliv	-13778
▁aggressiv	-13779
▁aktivitet	-13780
▁alldelens	-13781
▁alleviate	-13782
▁anledning	-13783
▁anpassade	-13784
▁användbar	-13785
▁araméerna	-13786
▁arbetspro	-13787
▁arbetsrum	-13788
▁arranging	-13789
▁assuredly	-13790
▁asterisks	-13791
▁attracted	-13792
▁autopilot	-13793
▁avsnittet	-13794
▁awareness	-13795
▁badrummet	-13796
▁bekostnad	-13797
▁believers	-13798
▁believing	-13799
Grå	-13800
1"".	-13801
Gråt	-13802
annm	-13803
barn	-13804
reng	-13805
worn	-13806
▁Jaw	-13807
▁Occ	-13808
annel	-13809
cater	-13810
thåll	-13811
örden	-13812
▁Book	-13813
▁Jawb	-13814
▁börd	-13815
▁börs	-13816
▁garn	-13817
▁snuv	-13818
▁yarn	-13819
Create	-13820
annmål	-13821
illigt	-13822
rength	-13823
ängden	-13824
▁Anden	-13825
▁börsn	-13826
▁förrå	-13827
▁okänd	-13828
▁orden	-13829
▁snuva	-13830
▁sonen	-13831
▁styra	-13832
Vinnare	-13833
akenhet	-13834
istakes	-13835
längden	-13836
skörden	-13837
sningar	-13838
▁Andens	-13839
▁Occult	-13840
▁bördor	-13841
▁floors	-13842
▁förråd	-13843
▁lights	-13844
▁ljuset	-13845
▁offend	-13846
▁rather	-13847
▁stater	-13848
▁teleph	-13849
▁timber	-13850
▁timmer	-13851
▁uthåll	-13852
▁värden	-13853
Atzivuhu	-13854
catering	-13855
inningar	-13856
ivilligt	-13857
ärningar	-13858
▁Jawbone	-13859
▁absurda	-13860
▁channel	-13861
▁dricker	-13862
▁resorna	-13863
▁therein	-13864
finningar	-13865
gärningar	-13866
lysningar	-13867
processor	-13868
▁Adriatic	-13869
▁farhågor	-13870
▁fientlig	-13871
▁hypothet	-13872
▁infringe	-13873
▁mistakes	-13874
▁nackknöl	-13875
▁nakenhet	-13876
▁spannmål	-13877
▁spectrum	-13878
▁strength	-13879
▁beskrivit	-13880
▁beställas	-13881
▁besvärlig	-13882
▁betydande	-13883
▁blemishes	-13884
▁bloggaren	-13885
▁budbärare	-13886
▁byggnaden	-13887
▁byråkrati	-13888
▁candidate	-13889
▁catamaran	-13890
▁christmas	-13891
▁combining	-13892
▁community	-13893
▁companies	-13894
▁completed	-13895
▁concerned	-13896
▁condition	-13897
▁crucified	-13898
▁decorated	-13899
.8)	-13900
ERC	-13901
VER	-13902
åda	-13903
▁Ya	-13904
ERCA	-13905
fång	-13906
lage	-13907
riva	-13908
▁MER	-13909
RAVER	-13910
ician	-13911
rives	-13912
rivet	-13913
▁Båda	-13914
▁Lång	-13915
▁Prol	-13916
▁Tape	-13917
▁hems	-13918
▁hire	-13919
▁kvar	-13920
▁modu	-13921
▁trav	-13922
▁tray	-13923
våning	-13924
▁CERCA	-13925
▁Never	-13926
▁kungj	-13927
▁kvick	-13928
▁kväll	-13929
▁polls	-13930
▁train	-13931
ceptors	-13932
ehicles	-13933
iskfång	-13934
ockslag	-13935
skrivet	-13936
usician	-13937
▁TRAVER	-13938
▁balans	-13939
▁filmer	-13940
▁formar	-13941
▁hemsök	-13942
▁manage	-13943
▁module	-13944
▁remain	-13945
▁Charter	-13946
▁airline	-13947
▁bedriva	-13948
▁laglöst	-13949
▁phrases	-13950
▁platsen	-13951
▁reglage	-13952
▁thrives	-13953
▁travels	-13954
figurerad	-13955
skontoren	-13956
ställelse	-13957
umulation	-13958
▁Crossing	-13959
▁Musician	-13960
▁Prolific	-13961
▁aktivera	-13962
▁anknutna	-13963
▁approach	-13964
▁episoder	-13965
▁fiskfång	-13966
▁fördrivs	-13967
▁hemsökes	-13968
▁katastro	-13969
▁kungjort	-13970
▁kvickare	-13971
▁provider	-13972
▁vehicles	-13973
▁ytlighet	-13974
compagnies	-13975
▁besegrade	-13976
▁dedicated	-13977
▁deltagare	-13978
▁dependent	-13979
▁depressed	-13980
▁designade	-13981
▁designats	-13982
▁diskutera	-13983
▁djärvaste	-13984
▁dynamiskt	-13985
▁däribland	-13986
▁emphasize	-13987
▁encrypted	-13988
▁excessive	-13989
▁exclusive	-13990
▁existerar	-13991
▁expensive	-13992
▁expresses	-13993
▁finanzier	-13994
▁fireplace	-13995
▁fokuserar	-13996
▁forbidden	-13997
▁forgotten	-13998
▁forskning	-13999
"),	-14000
CAS	-14001
ego	-14002
fén	-14003
öje	-14004
flyg	-14005
nego	-14006
▁unf	-14007
▁unw	-14008
amous	-14009
egrip	-14010
enely	-14011
evous	-14012
ively	-14013
pligt	-14014
sound	-14015
unite	-14016
ydiga	-14017
örjer	-14018
▁Firm	-14019
▁MUST	-14020
▁Mina	-14021
▁Nöje	-14022
▁OCAS	-14023
▁Turn	-14024
▁adje	-14025
▁glas	-14026
▁outf	-14027
▁perh	-14028
▁pole	-14029
▁unve	-14030
▁värk	-14031
Ansikt	-14032
ednego	-14033
itiken	-14034
jänade	-14035
ktivet	-14036
▁Också	-14037
▁Sound	-14038
▁foreg	-14039
▁hydda	-14040
▁stars	-14041
▁unwor	-14042
▁visir	-14043
▁whett	-14044
itativa	-14045
rievous	-14046
segment	-14047
ämpligt	-14048
▁bankär	-14049
▁fattig	-14050
▁förkun	-14051
▁lydiga	-14052
▁mottar	-14053
▁outfit	-14054
▁perhap	-14055
▁sörjer	-14056
▁trofén	-14057
▁unfair	-14058
▁unveil	-14059
Ansikten	-14060
ourished	-14061
ssegment	-14062
▁Kostnad	-14063
▁Nautica	-14064
▁OCASION	-14065
▁Pharaoh	-14066
▁applied	-14067
▁arbetst	-14068
▁begrava	-14069
▁obegrip	-14070
▁perform	-14071
▁perhaps	-14072
▁reunite	-14073
▁unworth	-14074
▁visions	-14075
▁visiret	-14076
▁visning	-14077
▁whetted	-14078
atsningar	-14079
clusively	-14080
markursen	-14081
problemet	-14082
▁Abednego	-14083
▁Triangle	-14084
▁criminal	-14085
▁fortsätt	-14086
▁förkunna	-14087
▁grievous	-14088
▁infamous	-14089
▁serenely	-14090
▁unworthy	-14091
handlingen	-14092
▁Nourished	-14093
▁Politiken	-14094
▁Projektet	-14095
▁bankärend	-14096
▁fortnight	-14097
▁frontline	-14098
▁fullmånen	-14099
-30	-14100
rge	-14101
ämd	-14102
Käll	-14103
ebru	-14104
rugg	-14105
stäm	-14106
ädat	-14107
ämma	-14108
ämnt	-14109
armor	-14110
cepts	-14111
iseth	-14112
lands	-14113
obble	-14114
rable	-14115
ädare	-14116
ällor	-14117
▁Each	-14118
▁Thou	-14119
▁Urge	-14120
▁cert	-14121
▁farm	-14122
▁mach	-14123
▁ours	-14124
▁purs	-14125
Källan	-14126
Varför	-14127
estämd	-14128
icketh	-14129
ruggle	-14130
▁devot	-14131
▁febru	-14132
▁helst	-14133
▁juice	-14134
▁nämnt	-14135
▁reach	-14136
▁växte	-14137
espread	-14138
iktator	-14139
minskar	-14140
ourable	-14141
▁Farmor	-14142
▁besten	-14143
▁förble	-14144
▁hållen	-14145
▁källor	-14146
▁oursel	-14147
▁sonens	-14148
▁spelas	-14149
▁spelet	-14150
▁städat	-14151
▁webbse	-14152
▁wobble	-14153
eträdare	-14154
stämning	-14155
▁Brother	-14156
▁Raiseth	-14157
▁farmers	-14158
▁förblev	-14159
▁graphic	-14160
▁katolsk	-14161
▁pursued	-14162
▁största	-14163
▁välkomm	-14164
DSVITAMIN	-14165
avourable	-14166
idespread	-14167
▁devotion	-14168
▁diktator	-14169
▁februari	-14170
▁machines	-14171
▁precepts	-14172
▁sticketh	-14173
▁struggle	-14174
UDSVITAMIN	-14175
▁fullständ	-14176
▁föranleda	-14177
▁förbereda	-14178
▁förbundet	-14179
▁förebygga	-14180
▁föreläser	-14181
▁företaget	-14182
▁förflutna	-14183
▁förklaras	-14184
▁förlåtlig	-14185
▁förolämpa	-14186
▁försoning	-14187
▁försäkrar	-14188
▁förtjänst	-14189
▁förutsätt	-14190
▁förvåning	-14191
▁förändrar	-14192
▁genererar	-14193
▁graduates	-14194
▁grekernas	-14195
▁grÖnsaker	-14196
▁grönsaker	-14197
▁hedningar	-14198
▁hemmabygg	-14199
".!	-14200
/".	-14201
-101	-14202
akta	-14203
odge	-14204
sdel	-14205
äget	-14206
▁1.8	-14207
▁202	-14208
▁adm	-14209
▁sjl	-14210
Sedan	-14211
usage	-14212
▁2/".	-14213
▁intu	-14214
▁jakt	-14215
▁samg	-14216
▁sjlv	-14217
▁takt	-14218
ckumul	-14219
isable	-14220
mented	-14221
onable	-14222
sfakta	-14223
ttonde	-14224
▁Delil	-14225
▁Korah	-14226
▁Lodge	-14227
▁Unter	-14228
▁admir	-14229
▁adult	-14230
▁annul	-14231
▁equal	-14232
▁flies	-14233
▁hadst	-14234
▁hotar	-14235
▁intar	-14236
▁makts	-14237
▁sable	-14238
▁sjund	-14239
▁utrop	-14240
Vätskeb	-14241
disable	-14242
endment	-14243
ensable	-14244
framför	-14245
onsorer	-14246
plement	-14247
rumsdel	-14248
▁VARFÖR	-14249
▁adults	-14250
▁devour	-14251
▁digest	-14252
▁guldet	-14253
▁intuit	-14254
▁samtal	-14255
▁sjunde	-14256
▁stötta	-14257
▁trophy	-14258
▁utropa	-14259
▁Ackumul	-14260
▁Beläget	-14261
▁Delilah	-14262
▁Unterst	-14263
▁allting	-14264
▁annular	-14265
▁följder	-14266
▁häftigt	-14267
▁sausage	-14268
▁servant	-14269
▁uteområ	-14270
▁åttonde	-14271
Vätskebal	-14272
ardonable	-14273
▁Serenade	-14274
▁devoured	-14275
▁preserve	-14276
agsrumsdel	-14277
▁Committee	-14278
▁amendment	-14279
▁bärgnings	-14280
▁employees	-14281
▁honeymoon	-14282
▁hospitals	-14283
▁hyresgäst	-14284
▁härbärget	-14285
▁hårstråna	-14286
▁ignoreras	-14287
▁ihållande	-14288
▁implement	-14289
▁indicator	-14290
▁influence	-14291
▁ingenting	-14292
▁inkludera	-14293
▁innerliga	-14294
▁inorganic	-14295
▁installed	-14296
▁instincts	-14297
▁integrera	-14298
▁intention	-14299
END	-14300
eks	-14301
möj	-14302
sac	-14303
!!""	-14304
ENDE	-14305
MKJV	-14306
away	-14307
▁Kek	-14308
▁amp	-14309
▁lek	-14310
arets	-14311
assac	-14312
obody	-14313
plays	-14314
pleas	-14315
reeks	-14316
ropar	-14317
▁Take	-14318
▁WITH	-14319
▁crop	-14320
▁pure	-14321
▁slog	-14322
▁wake	-14323
GÅENDE	-14324
appvin	-14325
ecasts	-14326
ekonom	-14327
ickets	-14328
sacrif	-14329
▁behov	-14330
▁bible	-14331
▁ferry	-14332
▁gudar	-14333
▁intif	-14334
▁kvast	-14335
▁omtal	-14336
▁sling	-14337
▁åriga	-14338
asarets	-14339
assacre	-14340
ekonomi	-14341
eställa	-14342
ideaway	-14343
rifttid	-14344
▁Greeks	-14345
▁KLUNGA	-14346
▁gropar	-14347
▁humour	-14348
▁nobody	-14349
▁sinnen	-14350
▁slingr	-14351
▁valmöj	-14352
▁vishet	-14353
kontroll	-14354
pleasant	-14355
ulations	-14356
ÅTGÅENDE	-14357
▁Keeping	-14358
▁Kekules	-14359
▁främjar	-14360
▁intifad	-14361
▁kortets	-14362
▁krossad	-14363
▁kvastst	-14364
▁omtalad	-14365
▁prevent	-14366
▁sympati	-14367
▁tickets	-14368
▁willing	-14369
sacrifice	-14370
▁Dessutom	-14371
▁Massacre	-14372
▁Nasarets	-14373
▁cosmetic	-14374
▁displays	-14375
▁drifttid	-14376
▁etappvin	-14377
▁hideaway	-14378
▁historia	-14379
▁krossadt	-14380
▁triangle	-14381
atulations	-14382
kontrollOK	-14383
▁Expulsion	-14384
▁forecasts	-14385
▁interests	-14386
▁interface	-14387
▁interpret	-14388
▁interview	-14389
▁intjänade	-14390
▁intressen	-14391
▁intrycket	-14392
▁intuitive	-14393
▁invånarna	-14394
▁isolerade	-14395
▁jordbruks	-14396
▁jätteglad	-14397
▁jättelugn	-14398
▁kaffekopp	-14399
rÄ	-14400
cho	-14401
egg	-14402
ggt	-14403
xed	-14404
▁Ec	-14405
Even	-14406
NITY	-14407
ktob	-14408
nats	-14409
rÄtt	-14410
zeer	-14411
▁dop	-14412
▁egg	-14413
▁röd	-14414
▁åld	-14415
"..."	-14416
Eller	-14417
abile	-14418
atser	-14419
ctive	-14420
forms	-14421
laxed	-14422
ottle	-14423
raven	-14424
▁Bras	-14425
▁Nine	-14426
▁echo	-14427
▁fats	-14428
▁shad	-14429
▁zeer	-14430
formen	-14431
former	-14432
indras	-14433
ktober	-14434
omliga	-14435
satser	-14436
▁Ecsta	-14437
▁Koras	-14438
▁anegg	-14439
▁butik	-14440
▁conta	-14441
▁party	-14442
▁reger	-14443
▁ålder	-14444
Brother	-14445
uformen	-14446
▁Bodies	-14447
▁Brasil	-14448
▁Nineve	-14449
▁botten	-14450
▁bottle	-14451
▁gäster	-14452
▁liknar	-14453
▁omform	-14454
▁saknar	-14455
▁shadow	-14456
▁softer	-14457
▁temper	-14458
iskheten	-14459
istéerna	-14460
▁Ecstacy	-14461
▁Phrases	-14462
▁capabil	-14463
▁contact	-14464
▁desktop	-14465
▁hindras	-14466
▁matrÄtt	-14467
▁oktober	-14468
▁otryggt	-14469
▁pengatv	-14470
▁relaxed	-14471
▁stabile	-14472
▁toolbar	-14473
▁öppnats	-14474
▁Magicbit	-14475
▁gripande	-14476
▁observes	-14477
▁omformar	-14478
▁peripher	-14479
▁reformer	-14480
▁temperat	-14481
▁Brasilien	-14482
▁apostolic	-14483
▁bedrövade	-14484
▁gudomliga	-14485
▁kampanjer	-14486
▁katamaran	-14487
▁kategorin	-14488
▁katoliker	-14489
▁kilometer	-14490
▁klangrikt	-14491
▁klockslag	-14492
▁kommittén	-14493
▁konserter	-14494
▁konserver	-14495
▁kriminell	-14496
▁kristider	-14497
▁kroatiska	-14498
▁krossades	-14499
2.	-14500
▁4.	-14501
▁5)	-14502
..2.	-14503
Förf	-14504
inev	-14505
inne	-14506
pect	-14507
stid	-14508
åser	-14509
▁höj	-14510
▁slu	-14511
▁syf	-14512
▁yuk	-14513
aliga	-14514
asser	-14515
child	-14516
männa	-14517
skild	-14518
▁Foil	-14519
▁Mich	-14520
▁Mile	-14521
▁clim	-14522
▁hast	-14523
▁ramp	-14524
▁utpl	-14525
Förfat	-14526
Förund	-14527
Saliga	-14528
elsass	-14529
endung	-14530
fasser	-14531
iseras	-14532
olding	-14533
rskild	-14534
stiska	-14535
▁Elias	-14536
▁Foils	-14537
▁Micha	-14538
▁Ninev	-14539
▁Shore	-14540
▁Vissa	-14541
▁miles	-14542
▁sluka	-14543
▁syfte	-14544
▁sänds	-14545
▁trade	-14546
▁utplå	-14547
▁visum	-14548
atecken	-14549
ionerna	-14550
wendung	-14551
▁Danish	-14552
▁Spares	-14553
▁blåser	-14554
▁höjder	-14555
▁konsum	-14556
▁mening	-14557
▁metres	-14558
▁videog	-14559
Förundra	-14560
paratory	-14561
pectives	-14562
ättelser	-14563
▁Belsass	-14564
▁använde	-14565
▁avsnitt	-14566
▁besinne	-14567
▁climate	-14568
▁holding	-14569
▁konsumt	-14570
▁srskild	-14571
▁utplåna	-14572
Författer	-14573
itatecken	-14574
teriseras	-14575
▁CONTENTS	-14576
▁Genomtän	-14577
▁Michaels	-14578
▁allmänna	-14579
▁believes	-14580
▁mystiska	-14581
▁utexamin	-14582
citatecken	-14583
erättelser	-14584
ligionerna	-14585
▁Ninevites	-14586
▁Tvärtemot	-14587
▁Verfasser	-14588
▁extension	-14589
▁kvantitet	-14590
▁ledtrådar	-14591
▁lejongrop	-14592
▁liquidity	-14593
▁livsbejak	-14594
▁livsmedel	-14595
▁ljuslykta	-14596
▁loneliest	-14597
▁lxLoveKFC	-14598
▁läkemedel	-14599
izp	-14600
umb	-14601
▁9,	-14602
▁9.	-14603
atat	-14604
atbo	-14605
clar	-14606
cles	-14607
ften	-14608
left	-14609
uide	-14610
▁(1)	-14611
▁9,7	-14612
▁9.7	-14613
▁Ink	-14614
▁Lov	-14615
▁Sov	-14616
▁bäl	-14617
▁ecl	-14618
▁nov	-14619
▁päl	-14620
▁suc	-14621
atboy	-14622
guide	-14623
izpah	-14624
perer	-14625
umbna	-14626
▁Inga	-14627
▁Liss	-14628
▁Used	-14629
▁lust	-14630
▁päls	-14631
▁sura	-14632
▁varm	-14633
▁viss	-14634
▁weig	-14635
▁weit	-14636
kärlen	-14637
▁Inkas	-14638
▁Loved	-14639
▁bälte	-14640
▁eclip	-14641
▁lusts	-14642
▁plent	-14643
▁seats	-14644
▁stiga	-14645
▁succe	-14646
▁varma	-14647
▁verse	-14648
▁värme	-14649
isperer	-14650
umbnail	-14651
▁Fatboy	-14652
▁Gilead	-14653
▁Rizpah	-14654
▁Soviet	-14655
▁belong	-14656
▁declar	-14657
▁demons	-14658
▁doften	-14659
▁hyrbil	-14660
▁plenty	-14661
▁pratat	-14662
▁underv	-14663
innacles	-14664
iondelar	-14665
▁Soviets	-14666
▁eclipse	-14667
▁gjordes	-14668
▁novices	-14669
▁succeed	-14670
▁varmest	-14671
▁weighed	-14672
▁weitere	-14673
▁portabel	-14674
▁Botaniska	-14675
▁Cathedral	-14676
▁lämningar	-14677
▁lärjunges	-14678
▁magikerna	-14679
▁maktorgan	-14680
▁meddelade	-14681
▁medicinen	-14682
▁medkänsla	-14683
▁metallisk	-14684
▁misstänkt	-14685
▁mjukvarup	-14686
▁monitored	-14687
▁monuments	-14688
▁mountains	-14689
▁multitude	-14690
▁musicians	-14691
▁målningar	-14692
▁nakedness	-14693
▁naturally	-14694
▁naturbild	-14695
▁nischmark	-14696
▁normative	-14697
▁nybörjare	-14698
▁någonting	-14699
Ut	-14700
ux	-14701
▁6)	-14702
AGEW	-14703
Most	-14704
akeh	-14705
host	-14706
mies	-14707
ounc	-14708
pher	-14709
prom	-14710
ryll	-14711
saka	-14712
unge	-14713
uxna	-14714
ärka	-14715
▁"13	-14716
▁Rad	-14717
▁Siz	-14718
▁lös	-14719
▁tun	-14720
KARJA	-14721
essed	-14722
junge	-14723
reath	-14724
vecka	-14725
Äcker	-14726
▁Most	-14727
▁Nice	-14728
▁mice	-14729
▁sakt	-14730
AGEWAY	-14731
AKARJA	-14732
Utveck	-14733
alvary	-14734
ieties	-14735
ouncil	-14736
reaths	-14737
ryllar	-14738
shakeh	-14739
▁"1325	-14740
▁Ghost	-14741
▁Radio	-14742
▁Sizes	-14743
▁chans	-14744
▁comet	-14745
▁lösas	-14746
▁medle	-14747
▁sagda	-14748
▁toher	-14749
▁tunes	-14750
▁unary	-14751
▁vuxna	-14752
fenomen	-14753
promise	-14754
ärjunge	-14755
▁Armies	-14756
▁Sonden	-14757
▁conver	-14758
▁indust	-14759
▁loving	-14760
▁lÄcker	-14761
▁mother	-14762
▁orsaka	-14763
▁saktar	-14764
▁stärka	-14765
▁utvalt	-14766
lärjunge	-14767
ssnittet	-14768
▁Calvary	-14769
▁Council	-14770
▁SAKARJA	-14771
▁blessed	-14772
▁chansen	-14773
▁förstån	-14774
▁medlems	-14775
▁methods	-14776
▁presupp	-14777
▁reduces	-14778
▁wreaths	-14779
▁överall	-14780
fenomenet	-14781
▁välkomna	-14782
▁överallt	-14783
Inkluderar	-14784
otographer	-14785
▁Rabshakeh	-14786
▁afflicted	-14787
▁container	-14788
▁industriv	-14789
▁nätverket	-14790
▁olämpligt	-14791
▁omgivning	-14792
▁onanerade	-14793
▁organiska	-14794
▁oumbärlig	-14795
▁outwardly	-14796
▁ownership	-14797
▁pediatric	-14798
▁perfectly	-14799
.).	-14800
FrÖ	-14801
zra	-14802
▁OK	-14803
▁””	-14804
Star	-14805
väng	-14806
ymns	-14807
▁().	-14808
▁3).	-14809
▁Our	-14810
▁Unt	-14811
▁brÖ	-14812
▁brö	-14813
▁cry	-14814
FrÖna	-14815
unday	-14816
ängde	-14817
▁Ezra	-14818
▁Unto	-14819
▁abom	-14820
▁brÖd	-14821
▁byts	-14822
▁doom	-14823
▁mead	-14824
▁mega	-14825
▁muse	-14826
▁quiz	-14827
▁sets	-14828
▁“...	-14829
ristus	-14830
▁Enter	-14831
▁Spaan	-14832
▁Sväng	-14833
▁abuse	-14834
▁aches	-14835
▁acute	-14836
▁benen	-14837
▁beund	-14838
▁bröll	-14839
▁dooms	-14840
▁hymns	-14841
▁skaff	-14842
Kristus	-14843
mnastik	-14844
ografin	-14845
ängning	-14846
▁Gospel	-14847
▁Konung	-14848
▁Sunday	-14849
▁forget	-14850
▁museet	-14851
▁skills	-14852
relation	-14853
▁Spaanse	-14854
▁kvinnan	-14855
▁meadows	-14856
▁skaffar	-14857
▁stängde	-14858
▁undvika	-14859
▁uttalar	-14860
▁övertog	-14861
92.168.2”	-14862
▁Removing	-14863
▁beskrevs	-14864
▁beundran	-14865
▁digitala	-14866
▁MILOSEVIC	-14867
▁Tysklands	-14868
▁bearbetas	-14869
▁bröllopsf	-14870
▁personlig	-14871
▁pindarici	-14872
▁pinnacles	-14873
▁platserna	-14874
▁political	-14875
▁prejudice	-14876
▁premature	-14877
▁principer	-14878
▁programet	-14879
▁programme	-14880
▁reactions	-14881
▁regerings	-14882
▁rejoiceth	-14883
▁religions	-14884
▁reminders	-14885
▁repercuss	-14886
▁resultant	-14887
▁risktoler	-14888
▁räkenskap	-14889
▁rättsliga	-14890
▁samgående	-14891
▁samhället	-14892
▁sammanlag	-14893
▁samverkan	-14894
▁satisfied	-14895
▁screaming	-14896
▁scripture	-14897
▁seamounts	-14898
▁secondary	-14899
.-	-14900
3'	-14901
.”.	-14902
öta	-14903
Fisk	-14904
agda	-14905
apit	-14906
drig	-14907
icke	-14908
nect	-14909
ntas	-14910
rain	-14911
rull	-14912
änns	-14913
öken	-14914
▁bog	-14915
▁een	-14916
▁nog	-14917
▁tap	-14918
Söken	-14919
acked	-14920
ackra	-14921
anlig	-14922
attet	-14923
enats	-14924
gerat	-14925
indra	-14926
nglig	-14927
sagda	-14928
▁1911	-14929
▁Copy	-14930
▁Curs	-14931
▁Lets	-14932
▁Plan	-14933
▁bind	-14934
▁gata	-14935
▁lera	-14936
▁natt	-14937
▁remn	-14938
▁uppe	-14939
aldrig	-14940
apitel	-14941
arform	-14942
innare	-14943
rullen	-14944
ulling	-14945
urrain	-14946
ändlig	-14947
ännisk	-14948
▁India	-14949
▁kommo	-14950
▁känns	-14951
▁sinne	-14952
▁sköta	-14953
▁tillh	-14954
Fiskens	-14955
achable	-14956
ovanlig	-14957
östnytt	-14958
▁Advent	-14959
▁Planet	-14960
▁Vackra	-14961
▁agerat	-14962
▁lindra	-14963
▁medför	-14964
▁pyntas	-14965
▁rained	-14966
▁självt	-14967
▁slower	-14968
▁tapest	-14969
arformul	-14970
nections	-14971
änniskan	-14972
▁Cursing	-14973
▁Murrain	-14974
▁binding	-14975
▁enheter	-14976
▁excited	-14977
▁kapitel	-14978
▁orenats	-14979
▁organic	-14980
▁oändlig	-14981
▁pigment	-14982
▁pulling	-14983
▁remnant	-14984
▁skattet	-14985
▁tillhop	-14986
▁vinnare	-14987
stretched	-14988
▁Höstnytt	-14989
▁attacked	-14990
▁baserade	-14991
▁composed	-14992
▁hotellet	-14993
▁involume	-14994
▁kollagen	-14995
▁prophets	-14996
▁tapestry	-14997
▁tillhopa	-14998
▁1994-2010	-14999
Il	-15000
Tag	-15001
▁Hö	-15002
▁IX	-15003
Date	-15004
Prol	-15005
apen	-15006
aras	-15007
mult	-15008
onta	-15009
quis	-15010
▁Cla	-15011
▁avv	-15012
▁nåd	-15013
▁squ	-15014
Konta	-15015
ichst	-15016
inity	-15017
irurg	-15018
multi	-15019
många	-15020
odity	-15021
reser	-15022
ushed	-15023
▁Gard	-15024
▁Gate	-15025
▁Serp	-15026
▁late	-15027
▁unge	-15028
Making	-15029
bundet	-15030
ityder	-15031
linjer	-15032
verser	-15033
ändert	-15034
▁Claus	-15035
▁Eston	-15036
▁Höger	-15037
▁Saras	-15038
▁avvik	-15039
▁blund	-15040
▁gases	-15041
▁notic	-15042
▁vapen	-15043
▁vägde	-15044
Kontakt	-15045
Prolong	-15046
andlest	-15047
ichstag	-15048
icinity	-15049
▁Minska	-15050
▁acquis	-15051
▁blunda	-15052
▁effekt	-15053
▁fitter	-15054
▁hämsko	-15055
▁kirurg	-15056
▁square	-15057
▁static	-15058
lication	-15059
▁Gardens	-15060
▁Koranen	-15061
▁Serpent	-15062
▁brunnen	-15063
▁crushed	-15064
▁foreign	-15065
▁noterat	-15066
▁noticed	-15067
▁pattern	-15068
▁ungefär	-15069
▁Estonias	-15070
▁Leviatan	-15071
▁bearings	-15072
▁candlest	-15073
▁geändert	-15074
▁sändlist	-15075
▁vicinity	-15076
▁yppersta	-15077
sförbundet	-15078
▁Invånarna	-15079
▁Människan	-15080
▁Reichstag	-15081
▁attityder	-15082
▁avvikande	-15083
▁bokrullen	-15084
▁commodity	-15085
▁expertise	-15086
▁graphical	-15087
▁halvtimme	-15088
▁preconfig	-15089
▁semicolon	-15090
▁separated	-15091
▁september	-15092
▁sequencer	-15093
▁shoulders	-15094
▁situation	-15095
▁sjukdomar	-15096
▁skadedjur	-15097
▁skiftande	-15098
▁skrikande	-15099
nu	-15100
ght	-15101
nip	-15102
nnu	-15103
äga	-15104
▁/4	-15105
brja	-15106
earn	-15107
icho	-15108
iput	-15109
ught	-15110
unga	-15111
vtal	-15112
ånga	-15113
▁/48	-15114
▁5).	-15115
▁Yuk	-15116
▁boy	-15117
▁byn	-15118
▁byx	-15119
▁peb	-15120
▁stt	-15121
▁tip	-15122
▁ups	-15123
▁vel	-15124
▁”22	-15125
Avtal	-15126
Kunde	-15127
arken	-15128
nipot	-15129
Âbrja	-15130
ännag	-15131
ännen	-15132
▁Bear	-15133
▁Lear	-15134
▁Stud	-15135
▁blur	-15136
▁byxb	-15137
▁eats	-15138
▁hava	-15139
▁Ännu	-15140
gypsum	-15141
kännag	-15142
oubles	-15143
ävling	-15144
[...]
