<unk>	0
<s>	0
</s>	0
<pad>	0
om	-0
▁T	-1
▁d	-2
▁h	-3
▁s	-4
ar	-5
▁Tom	-6
▁I	-7
▁t	-8
ag	-9
er	-10
an	-11
▁i	-12
är	-13
et	-14
▁m	-15
en	-16
▁J	-17
▁Jag	-18
at	-19
ou	-20
▁b	-21
▁är	-22
ll	-23
in	-24
▁f	-25
▁g	-26
ig	-27
▁H	-28
▁D	-29
▁l	-30
▁a	-31
on	-32
▁k	-33
ad	-34
▁v	-35
ed	-36
▁n	-37
▁y	-38
▁you	-39
▁w	-40
▁c	-41
re	-42
▁p	-43
st	-44
▁th	-45
▁V	-46
or	-47
▁W	-48
ör	-49
▁in	-50
ve	-51
te	-52
ck	-53
is	-54
▁is	-55
ing	-56
▁det	-57
ow	-58
it	-59
ill	-60
as	-61
▁u	-62
▁j	-63
▁du	-64
id	-65
▁S	-66
▁to	-67
▁r	-68
▁it	-69
▁inte	-70
ade	-71
ot	-72
▁Det	-73
▁en	-74
es	-75
▁Wh	-76
▁G	-77
▁o	-78
ta	-79
el	-80
▁ha	-81
▁li	-82
att	-83
ur	-84
▁Th	-85
▁the	-86
pp	-87
de	-88
▁mig	-89
än	-90
▁do	-91
▁st	-92
▁be	-93
▁har	-94
▁Vi	-95
un	-96
ver	-97
ke	-98
▁här	-99
▁sk	-100
le	-101
▁K	-102
▁var	-103
▁på	-104
▁It	-105
▁me	-106
äl	-107
ere	-108
▁We	-109
▁on	-110
▁att	-111
▁A	-112
▁för	-113
▁jag	-114
▁can	-115
▁C	-116
▁my	-117
al	-118
▁kan	-119
▁den	-120
▁dig	-121
ay	-122
em	-123
oo	-124
am	-125
ch	-126
▁Han	-127
▁re	-128
ld	-129
na	-130
år	-131
▁He	-132
▁have	-133
▁M	-134
sk	-135
▁What	-136
▁Y	-137
▁Ä	-138
lig	-139
▁ne	-140
▁You	-141
▁ar	-142
▁that	-143
▁e	-144
ak	-145
▁tr	-146
ät	-147
▁Är	-148
åg	-149
▁was	-150
ett	-151
▁min	-152
▁Do	-153
▁your	-154
▁Vad	-155
▁om	-156
▁like	-157
▁an	-158
yck	-159
▁How	-160
itt	-161
▁go	-162
▁Hur	-163
▁till	-164
▁The	-165
▁Var	-166
▁L	-167
▁this	-168
ss	-169
▁we	-170
he	-171
il	-172
▁se	-173
ra	-174
ome	-175
▁Du	-176
▁Can	-177
im	-178
▁N	-179
ste	-180
ir	-181
ick	-182
▁F	-183
▁kom	-184
ant	-185
▁B	-186
▁må	-187
ust	-188
▁hat	-189
ive	-190
över	-191
▁Kan	-192
▁fr	-193
åt	-194
▁Are	-195
▁med	-196
▁did	-197
ff	-198
ng	-199
▁ett	-200
ob	-201
us	-202
all	-203
▁vi	-204
ook	-205
▁lo	-206
▁gör	-207
▁ut	-208
▁need	-209
äm	-210
▁måste	-211
ic	-212
▁kn	-213
▁not	-214
mer	-215
▁där	-216
ort	-217
▁all	-218
▁nu	-219
jäl	-220
▁get	-221
ent	-222
one	-223
▁sa	-224
and	-225
kt	-226
ly	-227
äg	-228
▁pr	-229
▁Did	-230
nd	-231
ut	-232
se	-233
▁de	-234
▁beh	-235
▁are	-236
▁De	-237
op	-238
▁upp	-239
ycker	-240
▁got	-241
▁hel	-242
▁here	-243
od	-244
▁din	-245
▁sh	-246
▁sp	-247
ht	-248
ave	-249
lla	-250
▁They	-251
▁want	-252
ack	-253
ätt	-254
▁Hon	-255
▁She	-256
▁vill	-257
▁bl	-258
▁dr	-259
▁ni	-260
▁so	-261
out	-262
▁av	-263
▁ver	-264
▁bar	-265
ry	-266
▁göra	-267
▁hjäl	-268
▁This	-269
skar	-270
▁know	-271
▁gå	-272
▁kommer	-273
ka	-274
lar	-275
▁love	-276
▁now	-277
▁er	-278
▁up	-279
ould	-280
▁hjälp	-281
▁behöver	-282
ner	-283
▁ska	-284
▁help	-285
iv	-286
ug	-287
▁br	-288
▁of	-289
▁pl	-290
▁tycker	-291
ep	-292
▁Den	-293
▁look	-294
▁E	-295
illar	-296
▁Is	-297
ma	-298
ol	-299
▁äl	-300
igt	-301
▁sl	-302
▁sm	-303
orde	-304
▁job	-305
▁one	-306
för	-307
▁St	-308
▁ch	-309
ung	-310
▁at	-311
are	-312
▁Don	-313
iss	-314
▁he	-315
▁så	-316
▁te	-317
▁Ge	-318
▁al	-319
▁le	-320
▁Get	-321
▁och	-322
▁oss	-323
▁ser	-324
▁som	-325
▁That	-326
▁älskar	-327
og	-328
ken	-329
▁tal	-330
▁for	-331
▁wor	-332
▁gillar	-333
ist	-334
ood	-335
und	-336
very	-337
▁Har	-338
▁out	-339
▁ta	-340
▁såg	-341
ast	-342
der	-343
▁någ	-344
ap	-345
ul	-346
▁sig	-347
if	-348
ary	-349
▁vara	-350
lev	-351
ull	-352
▁fe	-353
ning	-354
▁hem	-355
▁Give	-356
▁Where	-357
ight	-358
▁Kom	-359
▁too	-360
gen	-361
▁kän	-362
ce	-363
▁ö	-364
ligt	-365
▁see	-366
▁just	-367
▁us	-368
▁hur	-369
art	-370
opp	-371
▁My	-372
▁Who	-373
▁bara	-374
ion	-375
ker	-376
▁has	-377
▁åt	-378
▁Vem	-379
▁hatar	-380
ct	-381
da	-382
öt	-383
ice	-384
qu	-385
ind	-386
▁R	-387
rig	-388
▁vet	-389
▁gl	-390
▁sv	-391
▁work	-392
▁Varför	-393
▁tv	-394
▁Why	-395
▁bra	-396
▁had	-397
jorde	-398
▁Mary	-399
▁back	-400
▁hon	-401
ake	-402
ger	-403
▁Be	-404
▁bo	-405
▁gr	-406
ain	-407
ied	-408
▁am	-409
▁bil	-410
▁bor	-411
▁dog	-412
▁read	-413
own	-414
åll	-415
▁bad	-416
▁dag	-417
▁miss	-418
▁någon	-419
▁wh	-420
ft	-421
ud	-422
ande	-423
▁car	-424
▁co	-425
▁or	-426
▁qu	-427
cket	-428
▁lik	-429
▁saw	-430
▁vän	-431
▁wit	-432
um	-433
ame	-434
ish	-435
äll	-436
▁Ni	-437
▁Let	-438
▁him	-439
▁hand	-440
ate	-441
ess	-442
▁no	-443
▁they	-444
▁mycket	-445
ån	-446
ink	-447
▁Gå	-448
▁blev	-449
▁verk	-450
▁Every	-451
ie	-452
äst	-453
▁jobb	-454
▁över	-455
lo	-456
ång	-457
▁ro	-458
▁häm	-459
▁fort	-460
▁home	-461
▁P	-462
ody	-463
ous	-464
▁ex	-465
▁sn	-466
▁hurt	-467
▁O	-468
ble	-469
isk	-470
tay	-471
▁mo	-472
▁sc	-473
▁skr	-474
▁with	-475
ge	-476
▁good	-477
▁honom	-478
▁gjorde	-479
nar	-480
ong	-481
▁don	-482
▁pen	-483
▁hade	-484
▁mitt	-485
▁ag	-486
ound	-487
▁går	-488
▁kun	-489
▁still	-490
▁hjälpa	-491
ime	-492
sam	-493
▁Gör	-494
▁Ing	-495
▁hate	-496
▁lite	-497
▁some	-498
öm	-499
öp	-500
aka	-501
hing	-502
▁very	-503
ne	-504
ans	-505
ost	-506
▁dem	-507
▁väl	-508
▁Alla	-509
▁talk	-510
▁could	-511
▁känner	-512
oll	-513
our	-514
ring	-515
▁isn	-516
ligen	-517
▁hung	-518
▁tillb	-519
ju	-520
▁des	-521
▁klar	-522
▁going	-523
her	-524
ine	-525
tar	-526
▁aw	-527
ally	-528
▁there	-529
▁Go	-530
▁dö	-531
▁com	-532
▁his	-533
▁them	-534
▁Sl	-535
▁eat	-536
▁sak	-537
uy	-538
ass	-539
ell	-540
ött	-541
ulle	-542
▁und	-543
▁happ	-544
▁tillbaka	-545
av	-546
▁id	-547
▁rä	-548
▁Får	-549
▁Vil	-550
▁really	-551
bb	-552
ree	-553
▁la	-554
▁lä	-555
digt	-556
▁Min	-557
▁con	-558
▁allt	-559
▁Ingen	-560
ard	-561
ats	-562
day	-563
ide	-564
ired	-565
▁bus	-566
▁che	-567
▁day	-568
▁trä	-569
▁Come	-570
▁must	-571
▁å	-572
ait	-573
app	-574
▁fl	-575
ress	-576
▁say	-577
▁Have	-578
▁feel	-579
▁hund	-580
öl	-581
era	-582
▁Sk	-583
▁run	-584
▁skulle	-585
bet	-586
ers	-587
ffe	-588
oke	-589
ska	-590
▁ab	-591
▁ny	-592
▁får	-593
▁fast	-594
▁mina	-595
va	-596
est	-597
äng	-598
▁fun	-599
▁hit	-600
▁köp	-601
ldrig	-602
▁likes	-603
ik	-604
sa	-605
ög	-606
urn	-607
var	-608
▁sw	-609
▁off	-610
▁fick	-611
▁stor	-612
▁aldrig	-613
eep	-614
oug	-615
ren	-616
▁Ta	-617
body	-618
nade	-619
▁red	-620
▁down	-621
▁looks	-622
▁väldigt	-623
gar	-624
anna	-625
leas	-626
ätta	-627
▁fär	-628
▁her	-629
▁stay	-630
ittade	-631
▁träff	-632
▁få	-633
▁bet	-634
▁hör	-635
▁time	-636
▁never	-637
▁verkligen	-638
cks	-639
dig	-640
▁rö	-641
▁Låt	-642
▁kon	-643
▁lit	-644
▁stu	-645
▁Håll	-646
▁glad	-647
▁live	-648
▁plan	-649
▁först	-650
elf	-651
lem	-652
tag	-653
▁då	-654
▁po	-655
atch	-656
▁big	-657
▁far	-658
▁Does	-659
▁ditt	-660
▁hopp	-661
▁rätt	-662
▁were	-663
▁leave	-664
▁ä	-665
ang	-666
far	-667
▁and	-668
▁fin	-669
▁won	-670
▁didn	-671
▁igen	-672
▁prat	-673
▁under	-674
ns	-675
ok	-676
öj	-677
arr	-678
rev	-679
▁ät	-680
ated	-681
leep	-682
▁man	-683
▁spe	-684
▁vad	-685
▁call	-686
▁will	-687
fe	-688
ue	-689
amm	-690
ank	-691
gon	-692
rar	-693
uta	-694
▁sky	-695
▁säg	-696
▁tid	-697
▁vin	-698
oblem	-699
▁book	-700
▁busy	-701
▁come	-702
farande	-703
▁problem	-704
▁fortfarande	-705
ikt	-706
ool	-707
ope	-708
ord	-709
▁kl	-710
▁sä	-711
ious	-712
▁fel	-713
▁väg	-714
▁away	-715
▁desk	-716
▁förs	-717
▁lång	-718
▁ring	-719
▁wait	-720
▁arbet	-721
▁found	-722
▁upptag	-723
end	-724
imm	-725
▁No	-726
▁Sp	-727
ckså	-728
▁han	-729
▁ont	-730
▁sur	-731
▁try	-732
▁sitt	-733
▁alone	-734
▁happy	-735
▁Vilken	-736
ese	-737
ful	-738
ife	-739
vän	-740
ölj	-741
jälv	-742
reat	-743
▁par	-744
lease	-745
other	-746
▁fråg	-747
▁detta	-748
▁kunde	-749
▁också	-750
▁ready	-751
▁Tycker	-752
dd	-753
la	-754
tr	-755
get	-756
▁än	-757
▁hän	-758
▁does	-759
▁tell	-760
▁hittade	-761
ty	-762
▁di	-763
▁fi	-764
ting	-765
unch	-766
▁Now	-767
▁fly	-768
▁fri	-769
ollow	-770
ought	-771
▁gick	-772
▁hope	-773
▁borde	-774
▁hates	-775
▁right	-776
▁sleep	-777
▁tired	-778
▁hämtar	-779
pl	-780
ace	-781
air	-782
örj	-783
▁el	-784
▁lj	-785
▁buy	-786
▁hen	-787
▁ide	-788
▁barn	-789
▁give	-790
▁lyck	-791
▁what	-792
▁every	-793
▁pengar	-794
▁should	-795
gg	-796
zy	-797
ök	-798
het	-799
ild	-800
ter	-801
ure	-802
vis	-803
▁ad	-804
▁gu	-805
itta	-806
oney	-807
▁arg	-808
▁ins	-809
▁kör	-810
▁hard	-811
▁made	-812
▁slut	-813
▁äter	-814
▁hämta	-815
▁ingen	-816
▁själv	-817
▁trött	-818
▁färdig	-819
▁hoppas	-820
ite	-821
pen	-822
▁as	-823
▁im	-824
▁mu	-825
▁tw	-826
ater	-827
▁men	-828
▁pro	-829
▁sen	-830
▁vid	-831
▁katt	-832
▁scar	-833
▁about	-834
▁säker	-835
▁today	-836
ann	-837
ars	-838
ash	-839
juk	-840
årt	-841
▁em	-842
▁un	-843
▁wr	-844
self	-845
▁gen	-846
▁mus	-847
▁new	-848
▁rep	-849
▁sna	-850
▁illa	-851
▁said	-852
▁again	-853
▁ensam	-854
▁hemma	-855
▁trust	-856
▁Everyone	-857
oy	-858
ys	-859
age	-860
akt	-861
iga	-862
ret	-863
ägg	-864
▁OK	-865
▁cr	-866
▁kr	-867
▁För	-868
▁any	-869
▁bel	-870
▁fru	-871
▁två	-872
▁Keep	-873
▁mine	-874
▁much	-875
▁stop	-876
▁komma	-877
▁money	-878
ös	-879
per	-880
▁lu	-881
irst	-882
ouse	-883
▁ans	-884
▁ask	-885
▁clo	-886
▁gav	-887
▁liv	-888
▁nog	-889
▁när	-890
▁res	-891
▁way	-892
▁Stop	-893
▁idea	-894
▁kill	-895
▁over	-896
▁play	-897
▁skad	-898
▁kunna	-899
▁köpte	-900
▁snabb	-901
▁think	-902
▁hungry	-903
▁upptagen	-904
▁någonting	-905
alk	-906
ber	-907
ten	-908
äpp	-909
ått	-910
▁vä	-911
ämta	-912
ätte	-913
▁ann	-914
▁ber	-915
▁hus	-916
▁lig	-917
▁lot	-918
▁old	-919
▁pre	-920
▁sch	-921
▁sec	-922
▁str	-923
▁tog	-924
thing	-925
▁done	-926
▁find	-927
▁free	-928
▁full	-929
▁lost	-930
▁nice	-931
▁spel	-932
▁well	-933
▁Detta	-934
▁bilen	-935
▁henne	-936
▁ligger	-937
▁hungrig	-938
bl	-939
ny	-940
åk	-941
▁Am	-942
▁ey	-943
▁ge	-944
▁vo	-945
▁mot	-946
▁ner	-947
▁son	-948
etter	-949
▁Here	-950
▁börj	-951
▁dina	-952
▁from	-953
▁gave	-954
▁håll	-955
▁more	-956
▁sick	-957
▁står	-958
▁went	-959
▁house	-960
▁lunch	-961
▁friend	-962
▁Everybody	-963
je	-964
ach	-965
▁by	-966
▁fö	-967
▁ty	-968
fter	-969
read	-970
▁app	-971
▁dan	-972
▁kid	-973
▁sho	-974
▁win	-975
ammal	-976
▁Just	-977
▁från	-978
▁late	-979
▁only	-980
▁sing	-981
▁ögon	-982
estion	-983
▁Hämta	-984
▁Sluta	-985
▁drink	-986
▁heard	-987
▁stopp	-988
▁looked	-989
▁spring	-990
fr	-991
cis	-992
ted	-993
▁ka	-994
▁sj	-995
erad	-996
ream	-997
▁Beh	-998
▁Här	-999
▁När	-1000
▁Vän	-1001
▁beg	-1002
▁dis	-1003
▁hot	-1004
▁may	-1005
▁our	-1006
▁pol	-1007
▁sin	-1008
yckte	-1009
▁Take	-1010
▁Tell	-1011
▁When	-1012
▁alla	-1013
▁best	-1014
▁bort	-1015
▁came	-1016
▁died	-1017
▁näst	-1018
▁seem	-1019
▁tala	-1020
▁betal	-1021
▁jätte	-1022
▁prata	-1023
▁gammal	-1024
▁roligt	-1025
▁hjälper	-1026
▁question	-1027
pr	-1028
sl	-1029
dag	-1030
jer	-1031
sen	-1032
ved	-1033
äck	-1034
▁Dr	-1035
▁pa	-1036
ades	-1037
erar	-1038
ffee	-1039
orre	-1040
ying	-1041
▁cra	-1042
▁dum	-1043
▁led	-1044
▁let	-1045
urned	-1046
▁cold	-1047
▁gång	-1048
▁mean	-1049
▁move	-1050
▁walk	-1051
ningen	-1052
ressed	-1053
▁being	-1054
▁hörde	-1055
▁kände	-1056
▁order	-1057
▁smart	-1058
▁håller	-1059
▁please	-1060
▁sitter	-1061
nt	-1062
pt	-1063
ål	-1064
kte	-1065
uss	-1066
▁kv	-1067
apan	-1068
iver	-1069
jort	-1070
▁Kän	-1071
▁arm	-1072
▁cat	-1073
▁död	-1074
▁jog	-1075
▁lag	-1076
▁mat	-1077
▁sat	-1078
▁sit	-1079
▁vil	-1080
▁åka	-1081
atten	-1082
oston	-1083
▁Stay	-1084
▁behö	-1085
▁head	-1086
▁hear	-1087
▁kall	-1088
▁list	-1089
▁make	-1090
▁röst	-1091
▁sjuk	-1092
▁surv	-1093
▁säga	-1094
▁tror	-1095
▁dålig	-1096
▁efter	-1097
▁speak	-1098
▁ville	-1099
▁Boston	-1100
▁coffee	-1101
▁saknar	-1102
▁stanna	-1103
ga	-1104
uk	-1105
ym	-1106
ail	-1107
enn	-1108
ept	-1109
ies	-1110
ose	-1111
yss	-1112
äkt	-1113
▁ca	-1114
▁öl	-1115
ldig	-1116
▁Nob	-1117
▁bit	-1118
▁cry	-1119
▁fat	-1120
▁god	-1121
▁rel	-1122
▁sim	-1123
▁beer	-1124
▁care	-1125
▁eyes	-1126
▁left	-1127
▁stud	-1128
▁svar	-1129
▁take	-1130
▁veta	-1131
▁loves	-1132
▁wants	-1133
▁Nobody	-1134
▁Stanna	-1135
▁träffa	-1136
cc	-1137
io	-1138
iz	-1139
uv	-1140
xt	-1141
åd	-1142
alt	-1143
ark	-1144
dda	-1145
ern	-1146
jut	-1147
kej	-1148
row	-1149
ske	-1150
unk	-1151
ynd	-1152
örd	-1153
▁Se	-1154
▁tj	-1155
▁ur	-1156
able	-1157
ange	-1158
appa	-1159
ckan	-1160
ling	-1161
ämna	-1162
▁Säg	-1163
▁bes	-1164
▁fam	-1165
▁hug	-1166
▁hög	-1167
▁mor	-1168
▁rad	-1169
▁yet	-1170
attar	-1171
▁been	-1172
▁forg	-1173
▁förl	-1174
▁sure	-1175
▁Vänta	-1176
▁nästan	-1177
ew	-1178
ely	-1179
fus	-1180
ird	-1181
omm	-1182
orm	-1183
wer	-1184
▁TV	-1185
▁ke	-1186
▁ve	-1187
▁ön	-1188
åter	-1189
▁Ser	-1190
▁ate	-1191
▁bed	-1192
▁bok	-1193
▁cho	-1194
▁egg	-1195
▁gal	-1196
▁guy	-1197
▁int	-1198
▁mår	-1199
▁ned	-1200
▁pay	-1201
▁reg	-1202
▁two	-1203
▁use	-1204
anska	-1205
ation	-1206
ready	-1207
▁Följ	-1208
▁Mitt	-1209
▁dead	-1210
▁door	-1211
▁laug	-1212
▁pick	-1213
▁stan	-1214
▁stup	-1215
▁trev	-1216
▁varm	-1217
▁wine	-1218
▁Släpp	-1219
▁drive	-1220
▁first	-1221
▁redan	-1222
▁smell	-1223
▁svårt	-1224
▁watch	-1225
▁bought	-1226
▁already	-1227
▁lycklig	-1228
ip	-1229
del	-1230
ens	-1231
led	-1232
ock	-1233
ors	-1234
ser	-1235
vär	-1236
ämt	-1237
▁En	-1238
▁Le	-1239
iska	-1240
iskt	-1241
ived	-1242
land	-1243
▁Has	-1244
▁May	-1245
▁gif	-1246
▁imp	-1247
▁mad	-1248
▁mer	-1249
▁sta	-1250
▁idag	-1251
▁nyck	-1252
▁okej	-1253
▁rädd	-1254
▁swim	-1255
▁tack	-1256
▁told	-1257
▁wish	-1258
orrect	-1259
▁check	-1260
▁child	-1261
▁famil	-1262
▁fight	-1263
▁konst	-1264
▁liked	-1265
▁skriv	-1266
▁vänta	-1267
▁wrong	-1268
▁Känner	-1269
▁kanske	-1270
▁klarar	-1271
▁snabbt	-1272
▁stupid	-1273
▁verkar	-1274
▁önskar	-1275
▁överlev	-1276
nu	-1277
os	-1278
ro	-1279
yr	-1280
hed	-1281
int	-1282
joy	-1283
kar	-1284
kta	-1285
net	-1286
ond	-1287
ump	-1288
ute	-1289
way	-1290
▁Ha	-1291
▁Sh	-1292
▁cl	-1293
bord	-1294
uvud	-1295
älla	-1296
▁All	-1297
▁Ska	-1298
▁bag	-1299
▁die	-1300
▁dou	-1301
▁dör	-1302
▁fil	-1303
▁hår	-1304
▁mod	-1305
▁tän	-1306
▁ung	-1307
▁vår	-1308
assed	-1309
erade	-1310
▁fish	-1311
▁följ	-1312
▁hair	-1313
▁kiss	-1314
▁ljug	-1315
▁long	-1316
enting	-1317
▁Could	-1318
▁broke	-1319
▁crazy	-1320
▁drick	-1321
▁great	-1322
▁huvud	-1323
▁kaffe	-1324
▁stand	-1325
▁follow	-1326
▁happen	-1327
▁myself	-1328
▁skyldig	-1329
hy	-1330
pe	-1331
ich	-1332
mat	-1333
nas	-1334
old	-1335
ons	-1336
ore	-1337
ott	-1338
ven	-1339
▁fo	-1340
▁ig	-1341
erna	-1342
most	-1343
olla	-1344
ower	-1345
▁Din	-1346
▁God	-1347
▁art	-1348
▁cle	-1349
▁fan	-1350
▁fot	-1351
▁ifr	-1352
▁kul	-1353
▁ord	-1354
ämmer	-1355
▁Mina	-1356
▁Toms	-1357
▁Your	-1358
▁blir	-1359
▁eggs	-1360
▁komm	-1361
▁kvar	-1362
▁life	-1363
▁lita	-1364
▁lukt	-1365
▁läsa	-1366
▁lätt	-1367
▁pain	-1368
▁safe	-1369
▁sell	-1370
▁true	-1371
▁uppr	-1372
▁Bring	-1373
▁fråga	-1374
▁långt	-1375
▁needs	-1376
▁snäll	-1377
▁somet	-1378
▁säger	-1379
▁Follow	-1380
▁almost	-1381
▁jobbet	-1382
▁tyckte	-1383
▁wanted	-1384
▁Behöver	-1385
▁running	-1386
dr	-1387
ek	-1388
ia	-1389
lf	-1390
tt	-1391
cap	-1392
inn	-1393
lek	-1394
uff	-1395
vde	-1396
änk	-1397
▁Fr	-1398
▁es	-1399
aken	-1400
amma	-1401
ught	-1402
ömde	-1403
▁Ber	-1404
▁Hey	-1405
▁His	-1406
▁bli	-1407
▁del	-1408
▁gun	-1409
▁how	-1410
▁mis	-1411
▁rum	-1412
▁she	-1413
▁tar	-1414
▁äta	-1415
▁avsk	-1416
▁comp	-1417
▁guys	-1418
▁keep	-1419
▁name	-1420
▁next	-1421
▁open	-1422
▁prom	-1423
▁room	-1424
▁sant	-1425
▁skol	-1426
▁wife	-1427
iktigt	-1428
▁Japan	-1429
▁Titta	-1430
▁Watch	-1431
▁blame	-1432
▁dream	-1433
▁drunk	-1434
▁escap	-1435
▁försö	-1436
▁hands	-1437
▁hurts	-1438
▁inget	-1439
▁scarf	-1440
▁would	-1441
▁young	-1442
▁Gjorde	-1443
▁eating	-1444
▁ljuger	-1445
▁precis	-1446
▁scared	-1447
▁school	-1448
▁stoppa	-1449
▁missing	-1450
ib	-1451
arn	-1452
cka	-1453
oud	-1454
ppl	-1455
ush	-1456
▁Ch	-1457
▁So	-1458
▁bi	-1459
▁fu	-1460
▁hy	-1461
▁pe	-1462
▁äg	-1463
▁ör	-1464
iden	-1465
ster	-1466
ways	-1467
▁ang	-1468
▁arr	-1469
▁bak	-1470
▁fix	-1471
▁ger	-1472
▁hal	-1473
▁hor	-1474
▁lug	-1475
▁met	-1476
▁nej	-1477
▁own	-1478
▁ret	-1479
▁rör	-1480
▁sov	-1481
▁tur	-1482
▁val	-1483
▁vis	-1484
▁why	-1485
▁öpp	-1486
ennis	-1487
ished	-1488
ouble	-1489
skade	-1490
ungen	-1491
▁Förs	-1492
▁Hold	-1493
▁Look	-1494
▁Vill	-1495
▁bord	-1496
▁coat	-1497
▁dans	-1498
▁doub	-1499
▁felt	-1500
▁food	-1501
▁fung	-1502
▁förk	-1503
▁häst	-1504
▁inne	-1505
▁knew	-1506
▁ofta	-1507
▁part	-1508
▁skor	-1509
▁soon	-1510
▁spec	-1511
▁tapp	-1512
▁tyst	-1513
▁Leave	-1514
▁använ	-1515
▁belie	-1516
▁boken	-1517
▁close	-1518
▁doing	-1519
▁finns	-1520
▁funny	-1521
▁föräl	-1522
▁gjort	-1523
▁plats	-1524
▁quick	-1525
▁rädda	-1526
▁shoes	-1527
▁varje	-1528
▁Gillar	-1529
▁alltid	-1530
▁always	-1531
▁choice	-1532
▁coming	-1533
▁crying	-1534
▁dåligt	-1535
▁händer	-1536
▁ringde	-1537
▁tennis	-1538
▁turned	-1539
▁varför	-1540
▁trouble	-1541
▁underst	-1542
▁skrivbord	-1543
ac	-1544
ps	-1545
öd	-1546
bok	-1547
ced	-1548
ial	-1549
iet	-1550
ilk	-1551
ipp	-1552
ire	-1553
jöl	-1554
lax	-1555
pel	-1556
väg	-1557
åda	-1558
▁Så	-1559
▁Tr	-1560
▁hö	-1561
▁ph	-1562
▁sy	-1563
arly	-1564
ende	-1565
ible	-1566
kade	-1567
less	-1568
lyck	-1569
napp	-1570
sätt	-1571
tade	-1572
ynda	-1573
åten	-1574
▁Hör	-1575
▁acc	-1576
▁bek	-1577
▁cou	-1578
▁dra	-1579
▁emb	-1580
▁lär	-1581
▁rem	-1582
▁sad	-1583
▁tag	-1584
▁tre	-1585
▁vär	-1586
▁ägg	-1587
anged	-1588
ester	-1589
iddag	-1590
äljer	-1591
▁Sätt	-1592
▁Time	-1593
▁blue	-1594
▁cand	-1595
▁hans	-1596
▁keys	-1597
▁norm	-1598
▁quit	-1599
▁smil	-1600
▁tjän	-1601
▁vann	-1602
▁week	-1603
▁ännu	-1604
arried	-1605
lockan	-1606
▁angry	-1607
▁bevis	-1608
▁borta	-1609
▁enjoy	-1610
▁hated	-1611
▁hände	-1612
▁lives	-1613
▁något	-1614
▁penna	-1615
▁radio	-1616
▁relax	-1617
▁simma	-1618
▁start	-1619
▁varmt	-1620
▁water	-1621
▁Please	-1622
▁Skynda	-1623
▁answer	-1624
▁father	-1625
▁forgot	-1626
▁försök	-1627
▁second	-1628
▁secret	-1629
▁skadad	-1630
▁Berätta	-1631
▁believe	-1632
▁började	-1633
▁nothing	-1634
▁tvungen	-1635
äs	-1636
äv	-1637
asy	-1638
iar	-1639
ifr	-1640
kel	-1641
ove	-1642
▁Ex	-1643
▁Tv	-1644
▁ow	-1645
▁ra	-1646
▁ru	-1647
▁su	-1648
akar	-1649
ance	-1650
eras	-1651
iven	-1652
kund	-1653
liga	-1654
mare	-1655
▁adv	-1656
▁ban	-1657
▁eng	-1658
▁ert	-1659
▁gar	-1660
▁ing	-1661
▁kär	-1662
▁law	-1663
▁mom	-1664
▁nam	-1665
▁num	-1666
▁rec	-1667
▁räk	-1668
▁san	-1669
▁swe	-1670
▁tea	-1671
▁tom	-1672
▁ute	-1673
ifrån	-1674
rench	-1675
▁Allt	-1676
▁bill	-1677
▁bätt	-1678
▁cool	-1679
▁diff	-1680
▁fisk	-1681
▁fram	-1682
▁golf	-1683
▁gone	-1684
▁grät	-1685
▁kids	-1686
▁kost	-1687
▁kram	-1688
▁milk	-1689
▁nära	-1690
▁sent	-1691
▁sign	-1692
▁snow	-1693
attade	-1694
ättade	-1695
▁Ställ	-1696
▁Stäng	-1697
▁contr	-1698
▁doubt	-1699
▁galen	-1700
▁ifrån	-1701
▁klara	-1702
▁lying	-1703
▁often	-1704
▁quiet	-1705
▁ringa	-1706
▁skämt	-1707
▁stort	-1708
▁teach	-1709
▁these	-1710
▁tried	-1711
▁French	-1712
▁better	-1713
▁embarr	-1714
▁inside	-1715
▁skolan	-1716
▁spelar	-1717
▁visste	-1718
▁brother	-1719
▁correct	-1720
▁married	-1721
▁nycklar	-1722
▁quickly	-1723
▁serious	-1724
▁springa	-1725
▁survive	-1726
▁happened	-1727
▁träffade	-1728
▁ingenting	-1729
ix	-1730
up	-1731
yg	-1732
äp	-1733
ara	-1734
ata	-1735
dde	-1736
hop	-1737
ile	-1738
irt	-1739
ise	-1740
men	-1741
orn	-1742
oth	-1743
rab	-1744
ult	-1745
uth	-1746
uts	-1747
▁Kl	-1748
▁Nu	-1749
▁ja	-1750
ased	-1751
asta	-1752
atis	-1753
cker	-1754
ings	-1755
ivet	-1756
ndag	-1757
samt	-1758
änge	-1759
▁Mon	-1760
▁Was	-1761
▁amb	-1762
▁bry	-1763
▁dit	-1764
▁era	-1765
▁gir	-1766
▁het	-1767
▁mov	-1768
▁män	-1769
▁oro	-1770
▁put	-1771
▁ran	-1772
▁ris	-1773
▁snö	-1774
▁spr	-1775
▁ste	-1776
▁ton	-1777
▁urs	-1778
▁vem	-1779
▁who	-1780
ember	-1781
ittle	-1782
▁Life	-1783
▁Turn	-1784
▁ball	-1785
▁cats	-1786
▁döda	-1787
▁ears	-1788
▁easy	-1789
▁else	-1790
▁fell	-1791
▁fine	-1792
▁förv	-1793
▁gift	-1794
▁gill	-1795
▁helt	-1796
▁höra	-1797
▁iväg	-1798
▁jack	-1799
▁joke	-1800
▁kept	-1801
▁kind	-1802
▁köpa	-1803
▁köra	-1804
▁last	-1805
▁mjöl	-1806
▁paid	-1807
▁shot	-1808
▁utom	-1809
▁åker	-1810
▁åkte	-1811
▁åter	-1812
▁Livet	-1813
▁Lämna	-1814
▁blind	-1815
▁blomm	-1816
▁dansa	-1817
▁doesn	-1818
▁hitta	-1819
▁horse	-1820
▁kallt	-1821
▁knows	-1822
▁loved	-1823
▁menar	-1824
▁night	-1825
▁sluta	-1826
▁smoke	-1827
▁talar	-1828
▁those	-1829
▁varit	-1830
▁vinna	-1831
▁Kommer	-1832
▁arbete	-1833
▁caught	-1834
▁change	-1835
▁danger	-1836
▁dörren	-1837
▁glömde	-1838
▁gratis	-1839
▁hatade	-1840
▁hemlig	-1841
▁katter	-1842
▁killed	-1843
▁little	-1844
▁saknas	-1845
▁sekund	-1846
▁senare	-1847
▁vänner	-1848
▁behövde	-1849
▁changed	-1850
▁dressed	-1851
▁friends	-1852
▁working	-1853
▁älskade	-1854
▁children	-1855
▁finished	-1856
▁springer	-1857
▁överlevde	-1858
ef	-1859
li	-1860
amp	-1861
ign	-1862
jud	-1863
les	-1864
mar	-1865
obb	-1866
rad	-1867
rek	-1868
str	-1869
tta	-1870
vet	-1871
▁Pr	-1872
▁na	-1873
▁sö	-1874
aris	-1875
etty	-1876
ient	-1877
ihop	-1878
iken	-1879
ller	-1880
olog	-1881
ough	-1882
tast	-1883
ände	-1884
▁Che	-1885
▁Köp	-1886
▁aff	-1887
▁ben	-1888
▁blå	-1889
▁bur	-1890
▁göm	-1891
▁hum	-1892
▁inc	-1893
▁läg	-1894
▁pan	-1895
▁pat	-1896
▁tax	-1897
deles	-1898
fused	-1899
immar	-1900
ittar	-1901
owers	-1902
plain	-1903
▁Fort	-1904
▁Hans	-1905
▁Hund	-1906
▁Some	-1907
▁Spel	-1908
▁Wait	-1909
▁both	-1910
▁bror	-1911
▁bäst	-1912
▁dags	-1913
▁dröm	-1914
▁fair	-1915
▁fing	-1916
▁fred	-1917
▁girl	-1918
▁gott	-1919
▁haft	-1920
▁hide	-1921
▁lazy	-1922
▁mist	-1923
▁natt	-1924
▁nose	-1925
▁nyss	-1926
▁rest	-1927
▁sett	-1928
▁slow	-1929
▁song	-1930
▁sova	-1931
▁vikt	-1932
ortant	-1933
▁Stand	-1934
▁agree	-1935
▁annat	-1936
▁black	-1937
▁drack	-1938
▁drank	-1939
▁exper	-1940
▁fired	-1941
▁knapp	-1942
▁knife	-1943
▁kväll	-1944
▁litar	-1945
▁länge	-1946
▁misst	-1947
▁music	-1948
▁några	-1949
▁pappa	-1950
▁prova	-1951
▁shoot	-1952
▁sjung	-1953
▁story	-1954
▁three	-1955
▁trave	-1956
▁where	-1957
▁Monday	-1958
▁around	-1959
▁avskyr	-1960
▁bättre	-1961
▁called	-1962
▁förlor	-1963
▁ganska	-1964
▁hunden	-1965
▁ledsen	-1966
▁luktar	-1967
▁morgon	-1968
▁måndag	-1969
▁studer	-1970
▁tjänst	-1971
▁berätta	-1972
▁försöka	-1973
▁helping	-1974
▁riktigt	-1975
▁tappade	-1976
▁tonight	-1977
▁trevlig	-1978
▁Fortsätt	-1979
▁alldeles	-1980
▁remember	-1981
▁upptagna	-1982
▁Everything	-1983
▁understand	-1984
be	-1985
by	-1986
ja	-1987
no	-1988
oz	-1989
den	-1990
eln	-1991
erm	-1992
ian	-1993
ict	-1994
ita	-1995
lös	-1996
sin	-1997
åss	-1998
öjd	-1999
öst	-2000
▁An	-2001
▁Re	-2002
▁Sj	-2003
▁ev	-2004
▁hä	-2005
▁ih	-2006
▁ir	-2007
▁ju	-2008
arge	-2009
book	-2010
full	-2011
ilty	-2012
irty	-2013
line	-2014
odde	-2015
ouch	-2016
pect	-2017
ppna	-2018
ändr	-2019
ärna	-2020
örst	-2021
▁Clo	-2022
▁Try	-2023
▁box	-2024
▁boy	-2025
▁but	-2026
▁end	-2027
▁gre	-2028
▁häl	-2029
▁lat	-2030
▁owe	-2031
▁per	-2032
▁pop	-2033
▁pun	-2034
▁rid	-2035
▁sid	-2036
▁unf	-2037
▁vap	-2038
▁yes	-2039
ctive	-2040
erson	-2041
istol	-2042
ition	-2043
itive	-2044
lever	-2045
ställ	-2046
ängde	-2047
▁Sitt	-2048
▁boss	-2049
▁deep	-2050
▁emot	-2051
▁foot	-2052
▁före	-2053
▁glas	-2054
▁hour	-2055
▁huge	-2056
▁into	-2057
▁lied	-2058
▁ljög	-2059
▁lägg	-2060
▁meet	-2061
▁namn	-2062
▁note	-2063
▁once	-2064
▁park	-2065
▁real	-2066
▁redo	-2067
▁satt	-2068
▁seen	-2069
▁sätt	-2070
▁took	-2071
▁äppl	-2072
▁öron	-2073
ningar	-2074
▁Kolla	-2075
▁There	-2076
▁Those	-2077
▁Tiden	-2078
▁alive	-2079
▁apple	-2080
▁bring	-2081
▁count	-2082
▁crash	-2083
▁dance	-2084
▁denna	-2085
▁early	-2086
▁helps	-2087
▁later	-2088
▁lugnt	-2089
▁läste	-2090
▁mamma	-2091
▁relie	-2092
▁repar	-2093
▁satte	-2094
▁scare	-2095
▁sitta	-2096
▁skada	-2097
▁skjut	-2098
▁small	-2099
▁snart	-2100
▁sound	-2101
▁stuck	-2102
▁truth	-2103
▁törst	-2104
▁vecka	-2105
▁voice	-2106
▁vägen	-2107
▁väska	-2108
▁weird	-2109
åningen	-2110
▁Hunden	-2111
▁Spring	-2112
▁accept	-2113
▁allvar	-2114
▁betala	-2115
▁biased	-2116
▁compet	-2117
▁desper	-2118
▁guilty	-2119
▁handle	-2120
▁intell	-2121
▁jobbar	-2122
▁knappt	-2123
▁kommit	-2124
▁kärlek	-2125
▁needed	-2126
▁pistol	-2127
▁pratar	-2128
▁pretty	-2129
▁thirst	-2130
▁arbetar	-2131
▁blommor	-2132
▁dricker	-2133
▁flowers	-2134
▁förstår	-2135
▁förändr	-2136
▁huvudet	-2137
▁slutade	-2138
▁Japanese	-2139
▁confused	-2140
▁survived	-2141
▁dangerous	-2142
▁hemlighet	-2143
▁important	-2144
▁something	-2145
▁överlever	-2146
▁embarrassed	-2147
br	-2148
ds	-2149
rä	-2150
sh	-2151
ala	-2152
alm	-2153
arm	-2154
ase	-2155
ets	-2156
fin	-2157
fra	-2158
ham	-2159
igh	-2160
imb	-2161
iot	-2162
ize	-2163
jur	-2164
ket	-2165
nal	-2166
olk	-2167
pis	-2168
red	-2169
set	-2170
ugg	-2171
åta	-2172
öng	-2173
▁In	-2174
▁Sa	-2175
▁ot	-2176
aged	-2177
airs	-2178
allå	-2179
cent	-2180
cted	-2181
ctor	-2182
ents	-2183
gång	-2184
ilar	-2185
ised	-2186
itar	-2187
ness	-2188
okat	-2189
ople	-2190
orna	-2191
rade	-2192
reak	-2193
ried	-2194
ular	-2195
ules	-2196
vinn	-2197
ward	-2198
ålla	-2199
▁Klä	-2200
▁agg	-2201
▁dju	-2202
▁gra	-2203
▁lay	-2204
▁lie	-2205
▁log	-2206
▁lät	-2207
▁lög	-2208
▁mål	-2209
▁mör	-2210
▁nya	-2211
▁rik	-2212
▁råd	-2213
▁sag	-2214
▁sem	-2215
▁ses	-2216
▁tel	-2217
▁van	-2218
▁änd	-2219
aking	-2220
andra	-2221
ented	-2222
ering	-2223
fraid	-2224
ingar	-2225
inner	-2226
istor	-2227
oking	-2228
stans	-2229
änger	-2230
▁Aren	-2231
▁Fråg	-2232
▁Good	-2233
▁Hade	-2234
▁Hand	-2235
▁Ring	-2236
▁Vems	-2237
▁amus	-2238
▁aren	-2239
▁beat	-2240
▁born	-2241
▁conf	-2242
▁cook	-2243
▁cour	-2244
▁disc	-2245
▁dogs	-2246
▁fail	-2247
▁fakt	-2248
▁fatt	-2249
▁fång	-2250
▁född	-2251
▁gått	-2252
▁hela	-2253
▁hero	-2254
▁högt	-2255
▁höll	-2256
▁jour	-2257
▁koll	-2258
▁kopp	-2259
▁luck	-2260
▁mess	-2261
▁mind	-2262
▁muse	-2263
▁narr	-2264
▁rain	-2265
▁rich	-2266
▁ride	-2267
▁rock	-2268
▁roll	-2269
▁save	-2270
▁says	-2271
▁show	-2272
▁slog	-2273
▁stol	-2274
▁säll	-2275
▁tall	-2276
▁tråk	-2277
▁tviv	-2278
▁used	-2279
▁wasn	-2280
▁ätit	-2281
ickade	-2282
immade	-2283
imming	-2284
stairs	-2285
▁Använ	-2286
▁Close	-2287
▁Drick	-2288
▁Hallå	-2289
▁Hurry	-2290
▁Köpte	-2291
▁Lunch	-2292
▁Prata	-2293
▁Whose	-2294
▁asked	-2295
▁banan	-2296
▁began	-2297
▁candy	-2298
▁dying	-2299
▁fulla	-2300
▁glass	-2301
▁godis	-2302
▁hemsk	-2303
▁hurry	-2304
▁idiot	-2305
▁jacka	-2306
▁jobba	-2307
▁konta	-2308
▁lämna	-2309
▁läser	-2310
▁låter	-2311
▁movie	-2312
▁musik	-2313
▁pasta	-2314
▁point	-2315
▁polis	-2316
▁refus	-2317
▁shirt	-2318
▁släkt	-2319
▁smuts	-2320
▁stora	-2321
▁study	-2322
▁surpr	-2323
▁svart	-2324
▁touch	-2325
▁vapen	-2326
▁works	-2327
▁afraid	-2328
▁behind	-2329
▁dödade	-2330
▁expert	-2331
▁fattar	-2332
▁frågor	-2333
▁följde	-2334
▁katten	-2335
▁manage	-2336
▁minute	-2337
▁moment	-2338
▁normal	-2339
▁passed	-2340
▁person	-2341
▁promen	-2342
▁repair	-2343
▁scream	-2344
▁simmar	-2345
▁sprang	-2346
▁stayed	-2347
▁säljer	-2348
▁vatten	-2349
▁vinner	-2350
▁vänlig	-2351
▁väntar	-2352
▁yester	-2353
▁advokat	-2354
▁aggress	-2355
▁allihop	-2356
▁another	-2357
▁checked	-2358
▁fantast	-2359
▁franska	-2360
▁färdiga	-2361
▁gillade	-2362
▁journal	-2363
▁laughed	-2364
▁misstag	-2365
▁mistake	-2366
▁related	-2367
▁stannar	-2368
▁svarade	-2369
▁tittade	-2370
▁upprörd	-2371
▁anything	-2372
▁fungerar	-2373
▁försökte	-2374
▁hungriga	-2375
▁pengarna	-2376
▁reparera	-2377
▁swimming	-2378
▁trevligt	-2379
▁sanningen	-2380
▁skrattade	-2381
▁yesterday	-2382
gr	-2383
gy	-2384
oj	-2385
so	-2386
tj	-2387
any	-2388
dom	-2389
elp	-2390
ert	-2391
ffa	-2392
jär	-2393
kra	-2394
lad	-2395
löm	-2396
man	-2397
nad	-2398
nat	-2399
oid	-2400
sta	-2401
tra	-2402
uck	-2403
vid	-2404
yer	-2405
ämp	-2406
änt	-2407
▁Fl	-2408
▁Gr	-2409
▁Sn	-2410
▁ap	-2411
▁ba	-2412
▁Äl	-2413
▁Ät	-2414
ache	-2415
aren	-2416
ball	-2417
boll	-2418
came	-2419
cked	-2420
cken	-2421
drar	-2422
efon	-2423
ging	-2424
ibut	-2425
issa	-2426
ited	-2427
ivit	-2428
jälp	-2429
ktyg	-2430
lara	-2431
lept	-2432
räck	-2433
sten	-2434
tact	-2435
unda	-2436
vara	-2437
ämde	-2438
ånad	-2439
▁Any	-2440
▁Her	-2441
▁Någ	-2442
▁Rör	-2443
▁Sak	-2444
▁Say	-2445
▁See	-2446
▁Skr	-2447
▁abs	-2448
▁bro	-2449
▁cow	-2450
▁dad	-2451
▁emp	-2452
▁fre	-2453
▁gam	-2454
▁hos	-2455
▁ill	-2456
▁imm	-2457
▁inv	-2458
▁kin	-2459
▁kys	-2460
▁leg	-2461
▁lon	-2462
▁låg	-2463
▁poj	-2464
▁pot	-2465
▁sju	-2466
▁stå	-2467
▁sug	-2468
▁såd	-2469
▁tol	-2470
▁tor	-2471
▁tve	-2472
▁täv	-2473
▁tål	-2474
▁vac	-2475
akade	-2476
allet	-2477
anter	-2478
atter	-2479
blick	-2480
ennes	-2481
hamed	-2482
igent	-2483
istic	-2484
plats	-2485
troll	-2486
usted	-2487
äckte	-2488
ällde	-2489
ängen	-2490
ärlig	-2491
öcker	-2492
▁Glöm	-2493
▁Help	-2494
▁Open	-2495
▁Tala	-2496
▁Vart	-2497
▁Were	-2498
▁bety	-2499
▁brev	-2500
▁bryr	-2501
▁buss	-2502
▁canc	-2503
▁cash	-2504
▁chef	-2505
▁comm	-2506
▁cost	-2507
▁disk	-2508
▁even	-2509
▁exem	-2510
▁face	-2511
▁fire	-2512
▁fått	-2513
▁föll	-2514
▁förb	-2515
▁game	-2516
▁high	-2517
▁inga	-2518
▁lögn	-2519
▁mörd	-2520
▁oför	-2521
▁prof	-2522
▁regl	-2523
▁rice	-2524
▁sade	-2525
▁seat	-2526
▁sist	-2527
▁sked	-2528
▁spar	-2529
▁taxi	-2530
▁tick	-2531
▁tool	-2532
▁town	-2533
▁vitt	-2534
▁väsk	-2535
▁weap	-2536
▁äger	-2537
▁äkta	-2538
indlar	-2539
▁Check	-2540
▁Hjälp	-2541
▁Maybe	-2542
▁Vilka	-2543
▁bästa	-2544
▁chans	-2545
▁cheap	-2546
▁class	-2547
▁clear	-2548
▁climb	-2549
▁cried	-2550
▁dirty	-2551
▁eller	-2552
▁frukt	-2553
▁guess	-2554
▁heter	-2555
▁japan	-2556
▁klätt	-2557
▁kolla	-2558
▁mjölk	-2559
▁phone	-2560
▁place	-2561
▁rules	-2562
▁seems	-2563
▁shelf	-2564
▁shook	-2565
▁skrek	-2566
▁smile	-2567
▁sover	-2568
▁svett	-2569
▁upset	-2570
▁Försök	-2571
▁Hennes	-2572
▁Spelar	-2573
▁Tvätta	-2574
▁Vilket	-2575
▁arbeta	-2576
▁became	-2577
▁behöva	-2578
▁blivit	-2579
▁butter	-2580
▁closer	-2581
▁differ	-2582
▁dinner	-2583
▁doctor	-2584
▁driver	-2585
▁drives	-2586
▁familj	-2587
▁family	-2588
▁flytta	-2589
▁gråter	-2590
▁hardly	-2591
▁histor	-2592
▁hundar	-2593
▁joggar	-2594
▁lawyer	-2595
▁listen	-2596
▁middag	-2597
▁mother	-2598
▁narrow	-2599
▁online	-2600
▁people	-2601
▁refuse	-2602
▁sjunga	-2603
▁slowly	-2604
▁stress	-2605
▁strong	-2606
▁säkert	-2607
▁ursäkt	-2608
▁använda	-2609
▁arrived	-2610
▁ashamed	-2611
▁crashed	-2612
▁explain	-2613
▁feeling	-2614
▁generad	-2615
▁klockan	-2616
▁patient	-2617
▁reading	-2618
▁stopped	-2619
▁talking	-2620
▁verktyg	-2621
▁väntade	-2622
▁waiting	-2623
▁worried	-2624
▁allihopa	-2625
▁faktiskt	-2626
▁misslyck	-2627
▁skrattar	-2628
▁varandra	-2629
▁yourself	-2630
▁överleva	-2631
▁contribut	-2632
▁questions	-2633
▁ögonblick	-2634
▁everything	-2635
▁någonstans	-2636
▁intelligent	-2637
aj	-2638
ts	-2639
za	-2640
zz	-2641
als	-2642
ama	-2643
ane	-2644
asc	-2645
bar	-2646
bra	-2647
ear	-2648
ins	-2649
ity	-2650
iva	-2651
let	-2652
lov	-2653
lut	-2654
nen	-2655
nes	-2656
oin	-2657
ole	-2658
rew	-2659
rit	-2660
rog	-2661
sat	-2662
sed	-2663
tal	-2664
ual	-2665
ubb	-2666
umm	-2667
use	-2668
äda	-2669
ämd	-2670
▁Br	-2671
▁Kr	-2672
▁Lä	-2673
▁Ne	-2674
▁lå	-2675
▁lö	-2676
aget	-2677
assk	-2678
aved	-2679
cere	-2680
edan	-2681
ften	-2682
head	-2683
imes	-2684
imme	-2685
inna	-2686
irds	-2687
izza	-2688
ksam	-2689
ktiv	-2690
lish	-2691
nder	-2692
orth	-2693
over	-2694
prim	-2695
slag	-2696
slig	-2697
star	-2698
teck	-2699
▁Ans	-2700
▁Bor	-2701
▁Con	-2702
▁For	-2703
▁Men	-2704
▁Not	-2705
▁Put	-2706
▁Stå	-2707
▁Vis	-2708
▁ach	-2709
▁anx	-2710
▁aut	-2711
▁bid	-2712
▁col	-2713
▁cup	-2714
▁cut	-2715
▁dep	-2716
▁dev	-2717
▁dry	-2718
▁exc	-2719
▁flo	-2720
▁fox	-2721
▁ham	-2722
▁ign	-2723
▁key	-2724
▁klä	-2725
▁lur	-2726
▁maj	-2727
▁ost	-2728
▁pap	-2729
▁pos	-2730
▁rym	-2731
▁räv	-2732
▁sam	-2733
▁soc	-2734
▁sår	-2735
▁tok	-2736
▁tåg	-2737
▁vod	-2738
▁äng	-2739
alett	-2740
amine	-2741
anoid	-2742
appna	-2743
ascin	-2744
ating	-2745
esome	-2746
essor	-2747
icken	-2748
iders	-2749
inese	-2750
innig	-2751
iving	-2752
lunda	-2753
onest	-2754
orses	-2755
åglar	-2756
ånade	-2757
▁Blev	-2758
▁Call	-2759
▁Face	-2760
▁Fire	-2761
▁Grab	-2762
▁Hang	-2763
▁Tack	-2764
▁Wash	-2765
▁ador	-2766
▁bege	-2767
▁bråk	-2768
▁byta	-2769
▁bänk	-2770
▁båda	-2771
▁cake	-2772
▁corn	-2773
▁dark	-2774
▁dist	-2775
▁dött	-2776
▁ener	-2777
▁fara	-2778
▁fint	-2779
▁folk	-2780
▁gett	-2781
▁hals	-2782
▁hårt	-2783
▁ihåg	-2784
▁kara	-2785
▁kniv	-2786
▁kont	-2787
▁kort	-2788
▁leva	-2789
▁loud	-2790
▁pack	-2791
▁pass	-2792
▁poor	-2793
▁reda	-2794
▁resa	-2795
▁rude	-2796
▁sagt	-2797
▁sida	-2798
▁slår	-2799
▁svag	-2800
▁sång	-2801
▁träd	-2802
▁tung	-2803
▁uppe	-2804
▁vide	-2805
▁vote	-2806
▁warn	-2807
▁weak	-2808
▁wild	-2809
▁yell	-2810
itated	-2811
urious	-2812
▁Någon	-2813
▁ahead	-2814
▁annoy	-2815
▁artig	-2816
▁awake	-2817
▁awful	-2818
▁bakom	-2819
▁begra	-2820
▁books	-2821
▁break	-2822
▁chess	-2823
▁comes	-2824
▁deras	-2825
▁empty	-2826
▁extra	-2827
▁fever	-2828
▁fruit	-2829
▁följa	-2830
▁förtj	-2831
▁gener	-2832
▁gråta	-2833
▁gärna	-2834
▁gömma	-2835
▁healt	-2836
▁igång	-2837
▁kated	-2838
▁laugh	-2839
▁liten	-2840
▁livet	-2841
▁might	-2842
▁minut	-2843
▁modig	-2844
▁olyck	-2845
▁paint	-2846
▁pizza	-2847
▁pleas	-2848
▁proud	-2849
▁punkt	-2850
▁saker	-2851
▁scary	-2852
▁shall	-2853
▁sjöng	-2854
▁skräp	-2855
▁skynd	-2856
▁slept	-2857
▁slåss	-2858
▁stick	-2859
▁svara	-2860
▁säkra	-2861
▁sådär	-2862
▁thank	-2863
▁their	-2864
▁timme	-2865
▁titta	-2866
▁tjock	-2867
▁train	-2868
▁twice	-2869
▁undan	-2870
▁ärlig	-2871
arismat	-2872
▁Answer	-2873
▁Dinner	-2874
▁Snälla	-2875
▁amused	-2876
▁anyone	-2877
▁apolog	-2878
▁apples	-2879
▁asleep	-2880
▁besvär	-2881
▁boring	-2882
▁borrow	-2883
▁broken	-2884
▁brände	-2885
▁burned	-2886
▁börjar	-2887
▁cheese	-2888
▁deprim	-2889
▁dreams	-2890
▁dricka	-2891
▁escape	-2892
▁farlig	-2893
▁fascin	-2894
▁förlov	-2895
▁helped	-2896
▁hennes	-2897
▁hjälte	-2898
▁kissed	-2899
▁klassk	-2900
▁kostar	-2901
▁letter	-2902
▁lonely	-2903
▁lägger	-2904
▁lärare	-2905
▁meddel	-2906
▁modern	-2907
▁picked	-2908
▁resign	-2909
▁ringer	-2910
▁schack	-2911
▁skylla	-2912
▁smiled	-2913
▁specif	-2914
▁things	-2915
▁tidigt	-2916
▁waited	-2917
våningen	-2918
▁Chinese	-2919
▁Examine	-2920
▁anxious	-2921
▁betalar	-2922
▁careful	-2923
▁engaged	-2924
▁escaped	-2925
▁fotboll	-2926
▁himself	-2927
▁hjälpte	-2928
▁jogging	-2929
▁karaoke	-2930
▁konstig	-2931
▁långsam	-2932
▁morning	-2933
▁sincere	-2934
▁started	-2935
▁telefon	-2936
▁thirsty	-2937
▁thought	-2938
▁tvivlar	-2939
▁törstig	-2940
▁viktigt	-2941
▁witness	-2942
▁överens	-2943
▁Facebook	-2944
▁Försvinn	-2945
▁adorable	-2946
▁ambition	-2947
▁betalade	-2948
▁followed	-2949
▁förklara	-2950
▁jättebra	-2951
▁katedern	-2952
▁lyckliga	-2953
▁paranoid	-2954
▁reglerna	-2955
▁sleeping	-2956
▁stannade	-2957
▁vacation	-2958
▁berättade	-2959
▁different	-2960
▁förlorade	-2961
▁föräldrar	-2962
▁incorrect	-2963
▁nycklarna	-2964
▁professor	-2965
▁fantastisk	-2966
fl	-2967
sä	-2968
ön	-2969
add	-2970
ags	-2971
aks	-2972
atu	-2973
bil	-2974
buk	-2975
duk	-2976
eak	-2977
ena	-2978
eth	-2979
fer	-2980
fta	-2981
fär	-2982
gel	-2983
går	-2984
ift	-2985
ify	-2986
igg	-2987
its	-2988
kor	-2989
lde	-2990
len	-2991
mod	-2992
oss	-2993
ots	-2994
oup	-2995
rym	-2996
stå	-2997
ury	-2998
änd	-2999
äsa	-3000
ömn	-3001
▁ID	-3002
▁Sm	-3003
▁cy	-3004
▁hi	-3005
▁ob	-3006
▁ol	-3007
▁op	-3008
▁ov	-3009
▁pu	-3010
▁tu	-3011
akes	-3012
appy	-3013
arby	-3014
arna	-3015
arry	-3016
avor	-3017
bart	-3018
cing	-3019
essa	-3020
hand	-3021
håll	-3022
ices	-3023
idan	-3024
ider	-3025
iest	-3026
iker	-3027
ined	-3028
ison	-3029
ives	-3030
juta	-3031
kelt	-3032
lade	-3033
lean	-3034
oggy	-3035
oppa	-3036
orta	-3037
oted	-3038
ozen	-3039
plom	-3040
reet	-3041
road	-3042
side	-3043
sikt	-3044
sjuk	-3045
tack	-3046
tect	-3047
urse	-3048
vade	-3049
ving	-3050
värk	-3051
zing	-3052
ägen	-3053
ådan	-3054
öjde	-3055
▁Ask	-3056
▁Att	-3057
▁Bli	-3058
▁Bry	-3059
▁Dra	-3060
▁Eat	-3061
▁Fix	-3062
▁Gud	-3063
▁Går	-3064
▁Isn	-3065
▁Kör	-3066
▁Pro	-3067
▁Run	-3068
▁Sat	-3069
▁Såg	-3070
▁Vet	-3071
▁act	-3072
▁adm	-3073
▁air	-3074
▁ant	-3075
▁ast	-3076
▁bju	-3077
▁blö	-3078
▁byt	-3079
▁cab	-3080
▁cop	-3081
▁ens	-3082
▁eur	-3083
▁eye	-3084
▁gas	-3085
▁ler	-3086
▁läm	-3087
▁låt	-3088
▁map	-3089
▁mur	-3090
▁mär	-3091
▁ors	-3092
▁raw	-3093
▁röd	-3094
▁rök	-3095
▁sil	-3096
▁ter	-3097
▁tow	-3098
▁tår	-3099
▁vak	-3100
▁äpp	-3101
anges	-3102
antic	-3103
asing	-3104
bland	-3105
ercis	-3106
ffade	-3107
heten	-3108
icult	-3109
ident	-3110
ified	-3111
inden	-3112
ipped	-3113
irrad	-3114
iting	-3115
lands	-3116
lling	-3117
nings	-3118
orrow	-3119
satte	-3120
ummer	-3121
undry	-3122
ussia	-3123
åttom	-3124
▁Lägg	-3125
▁Njut	-3126
▁Ryss	-3127
▁Sade	-3128
▁Stör	-3129
▁Sänk	-3130
▁Will	-3131
▁agre	-3132
▁base	-3133
▁bent	-3134
▁bike	-3135
▁bild	-3136
▁bilj	-3137
▁bitt	-3138
▁blek	-3139
▁boll	-3140
▁bruk	-3141
▁damm	-3142
▁deal	-3143
▁drog	-3144
▁duty	-3145
▁effe	-3146
▁enem	-3147
▁ever	-3148
▁exit	-3149
▁fain	-3150
▁fall	-3151
▁flyg	-3152
▁fool	-3153
▁gräl	-3154
▁högl	-3155
▁inno	-3156
▁jump	-3157
▁lade	-3158
▁laga	-3159
▁lies	-3160
▁line	-3161
▁lose	-3162
▁lyss	-3163
▁läsk	-3164
▁majs	-3165
▁meat	-3166
▁mera	-3167
▁männ	-3168
▁mätt	-3169
▁nail	-3170
▁news	-3171
▁nytt	-3172
▁näsa	-3173
▁pale	-3174
▁papp	-3175
▁pict	-3176
▁pray	-3177
▁push	-3178
▁rang	-3179
▁risk	-3180
▁runt	-3181
▁röka	-3182
▁röra	-3183
▁salt	-3184
▁sand	-3185
▁self	-3186
▁skam	-3187
▁snål	-3188
▁sold	-3189
▁soup	-3190
▁spot	-3191
▁stal	-3192
▁stra	-3193
▁svor	-3194
▁synd	-3195
▁sömn	-3196
▁tuff	-3197
▁tyck	-3198
▁unga	-3199
▁utan	-3200
▁vack	-3201
▁vakt	-3202
▁vila	-3203
▁warm	-3204
▁wash	-3205
▁word	-3206
gången	-3207
idence	-3208
issade	-3209
orrekt	-3210
öjligt	-3211
▁Birds	-3212
▁Clean	-3213
▁Defin	-3214
▁Fråga	-3215
▁Skrev	-3216
▁Städa	-3217
▁Svara	-3218
▁Thank	-3219
▁Which	-3220
▁affär	-3221
▁alert	-3222
▁annor	-3223
▁badge	-3224
▁begin	-3225
▁below	-3226
▁blank	-3227
▁bluff	-3228
▁bored	-3229
▁brave	-3230
▁breat	-3231
▁börja	-3232
▁cheer	-3233
▁creat	-3234
▁djupt	-3235
▁favor	-3236
▁feber	-3237
▁fixar	-3238
▁floor	-3239
▁fresh	-3240
▁frisk	-3241
▁gifta	-3242
▁glada	-3243
▁grabb	-3244
▁heart	-3245
▁helst	-3246
▁hälsa	-3247
▁hålla	-3248
▁ideas	-3249
▁kreat	-3250
▁lever	-3251
▁liars	-3252
▁litet	-3253
▁lycka	-3254
▁minns	-3255
▁noggr	-3256
▁paper	-3257
▁prove	-3258
▁reply	-3259
▁sakna	-3260
▁sedan	-3261
▁short	-3262
▁spela	-3263
▁stark	-3264
▁stiga	-3265
▁stolt	-3266
▁sätta	-3267
▁taget	-3268
▁thing	-3269
▁vaken	-3270
▁video	-3271
▁vilja	-3272
▁vilse	-3273
▁worth	-3274
▁write	-3275
▁yours	-3276
iddagen	-3277
▁Använd	-3278
▁Forget	-3279
▁Fåglar	-3280
▁Hänger	-3281
▁Russia	-3282
▁Saknar	-3283
▁Skulle	-3284
▁Säljer	-3285
▁Tyckte	-3286
▁Vatten	-3287
▁abroad	-3288
▁afford	-3289
▁anteck	-3290
▁attack	-3291
▁beslut	-3292
▁bidrog	-3293
▁bother	-3294
▁böcker	-3295
▁chance	-3296
▁charge	-3297
▁closed	-3298
▁couldn	-3299
▁dagbok	-3300
▁diplom	-3301
▁enkelt	-3302
▁enough	-3303
▁failed	-3304
▁fairly	-3305
▁framåt	-3306
▁frozen	-3307
▁guitar	-3308
▁gånger	-3309
▁hittar	-3310
▁insane	-3311
▁koppen	-3312
▁kysste	-3313
▁matter	-3314
▁missed	-3315
▁murder	-3316
▁nearby	-3317
▁number	-3318
▁nummer	-3319
▁orolig	-3320
▁parker	-3321
▁planet	-3322
▁played	-3323
▁polite	-3324
▁priest	-3325
▁relief	-3326
▁röster	-3327
▁seemed	-3328
▁skjuta	-3329
▁speaks	-3330
▁ställa	-3331
▁sällan	-3332
▁tecken	-3333
▁travel	-3334
▁tvätta	-3335
▁voices	-3336
▁vägrar	-3337
▁worked	-3338
▁Nothing	-3339
▁anställ	-3340
▁anybody	-3341
▁awesome	-3342
▁brought	-3343
▁bråttom	-3344
▁contact	-3345
▁diskret	-3346
▁exempel	-3347
▁fainted	-3348
▁frågade	-3349
▁getting	-3350
▁healthy	-3351
▁kollade	-3352
▁kontakt	-3353
▁kramade	-3354
▁lögnare	-3355
▁normalt	-3356
▁nyckeln	-3357
▁nyligen	-3358
▁närmare	-3359
▁outside	-3360
▁picture	-3361
▁popular	-3362
▁recover	-3363
▁rättvis	-3364
▁selfish	-3365
▁singing	-3366
▁slappna	-3367
▁smiling	-3368
▁sparken	-3369
▁spelade	-3370
▁strange	-3371
▁student	-3372
▁stängde	-3373
▁teasing	-3374
▁tävling	-3375
▁verkade	-3376
▁watched	-3377
▁ängslig	-3378
▁Middagen	-3379
▁Ryssland	-3380
▁creative	-3381
▁desperat	-3382
▁discreet	-3383
▁everyone	-3384
▁evidence	-3385
▁försöker	-3386
▁headache	-3387
▁historia	-3388
▁innocent	-3389
▁kontroll	-3390
▁laughing	-3391
▁lyckades	-3392
▁långsamt	-3393
▁pistolen	-3394
▁semester	-3395
▁självisk	-3396
▁skrämmer	-3397
▁somebody	-3398
▁stalling	-3399
▁stressed	-3400
▁svimmade	-3401
▁tillbaks	-3402
▁tomorrow	-3403
▁utgången	-3404
▁Ingenting	-3405
▁confident	-3406
▁depressed	-3407
▁difficult	-3408
▁everybody	-3409
▁huvudvärk	-3410
▁sometimes	-3411
▁surprised	-3412
▁utomlands	-3413
▁annorlunda	-3414
▁förändrats	-3415
▁journalist	-3416
▁långsammare	-3417
af	-3418
bf	-3419
bo	-3420
du	-3421
eg	-3422
ha	-3423
kn	-3424
kr	-3425
sy	-3426
wh	-3427
ze	-3428
act	-3429
aky	-3430
ald	-3431
ask	-3432
bel	-3433
een	-3434
eps	-3435
fly	-3436
ged	-3437
gly	-3438
här	-3439
ika	-3440
iös	-3441
lit	-3442
lyg	-3443
låt	-3444
met	-3445
mon	-3446
mär	-3447
oda	-3448
odd	-3449
oof	-3450
opa	-3451
ori	-3452
ory	-3453
ote	-3454
ped	-3455
ran	-3456
rel	-3457
sad	-3458
sky	-3459
sna	-3460
udd	-3461
uld	-3462
ume	-3463
unt	-3464
vil	-3465
väp	-3466
ygg	-3467
yll	-3468
zzy	-3469
ädd	-3470
ära	-3471
öts	-3472
▁Er	-3473
▁Of	-3474
▁Or	-3475
▁På	-3476
▁Sv	-3477
▁Sw	-3478
▁od	-3479
▁rå	-3480
▁yr	-3481
▁yt	-3482
abet	-3483
agen	-3484
anas	-3485
ansk	-3486
apta	-3487
arch	-3488
arta	-3489
ason	-3490
ator	-3491
bell	-3492
bjud	-3493
brid	-3494
dare	-3495
etti	-3496
ffet	-3497
gery	-3498
gest	-3499
iced	-3500
icka	-3501
iell	-3502
ikte	-3503
irus	-3504
itet	-3505
kare	-3506
kepp	-3507
kter	-3508
leed	-3509
ogra	-3510
oned	-3511
oons	-3512
orry	-3513
pade	-3514
ppar	-3515
ppen	-3516
pril	-3517
rest	-3518
rist	-3519
sion	-3520
skad	-3521
skap	-3522
slår	-3523
slös	-3524
ugna	-3525
uine	-3526
ured	-3527
usen	-3528
uset	-3529
vist	-3530
änar	-3531
ögon	-3532
öker	-3533
örde	-3534
örja	-3535
öter	-3536
▁Dör	-3537
▁Eng	-3538
▁Läs	-3539
▁Moz	-3540
▁One	-3541
▁Ret	-3542
▁Sit	-3543
▁Tog	-3544
▁Trä	-3545
▁Vak	-3546
▁Väl	-3547
▁Vår	-3548
▁ara	-3549
▁cha	-3550
▁cir	-3551
▁dom	-3552
▁dök	-3553
▁ele	-3554
▁erk	-3555
▁fed	-3556
▁few	-3557
▁ful	-3558
▁git	-3559
▁grä	-3560
▁grö	-3561
▁hid	-3562
▁ice	-3563
▁kne	-3564
▁lek	-3565
▁lim	-3566
▁lob	-3567
▁mun	-3568
▁non	-3569
▁oly	-3570
▁rob	-3571
▁set	-3572
▁sex	-3573
▁shy	-3574
▁six	-3575
▁squ	-3576
▁sud	-3577
▁sue	-3578
▁söt	-3579
▁tig	-3580
▁typ	-3581
▁vit	-3582
▁väx	-3583
▁whe	-3584
▁äck	-3585
▁åkt	-3586
▁öga	-3587
ample	-3588
andet	-3589
ather	-3590
attoo	-3591
aviar	-3592
cious	-3593
denly	-3594
edrar	-3595
edvid	-3596
elska	-3597
entar	-3598
heter	-3599
iktet	-3600
iktig	-3601
isted	-3602
isten	-3603
itely	-3604
ittat	-3605
jured	-3606
järta	-3607
larna	-3608
light	-3609
mates	-3610
modig	-3611
obbed	-3612
ompis	-3613
räfta	-3614
siner	-3615
stånd	-3616
unate	-3617
where	-3618
zzled	-3619
ämtar	-3620
äster	-3621
ånbok	-3622
ötter	-3623
▁Arab	-3624
▁Didn	-3625
▁Draw	-3626
▁Inga	-3627
▁Jobb	-3628
▁Lyss	-3629
▁None	-3630
▁Read	-3631
▁also	-3632
▁apel	-3633
▁bags	-3634
▁bank	-3635
▁blog	-3636
▁blyg	-3637
▁bröd	-3638
▁bröt	-3639
▁comb	-3640
▁cont	-3641
▁cute	-3642
▁date	-3643
▁days	-3644
▁deaf	-3645
▁dubb	-3646
▁dust	-3647
▁egen	-3648
▁elak	-3649
▁enda	-3650
▁exha	-3651
▁fake	-3652
▁fear	-3653
▁feet	-3654
▁fill	-3655
▁film	-3656
▁färg	-3657
▁geni	-3658
▁goat	-3659
▁goda	-3660
▁grow	-3661
▁hatt	-3662
▁held	-3663
▁hipp	-3664
▁hyll	-3665
▁igår	-3666
▁iron	-3667
▁itch	-3668
▁jätt	-3669
▁klän	-3670
▁kras	-3671
▁kyss	-3672
▁leak	-3673
▁lika	-3674
▁mörk	-3675
▁nodd	-3676
▁nuts	-3677
▁nöjd	-3678
▁oper	-3679
▁osky	-3680
▁perf	-3681
▁phot	-3682
▁poss	-3683
▁puss	-3684
▁rece	-3685
▁resp	-3686
▁road	-3687
▁röda	-3688
▁sane	-3689
▁sang	-3690
▁scen	-3691
▁sena	-3692
▁ship	-3693
▁slob	-3694
▁smör	-3695
▁sopp	-3696
▁spag	-3697
▁stad	-3698
▁stam	-3699
▁star	-3700
▁step	-3701
▁stör	-3702
▁syst	-3703
▁tatu	-3704
▁team	-3705
▁terr	-3706
▁then	-3707
▁tröj	-3708
▁ugly	-3709
▁uppf	-3710
▁viol	-3711
▁vred	-3712
▁värt	-3713
▁våra	-3714
▁wake	-3715
▁wind	-3716
abetes	-3717
attnet	-3718
bfound	-3719
cision	-3720
derful	-3721
iktiga	-3722
inkade	-3723
jortan	-3724
skräck	-3725
strong	-3726
▁Drink	-3727
▁Drive	-3728
▁Enjoy	-3729
▁Gissa	-3730
▁Hörde	-3731
▁Light	-3732
▁Lugna	-3733
▁Läste	-3734
▁Paris	-3735
▁Shall	-3736
▁Sjung	-3737
▁Själv	-3738
▁Sover	-3739
▁Speak	-3740
▁andra	-3741
▁annan	-3742
▁armed	-3743
▁arrog	-3744
▁beund	-3745
▁beväp	-3746
▁bleed	-3747
▁bodde	-3748
▁bread	-3749
▁brors	-3750
▁catch	-3751
▁clean	-3752
▁color	-3753
▁cykel	-3754
▁dagar	-3755
▁dagen	-3756
▁deser	-3757
▁diary	-3758
▁dizzy	-3759
▁drama	-3760
▁dress	-3761
▁enemy	-3762
▁enorm	-3763
▁exist	-3764
▁fiska	-3765
▁flera	-3766
▁folks	-3767
▁färsk	-3768
▁försv	-3769
▁galna	-3770
▁gamla	-3771
▁gevär	-3772
▁grown	-3773
▁guest	-3774
▁gömde	-3775
▁hylla	-3776
▁hända	-3777
▁ifred	-3778
▁ignor	-3779
▁irrit	-3780
▁jogga	-3781
▁kappa	-3782
▁kines	-3783
▁kliar	-3784
▁känna	-3785
▁köper	-3786
▁learn	-3787
▁lucky	-3788
▁lådan	-3789
▁motiv	-3790
▁målar	-3791
▁offer	-3792
▁opera	-3793
▁orätt	-3794
▁other	-3795
▁ought	-3796
▁panik	-3797
▁party	-3798
▁peace	-3799
▁perfe	-3800
▁plans	-3801
▁plöts	-3802
▁polit	-3803
▁power	-3804
▁queen	-3805
▁quite	-3806
▁rolig	-3807
▁rough	-3808
▁runny	-3809
▁rörde	-3810
▁sells	-3811
▁sjuka	-3812
▁skrev	-3813
▁skuld	-3814
▁spill	-3815
▁stood	-3816
▁stuff	-3817
▁swore	-3818
▁såhär	-3819
▁sålde	-3820
▁teeth	-3821
▁teori	-3822
▁tidig	-3823
▁toler	-3824
▁tools	-3825
▁towel	-3826
▁trash	-3827
▁trygg	-3828
▁tvätt	-3829
▁tycka	-3830
▁tårta	-3831
▁virus	-3832
▁vodka	-3833
▁white	-3834
▁äggen	-3835
▁ändra	-3836
▁äpple	-3837
aletten	-3838
▁Behåll	-3839
▁Christ	-3840
▁Håller	-3841
▁Mozart	-3842
▁Skaffa	-3843
▁Thanks	-3844
▁absent	-3845
▁arrest	-3846
▁avsked	-3847
▁bevisa	-3848
▁bitter	-3849
▁bjuder	-3850
▁blöder	-3851
▁buried	-3852
▁cancer	-3853
▁clever	-3854
▁course	-3855
▁döende	-3856
▁expect	-3857
▁fattig	-3858
▁fiende	-3859
▁filmen	-3860
▁fiskar	-3861
▁forget	-3862
▁frågar	-3863
▁föddes	-3864
▁fördom	-3865
▁förstå	-3866
▁förvän	-3867
▁garage	-3868
▁genast	-3869
▁gitarr	-3870
▁hittat	-3871
▁hjärta	-3872
▁honest	-3873
▁horses	-3874
▁hugged	-3875
▁hummer	-3876
▁hybrid	-3877
▁konstn	-3878
▁listan	-3879
▁litade	-3880
▁lukten	-3881
▁lättad	-3882
▁medvet	-3883
▁mening	-3884
▁museum	-3885
▁opened	-3886
▁orders	-3887
▁papper	-3888
▁parken	-3889
▁pojken	-3890
▁prefer	-3891
▁robbed	-3892
▁rösten	-3893
▁singel	-3894
▁single	-3895
▁skakar	-3896
▁skjuts	-3897
▁skriva	-3898
▁skydda	-3899
▁skynda	-3900
▁smakar	-3901
▁social	-3902
▁sounds	-3903
▁stilla	-3904
▁summer	-3905
▁sängen	-3906
▁sången	-3907
▁sönder	-3908
▁talked	-3909
▁tappat	-3910
▁tattoo	-3911
▁theory	-3912
▁toppen	-3913
▁tänder	-3914
▁tänker	-3915
▁unfair	-3916
▁vidare	-3917
▁vittne	-3918
▁väskor	-3919
▁wallet	-3920
▁washed	-3921
▁weapon	-3922
▁Älskar	-3923
▁äpplet	-3924
▁ögonen	-3925
bfounded	-3926
▁English	-3927
▁Klockan	-3928
▁Lunchen	-3929
▁Someone	-3930
▁arbetet	-3931
▁billigt	-3932
▁bredvid	-3933
▁comment	-3934
▁compete	-3935
▁control	-3936
▁drömmar	-3937
▁example	-3938
▁frantic	-3939
▁fungera	-3940
▁furious	-3941
▁färdigt	-3942
▁förlora	-3943
▁förstod	-3944
▁genuine	-3945
▁halkade	-3946
▁handlar	-3947
▁injured	-3948
▁jättest	-3949
▁klarade	-3950
▁kreativ	-3951
▁laundry	-3952
▁lobster	-3953
▁looking	-3954
▁lyssnar	-3955
▁lämnade	-3956
▁läskigt	-3957
▁nyheter	-3958
▁oranges	-3959
▁ordered	-3960
▁parents	-3961
▁parkera	-3962
▁pension	-3963
▁plånbok	-3964
▁promise	-3965
▁protect	-3966
▁puzzled	-3967
▁retired	-3968
▁shallow	-3969
▁similar	-3970
▁skakade	-3971
▁skamsen	-3972
▁skriver	-3973
▁skrämde	-3974
▁slipped	-3975
▁someone	-3976
▁special	-3977
▁spiders	-3978
▁station	-3979
▁studera	-3980
▁stämmer	-3981
▁suggest	-3982
▁surgery	-3983
▁svettas	-3984
▁teacher	-3985
▁tickets	-3986
▁trusted	-3987
▁tråkigt	-3988
▁tveksam	-3989
▁writing	-3990
▁återvän	-3991
▁öppnade	-3992
▁Somebody	-3993
▁Varifrån	-3994
▁Watching	-3995
▁agitated	-3996
▁ansiktet	-3997
▁använder	-3998
▁arbetade	-3999
▁artistic	-4000
▁bekräfta	-4001
▁beställa	-4002
▁bleeding	-4003
▁borrowed	-4004
▁climbing	-4005
▁decision	-4006
▁diabetes	-4007
▁doubtful	-4008
▁engelska	-4009
▁familiar	-4010
▁friendly	-4011
▁föredrar	-4012
▁föreslår	-4013
▁förlovad	-4014
▁förlägen	-4015
▁förvånad	-4016
▁händerna	-4017
▁härifrån	-4018
▁konstigt	-4019
▁noggrann	-4020
▁närheten	-4021
▁någonsin	-4022
▁oskyldig	-4023
▁relieved	-4024
▁screamed	-4025
▁skickade	-4026
▁skjortan	-4027
▁smutsigt	-4028
▁specific	-4029
▁spindlar	-4030
▁stressad	-4031
▁suddenly	-4032
▁sweating	-4033
▁undervis	-4034
▁upstairs	-4035
▁apelsiner	-4036
▁beställde	-4037
▁bestämmer	-4038
▁biljetter	-4039
▁desperate	-4040
▁exhausted	-4041
▁fortsatte	-4042
▁förvirrad	-4043
▁förälskad	-4044
▁kommentar	-4045
▁kontanter	-4046
▁plötsligt	-4047
▁problemet	-4048
▁recovered	-4049
▁somewhere	-4050
▁tatuering	-4051
▁traveling	-4052
▁Definitely	-4053
▁aggressive	-4054
▁classmates	-4055
▁deprimerad	-4056
▁downstairs	-4057
▁headstrong	-4058
▁understood	-4059
▁contributed	-4060
▁dumbfounded	-4061
cu	-4062
gn	-4063
lt	-4064
ri	-4065
ås	-4066
öv	-4067
amr	-4068
aps	-4069
ath	-4070
avy	-4071
bud	-4072
bur	-4073
cce	-4074
cif	-4075
dan	-4076
edd	-4077
edi	-4078
edu	-4079
elc	-4080
eph	-4081
fym	-4082
gad	-4083
gav	-4084
gin	-4085
hyf	-4086
ien	-4087
ier	-4088
ilt	-4089
ipt	-4090
irm	-4091
isf	-4092
jej	-4093
jug	-4094
jöd	-4095
jör	-4096
kay	-4097
män	-4098
nce	-4099
ax	-4100
fo	-4101
lå	-4102
cod	-4103
ech	-4104
nga	-4105
omb	-4106
ont	-4107
oot	-4108
ork	-4109
pat	-4110
ple	-4111
res	-4112
rsä	-4113
röm	-4114
tan	-4115
tid	-4116
ues	-4117
ugs	-4118
urb	-4119
utt	-4120
vel	-4121
vin	-4122
yra	-4123
yrt	-4124
ysa	-4125
äms	-4126
äna	-4127
ärd	-4128
öjt	-4129
öll	-4130
ösa	-4131
▁CD	-4132
▁Gu	-4133
▁Ka	-4134
▁Må	-4135
▁Pe	-4136
▁bu	-4137
▁cd	-4138
▁if	-4139
▁mö	-4140
▁nå	-4141
▁og	-4142
▁öm	-4143
aces	-4144
acht	-4145
aded	-4146
ader	-4147
aker	-4148
akor	-4149
anta	-4150
ants	-4151
ared	-4152
aten	-4153
bage	-4154
ched	-4155
ckad	-4156
ckor	-4157
cuse	-4158
dags	-4159
erap	-4160
erat	-4161
erta	-4162
fast	-4163
ftig	-4164
fund	-4165
föra	-4166
hist	-4167
hlet	-4168
icks	-4169
icul	-4170
iled	-4171
inar	-4172
ions	-4173
itiv	-4174
ized	-4175
komm	-4176
ktig	-4177
llad	-4178
läng	-4179
mans	-4180
nöjd	-4181
obat	-4182
oint	-4183
outh	-4184
oves	-4185
owed	-4186
pass	-4187
pekt	-4188
pens	-4189
plan	-4190
reep	-4191
ross	-4192
rätt	-4193
sing	-4194
skan	-4195
spel	-4196
steg	-4197
stod	-4198
tråk	-4199
ttar	-4200
udge	-4201
ugga	-4202
ulär	-4203
uter	-4204
wich	-4205
yser	-4206
ällt	-4207
älsa	-4208
ämma	-4209
ämpa	-4210
ånga	-4211
ötta	-4212
▁Bet	-4213
▁Bil	-4214
▁Bur	-4215
▁Hej	-4216
▁Hen	-4217
▁Hug	-4218
▁Kon	-4219
▁Mål	-4220
▁Poj	-4221
▁Slå	-4222
▁Sov	-4223
▁Tag	-4224
▁age	-4225
▁anl	-4226
▁ass	-4227
▁avf	-4228
▁bef	-4229
▁cit	-4230
▁cru	-4231
▁deb	-4232
▁dej	-4233
▁döv	-4234
▁eld	-4235
▁env	-4236
▁erb	-4237
▁fig	-4238
▁flu	-4239
▁fug	-4240
▁hej	-4241
▁hom	-4242
▁itu	-4243
▁jar	-4244
▁kam	-4245
▁kor	-4246
▁krä	-4247
▁lev	-4248
▁lin	-4249
▁läx	-4250
▁löp	-4251
▁lör	-4252
▁mät	-4253
▁nap	-4254
▁nyf	-4255
▁nöj	-4256
▁omk	-4257
▁omt	-4258
▁opp	-4259
▁paj	-4260
▁pie	-4261
▁pur	-4262
▁rar	-4263
▁ras	-4264
▁rea	-4265
▁rev	-4266
▁rop	-4267
▁rut	-4268
▁ryg	-4269
▁skj	-4270
▁slå	-4271
▁små	-4272
▁sun	-4273
▁sus	-4274
▁sym	-4275
▁tro	-4276
▁tyd	-4277
▁uts	-4278
addle	-4279
agger	-4280
allen	-4281
alöst	-4282
amman	-4283
apped	-4284
apple	-4285
arbet	-4286
arden	-4287
artan	-4288
ately	-4289
biska	-4290
blind	-4291
buked	-4292
cceed	-4293
ceful	-4294
coded	-4295
ction	-4296
ctual	-4297
derår	-4298
edule	-4299
ently	-4300
erest	-4301
ersök	-4302
flies	-4303
fully	-4304
getic	-4305
given	-4306
gnant	-4307
gångs	-4308
ickan	-4309
icked	-4310
imals	-4311
indra	-4312
iness	-4313
iskor	-4314
ister	-4315
itted	-4316
karen	-4317
karna	-4318
kerna	-4319
ldern	-4320
lymen	-4321
låder	-4322
nande	-4323
night	-4324
ocked	-4325
ograf	-4326
orten	-4327
outed	-4328
pplur	-4329
rätta	-4330
sfull	-4331
stopp	-4332
stämd	-4333
teous	-4334
ufför	-4335
uggar	-4336
ughty	-4337
urate	-4338
urday	-4339
ussen	-4340
viken	-4341
vised	-4342
ymrad	-4343
änker	-4344
ående	-4345
▁Bryr	-4346
▁Calm	-4347
▁Drop	-4348
▁Dröm	-4349
▁Dust	-4350
▁Evil	-4351
▁Fick	-4352
▁Fill	-4353
▁Fixa	-4354
▁Fruk	-4355
▁Fung	-4356
▁Häst	-4357
▁Kråk	-4358
▁Ligg	-4359
▁Ljug	-4360
▁Many	-4361
▁Move	-4362
▁Once	-4363
▁Rita	-4364
▁Ryck	-4365
▁Räck	-4366
▁Save	-4367
▁Show	-4368
▁Talk	-4369
▁Tänd	-4370
▁Vann	-4371
▁Vila	-4372
▁Visa	-4373
▁abdu	-4374
▁ache	-4375
▁alls	-4376
▁babb	-4377
▁baby	-4378
▁bars	-4379
▁bell	-4380
▁belö	-4381
▁boat	-4382
▁bott	-4383
▁boys	-4384
▁bära	-4385
▁calm	-4386
▁cane	-4387
▁cann	-4388
▁cars	-4389
▁cast	-4390
▁coma	-4391
▁cons	-4392
▁crew	-4393
▁damp	-4394
▁depp	-4395
▁diet	-4396
▁disg	-4397
▁dish	-4398
▁djup	-4399
▁djur	-4400
▁doll	-4401
▁drar	-4402
▁draw	-4403
▁drop	-4404
▁drow	-4405
▁duga	-4406
▁euro	-4407
▁fiel	-4408
▁file	-4409
▁filt	-4410
▁fjär	-4411
▁flat	-4412
▁förh	-4413
▁gate	-4414
▁gent	-4415
▁glöm	-4416
▁grym	-4417
▁gräs	-4418
▁guid	-4419
▁guts	-4420
▁gäst	-4421
▁hann	-4422
▁harm	-4423
▁hole	-4424
▁horr	-4425
▁hört	-4426
▁inom	-4427
▁jail	-4428
▁jock	-4429
▁join	-4430
▁jury	-4431
▁knee	-4432
▁knät	-4433
▁koma	-4434
▁käpp	-4435
▁köpt	-4436
▁kött	-4437
▁less	-4438
▁lips	-4439
▁ljud	-4440
▁låst	-4441
▁låts	-4442
▁many	-4443
▁mard	-4444
▁meal	-4445
▁mood	-4446
▁naiv	-4447
▁obje	-4448
▁ohyf	-4449
▁okay	-4450
▁otur	-4451
▁ours	-4452
▁ovan	-4453
▁page	-4454
▁pill	-4455
▁pine	-4456
▁pump	-4457
▁rent	-4458
▁runs	-4459
▁rygg	-4460
▁rymt	-4461
▁rått	-4462
▁sail	-4463
▁seal	-4464
▁shop	-4465
▁side	-4466
▁sinn	-4467
▁sjal	-4468
▁skoj	-4469
▁skär	-4470
▁sore	-4471
▁spin	-4472
▁stig	-4473
▁stod	-4474
▁stre	-4475
▁säng	-4476
▁tank	-4477
▁tire	-4478
▁tras	-4479
▁trip	-4480
▁turn	-4481
▁usel	-4482
▁vore	-4483
▁väck	-4484
▁wins	-4485
▁woke	-4486
▁Älsk	-4487
▁Äter	-4488
▁ändå	-4489
ageous	-4490
assing	-4491
elcome	-4492
ention	-4493
erable	-4494
erande	-4495
ercise	-4496
ertain	-4497
hletic	-4498
illing	-4499
iteter	-4500
kommen	-4501
litlig	-4502
ointed	-4503
rossad	-4504
rsäkta	-4505
ryllad	-4506
sköter	-4507
sosamt	-4508
tråkad	-4509
usande	-4510
årande	-4511
▁Begin	-4512
▁Borde	-4513
▁Brush	-4514
▁Börja	-4515
▁Damma	-4516
▁Denna	-4517
▁Guess	-4518
▁Happy	-4519
▁Honey	-4520
▁Hoppa	-4521
▁Hälsa	-4522
▁Kasta	-4523
▁Lower	-4524
▁Menar	-4525
▁Många	-4526
▁Måste	-4527
▁Never	-4528
▁Prova	-4529
▁Röker	-4530
▁Skjut	-4531
▁Släng	-4532
▁Slåss	-4533
▁Spara	-4534
▁Stick	-4535
▁Sväng	-4536
▁Tappa	-4537
▁These	-4538
▁Throw	-4539
▁Våren	-4540
▁Water	-4541
▁Would	-4542
▁after	-4543
▁alles	-4544
▁ambit	-4545
▁aning	-4546
▁armen	-4547
▁atlet	-4548
▁attic	-4549
▁avund	-4550
▁bilar	-4551
▁bytte	-4552
▁böjde	-4553
▁carry	-4554
▁chair	-4555
▁costs	-4556
▁creep	-4557
▁crown	-4558
▁dator	-4559
▁delen	-4560
▁dessa	-4561
▁disag	-4562
▁drugs	-4563
▁duger	-4564
▁eaten	-4565
▁energ	-4566
▁flaky	-4567
▁flute	-4568
▁flöjt	-4569
▁foten	-4570
▁frysa	-4571
▁fullt	-4572
▁förbi	-4573
▁förky	-4574
▁förut	-4575
▁galet	-4576
▁games	-4577
▁genom	-4578
▁gilla	-4579
▁green	-4580
▁heavy	-4581
▁hired	-4582
▁hoppa	-4583
▁humör	-4584
▁höger	-4585
▁högre	-4586
▁immun	-4587
▁insul	-4588
▁inter	-4589
▁juice	-4590
▁kalla	-4591
▁klart	-4592
▁klipp	-4593
▁kropp	-4594
▁kvitt	-4595
▁känns	-4596
▁körde	-4597
▁lagar	-4598
▁large	-4599
▁ledig	-4600
▁lovar	-4601
▁låten	-4602
▁lönar	-4603
▁marry	-4604
▁maten	-4605
▁mouth	-4606
▁moved	-4607
▁många	-4608
▁mörkt	-4609
▁naive	-4610
▁nedan	-4611
▁notan	-4612
▁notes	-4613
▁nurse	-4614
▁nästa	-4615
▁odlar	-4616
▁ordna	-4617
▁proof	-4618
▁präst	-4619
▁repet	-4620
▁reser	-4621
▁ringt	-4622
▁risks	-4623
▁roade	-4624
▁robot	-4625
▁räkna	-4626
▁rånad	-4627
▁shark	-4628
▁shave	-4629
▁sidan	-4630
▁skall	-4631
▁skate	-4632
▁skepp	-4633
▁skola	-4634
▁släpp	-4635
▁solen	-4636
▁soppa	-4637
▁sorry	-4638
▁sport	-4639
▁steal	-4640
▁stole	-4641
▁storm	-4642
▁stund	-4643
▁svärd	-4644
▁sword	-4645
▁table	-4646
▁tagit	-4647
▁taste	-4648
▁tegel	-4649
▁throw	-4650
▁tokig	-4651
▁tower	-4652
▁trick	-4653
▁truck	-4654
▁tufft	-4655
▁utman	-4656
▁varna	-4657
▁veget	-4658
▁vände	-4659
▁värre	-4660
▁wheel	-4661
▁worry	-4662
▁worse	-4663
▁yacht	-4664
▁ytlig	-4665
▁öppen	-4666
▁öppet	-4667
▁öppna	-4668
▁överr	-4669
aptable	-4670
ledning	-4671
ndersök	-4672
pensive	-4673
redible	-4674
sammans	-4675
skräckt	-4676
starrig	-4677
uddhist	-4678
varande	-4679
▁Anyone	-4680
▁Arabic	-4681
▁Borsta	-4682
▁Bussen	-4683
▁Excuse	-4684
▁Förlåt	-4685
▁Hurdan	-4686
▁Ibland	-4687
▁Jobbar	-4688
▁Listen	-4689
▁Lyssna	-4690
▁Målade	-4691
▁Return	-4692
▁Should	-4693
▁Väckte	-4694
▁active	-4695
▁advice	-4696
▁ananas	-4697
▁anpass	-4698
▁ansvar	-4699
▁anyway	-4700
▁avsikt	-4701
▁banken	-4702
▁barely	-4703
▁begrav	-4704
▁behöll	-4705
▁bekant	-4706
▁berätt	-4707
▁billig	-4708
▁brevet	-4709
▁bricks	-4710
▁buying	-4711
▁cancel	-4712
▁counts	-4713
▁deeply	-4714
▁double	-4715
▁droger	-4716
▁dubbel	-4717
▁endast	-4718
▁flydde	-4719
▁freeze	-4720
▁fryser	-4721
▁följer	-4722
▁fötter	-4723
▁garden	-4724
▁gloves	-4725
▁groggy	-4726
▁hatten	-4727
▁having	-4728
▁hemskt	-4729
▁hippie	-4730
▁hoppar	-4731
▁hyllan	-4732
▁hästar	-4733
▁immedi	-4734
▁insist	-4735
▁intend	-4736
▁island	-4737
▁jacket	-4738
▁joking	-4739
▁kartan	-4740
▁killen	-4741
▁killer	-4742
▁kläder	-4743
▁kniven	-4744
▁kostym	-4745
▁krasch	-4746
▁laughs	-4747
▁ledigt	-4748
▁locked	-4749
▁losing	-4750
▁lyckas	-4751
▁läckan	-4752
▁läkare	-4753
▁läppar	-4754
▁lånade	-4755
▁lördag	-4756
▁matade	-4757
▁menade	-4758
▁minors	-4759
▁misses	-4760
▁munnen	-4761
▁museet	-4762
▁måltid	-4763
▁nearly	-4764
▁nodded	-4765
▁notify	-4766
▁oförsk	-4767
▁olydig	-4768
▁oärlig	-4769
▁parfym	-4770
▁planen	-4771
▁planer	-4772
▁police	-4773
▁radion	-4774
▁rakade	-4775
▁rarely	-4776
▁report	-4777
▁resour	-4778
▁ropade	-4779
▁räknar	-4780
▁räknas	-4781
▁satisf	-4782
▁shaved	-4783
▁showed	-4784
▁skorna	-4785
▁slower	-4786
▁sommar	-4787
▁speech	-4788
▁stämma	-4789
▁sympat	-4790
▁syster	-4791
▁talade	-4792
▁tjänar	-4793
▁tokiga	-4794
▁trains	-4795
▁trodde	-4796
▁trying	-4797
▁trötta	-4798
▁tänkte	-4799
▁undant	-4800
▁unfort	-4801
▁veckan	-4802
▁vinden	-4803
▁violin	-4804
▁vänjer	-4805
▁värker	-4806
▁väskan	-4807
▁yelled	-4808
▁äpplen	-4809
bjudande	-4810
deråriga	-4811
räckligt	-4812
▁allting	-4813
▁animals	-4814
▁annoyed	-4815
▁ansikte	-4816
▁arrange	-4817
▁bananas	-4818
▁bananer	-4819
▁behålla	-4820
▁belåten	-4821
▁betydde	-4822
▁certain	-4823
▁challen	-4824
▁choking	-4825
▁company	-4826
▁cracked	-4827
▁dancing	-4828
▁envious	-4829
▁erkände	-4830
▁exagger	-4831
▁excited	-4832
▁figured	-4833
▁fingers	-4834
▁fingrar	-4835
▁flyttar	-4836
▁fångade	-4837
▁garaget	-4838
▁garbage	-4839
▁gissade	-4840
▁glasses	-4841
▁grabbed	-4842
▁handduk	-4843
▁högljud	-4844
▁insidan	-4845
▁intress	-4846
▁invited	-4847
▁jumping	-4848
▁klättra	-4849
▁knocked	-4850
▁korrekt	-4851
▁kostade	-4852
▁levande	-4853
▁läkaren	-4854
▁lättnad	-4855
▁mardröm	-4856
▁meeting	-4857
▁message	-4858
▁naughty	-4859
▁nickade	-4860
▁noticed	-4861
▁nyfiken	-4862
▁omkring	-4863
▁oroliga	-4864
▁perfume	-4865
▁platsen	-4866
▁pleased	-4867
▁polisen	-4868
▁poängen	-4869
▁pratade	-4870
▁rebuked	-4871
▁receipt	-4872
▁regular	-4873
▁respect	-4874
▁respekt	-4875
▁respons	-4876
▁resting	-4877
▁retades	-4878
▁räddade	-4879
▁shaking	-4880
▁shouted	-4881
▁sjunger	-4882
▁skadade	-4883
▁skjorta	-4884
▁skulden	-4885
▁smutsig	-4886
▁stänger	-4887
▁succeed	-4888
▁touched	-4889
▁trädgår	-4890
▁tupplur	-4891
▁twisted	-4892
▁unstopp	-4893
▁volymen	-4894
▁walking	-4895
▁weapons	-4896
▁weather	-4897
▁winning	-4898
arismatic	-4899
sköterska	-4900
▁Fungerar	-4901
▁Saturday	-4902
▁Vänligen	-4903
▁abducted	-4904
▁accurate	-4905
▁annoying	-4906
▁anställd	-4907
▁answered	-4908
▁applåder	-4909
▁arabiska	-4910
▁arrogant	-4911
▁athletic	-4912
▁baseball	-4913
▁bekymrad	-4914
▁besviken	-4915
▁business	-4916
▁cheerful	-4917
▁computer	-4918
▁drinking	-4919
▁drowning	-4920
▁drunknar	-4921
▁därifrån	-4922
▁fearless	-4923
▁fjärilar	-4924
▁football	-4925
▁fortsätt	-4926
▁fugitive	-4927
▁generous	-4928
▁glasögon	-4929
▁guessing	-4930
▁guidance	-4931
▁handskar	-4932
▁interest	-4933
▁karismat	-4934
▁kontakta	-4935
▁minister	-4936
▁missnöjd	-4937
▁murdered	-4938
▁nedstämd	-4939
▁notebook	-4940
▁olycklig	-4941
▁opereras	-4942
▁pleasure	-4943
▁positive	-4944
▁pregnant	-4945
▁promenad	-4946
▁pålitlig	-4947
▁returned	-4948
▁riskerna	-4949
▁sandwich	-4950
▁schedule	-4951
▁speciell	-4952
▁standard	-4953
▁students	-4954
▁studerar	-4955
▁sällskap	-4956
▁teachers	-4957
▁tolerant	-4958
▁tvättade	-4959
▁tålmodig	-4960
▁ursinnig	-4961
▁uttråkad	-4962
▁våningen	-4963
▁watching	-4964
▁Älskling	-4965
▁Goodnight	-4966
▁acceptera	-4967
▁adaptable	-4968
▁aggressiv	-4969
▁allvarlig	-4970
▁apologize	-4971
▁bedårande	-4972
▁besvärlig	-4973
▁beväpnade	-4974
▁courteous	-4975
▁effective	-4976
▁energetic	-4977
▁expensive	-4978
▁förstörde	-4979
▁förändras	-4980
▁hälsosamt	-4981
▁klasskamr	-4982
▁miserable	-4983
▁människor	-4984
▁pineapple	-4985
▁sittplats	-4986
▁skedaddle	-4987
▁studenter	-4988
▁svettades	-4989
▁tegelsten	-4990
▁underligt	-4991
▁wonderful	-4992
▁apologized	-4993
▁förbryllad	-4994
▁förkrossad	-4995
▁incredible	-4996
▁meddelande	-4997
▁promenerar	-4998
▁punktering	-4999
▁undervisar	-5000
▁vägledning	-5001
▁butterflies	-5002
▁charismatic	-5003
▁competitive	-5004
▁frånvarande	-5005
▁förtjusande	-5006
▁halsstarrig	-5007
▁immediately	-5008
▁klasskompis	-5009
▁konstnärlig	-5010
▁minderåriga	-5011
▁resourceful	-5012
▁unfortunate	-5013
▁unstoppable	-5014
▁contributing	-5015
▁tillräckligt	-5016
▁sjuksköterska	-5017
ov	-5018
box	-5019
boy	-5020
eat	-5021
flu	-5022
fri	-5023
fty	-5024
hew	-5025
ibe	-5026
ikv	-5027
irr	-5028
jol	-5029
jöt	-5030
nia	-5031
nik	-5032
oga	-5033
oky	-5034
ota	-5035
sch	-5036
sel	-5037
som	-5038
trä	-5039
års	-5040
▁Kn	-5041
▁NH	-5042
▁Om	-5043
▁Pl	-5044
▁gy	-5045
acon	-5046
amme	-5047
anky	-5048
band	-5049
barn	-5050
bbet	-5051
blöt	-5052
buki	-5053
ccer	-5054
cern	-5055
cksl	-5056
cons	-5057
dret	-5058
drev	-5059
fall	-5060
ffas	-5061
gain	-5062
hful	-5063
hyad	-5064
hämt	-5065
hänt	-5066
höll	-5067
ibly	-5068
icem	-5069
iful	-5070
isky	-5071
ites	-5072
ivor	-5073
jutt	-5074
klar	-5075
knel	-5076
kort	-5077
körd	-5078
kött	-5079
llös	-5080
luck	-5081
lvet	-5082
männ	-5083
nars	-5084
noon	-5085
näst	-5086
oark	-5087
okyo	-5088
opri	-5089
ovar	-5090
phew	-5091
pile	-5092
pond	-5093
pråk	-5094
psed	-5095
pump	-5096
ques	-5097
rari	-5098
rbet	-5099
loy	-5100
oon	-5101
ales	-5102
ftar	-5103
mate	-5104
mäst	-5105
oist	-5106
okes	-5107
rows	-5108
sade	-5109
slöj	-5110
tron	-5111
ttat	-5112
uded	-5113
ummi	-5114
umor	-5115
ushy	-5116
utal	-5117
vete	-5118
väll	-5119
vänd	-5120
wers	-5121
xted	-5122
ydde	-5123
änad	-5124
ådde	-5125
ödde	-5126
ötet	-5127
▁Buy	-5128
▁Egy	-5129
▁Fan	-5130
▁Hög	-5131
▁Knu	-5132
▁Lev	-5133
▁Lås	-5134
▁NHK	-5135
▁New	-5136
▁Ord	-5137
▁Our	-5138
▁Out	-5139
▁Rad	-5140
▁Reg	-5141
▁Sch	-5142
▁Ste	-5143
▁Tan	-5144
▁Toy	-5145
▁Två	-5146
▁adj	-5147
▁akr	-5148
▁asy	-5149
▁avl	-5150
▁bän	-5151
▁båt	-5152
▁doz	-5153
▁elb	-5154
▁fåg	-5155
▁fån	-5156
▁gum	-5157
▁hip	-5158
▁hål	-5159
▁idr	-5160
▁ked	-5161
▁klo	-5162
▁kok	-5163
▁kvä	-5164
▁lån	-5165
▁nor	-5166
▁ond	-5167
▁rab	-5168
▁sti	-5169
▁tak	-5170
▁tip	-5171
▁tri	-5172
▁unh	-5173
▁unp	-5174
▁veg	-5175
▁war	-5176
agoda	-5177
akass	-5178
aktiv	-5179
aljer	-5180
arian	-5181
asons	-5182
asure	-5183
bilen	-5184
ccess	-5185
centr	-5186
ckade	-5187
delse	-5188
eldom	-5189
eless	-5190
enhet	-5191
epsar	-5192
erapy	-5193
erman	-5194
ermos	-5195
ettio	-5196
forta	-5197
hetti	-5198
icely	-5199
tv	-5200
äk	-5201
apt	-5202
cts	-5203
ece	-5204
uva	-5205
▁vå	-5206
dist	-5207
ries	-5208
rime	-5209
äsan	-5210
ätet	-5211
▁Age	-5212
▁Ras	-5213
▁Rem	-5214
▁feg	-5215
▁ine	-5216
▁vät	-5217
▁öre	-5218
aptop	-5219
iceps	-5220
ifted	-5221
iking	-5222
ikten	-5223
immat	-5224
inked	-5225
iolog	-5226
irboy	-5227
isken	-5228
itivt	-5229
ivers	-5230
kning	-5231
kting	-5232
kväll	-5233
ldiga	-5234
lucky	-5235
låten	-5236
matta	-5237
merik	-5238
olite	-5239
ollig	-5240
olute	-5241
olämp	-5242
omnia	-5243
onger	-5244
ornet	-5245
otten	-5246
otter	-5247
ouder	-5248
owned	-5249
pared	-5250
pleas	-5251
ranus	-5252
samma	-5253
skiva	-5254
steps	-5255
stret	-5256
stron	-5257
tryck	-5258
ubbel	-5259
ument	-5260
unted	-5261
upong	-5262
usion	-5263
utter	-5264
vaken	-5265
veral	-5266
yllde	-5267
yller	-5268
yndig	-5269
yrade	-5270
äften	-5271
ägsna	-5272
äktig	-5273
äller	-5274
ället	-5275
ättel	-5276
ånger	-5277
ömmen	-5278
örjer	-5279
▁Beat	-5280
▁Beer	-5281
▁Cont	-5282
▁Cool	-5283
▁Dags	-5284
▁Dörr	-5285
▁Find	-5286
▁Gick	-5287
▁Gree	-5288
▁Inte	-5289
▁Jump	-5290
▁Kläd	-5291
▁Kött	-5292
▁Lita	-5293
▁Mars	-5294
▁Mjöl	-5295
▁Okej	-5296
▁Pace	-5297
▁Peka	-5298
▁Pick	-5299
col	-5300
hma	-5301
hus	-5302
oka	-5303
rik	-5304
tat	-5305
ämm	-5306
corn	-5307
gare	-5308
inka	-5309
matt	-5310
ners	-5311
olve	-5312
ryka	-5313
ulla	-5314
äcka	-5315
▁Eur	-5316
▁Str	-5317
▁avg	-5318
▁awk	-5319
▁gym	-5320
▁lös	-5321
▁orp	-5322
▁sop	-5323
fulla	-5324
hetic	-5325
orgon	-5326
osten	-5327
säker	-5328
umpet	-5329
▁Back	-5330
▁Fyll	-5331
▁Kiss	-5332
▁Klar	-5333
▁Koka	-5334
▁Sign	-5335
▁Sjön	-5336
▁Skad	-5337
▁Skol	-5338
▁Snar	-5339
▁Somm	-5340
▁Sopa	-5341
▁Stig	-5342
▁Term	-5343
▁Tänk	-5344
▁Vars	-5345
▁Välj	-5346
▁Year	-5347
▁adop	-5348
▁affe	-5349
▁anti	-5350
▁appr	-5351
▁arms	-5352
▁asyl	-5353
▁avbr	-5354
▁bald	-5355
▁band	-5356
▁bark	-5357
▁bedr	-5358
▁bekv	-5359
▁belt	-5360
▁björ	-5361
▁blåa	-5362
▁bomb	-5363
▁brak	-5364
▁brom	-5365
▁burn	-5366
▁böjd	-5367
▁carp	-5368
▁chew	-5369
▁chok	-5370
▁circ	-5371
▁cops	-5372
▁coug	-5373
▁crow	-5374
▁dumt	-5375
▁eget	-5376
▁elef	-5377
▁elev	-5378
▁evil	-5379
▁exam	-5380
▁fact	-5381
▁fann	-5382
▁feed	-5383
▁fest	-5384
▁flyr	-5385
▁four	-5386
▁främ	-5387
▁fyra	-5388
▁fäng	-5389
▁gall	-5390
▁gear	-5391
▁glan	-5392
▁grie	-5393
▁grip	-5394
▁gylf	-5395
▁hats	-5396
▁host	-5397
▁hote	-5398
▁häft	-5399
bs	-5400
aut	-5401
båg	-5402
lic	-5403
nge	-5404
ops	-5405
utr	-5406
▁Bl	-5407
▁Bo	-5408
▁et	-5409
▁vu	-5410
allt	-5411
anda	-5412
cess	-5413
erfe	-5414
esus	-5415
gent	-5416
ical	-5417
plic	-5418
port	-5419
syns	-5420
uses	-5421
ushi	-5422
ustr	-5423
äron	-5424
åtna	-5425
▁Ban	-5426
▁Bes	-5427
▁Fer	-5428
▁Fin	-5429
▁Lag	-5430
▁Tod	-5431
▁Val	-5432
▁ama	-5433
▁jet	-5434
▁tru	-5435
▁vux	-5436
▁yen	-5437
annat	-5438
pises	-5439
utral	-5440
änade	-5441
▁Ange	-5442
▁Boil	-5443
▁Hide	-5444
▁Lock	-5445
▁Tror	-5446
▁caps	-5447
▁dyrt	-5448
▁dörr	-5449
▁hänt	-5450
▁imag	-5451
▁jazz	-5452
▁junk	-5453
▁lack	-5454
▁lake	-5455
▁lata	-5456
▁lift	-5457
▁limp	-5458
▁ljus	-5459
▁lopp	-5460
▁luft	-5461
▁lugn	-5462
▁lura	-5463
▁läng	-5464
▁läst	-5465
▁låna	-5466
▁math	-5467
▁mice	-5468
▁mink	-5469
▁mirr	-5470
▁mote	-5471
▁mott	-5472
▁muff	-5473
▁munk	-5474
▁möss	-5475
▁nerv	-5476
▁noga	-5477
▁nois	-5478
▁numb	-5479
▁närm	-5480
▁nöje	-5481
▁oart	-5482
▁onda	-5483
▁ones	-5484
▁orph	-5485
▁pank	-5486
▁pant	-5487
▁poet	-5488
▁prov	-5489
▁quar	-5490
▁race	-5491
▁rapp	-5492
▁regn	-5493
▁rely	-5494
▁rope	-5495
▁ruth	-5496
▁sale	-5497
▁same	-5498
▁sann	-5499
Pad	-5500
imp	-5501
irs	-5502
ogr	-5503
akan	-5504
athe	-5505
glig	-5506
igil	-5507
ilet	-5508
oden	-5509
oice	-5510
skor	-5511
trol	-5512
utet	-5513
vett	-5514
vlig	-5515
äder	-5516
▁Lad	-5517
▁Ler	-5518
▁Lot	-5519
▁Män	-5520
▁pil	-5521
▁rak	-5522
▁tim	-5523
▁wer	-5524
askan	-5525
ience	-5526
iling	-5527
klart	-5528
usten	-5529
ärska	-5530
▁duss	-5531
▁goal	-5532
▁goes	-5533
▁iPad	-5534
▁kitt	-5535
▁knit	-5536
▁lang	-5537
▁mail	-5538
▁sass	-5539
▁seek	-5540
▁sext	-5541
▁shut	-5542
▁sköt	-5543
▁smal	-5544
▁snäv	-5545
▁soci	-5546
▁sons	-5547
▁surf	-5548
▁svår	-5549
▁tape	-5550
▁titt	-5551
▁tjej	-5552
▁tomt	-5553
▁torr	-5554
▁tour	-5555
▁tree	-5556
▁tugg	-5557
▁tupp	-5558
▁tvål	-5559
▁twin	-5560
▁type	-5561
▁tysk	-5562
▁vans	-5563
▁vild	-5564
▁vind	-5565
▁vitl	-5566
▁vodk	-5567
▁vårt	-5568
▁west	-5569
▁when	-5570
▁wide	-5571
▁ömma	-5572
▁örat	-5573
aktigt	-5574
atable	-5575
bellen	-5576
cifist	-5577
colate	-5578
dotter	-5579
enched	-5580
fallet	-5581
friend	-5582
frusen	-5583
gering	-5584
håller	-5585
iceman	-5586
ickvän	-5587
idskor	-5588
ighted	-5589
immigt	-5590
inking	-5591
insamt	-5592
ionera	-5593
iously	-5594
isoner	-5595
istisk	-5596
iverad	-5597
lauded	-5598
leaded	-5599
kl	-5600
åp	-5601
ike	-5602
pon	-5603
tad	-5604
▁Ap	-5605
▁By	-5606
▁Få	-5607
▁Än	-5608
amas	-5609
emon	-5610
odna	-5611
real	-5612
uver	-5613
verl	-5614
work	-5615
ökar	-5616
▁Byt	-5617
▁Böj	-5618
▁Kun	-5619
▁due	-5620
▁fle	-5621
▁påh	-5622
▁rom	-5623
▁slö	-5624
▁sol	-5625
▁sty	-5626
▁täm	-5627
adder	-5628
anger	-5629
anten	-5630
skall	-5631
sätta	-5632
▁Shut	-5633
▁Step	-5634
▁deny	-5635
▁duck	-5636
▁fris	-5637
▁förf	-5638
▁lämp	-5639
▁nere	-5640
▁skar	-5641
▁skrä	-5642
▁skäl	-5643
▁skåp	-5644
▁snut	-5645
▁styv	-5646
▁sött	-5647
ionary	-5648
lockor	-5649
länges	-5650
löshet	-5651
mattad	-5652
nsaker	-5653
onerad	-5654
opping	-5655
pråkig	-5656
raktiv	-5657
rapade	-5658
strött	-5659
tränad	-5660
urbing	-5661
verkar	-5662
vinnor	-5663
värdig	-5664
warded	-5665
▁Ammon	-5666
▁April	-5667
▁Arbet	-5668
▁Bilen	-5669
▁Brott	-5670
▁Cheer	-5671
▁Crime	-5672
▁Crows	-5673
▁Först	-5674
▁Gratt	-5675
▁Hissa	-5676
▁Hitta	-5677
▁Hoist	-5678
▁Humor	-5679
▁Huset	-5680
▁Högre	-5681
▁Jesus	-5682
▁Krama	-5683
▁Kände	-5684
▁Känns	-5685
▁Litar	-5686
▁Lovar	-5687
▁Maten	-5688
▁Pappa	-5689
▁Perfe	-5690
▁Point	-5691
▁Raska	-5692
▁Sjöng	-5693
▁Skrik	-5694
▁Spela	-5695
▁State	-5696
▁Sweep	-5697
▁Today	-5698
▁Tokyo	-5699
rå	-5700
aså	-5701
els	-5702
fox	-5703
mas	-5704
rat	-5705
äns	-5706
alös	-5707
asag	-5708
atty	-5709
elve	-5710
ingy	-5711
itat	-5712
iter	-5713
myck	-5714
stes	-5715
vill	-5716
▁Ita	-5717
▁Mår	-5718
▁Sno	-5719
▁cig	-5720
▁cur	-5721
▁dub	-5722
▁ear	-5723
▁ink	-5724
▁low	-5725
▁ren	-5726
▁säl	-5727
▁tem	-5728
aggad	-5729
elves	-5730
reled	-5731
rådig	-5732
ugged	-5733
äcken	-5734
öjlig	-5735
▁Dice	-5736
▁Jaså	-5737
▁Rest	-5738
▁city	-5739
▁dict	-5740
▁form	-5741
▁inse	-5742
▁land	-5743
▁låda	-5744
▁pris	-5745
▁prop	-5746
▁tolv	-5747
▁trag	-5748
▁wear	-5749
ancing	-5750
mycket	-5751
räknel	-5752
▁Break	-5753
▁Tärna	-5754
▁Vakna	-5755
▁Vakta	-5756
▁Valar	-5757
▁Varje	-5758
▁ached	-5759
▁aktiv	-5760
▁along	-5761
▁ambul	-5762
▁andan	-5763
▁anser	-5764
▁april	-5765
▁armar	-5766
▁astma	-5767
▁avfär	-5768
▁backa	-5769
▁bacon	-5770
▁badar	-5771
▁badly	-5772
▁balls	-5773
▁bathe	-5774
▁bears	-5775
▁beaut	-5776
▁bench	-5777
▁benen	-5778
▁benet	-5779
▁bills	-5780
▁blush	-5781
▁blått	-5782
▁bossy	-5783
▁bryta	-5784
▁built	-5785
▁burns	-5786
▁båten	-5787
▁chain	-5788
▁chaot	-5789
▁charm	-5790
▁chart	-5791
▁cheek	-5792
▁coast	-5793
▁colla	-5794
▁conta	-5795
▁conte	-5796
▁cover	-5797
▁cruel	-5798
▁divor	-5799
vä	-5800
ces	-5801
edy	-5802
ics	-5803
ipa	-5804
nap	-5805
nit	-5806
▁Av	-5807
▁Cy	-5808
adan	-5809
atta	-5810
ened	-5811
fint	-5812
inue	-5813
omen	-5814
ored	-5815
reed	-5816
rees	-5817
stin	-5818
stra	-5819
▁Där	-5820
▁Göm	-5821
▁Wow	-5822
▁dug	-5823
▁gul	-5824
▁haj	-5825
▁kol	-5826
▁pig	-5827
▁top	-5828
▁wet	-5829
ickar	-5830
slöst	-5831
uggle	-5832
unnit	-5833
▁More	-5834
▁Then	-5835
▁burk	-5836
▁bygg	-5837
▁dock	-5838
▁föra	-5839
▁grop	-5840
▁gula	-5841
▁impr	-5842
▁liar	-5843
▁outr	-5844
▁reag	-5845
▁soap	-5846
östade	-5847
▁Lotus	-5848
▁Women	-5849
▁attra	-5850
▁blogg	-5851
▁blues	-5852
▁donut	-5853
▁dozen	-5854
▁drift	-5855
▁drill	-5856
▁drove	-5857
▁dumma	-5858
▁dödas	-5859
▁eater	-5860
▁egent	-5861
▁elbow	-5862
▁eleph	-5863
▁epile	-5864
▁erbju	-5865
▁erfar	-5866
▁euros	-5867
▁filen	-5868
▁flies	-5869
▁foggy	-5870
▁funka	-5871
▁fågel	-5872
▁fånge	-5873
▁fånig	-5874
▁föret	-5875
▁förne	-5876
▁gifte	-5877
▁girls	-5878
▁giver	-5879
▁glömt	-5880
▁grönt	-5881
▁guard	-5882
▁human	-5883
▁huset	-5884
▁häkte	-5885
▁häpen	-5886
▁håret	-5887
▁ihjäl	-5888
▁illam	-5889
▁impro	-5890
▁itchy	-5891
▁kakor	-5892
▁karta	-5893
▁kille	-5894
▁kinam	-5895
▁knipa	-5896
▁knäpp	-5897
▁kross	-5898
▁kyssa	-5899
sb	-5900
äd	-5901
mäl	-5902
ued	-5903
▁Tw	-5904
▁Vä	-5905
▁ga	-5906
▁ko	-5907
amod	-5908
iner	-5909
ppad	-5910
▁Two	-5911
▁bas	-5912
▁bäl	-5913
▁hes	-5914
▁nag	-5915
▁rap	-5916
unker	-5917
▁Grek	-5918
▁Live	-5919
▁dull	-5920
▁fina	-5921
▁gets	-5922
▁gåva	-5923
▁inst	-5924
▁kidd	-5925
▁makt	-5926
▁paus	-5927
▁pull	-5928
▁rakt	-5929
▁steg	-5930
▁tabl	-5931
▁tand	-5932
▁view	-5933
anding	-5934
estern	-5935
gether	-5936
handed	-5937
▁Fight	-5938
▁Finns	-5939
▁bälte	-5940
▁cards	-5941
▁ficka	-5942
▁gears	-5943
▁grows	-5944
▁influ	-5945
▁lacks	-5946
▁lagen	-5947
▁langu	-5948
▁lasag	-5949
▁lemon	-5950
▁lider	-5951
▁light	-5952
▁lista	-5953
▁ljuga	-5954
▁lugna	-5955
▁lägga	-5956
▁lärde	-5957
▁löken	-5958
▁match	-5959
▁meant	-5960
▁missa	-5961
▁modet	-5962
▁motto	-5963
▁mouse	-5964
▁mötet	-5965
▁nails	-5966
▁neder	-5967
▁niece	-5968
▁noise	-5969
▁noisy	-5970
▁nådde	-5971
▁offic	-5972
▁oppon	-5973
▁orden	-5974
▁oroar	-5975
▁orsak	-5976
▁orädd	-5977
▁panic	-5978
▁panka	-5979
▁parad	-5980
▁picky	-5981
▁pills	-5982
▁plast	-5983
▁plays	-5984
▁plikt	-5985
▁poker	-5986
▁prize	-5987
▁progr	-5988
▁purch	-5989
▁purse	-5990
▁pushy	-5991
▁päron	-5992
▁raden	-5993
▁rakar	-5994
▁reach	-5995
▁reste	-5996
▁rinna	-5997
▁ritat	-5998
▁rodna	-5999
cr	-6000
th	-6001
äta	-6002
ages	-6003
else	-6004
▁Dad	-6005
▁cor	-6006
▁fit	-6007
▁sew	-6008
▁shr	-6009
alled	-6010
essed	-6011
etten	-6012
leman	-6013
sense	-6014
shirt	-6015
slåda	-6016
äftig	-6017
äkten	-6018
▁Bend	-6019
▁Deal	-6020
▁Fear	-6021
▁Kyss	-6022
▁Yoga	-6023
▁bird	-6024
▁past	-6025
▁raka	-6026
▁send	-6027
cerned	-6028
▁Ducka	-6029
▁biten	-6030
▁budge	-6031
▁dread	-6032
▁field	-6033
▁fixed	-6034
▁fling	-6035
▁gasps	-6036
▁liver	-6037
▁lurad	-6038
▁läget	-6039
▁names	-6040
▁plane	-6041
▁round	-6042
▁rymde	-6043
▁sails	-6044
▁sakta	-6045
▁saved	-6046
▁screw	-6047
▁seats	-6048
▁segel	-6049
▁seven	-6050
▁shade	-6051
▁shame	-6052
▁sixty	-6053
▁skaff	-6054
▁skand	-6055
▁skild	-6056
▁skäms	-6057
▁slags	-6058
▁smaka	-6059
▁snack	-6060
▁snore	-6061
▁socks	-6062
▁sovit	-6063
▁space	-6064
▁spark	-6065
▁stage	-6066
▁stink	-6067
▁store	-6068
▁strax	-6069
▁sugar	-6070
▁suits	-6071
▁super	-6072
▁sushi	-6073
▁swims	-6074
▁sårad	-6075
▁sårar	-6076
▁söker	-6077
▁söner	-6078
▁tacka	-6079
▁taken	-6080
▁talas	-6081
▁talks	-6082
▁taxes	-6083
▁tears	-6084
▁teven	-6085
▁tiden	-6086
▁tidta	-6087
▁tills	-6088
▁timma	-6089
▁toast	-6090
▁torka	-6091
▁torra	-6092
▁trapp	-6093
▁treat	-6094
▁trott	-6095
▁truly	-6096
▁trång	-6097
▁tröja	-6098
▁tunga	-6099
▁tände	-6100
▁tänka	-6101
▁tävla	-6102
▁tåget	-6103
▁unrel	-6104
▁uppen	-6105
▁valde	-6106
▁vegan	-6107
▁vigil	-6108
▁vilar	-6109
▁vinet	-6110
▁voted	-6111
▁vuxit	-6112
▁växel	-6113
▁waved	-6114
▁wears	-6115
▁weren	-6116
▁wings	-6117
▁world	-6118
▁wrote	-6119
▁äckel	-6120
aithful	-6121
astated	-6122
belåten	-6123
ermined	-6124
fattade	-6125
flykter	-6126
förstod	-6127
iculate	-6128
iderade	-6129
isonous	-6130
jointed	-6131
klockan	-6132
lightly	-6133
märksam	-6134
mästare	-6135
nappade	-6136
nessjuk	-6137
olutely	-6138
opriate	-6139
ossible	-6140
platsen	-6141
pleased	-6142
pondent	-6143
ressade	-6144
stronom	-6145
ståndet	-6146
tervänd	-6147
yckling	-6148
ämmande	-6149
ästerut	-6150
ättning	-6151
▁Burken	-6152
▁Dörren	-6153
▁Frågan	-6154
▁German	-6155
▁Greece	-6156
▁Gråter	-6157
▁Horses	-6158
▁Hästar	-6159
▁Kaffet	-6160
▁Kanske	-6161
▁Katten	-6162
▁Kråkor	-6163
▁Louder	-6164
▁Njuter	-6165
▁Pojken	-6166
▁Radion	-6167
▁Really	-6168
▁Saturn	-6169
▁School	-6170
▁Tittar	-6171
▁Tornet	-6172
▁Toyota	-6173
▁Trodde	-6174
▁Tänker	-6175
▁Varsåg	-6176
▁Whales	-6177
▁admire	-6178
▁agreed	-6179
▁agrees	-6180
▁anlänt	-6181
▁annars	-6182
▁antikv	-6183
▁assist	-6184
▁asthma	-6185
▁autent	-6186
▁avfärd	-6187
▁bandet	-6188
▁barnen	-6189
▁betalt	-6190
▁biceps	-6191
▁bilden	-6192
▁boiled	-6193
▁bottle	-6194
▁brakes	-6195
▁breath	-6196
▁bright	-6197
▁brutal	-6198
▁bussen	-6199
▁bänken	-6200
▁början	-6201
▁candle	-6202
▁cannot	-6203
▁causes	-6204
▁caviar	-6205
▁chatty	-6206
▁circle	-6207
▁cirkel	-6208
▁cooked	-6209
▁coupon	-6210
▁coward	-6211
▁crafty	-6212
▁cranky	-6213
▁dammar	-6214
▁danced	-6215
▁deppig	-6216
▁design	-6217
▁disapp	-6218
▁distra	-6219
▁doftar	-6220
▁doften	-6221
▁dollar	-6222
▁dricks	-6223
▁dussin	-6224
▁enormt	-6225
▁exempt	-6226
▁exists	-6227
▁famous	-6228
▁fattas	-6229
▁festen	-6230
▁filled	-6231
▁filmer	-6232
▁filthy	-6233
▁finger	-6234
▁flight	-6235
▁flower	-6236
▁flyger	-6237
▁framme	-6238
▁fransk	-6239
▁frisör	-6240
▁frustr	-6241
▁frågan	-6242
▁fuktig	-6243
▁funkar	-6244
▁fuskar	-6245
▁fyllde	-6246
▁fyndig	-6247
▁färskt	-6248
▁förfär	-6249
▁förlät	-6250
▁första	-6251
▁galler	-6252
▁garlic	-6253
▁genius	-6254
▁giving	-6255
▁golvet	-6256
▁gotten	-6257
▁gravid	-6258
▁greedy	-6259
▁grejer	-6260
▁grävde	-6261
▁gömmer	-6262
▁haltar	-6263
▁hambur	-6264
▁handen	-6265
▁handvä	-6266
▁hanged	-6267
▁hattar	-6268
▁hemlös	-6269
▁heroes	-6270
▁hiking	-6271
▁hindra	-6272
▁hängde	-6273
▁hållet	-6274
▁hörsel	-6275
▁hövlig	-6276
▁ibland	-6277
▁idrott	-6278
▁igenom	-6279
▁ignore	-6280
▁ikväll	-6281
▁insult	-6282
▁interr	-6283
▁itches	-6284
▁jätteg	-6285
▁jätteh	-6286
▁jättet	-6287
▁kabuki	-6288
▁kaffet	-6289
▁kaviar	-6290
▁kepsar	-6291
▁kidnap	-6292
▁kokade	-6293
▁kommen	-6294
▁kompis	-6295
▁koppla	-6296
▁kvitto	-6297
▁ladder	-6298
▁lagade	-6299
▁laptop	-6300
▁leader	-6301
▁ledare	-6302
▁liksom	-6303
▁loudly	-6304
▁lovade	-6305
▁lovely	-6306
▁lurade	-6307
▁längre	-6308
▁låtsas	-6309
▁menace	-6310
▁missat	-6311
▁mjölka	-6312
▁movies	-6313
▁mäktig	-6314
▁märkte	-6315
▁målade	-6316
▁mållös	-6317
▁nephew	-6318
▁nicely	-6319
▁nockad	-6320
▁notice	-6321
▁nudist	-6322
▁närmre	-6323
▁offens	-6324
▁oliver	-6325
▁olives	-6326
▁ombord	-6327
▁ordbok	-6328
▁ordnar	-6329
▁orphan	-6330
▁others	-6331
▁packed	-6332
▁pagoda	-6333
▁phoned	-6334
▁photos	-6335
▁plowed	-6336
▁plugga	-6337
▁plöjde	-6338
▁pocket	-6339
▁porten	-6340
▁prayed	-6341
▁premon	-6342
▁påhitt	-6343
▁rabatt	-6344
▁ratten	-6345
▁reason	-6346
▁record	-6347
▁refund	-6348
▁regnar	-6349
▁result	-6350
▁return	-6351
▁rinner	-6352
▁rolled	-6353
▁ruined	-6354
▁rummet	-6355
▁rutten	-6356
▁ryckte	-6357
▁ryggen	-6358
▁räcker	-6359
▁rättat	-6360
▁scenen	-6361
▁seated	-6362
▁seldom	-6363
▁seriös	-6364
▁sextio	-6365
▁silent	-6366
▁silver	-6367
▁sister	-6368
▁skaffa	-6369
▁skedar	-6370
▁skrika	-6371
▁sleepy	-6372
▁slutar	-6373
▁slutat	-6374
▁smiles	-6375
▁smöret	-6376
▁snabba	-6377
▁snowed	-6378
▁snöade	-6379
▁soccer	-6380
▁sociop	-6381
▁socker	-6382
▁spoons	-6383
▁squash	-6384
▁staden	-6385
▁stairs	-6386
▁stiger	-6387
▁stingy	-6388
▁stolen	-6389
▁streck	-6390
▁strict	-6391
▁strunt	-6392
▁stryka	-6393
▁sträng	-6394
▁stuffy	-6395
▁system	-6396
▁sömnig	-6397
▁sörjer	-6398
▁tackar	-6399
▁taking	-6400
▁taller	-6401
▁texted	-6402
▁thirty	-6403
▁threat	-6404
▁tigers	-6405
▁tigrar	-6406
▁tittar	-6407
▁toilet	-6408
▁trasig	-6409
▁triang	-6410
▁trusts	-6411
▁tråkig	-6412
▁tröjan	-6413
▁tuggar	-6414
▁turist	-6415
▁uncons	-6416
▁undrar	-6417
▁utföra	-6418
▁utslag	-6419
▁vacker	-6420
▁vackra	-6421
▁verify	-6422
▁viktig	-6423
▁vilken	-6424
▁vingar	-6425
▁vinter	-6426
▁vitlök	-6427
▁vodkan	-6428
▁väckte	-6429
▁vädret	-6430
▁vätska	-6431
▁våning	-6432
▁walked	-6433
▁whisky	-6434
▁window	-6435
▁winter	-6436
▁worker	-6437
▁writes	-6438
▁yellow	-6439
▁äcklad	-6440
akassera	-6441
ccessful	-6442
ckslagen	-6443
ctionate	-6444
fortable	-6445
gångsrik	-6446
människa	-6447
ningsbok	-6448
ontented	-6449
rättavis	-6450
ståndare	-6451
trollera	-6452
▁Contact	-6453
▁Control	-6454
▁Dancing	-6455
▁Drömmer	-6456
▁Fantast	-6457
▁Ferrari	-6458
▁Firefox	-6459
▁Flickan	-6460
▁Grattis	-6461
▁Hittade	-6462
▁Kvinnor	-6463
▁Röstade	-6464
▁Shouldn	-6465
▁Sjunger	-6466
▁Skrämde	-6467
▁Snarkar	-6468
▁Spiders	-6469
▁Vattnet	-6470
▁Welcome	-6471
▁affären	-6472
▁akrobat	-6473
▁alltför	-6474
▁amazing	-6475
▁amusing	-6476
▁anpassa	-6477
▁answers	-6478
▁awkward	-6479
▁ballots	-6480
▁bargain	-6481
▁beatnik	-6482
▁begravd	-6483
▁betyder	-6484
▁björnar	-6485
▁blanket	-6486
▁blicken	-6487
▁bluffar	-6488
▁bothers	-6489
▁brinner	-6490
▁brukade	-6491
▁calling	-6492
▁chaotic	-6493
▁cheated	-6494
▁cheered	-6495
▁chicken	-6496
▁choklad	-6497
▁cleaned	-6498
▁climbed	-6499
▁confirm	-6500
▁contest	-6501
▁cookies	-6502
▁coughed	-6503
▁curious	-6504
▁dansade	-6505
▁decoded	-6506
▁deserve	-6507
▁devious	-6508
▁devoted	-6509
▁dimmigt	-6510
▁diploma	-6511
▁doubted	-6512
▁driving	-6513
▁drowned	-6514
▁dusting	-6515
▁enjoyed	-6516
▁ensamma	-6517
▁epileps	-6518
▁erbjuda	-6519
▁exercis	-6520
▁farligt	-6521
▁fattiga	-6522
▁finally	-6523
▁fingret	-6524
▁flaskan	-6525
▁flyttat	-6526
▁foolish	-6527
▁forgave	-6528
▁forgive	-6529
▁forward	-6530
▁fotsteg	-6531
▁förkyld	-6532
▁föräldr	-6533
▁generös	-6534
▁geväret	-6535
▁glanced	-6536
▁halsduk	-6537
▁hamnade	-6538
▁hamster	-6539
▁handika	-6540
▁handtag	-6541
▁haunted	-6542
▁heading	-6543
▁hemligt	-6544
▁hipster	-6545
▁hjältar	-6546
▁hostade	-6547
▁hurrade	-6548
▁husband	-6549
▁häftigt	-6550
▁hänsyns	-6551
▁härnäst	-6552
▁innebar	-6553
▁inomhus	-6554
▁insulin	-6555
▁intelle	-6556
▁japansk	-6557
▁justice	-6558
▁keeping	-6559
▁kidding	-6560
▁kinamat	-6561
▁kittlig	-6562
▁klippte	-6563
▁kysstes	-6564
▁lederna	-6565
▁likadan	-6566
▁limping	-6567
▁löpning	-6568
▁measure	-6569
▁mention	-6570
▁missade	-6571
▁muffins	-6572
▁musiker	-6573
▁mätaren	-6574
▁möjligt	-6575
▁mördade	-6576
▁mördare	-6577
▁neutral	-6578
▁ohyfsad	-6579
▁omöjlig	-6580
▁ordnade	-6581
▁orsakar	-6582
▁packade	-6583
▁painted	-6584
▁panting	-6585
▁partisk	-6586
▁perfect	-6587
▁picking	-6588
▁pinsamt	-6589
▁playing	-6590
▁pleaded	-6591
▁popcorn	-6592
▁populär	-6593
▁raining	-6594
▁rasande	-6595
▁reasons	-6596
▁regnade	-6597
▁revised	-6598
▁röstade	-6599
▁saknade	-6600
▁samvete	-6601
▁secrets	-6602
▁seminar	-6603
▁several	-6604
▁shifted	-6605
▁simmade	-6606
▁simning	-6607
▁sinking	-6608
▁sinnens	-6609
▁sjalett	-6610
▁skadats	-6611
▁skjuter	-6612
▁skratta	-6613
▁skäller	-6614
▁släpper	-6615
▁smoking	-6616
▁somnade	-6617
▁soporna	-6618
▁spillde	-6619
▁spinner	-6620
▁stammar	-6621
▁stannat	-6622
▁stollig	-6623
▁stuckit	-6624
▁stutter	-6625
▁ställde	-6626
▁stället	-6627
▁suspect	-6628
▁svimmat	-6629
▁sweated	-6630
▁sweater	-6631
▁teaches	-6632
▁tourist	-6633
▁trettio	-6634
▁trubbel	-6635
▁trumpet	-6636
▁träffad	-6637
▁träffar	-6638
▁träffat	-6639
▁tvekade	-6640
▁tydligt	-6641
▁tålamod	-6642
▁unhappy	-6643
▁unlucky	-6644
▁uppfatt	-6645
▁utanför	-6646
▁utsidan	-6647
▁vanligt	-6648
▁varnade	-6649
▁vattnet	-6650
▁villkor	-6651
▁vinkade	-6652
▁vittnen	-6653
▁väninna	-6654
▁vänster	-6655
▁vänstra	-6656
▁without	-6657
▁äpplena	-6658
▁återbud	-6659
▁övergav	-6660
oarkanten	-6661
ställning	-6662
▁Använder	-6663
▁Anything	-6664
▁Behärska	-6665
▁Buddhist	-6666
▁Continue	-6667
▁Exercise	-6668
▁Grekland	-6669
▁Sommaren	-6670
▁Spindlar	-6671
▁Träffade	-6672
▁admitted	-6673
▁alltihop	-6674
▁ambitiös	-6675
▁ansvarig	-6676
▁antiques	-6677
▁appalled	-6678
▁argument	-6679
▁arrested	-6680
▁astronom	-6681
▁atletisk	-6682
▁autistic	-6683
▁avfyrade	-6684
▁avlägsna	-6685
▁avskedad	-6686
▁babbling	-6687
▁backache	-6688
▁backward	-6689
▁begravde	-6690
▁belönade	-6691
▁berättar	-6692
▁berättel	-6693
▁beställt	-6694
▁beundrar	-6695
▁blinkade	-6696
▁bluffing	-6697
▁bättring	-6698
▁chaufför	-6699
▁choirboy	-6700
▁complain	-6701
▁deadline	-6702
▁demented	-6703
▁despises	-6704
▁detaljer	-6705
▁diplomat	-6706
▁disagree	-6707
▁diskreta	-6708
▁divorced	-6709
▁doorbell	-6710
▁dreadful	-6711
▁dreaming	-6712
▁drenched	-6713
▁effektiv	-6714
▁energisk	-6715
▁enjoying	-6716
▁escaping	-6717
▁fastnade	-6718
▁flickvän	-6719
▁flygplan	-6720
▁forgives	-6721
▁fotograf	-6722
▁freezing	-6723
▁främling	-6724
▁fördomar	-6725
▁förlåter	-6726
▁förolämp	-6727
▁försvann	-6728
▁grieving	-6729
▁harmless	-6730
▁homeless	-6731
▁homework	-6732
▁högljudd	-6733
▁högljutt	-6734
▁ignoring	-6735
▁illusion	-6736
▁immunity	-6737
▁impolite	-6738
▁insomnia	-6739
▁japanska	-6740
▁jättefin	-6741
▁kinesisk	-6742
▁klänning	-6743
▁liknande	-6744
▁lämpligt	-6745
▁lördagar	-6746
▁meningar	-6747
▁mistaken	-6748
▁musician	-6749
▁människa	-6750
▁mörkhyad	-6751
▁naglarna	-6752
▁nedanför	-6753
▁nonsense	-6754
▁omöjligt	-6755
▁oriktigt	-6756
▁orättvis	-6757
▁pacifist	-6758
▁painting	-6759
▁panicked	-6760
▁possible	-6761
▁prisoner	-6762
▁promised	-6763
▁punctual	-6764
▁radiolog	-6765
▁recently	-6766
▁rewarded	-6767
▁ruthless	-6768
▁rättvisa	-6769
▁rättvist	-6770
▁shooting	-6771
▁shopping	-6772
▁skaffade	-6773
▁skräpmat	-6774
▁skyldiga	-6775
▁slightly	-6776
▁sometime	-6777
▁spagetti	-6778
▁speaking	-6779
▁specifik	-6780
▁standing	-6781
▁stoppade	-6782
▁straight	-6783
▁stranger	-6784
▁strömmen	-6785
▁studying	-6786
▁surprise	-6787
▁säkerhet	-6788
▁ticklish	-6789
▁tilltron	-6790
▁together	-6791
▁träffats	-6792
▁tuggummi	-6793
▁tvilling	-6794
▁tvivlade	-6795
▁tämligen	-6796
▁tävlings	-6797
▁utmattad	-6798
▁verkligt	-6799
▁vigilant	-6800
▁västerut	-6801
▁watchful	-6802
▁överdrev	-6803
▁överkörd	-6804
▁överrask	-6805
▁Berättade	-6806
▁Breakfast	-6807
▁Christmas	-6808
▁Frukosten	-6809
▁Saturdays	-6810
▁Seriously	-6811
▁Välkommen	-6812
▁afternoon	-6813
▁anställde	-6814
▁applauded	-6815
▁arbetslös	-6816
▁attraktiv	-6817
▁avundsjuk	-6818
▁badgering	-6819
▁baklänges	-6820
▁beautiful	-6821
▁bothering	-6822
▁breathing	-6823
▁carefully	-6824
▁challenge	-6825
▁chocolate	-6826
▁classmate	-6827
▁collapsed	-6828
▁competent	-6829
▁concerned	-6830
▁conscious	-6831
▁contented	-6832
▁corrected	-6833
▁disgusted	-6834
▁dishonest	-6835
▁dödstrött	-6836
▁elefanter	-6837
▁elephants	-6838
▁embarrass	-6839
▁felaktigt	-6840
▁following	-6841
▁footsteps	-6842
▁fortsätta	-6843
▁fungerade	-6844
▁färgblind	-6845
▁försiktig	-6846
▁förvånade	-6847
▁gentleman	-6848
▁grönsaker	-6849
▁harassing	-6850
▁hesitated	-6851
▁horrified	-6852
▁ignorerar	-6853
▁imponerad	-6854
▁impressed	-6855
▁inkorrekt	-6856
▁instämmer	-6857
▁irriterad	-6858
▁jättefint	-6859
▁jättestor	-6860
▁kinesiska	-6861
▁klarvaken	-6862
▁klättrade	-6863
▁kraschade	-6864
▁listening	-6865
▁motivated	-6866
▁nightmare	-6867
▁oförskämt	-6868
▁olyckligt	-6869
▁orättvist	-6870
▁poisonous	-6871
▁policeman	-6872
▁quarreled	-6873
▁räkningar	-6874
▁satisfied	-6875
▁skridskor	-6876
▁spaghetti	-6877
▁tabletter	-6878
▁terrified	-6879
▁tillgiven	-6880
▁toaletten	-6881
▁trovärdig	-6882
▁träffades	-6883
▁tystlåten	-6884
▁unrelated	-6885
▁uppraggad	-6886
▁uppriktig	-6887
▁vansinnig	-6888
▁villrådig	-6889
▁vältränad	-6890
▁witnesses	-6891
▁Självklart	-6892
▁absolutely	-6893
▁allesamman	-6894
▁allvarligt	-6895
▁arresterad	-6896
▁articulate	-6897
▁attractive	-6898
▁besättning	-6899
▁despondent	-6900
▁determined	-6901
▁devastated	-6902
▁dictionary	-6903
▁displeased	-6904
▁disturbing	-6905
▁egentligen	-6906
▁fascinated	-6907
▁fortsätter	-6908
▁försiktigt	-6909
▁förskräckt	-6910
▁girlfriend	-6911
▁hemlighöll	-6912
▁illamående	-6913
▁impossible	-6914
▁klänningen	-6915
▁kontrollen	-6916
▁medvetslös	-6917
▁misslyckas	-6918
▁motivation	-6919
▁outrageous	-6920
▁questioned	-6921
▁sinnessjuk	-6922
▁skandalöst	-6923
▁skrämmande	-6924
▁successful	-6925
▁sömnlöshet	-6926
▁tillräknel	-6927
▁tillverkar	-6928
▁trakassera	-6929
▁trädgården	-6930
▁undantagen	-6931
▁unfaithful	-6932
▁uppmärksam	-6933
▁uppriktiga	-6934
▁utmaningar	-6935
▁vegetarian	-6936
▁Kontrollera	-6937
▁Självfallet	-6938
▁applåderade	-6939
▁appropriate	-6940
▁biljetterna	-6941
▁comfortable	-6942
▁exaggerated	-6943
▁fantastiskt	-6944
▁fascinerade	-6945
▁hemligheter	-6946
▁irriterande	-6947
▁jättemycket	-6948
▁karismatisk	-6949
▁meddelandet	-6950
▁meningslöst	-6951
▁missbelåten	-6952
▁missförstod	-6953
▁misslyckats	-6954
▁motbjudande	-6955
▁motståndare	-6956
▁pensionerad	-6957
▁premonition	-6958
▁responsible	-6959
▁sittplatser	-6960
▁tatueringen	-6961
▁tidtabellen	-6962
▁tillsammans	-6963
▁unconscious	-6964
▁affectionate	-6965
▁anteckningar	-6966
▁antikviteter	-6967
▁discontented	-6968
▁framgångsrik	-6969
▁förutfattade	-6970
▁misslyckades	-6971
▁ovanvåningen	-6972
▁skräckslagen	-6973
▁tillrättavis	-6974
▁undanflykter	-6975
▁verktygslåda	-6976
▁klasskamrater	-6977
▁klasskompisar	-6978
▁nedervåningen	-6979
▁anteckningsbok	-6980
▁trottoarkanten	-6981
cub	-6982
ego	-6983
höv	-6984
röv	-6985
axed	-6986
boat	-6987
bsol	-6988
båge	-6989
cuba	-6990
cued	-6991
elax	-6992
fsad	-6993
iösa	-6994
jörn	-6995
knik	-6996
knob	-6997
mäla	-6998
ploy	-6999
klam	-7000
rike	-7001
rutt	-7002
räns	-7003
sbär	-7004
scha	-7005
sues	-7006
synt	-7007
vacu	-7008
äkna	-7009
▁Ath	-7010
▁Ert	-7011
▁Ors	-7012
▁Swe	-7013
▁Väx	-7014
▁acr	-7015
▁vax	-7016
▁års	-7017
▁öbo	-7018
adrat	-7019
björn	-7020
börja	-7021
ciful	-7022
duken	-7023
falla	-7024
front	-7025
födde	-7026
gruva	-7027
huset	-7028
hyvel	-7029
iellt	-7030
irrel	-7031
jamas	-7032
jolen	-7033
jänar	-7034
kakor	-7035
kriva	-7036
loyal	-7037
ltbur	-7038
läcka	-7039
märkt	-7040
ograp	-7041
oints	-7042
raped	-7043
resan	-7044
rytan	-7045
rövad	-7046
sback	-7047
schat	-7048
skilt	-7049
snabb	-7050
svill	-7051
tygad	-7052
utton	-7053
uvert	-7054
viker	-7055
yblöt	-7056
yrtio	-7057
äknar	-7058
änsla	-7059
åsade	-7060
ödvin	-7061
öllop	-7062
övade	-7063
övlar	-7064
▁Apor	-7065
▁Bety	-7066
▁Blid	-7067
▁Comb	-7068
▁Cypr	-7069
▁Egyp	-7070
▁Laga	-7071
▁Meat	-7072
▁Plan	-7073
▁Speg	-7074
▁Våra	-7075
▁Work	-7076
▁bjöd	-7077
▁copy	-7078
▁etik	-7079
▁firm	-7080
▁fjol	-7081
▁flew	-7082
▁flex	-7083
▁gaze	-7084
▁hops	-7085
▁info	-7086
▁kedj	-7087
▁leks	-7088
▁mäta	-7089
▁norr	-7090
▁odöd	-7091
▁ohöv	-7092
▁pigs	-7093
▁rasp	-7094
▁roof	-7095
▁sald	-7096
▁sexy	-7097
▁sneg	-7098
▁solg	-7099
abil	-7100
glen	-7101
gård	-7102
känd	-7103
padd	-7104
rymm	-7105
▁Fön	-7106
▁mön	-7107
ktena	-7108
rymme	-7109
sarna	-7110
▁Ekor	-7111
▁Jury	-7112
▁gatu	-7113
▁grön	-7114
▁opin	-7115
▁pupp	-7116
▁späd	-7117
▁susp	-7118
▁sälj	-7119
▁tips	-7120
▁utsv	-7121
▁växa	-7122
▁webs	-7123
▁Ännu	-7124
▁äreg	-7125
acting	-7126
akanen	-7127
andmän	-7128
asögon	-7129
beredd	-7130
betald	-7131
bjuden	-7132
eldags	-7133
ephone	-7134
flytta	-7135
hetsad	-7136
hämtad	-7137
hämtar	-7138
ifties	-7139
iggled	-7140
incess	-7141
jetten	-7142
keppet	-7143
klamin	-7144
kupong	-7145
käftig	-7146
ldpadd	-7147
mailed	-7148
mained	-7149
nackad	-7150
ndskan	-7151
nickar	-7152
nstret	-7153
nuftig	-7154
olämpa	-7155
ongrat	-7156
ordran	-7157
ostran	-7158
ployed	-7159
pparat	-7160
pplena	-7161
ptions	-7162
reedom	-7163
rigued	-7164
sfulla	-7165
skalle	-7166
träffa	-7167
ttryck	-7168
uläret	-7169
untled	-7170
usiner	-7171
velope	-7172
verlap	-7173
vettig	-7174
virrad	-7175
yjamas	-7176
ykning	-7177
yktena	-7178
äddade	-7179
äspade	-7180
ådarna	-7181
åldern	-7182
årdare	-7183
▁Arabs	-7184
▁Blomm	-7185
▁Carry	-7186
▁Coola	-7187
▁Dessa	-7188
▁Egypt	-7189
▁Itali	-7190
▁Juryn	-7191
▁Kunde	-7192
▁Kämpa	-7193
▁March	-7194
▁Marry	-7195
▁Näsan	-7196
▁Order	-7197
▁Räkna	-7198
▁Scuba	-7199
▁Nej	-7200
▁lås	-7201
▁Brom	-7202
▁Forg	-7203
▁Kruk	-7204
▁Need	-7205
▁Next	-7206
▁samå	-7207
araget	-7208
teckna	-7209
useous	-7210
xlarna	-7211
änslig	-7212
▁Cover	-7213
▁Läser	-7214
▁Sedan	-7215
▁Skäms	-7216
▁Smell	-7217
▁Solve	-7218
▁Sorry	-7219
▁Strun	-7220
▁Suver	-7221
▁Swiss	-7222
▁Sådan	-7223
▁Tanka	-7224
▁Terap	-7225
▁Times	-7226
▁Träna	-7227
▁Vinka	-7228
▁Visst	-7229
▁aches	-7230
▁airpl	-7231
▁antog	-7232
▁aston	-7233
▁avgår	-7234
▁behov	-7235
▁birds	-7236
▁bites	-7237
▁bjuda	-7238
▁boots	-7239
▁bribe	-7240
▁båtar	-7241
▁böter	-7242
▁capta	-7243
▁citiz	-7244
▁colon	-7245
▁crowd	-7246
▁crude	-7247
▁descr	-7248
▁diced	-7249
▁dusty	-7250
▁earli	-7251
▁egens	-7252
▁evacu	-7253
▁faces	-7254
▁fader	-7255
▁falls	-7256
▁fegis	-7257
▁float	-7258
▁fluid	-7259
▁hippy	-7260
▁häfta	-7261
▁inbox	-7262
▁ineff	-7263
▁inkor	-7264
▁jokes	-7265
▁judge	-7266
▁kabel	-7267
▁kakan	-7268
▁knees	-7269
▁knäna	-7270
▁koden	-7271
▁kolat	-7272
▁kväva	-7273
▁kämpa	-7274
▁label	-7275
▁lands	-7276
▁limps	-7277
▁lydde	-7278
▁lånat	-7279
▁löpte	-7280
▁lösen	-7281
▁makes	-7282
▁märkt	-7283
▁mäter	-7284
▁nonch	-7285
▁nonpl	-7286
▁north	-7287
▁nådig	-7288
▁nålar	-7289
▁nöjda	-7290
▁oljud	-7291
▁oppos	-7292
▁oreal	-7293
▁oslag	-7294
▁ostad	-7295
▁pants	-7296
▁piece	-7297
▁posit	-7298
▁pumpa	-7299
ked	-7300
rec	-7301
driv	-7302
reci	-7303
rrit	-7304
ubbe	-7305
ubby	-7306
zipp	-7307
▁Jam	-7308
▁rul	-7309
▁rus	-7310
agked	-7311
alsar	-7312
ertal	-7313
ibals	-7314
neasy	-7315
ortal	-7316
riter	-7317
runda	-7318
ummet	-7319
▁Regl	-7320
▁Tjej	-7321
▁dise	-7322
▁frid	-7323
▁legs	-7324
▁trea	-7325
▁tumm	-7326
▁vacu	-7327
▁zipp	-7328
addrar	-7329
ammals	-7330
attare	-7331
böcker	-7332
halsar	-7333
ingual	-7334
uddist	-7335
writer	-7336
ögubbe	-7337
▁Irrit	-7338
▁Shark	-7339
▁absur	-7340
▁aside	-7341
▁brevl	-7342
▁cause	-7343
▁drumm	-7344
▁legal	-7345
▁loner	-7346
▁otrog	-7347
▁pumpk	-7348
▁puppy	-7349
▁races	-7350
▁rapid	-7351
▁revie	-7352
▁revol	-7353
▁ruler	-7354
▁rusar	-7355
▁rutin	-7356
▁ryggs	-7357
▁rådig	-7358
▁safer	-7359
▁saldo	-7360
▁scene	-7361
▁scoot	-7362
▁shaky	-7363
▁skämd	-7364
▁smutt	-7365
▁snubb	-7366
▁snävt	-7367
▁solid	-7368
▁split	-7369
▁spoon	-7370
▁stamg	-7371
▁strej	-7372
▁stygg	-7373
▁sugen	-7374
▁sängs	-7375
▁sätet	-7376
▁sådan	-7377
▁templ	-7378
▁threw	-7379
▁torrt	-7380
▁träna	-7381
▁twins	-7382
▁tyckt	-7383
▁unimp	-7384
▁unpre	-7385
▁utvil	-7386
▁vakna	-7387
▁vilda	-7388
▁vindr	-7389
▁vinds	-7390
▁växte	-7391
▁waxed	-7392
▁wheat	-7393
▁ängel	-7394
▁äppel	-7395
▁åsikt	-7396
agkedja	-7397
agsrätt	-7398
alified	-7399
glad	-7400
misk	-7401
ojal	-7402
uckl	-7403
▁Rod	-7404
actor	-7405
cknat	-7406
gande	-7407
nativ	-7408
ortig	-7409
▁Gråt	-7410
▁Snur	-7411
▁gold	-7412
▁grap	-7413
▁idel	-7414
actory	-7415
morgon	-7416
revlig	-7417
ucklan	-7418
uering	-7419
▁Flick	-7420
▁Flies	-7421
▁Förtj	-7422
▁andas	-7423
▁avoid	-7424
▁invän	-7425
▁målat	-7426
▁måsta	-7427
▁pluck	-7428
▁rains	-7429
▁revid	-7430
▁rolls	-7431
▁sagan	-7432
▁testa	-7433
andoned	-7434
armbåge	-7435
attbart	-7436
berries	-7437
cessary	-7438
dnackad	-7439
enheten	-7440
ethical	-7441
ffektiv	-7442
förbart	-7443
gligent	-7444
handtag	-7445
herries	-7446
hämtade	-7447
icapped	-7448
iderate	-7449
indlare	-7450
insessa	-7451
itarren	-7452
lasögon	-7453
ldgruva	-7454
låtligt	-7455
ondgård	-7456
onsider	-7457
ootball	-7458
oreansk	-7459
oundrel	-7460
quirrel	-7461
reciate	-7462
sighted	-7463
skallig	-7464
skompis	-7465
slöjade	-7466
spelare	-7467
språkig	-7468
stickan	-7469
stinate	-7470
stänker	-7471
svillig	-7472
talsjuk	-7473
tiverad	-7474
tsikten	-7475
ultured	-7476
verdriv	-7477
verlapp	-7478
vårdare	-7479
ändring	-7480
ännande	-7481
ärkning	-7482
åringar	-7483
▁Amerik	-7484
▁Ammoni	-7485
▁Anfall	-7486
▁Athens	-7487
▁Attans	-7488
▁Avslöj	-7489
▁Beslut	-7490
▁Blidka	-7491
▁Bromsa	-7492
▁Cyprus	-7493
▁Europe	-7494
▁Grinar	-7495
▁Hinner	-7496
▁Hästen	-7497
▁Kjolen	-7498
▁Klarar	-7499
höj	-7500
brår	-7501
dsla	-7502
limb	-7503
nize	-7504
shän	-7505
▁Inv	-7506
almon	-7507
järna	-7508
ksamt	-7509
ordbr	-7510
orize	-7511
räder	-7512
uggan	-7513
▁Folk	-7514
▁Hugg	-7515
▁Kopp	-7516
▁deck	-7517
▁elds	-7518
▁grab	-7519
▁grew	-7520
▁lent	-7521
▁lågt	-7522
▁otro	-7523
▁pity	-7524
almigt	-7525
amaged	-7526
förhöj	-7527
hamrad	-7528
ognize	-7529
ousins	-7530
pumpad	-7531
rebrår	-7532
räderi	-7533
ställa	-7534
ställd	-7535
▁Climb	-7536
▁Invol	-7537
▁baked	-7538
▁cream	-7539
▁eldsv	-7540
▁skick	-7541
▁skydd	-7542
▁snick	-7543
▁snuva	-7544
▁tease	-7545
▁tvill	-7546
▁vouch	-7547
antiskt	-7548
emorize	-7549
örebrår	-7550
▁Clocks	-7551
▁Koppen	-7552
▁Krukan	-7553
▁Kråkan	-7554
▁Käften	-7555
▁Köttet	-7556
▁Ladies	-7557
▁Lagade	-7558
▁Ljuger	-7559
▁Menade	-7560
▁Regler	-7561
▁Regnar	-7562
▁Ringde	-7563
▁Rodnar	-7564
▁Rummet	-7565
▁Rödvin	-7566
▁Search	-7567
▁Skicka	-7568
▁Slutet	-7569
▁Smaken	-7570
▁Snurra	-7571
▁Starta	-7572
▁Strump	-7573
▁Summer	-7574
▁Sådana	-7575
▁Tackar	-7576
▁Terapi	-7577
▁Tjejen	-7578
▁absurd	-7579
▁amerik	-7580
▁apkött	-7581
▁armbåg	-7582
▁asylum	-7583
▁avbröt	-7584
▁avunds	-7585
▁banana	-7586
▁bedrid	-7587
▁before	-7588
▁befäng	-7589
▁behand	-7590
▁bekväm	-7591
▁beredd	-7592
▁beundr	-7593
▁bidrar	-7594
▁bitten	-7595
▁bluffa	-7596
▁blödde	-7597
▁borsta	-7598
▁botten	-7599
dj	-7600
ela	-7601
efär	-7602
sinr	-7603
srek	-7604
värt	-7605
▁Adj	-7606
▁Avb	-7607
▁Mer	-7608
▁häf	-7609
▁oli	-7610
ageln	-7611
edian	-7612
fusig	-7613
ician	-7614
kappl	-7615
nslig	-7616
ology	-7617
olvet	-7618
riken	-7619
rough	-7620
ttack	-7621
▁Dela	-7622
▁Visp	-7623
▁bury	-7624
▁dump	-7625
▁gömt	-7626
▁hosp	-7627
▁söka	-7628
▁year	-7629
arslös	-7630
fyller	-7631
icient	-7632
ldsrek	-7633
nology	-7634
obbade	-7635
perier	-7636
▁Avbry	-7637
▁Destr	-7638
▁Vispa	-7639
▁blåsa	-7640
▁burst	-7641
▁häfte	-7642
▁lastb	-7643
▁olika	-7644
▁shots	-7645
▁snobb	-7646
▁songs	-7647
▁återl	-7648
ansvärt	-7649
fylleri	-7650
kapplöp	-7651
sinrikt	-7652
▁Adjust	-7653
▁Attack	-7654
▁Avbryt	-7655
▁Cheers	-7656
▁Golvet	-7657
▁Nageln	-7658
▁ballet	-7659
▁bottom	-7660
▁bricka	-7661
▁brukar	-7662
▁brutet	-7663
▁bråkar	-7664
▁bråket	-7665
▁bucket	-7666
▁burped	-7667
▁byggde	-7668
▁cheeks	-7669
▁chubby	-7670
▁cigarr	-7671
▁cities	-7672
▁colors	-7673
▁combed	-7674
▁contin	-7675
▁convin	-7676
▁creepy	-7677
▁debate	-7678
▁decent	-7679
▁dejtar	-7680
▁dejten	-7681
▁destin	-7682
▁dishes	-7683
▁diskut	-7684
▁diving	-7685
▁domare	-7686
▁domnat	-7687
▁dozing	-7688
▁drömma	-7689
▁dubbla	-7690
▁dubier	-7691
▁duckar	-7692
▁dumpad	-7693
▁dusted	-7694
▁eleven	-7695
▁empire	-7696
▁erbjöd	-7697
▁erkänt	-7698
▁etiskt	-7699
ned	-7700
blod	-7701
born	-7702
isen	-7703
upsk	-7704
wned	-7705
ykel	-7706
ådet	-7707
▁Mix	-7708
▁brö	-7709
▁dyg	-7710
▁jam	-7711
▁kil	-7712
▁occ	-7713
▁raz	-7714
awned	-7715
cykel	-7716
rådet	-7717
upted	-7718
utile	-7719
ävlar	-7720
åliga	-7721
▁Klag	-7722
▁Kliv	-7723
▁blus	-7724
▁dygn	-7725
▁högg	-7726
▁kand	-7727
▁kila	-7728
▁kräv	-7729
▁lawn	-7730
▁rubb	-7731
▁snöa	-7732
▁suit	-7733
▁torn	-7734
▁ursä	-7735
blings	-7736
ingade	-7737
jävlar	-7738
äsblod	-7739
▁Klaga	-7740
▁Klätt	-7741
▁banta	-7742
▁brödr	-7743
▁dukar	-7744
▁engag	-7745
▁girig	-7746
▁kärle	-7747
▁mänsk	-7748
▁mådde	-7749
▁occur	-7750
▁owner	-7751
▁razor	-7752
▁räkor	-7753
▁snöat	-7754
▁spara	-7755
▁stege	-7756
▁stove	-7757
▁tooth	-7758
▁tårar	-7759
iblings	-7760
▁France	-7761
▁Grytan	-7762
▁Spisen	-7763
▁advent	-7764
▁backup	-7765
▁examen	-7766
▁except	-7767
▁excuse	-7768
▁fegade	-7769
▁festar	-7770
▁fisken	-7771
▁flexib	-7772
▁floden	-7773
▁flygre	-7774
▁fooled	-7775
▁futile	-7776
▁fällde	-7777
▁fåglar	-7778
▁fångad	-7779
▁försov	-7780
▁genomv	-7781
▁genväg	-7782
▁glaset	-7783
▁glupsk	-7784
▁gripas	-7785
▁grälet	-7786
▁gräver	-7787
▁guests	-7788
▁gymmet	-7789
▁harmed	-7790
▁health	-7791
▁hiding	-7792
▁hospit	-7793
▁hotell	-7794
▁hyfsad	-7795
▁hämtad	-7796
▁imagin	-7797
▁inkorg	-7798
▁invite	-7799
▁yn	-7800
cial	-7801
▁Won	-7802
▁mix	-7803
▁ynk	-7804
▁öra	-7805
▁örf	-7806
▁örh	-7807
cials	-7808
iring	-7809
psade	-7810
raced	-7811
talig	-7812
ubbig	-7813
ymden	-7814
ödade	-7815
▁Tråk	-7816
▁coun	-7817
▁däck	-7818
▁loss	-7819
▁lära	-7820
▁rörm	-7821
▁sovr	-7822
▁vald	-7823
askade	-7824
pelare	-7825
▁Bless	-7826
▁Präst	-7827
▁candl	-7828
▁delta	-7829
▁meter	-7830
▁mixed	-7831
▁nätet	-7832
▁remar	-7833
▁trees	-7834
▁tysta	-7835
▁visit	-7836
▁weeks	-7837
▁ynkry	-7838
▁ägget	-7839
▁örfil	-7840
acation	-7841
married	-7842
▁Dödade	-7843
▁Rymden	-7844
▁Tråkar	-7845
▁firing	-7846
▁forced	-7847
▁giftig	-7848
▁halsen	-7849
▁ironic	-7850
▁issues	-7851
▁juggle	-7852
▁jumped	-7853
▁jurypl	-7854
▁jätted	-7855
▁jättek	-7856
▁kedjan	-7857
▁kedjer	-7858
▁kicked	-7859
▁kinden	-7860
▁klocka	-7861
▁klädde	-7862
▁kolade	-7863
▁kollar	-7864
▁kollat	-7865
▁kontor	-7866
▁korgen	-7867
▁korten	-7868
▁kräkte	-7869
▁kräver	-7870
▁kungen	-7871
▁kupong	-7872
▁kusten	-7873
▁kväver	-7874
▁kyssas	-7875
▁käften	-7876
▁labbet	-7877
▁lealös	-7878
▁lifted	-7879
▁livets	-7880
▁ljusen	-7881
▁loppor	-7882
▁lortig	-7883
▁lottad	-7884
▁lugnet	-7885
▁lämnat	-7886
▁läskig	-7887
▁läxade	-7888
▁medgav	-7889
▁milked	-7890
▁mirror	-7891
▁mocked	-7892
▁mordbr	-7893
▁motell	-7894
▁motstå	-7895
▁munter	-7896
▁mutton	-7897
▁målare	-7898
▁nervös	-7899
nib	-7900
pet	-7901
dröm	-7902
eser	-7903
opia	-7904
oudy	-7905
ävas	-7906
▁Ett	-7907
▁Fri	-7908
▁Haj	-7909
▁bug	-7910
bluff	-7911
bords	-7912
jejer	-7913
nibal	-7914
orthy	-7915
ottet	-7916
skinn	-7917
▁Frid	-7918
▁Gott	-7919
▁Pott	-7920
▁Shar	-7921
▁Warn	-7922
▁arga	-7923
▁hyra	-7924
▁kuls	-7925
▁känd	-7926
irrade	-7927
ottade	-7928
owered	-7929
petent	-7930
worthy	-7931
änksam	-7932
▁Frank	-7933
▁Hajar	-7934
▁Inget	-7935
▁Reser	-7936
▁Shame	-7937
▁Skänk	-7938
▁argue	-7939
▁blund	-7940
▁breed	-7941
▁brill	-7942
▁brott	-7943
▁delst	-7944
▁ditch	-7945
▁fanns	-7946
▁fleas	-7947
▁freed	-7948
▁kopia	-7949
▁kulsp	-7950
▁pears	-7951
▁röran	-7952
▁samma	-7953
▁skirt	-7954
bluffad	-7955
drömmar	-7956
jejerna	-7957
nibaler	-7958
skinned	-7959
▁Friday	-7960
▁Frihet	-7961
▁Goddag	-7962
▁Pottan	-7963
▁actors	-7964
▁avslag	-7965
▁brilli	-7966
▁cloudy	-7967
▁filten	-7968
▁gladly	-7969
▁hämnas	-7970
▁kvävas	-7971
▁nickar	-7972
▁norrut	-7973
▁nykter	-7974
▁oartig	-7975
▁ogjort	-7976
▁omtyck	-7977
▁orkade	-7978
▁osäker	-7979
▁overhe	-7980
▁oväder	-7981
▁papego	-7982
▁pastor	-7983
▁peppad	-7984
▁pillow	-7985
▁pilots	-7986
▁places	-7987
▁pojkar	-7988
▁provat	-7989
▁raised	-7990
▁rapade	-7991
▁rather	-7992
▁recens	-7993
▁remove	-7994
▁repeat	-7995
▁revans	-7996
▁review	-7997
▁ripped	-7998
▁robots	-7999
jen	-8000
osp	-8001
▁Fu	-8002
önad	-8003
önet	-8004
▁Hyr	-8005
▁Oro	-8006
▁Ros	-8007
adens	-8008
apnet	-8009
arnet	-8010
atens	-8011
ctors	-8012
erkar	-8013
kajen	-8014
landa	-8015
lönad	-8016
onser	-8017
ospår	-8018
owled	-8019
takta	-8020
unnet	-8021
änser	-8022
▁Oroa	-8023
▁hint	-8024
▁term	-8025
▁thro	-8026
ledare	-8027
otiskt	-8028
ternet	-8029
vapnet	-8030
ämtade	-8031
▁Fuska	-8032
▁Hasch	-8033
▁Kaffe	-8034
▁Kland	-8035
▁Skada	-8036
▁Skola	-8037
▁bedro	-8038
▁beger	-8039
▁depen	-8040
▁impat	-8041
▁slock	-8042
▁stack	-8043
▁terms	-8044
▁utled	-8045
avlönad	-8046
landade	-8047
owledge	-8048
▁Barnet	-8049
▁Blanda	-8050
▁Spiken	-8051
▁Stämde	-8052
▁Verkar	-8053
▁bollen	-8054
▁brödet	-8055
▁hemmet	-8056
▁konsth	-8057
▁krönet	-8058
▁kännet	-8059
▁nyckel	-8060
▁rotten	-8061
▁rubbet	-8062
▁ryggon	-8063
▁räddar	-8064
▁rånade	-8065
▁råttor	-8066
▁rödvin	-8067
▁rörmok	-8068
▁saknad	-8069
▁salmon	-8070
▁saltat	-8071
▁samlar	-8072
▁samman	-8073
▁samtal	-8074
▁schamp	-8075
▁search	-8076
▁season	-8077
▁segelb	-8078
▁seglen	-8079
▁settle	-8080
▁sheets	-8081
▁shrimp	-8082
▁sinned	-8083
▁sjalen	-8084
▁skugga	-8085
▁skärpt	-8086
▁slaget	-8087
▁slagsm	-8088
▁smarta	-8089
▁smokes	-8090
▁soppan	-8091
▁sovrum	-8092
▁sparar	-8093
▁spökar	-8094
▁starka	-8095
▁sticka	-8096
▁sticky	-8097
▁stilig	-8098
▁stinks	-8099
yx	-8100
acc	-8101
siz	-8102
deed	-8103
edde	-8104
gick	-8105
kjut	-8106
mast	-8107
oans	-8108
untr	-8109
uven	-8110
uvor	-8111
ådes	-8112
▁Jew	-8113
▁Såd	-8114
▁lyx	-8115
▁pad	-8116
▁tio	-8117
accin	-8118
ffled	-8119
icide	-8120
inkig	-8121
izare	-8122
klara	-8123
muntr	-8124
ommes	-8125
skott	-8126
unkar	-8127
xtade	-8128
ådska	-8129
▁Njöt	-8130
▁Salt	-8131
▁Seri	-8132
▁besl	-8133
▁dräp	-8134
▁nörd	-8135
▁slip	-8136
▁tänd	-8137
▁valt	-8138
▁växt	-8139
attern	-8140
eizare	-8141
kjuten	-8142
ommate	-8143
orming	-8144
sizing	-8145
urable	-8146
▁dräpa	-8147
▁nedre	-8148
▁nämna	-8149
▁regna	-8150
▁shalt	-8151
▁slave	-8152
nerable	-8153
ustling	-8154
weizare	-8155
▁Funkar	-8156
▁Jewish	-8157
▁Sådant	-8158
▁använd	-8159
▁ateist	-8160
▁doable	-8161
▁dockan	-8162
▁fullst	-8163
▁groans	-8164
▁indeed	-8165
▁kinkig	-8166
▁misund	-8167
▁pommes	-8168
▁pågick	-8169
▁regret	-8170
▁sjappa	-8171
▁skådes	-8172
▁småakt	-8173
▁staten	-8174
▁stolta	-8175
▁stoned	-8176
▁strike	-8177
▁strump	-8178
▁städer	-8179
▁större	-8180
▁suspic	-8181
▁svärdf	-8182
▁swordf	-8183
▁syndat	-8184
▁sättet	-8185
▁sårbar	-8186
▁söndag	-8187
▁tankar	-8188
▁taught	-8189
▁teknik	-8190
▁temple	-8191
▁termos	-8192
▁testar	-8193
▁torkar	-8194
▁toward	-8195
▁trygga	-8196
▁tryggt	-8197
▁tränar	-8198
▁tuppat	-8199
sö	-8200
sål	-8201
ects	-8202
oter	-8203
räkt	-8204
sålt	-8205
sökt	-8206
ukta	-8207
ussy	-8208
ålet	-8209
ailer	-8210
ensas	-8211
ggies	-8212
redde	-8213
ssyss	-8214
ussed	-8215
ärkte	-8216
▁Mail	-8217
▁Skål	-8218
▁cact	-8219
▁cart	-8220
▁drev	-8221
▁jogs	-8222
▁kvav	-8223
▁lagd	-8224
▁löne	-8225
▁onto	-8226
▁städ	-8227
▁vilj	-8228
▁vilt	-8229
edräkt	-8230
iderna	-8231
llects	-8232
tanker	-8233
▁Lukta	-8234
▁anstr	-8235
▁byggt	-8236
▁cable	-8237
▁disli	-8238
▁fussy	-8239
▁hjort	-8240
▁kvast	-8241
▁kvavt	-8242
▁lagat	-8243
▁matad	-8244
▁matte	-8245
▁otakt	-8246
▁river	-8247
▁spoke	-8248
▁stung	-8249
ensasäs	-8250
ouraged	-8251
ssyssla	-8252
▁Driver	-8253
▁Märkte	-8254
▁Remove	-8255
▁bakade	-8256
▁blinka	-8257
▁cactus	-8258
▁detail	-8259
▁dåliga	-8260
▁headed	-8261
▁kallas	-8262
▁relied	-8263
▁röstar	-8264
▁röstat	-8265
▁starkt	-8266
▁svarar	-8267
▁svaret	-8268
▁tragic	-8269
▁unpard	-8270
▁utsikt	-8271
▁vaccin	-8272
▁vacuum	-8273
▁vaksam	-8274
▁vaktar	-8275
▁vandra	-8276
▁vapnet	-8277
▁videon	-8278
▁viljes	-8279
▁visade	-8280
▁vunnit	-8281
▁winked	-8282
▁writer	-8283
▁yawned	-8284
▁ytliga	-8285
▁ägaren	-8286
▁ärliga	-8287
▁årsdag	-8288
akuering	-8289
annkakor	-8290
arbetade	-8291
arbetare	-8292
astående	-8293
beatable	-8294
centrera	-8295
chnology	-8296
emestern	-8297
employed	-8298
flykting	-8299
una	-8300
▁Dö	-8301
▁Sy	-8302
dbar	-8303
kret	-8304
lass	-8305
slad	-8306
slan	-8307
smat	-8308
▁byx	-8309
cerar	-8310
frisk	-8311
jdbar	-8312
judik	-8313
ödvän	-8314
▁Sylt	-8315
▁bakj	-8316
▁begå	-8317
▁deje	-8318
▁farm	-8319
▁lead	-8320
▁sina	-8321
▁wedd	-8322
▁wept	-8323
icerad	-8324
kreter	-8325
lasses	-8326
ucerar	-8327
▁bakar	-8328
▁begär	-8329
▁begåv	-8330
▁bruna	-8331
▁byxor	-8332
▁crack	-8333
▁engin	-8334
▁foton	-8335
▁mayor	-8336
▁neråt	-8337
▁rörig	-8338
▁skatt	-8339
▁stapl	-8340
▁walks	-8341
hejdbar	-8342
judikat	-8343
skattar	-8344
▁Behave	-8345
▁beggar	-8346
▁bollar	-8347
▁faking	-8348
▁fights	-8349
▁jätter	-8350
▁lediga	-8351
▁majsen	-8352
▁nödvän	-8353
▁oförar	-8354
▁served	-8355
▁utsvul	-8356
▁vetter	-8357
▁väljer	-8358
funderad	-8359
gruntled	-8360
gångsför	-8361
hållande	-8362
ificerad	-8363
ilingual	-8364
kademisk	-8365
korligen	-8366
ldpaddor	-8367
liggande	-8368
ltburken	-8369
nderbart	-8370
ningarna	-8371
oducerar	-8372
ographer	-8373
otionera	-8374
quirrels	-8375
skrapade	-8376
skräckta	-8377
smästare	-8378
ternativ	-8379
velation	-8380
ycklarna	-8381
ärningen	-8382
▁Använde	-8383
▁Anybody	-8384
▁Arbetar	-8385
▁Avslöja	-8386
▁Bananas	-8387
▁Betyder	-8388
▁Blommor	-8389
▁Bucklan	-8390
▁Chicken	-8391
▁Christi	-8392
▁Doctors	-8393
▁Egypten	-8394
▁Ekorrar	-8395
▁Explain	-8396
▁Flowers	-8397
▁Forgive	-8398
▁Frågade	-8399
abl	-8400
cne	-8401
lät	-8402
ubl	-8403
▁råk	-8404
ables	-8405
adian	-8406
apten	-8407
ariga	-8408
iften	-8409
perat	-8410
stood	-8411
uften	-8412
umber	-8413
ushed	-8414
usual	-8415
▁Aten	-8416
▁Publ	-8417
▁acne	-8418
▁askk	-8419
▁dägg	-8420
▁höga	-8421
▁modf	-8422
▁nerd	-8423
▁pojk	-8424
▁saga	-8425
▁sänt	-8426
giften	-8427
täckte	-8428
▁Betal	-8429
▁Några	-8430
▁ansåg	-8431
▁autis	-8432
▁crime	-8433
▁däggd	-8434
▁falla	-8435
▁förtv	-8436
▁grått	-8437
▁krist	-8438
▁latin	-8439
▁patet	-8440
▁penny	-8441
▁resig	-8442
▁råkat	-8443
▁skägg	-8444
▁väder	-8445
aptenen	-8446
erstood	-8447
ooperat	-8448
▁Förlät	-8449
▁Luften	-8450
▁Simmar	-8451
▁autism	-8452
▁belong	-8453
▁highly	-8454
▁livlig	-8455
▁nariga	-8456
▁risken	-8457
▁skämta	-8458
▁thinks	-8459
▁Förstod	-8460
▁Förstår	-8461
▁Förstör	-8462
▁Förvara	-8463
▁Garaget	-8464
▁Granska	-8465
▁Jobbade	-8466
▁Justera	-8467
▁Klockor	-8468
▁Klättra	-8469
▁Kunskap	-8470
▁Lighten	-8471
▁Mjölken	-8472
▁Mondays	-8473
▁Ondskan	-8474
▁Orsaken	-8475
▁Perfect	-8476
▁Perfekt	-8477
▁Protect	-8478
▁Provade	-8479
▁Prästen	-8480
▁Påbörja	-8481
▁Riktiga	-8482
▁Rosorna	-8483
▁Ryktena	-8484
▁Saknade	-8485
▁Saltade	-8486
▁Seriöst	-8487
▁Sharpen	-8488
▁Sjunker	-8489
▁Skeppet	-8490
▁Skyller	-8491
▁Skämtar	-8492
▁Slappna	-8493
▁Spegeln	-8494
▁Strunta	-8495
▁Therapy	-8496
▁admired	-8497
▁adopted	-8498
▁airport	-8499
fys	-8500
▁fn	-8501
börj	-8502
fash	-8503
keys	-8504
reta	-8505
terg	-8506
▁Boy	-8507
▁Kys	-8508
▁ads	-8509
▁sök	-8510
▁unw	-8511
aktus	-8512
istry	-8513
kraut	-8514
orean	-8515
terad	-8516
tergå	-8517
trakt	-8518
urage	-8519
visad	-8520
älter	-8521
årtan	-8522
▁Hårt	-8523
▁Lite	-8524
▁bens	-8525
▁bite	-8526
▁cozy	-8527
▁dugg	-8528
▁elän	-8529
▁gubb	-8530
▁half	-8531
▁kört	-8532
▁mars	-8533
▁mena	-8534
▁rash	-8535
edible	-8536
ildren	-8537
vision	-8538
▁Smile	-8539
▁Space	-8540
▁baren	-8541
▁dived	-8542
▁märke	-8543
▁slakt	-8544
▁styck	-8545
började	-8546
elysten	-8547
emistry	-8548
erkraut	-8549
evision	-8550
fashion	-8551
irdress	-8552
▁Korean	-8553
▁Kysste	-8554
▁Mjölka	-8555
▁Streta	-8556
▁Things	-8557
▁adress	-8558
▁bensin	-8559
▁delade	-8560
▁flyter	-8561
▁genial	-8562
▁gubbar	-8563
▁kaktus	-8564
▁konfys	-8565
▁kurage	-8566
▁mördad	-8567
▁självm	-8568
▁skedde	-8569
▁sparka	-8570
▁spider	-8571
▁throat	-8572
▁tårtan	-8573
▁unreal	-8574
▁unwind	-8575
▁väntat	-8576
▁överdr	-8577
uerkraut	-8578
▁Monkeys	-8579
▁against	-8580
▁allowed	-8581
▁andades	-8582
▁anfalla	-8583
▁anlände	-8584
▁använde	-8585
▁används	-8586
▁askkopp	-8587
▁avvisad	-8588
▁awfully	-8589
▁axlarna	-8590
▁babblar	-8591
▁baddare	-8592
▁baffled	-8593
▁bakjour	-8594
▁bedroom	-8595
▁befängt	-8596
▁begräns	-8597
▁begäran	-8598
▁begåvad	-8599
mb	-8600
ddu	-8601
kla	-8602
ney	-8603
tur	-8604
krar	-8605
mbre	-8606
ords	-8607
pany	-8608
plik	-8609
▁Hos	-8610
ckord	-8611
eared	-8612
ended	-8613
imman	-8614
issla	-8615
ordna	-8616
orney	-8617
▁Milk	-8618
▁Wood	-8619
▁dire	-8620
▁fien	-8621
▁gaug	-8622
▁klad	-8623
▁klag	-8624
▁mjuk	-8625
▁reta	-8626
▁tigg	-8627
ddress	-8628
dduken	-8629
elting	-8630
etspen	-8631
krarna	-8632
ompany	-8633
▁Också	-8634
▁Words	-8635
▁chore	-8636
▁cykla	-8637
▁dilig	-8638
▁frite	-8639
▁gauge	-8640
▁hacka	-8641
▁klack	-8642
▁kland	-8643
▁omtum	-8644
▁react	-8645
▁tells	-8646
▁umbre	-8647
etended	-8648
ärskilt	-8649
▁Dimman	-8650
▁ackord	-8651
▁dansar	-8652
▁denied	-8653
▁direct	-8654
▁framed	-8655
▁frites	-8656
▁handla	-8657
▁klagom	-8658
▁lättat	-8659
▁parent	-8660
▁provar	-8661
▁replik	-8662
▁simtur	-8663
▁vissla	-8664
etspenna	-8665
▁address	-8666
▁anordna	-8667
▁bekanta	-8668
▁bekvämt	-8669
▁believa	-8670
▁belåtna	-8671
▁benägen	-8672
▁besläkt	-8673
▁bestämd	-8674
▁besvära	-8675
▁betedde	-8676
▁biljett	-8677
▁blinked	-8678
▁blomman	-8679
▁bortför	-8680
▁brådska	-8681
▁bråkade	-8682
▁bröllop	-8683
▁buddist	-8684
▁burarna	-8685
▁bäddade	-8686
▁candlel	-8687
▁candles	-8688
▁carpent	-8689
▁carpool	-8690
▁changes	-8691
▁chansar	-8692
▁chapped	-8693
▁charmig	-8694
▁chewing	-8695
▁clearly	-8696
▁command	-8697
▁corners	-8698
▁cowards	-8699
few	-8700
itch	-8701
oked	-8702
okus	-8703
öjet	-8704
▁Höj	-8705
▁Röj	-8706
▁fås	-8707
▁uns	-8708
ammet	-8709
arrar	-8710
esten	-8711
issue	-8712
ämrar	-8713
▁Fish	-8714
▁bets	-8715
▁duns	-8716
▁hett	-8717
▁kamm	-8718
▁redu	-8719
▁speg	-8720
▁takt	-8721
ammans	-8722
anging	-8723
atives	-8724
ingrar	-8725
revent	-8726
ångrar	-8727
▁Absol	-8728
▁Cyper	-8729
▁Nöjet	-8730
▁andel	-8731
▁butch	-8732
▁fined	-8733
▁fokus	-8734
▁onion	-8735
▁photo	-8736
▁stubb	-8737
▁vägra	-8738
otograf	-8739
▁Cypern	-8740
▁Hundar	-8741
▁Skämta	-8742
▁bigger	-8743
▁curfew	-8744
▁färger	-8745
▁grapes	-8746
▁helgon	-8747
▁jämrar	-8748
▁pesten	-8749
▁pratas	-8750
▁smoked	-8751
▁switch	-8752
▁talang	-8753
▁tissue	-8754
▁unsure	-8755
▁ångrar	-8756
▁Absolut	-8757
▁Plikten	-8758
▁damaged	-8759
▁dammade	-8760
▁dammigt	-8761
▁deppiga	-8762
▁depress	-8763
▁details	-8764
▁disease	-8765
▁dislike	-8766
▁domnade	-8767
▁driftig	-8768
▁drivers	-8769
▁drugged	-8770
▁drummel	-8771
▁dubbelt	-8772
▁dubious	-8773
▁earlier	-8774
▁earring	-8775
▁eländig	-8776
▁enemies	-8777
▁engines	-8778
▁escapes	-8779
▁ethical	-8780
▁evening	-8781
▁failure	-8782
▁fastnat	-8783
▁fattade	-8784
▁fiender	-8785
▁fifties	-8786
▁firemen	-8787
▁flertal	-8788
▁flingor	-8789
▁fläcken	-8790
▁fläkten	-8791
▁flämtar	-8792
▁flåsade	-8793
▁freedom	-8794
▁fräknar	-8795
▁förblev	-8796
▁företag	-8797
▁förklar	-8798
▁förlåta	-8799
bit	-8800
sig	-8801
sög	-8802
öga	-8803
▁åk	-8804
arva	-8805
ersu	-8806
ersö	-8807
iket	-8808
lera	-8809
reli	-8810
saff	-8811
varg	-8812
ängd	-8813
▁abh	-8814
▁err	-8815
▁fäl	-8816
▁täl	-8817
▁utg	-8818
alska	-8819
ayers	-8820
mälde	-8821
quest	-8822
retch	-8823
signe	-8824
åttor	-8825
▁Skär	-8826
▁Smak	-8827
▁Vårt	-8828
▁döva	-8829
▁flit	-8830
▁flug	-8831
▁fält	-8832
▁hisp	-8833
▁häng	-8834
▁matt	-8835
▁mish	-8836
▁swam	-8837
▁sysk	-8838
▁vres	-8839
annade	-8840
appade	-8841
ersöka	-8842
payers	-8843
saffär	-8844
urnade	-8845
▁Skaka	-8846
▁Skärp	-8847
▁abhor	-8848
▁diket	-8849
▁emble	-8850
▁flers	-8851
▁fluga	-8852
▁freck	-8853
▁habit	-8854
▁hundv	-8855
▁larva	-8856
▁numer	-8857
▁persu	-8858
▁resan	-8859
▁röker	-8860
▁score	-8861
▁skrik	-8862
▁stare	-8863
▁third	-8864
▁tälta	-8865
▁utant	-8866
▁utgör	-8867
anmälde	-8868
onglera	-8869
varligt	-8870
▁Aldrig	-8871
▁Råttor	-8872
▁doubts	-8873
▁emblem	-8874
▁falska	-8875
▁faster	-8876
▁flitig	-8877
▁forska	-8878
▁fältet	-8879
▁hispig	-8880
▁köpare	-8881
▁mishap	-8882
▁numera	-8883
▁saknat	-8884
▁stängd	-8885
▁syskon	-8886
▁unreli	-8887
▁varade	-8888
▁vaxade	-8889
▁vresig	-8890
▁ynkryg	-8891
▁Besvara	-8892
▁Fattade	-8893
▁Smaklig	-8894
▁avgjort	-8895
▁country	-8896
▁dammsög	-8897
▁fishing	-8898
▁förstör	-8899
pir	-8900
uys	-8901
vek	-8902
lder	-8903
oard	-8904
▁Eld	-8905
▁Mom	-8906
agers	-8907
arded	-8908
assen	-8909
erten	-8910
ivide	-8911
pirin	-8912
träff	-8913
▁Cats	-8914
▁Guys	-8915
▁Pass	-8916
▁Rats	-8917
▁Slog	-8918
▁Väss	-8919
▁Yolk	-8920
▁cond	-8921
▁kron	-8922
▁rats	-8923
▁rush	-8924
▁rött	-8925
▁slav	-8926
▁svek	-8927
▁undo	-8928
orated	-8929
▁Vässa	-8930
▁Yolks	-8931
▁boats	-8932
▁funer	-8933
▁saken	-8934
▁shamp	-8935
▁sista	-8936
▁ålder	-8937
corated	-8938
enagers	-8939
träffen	-8940
ulation	-8941
▁Divide	-8942
▁People	-8943
▁aboard	-8944
▁cheats	-8945
▁commer	-8946
▁förhör	-8947
▁hästen	-8948
▁kronan	-8949
▁ledsna	-8950
▁office	-8951
▁rättfr	-8952
ulations	-8953
▁alerten	-8954
▁alltsam	-8955
▁aspirin	-8956
▁bearded	-8957
▁disabil	-8958
▁distant	-8959
▁funeral	-8960
▁förhöra	-8961
▁förtviv	-8962
▁förökar	-8963
▁giftigt	-8964
▁giggled	-8965
▁glasöga	-8966
▁glänser	-8967
▁grinden	-8968
▁grälade	-8969
▁guessed	-8970
▁hailing	-8971
▁hajarna	-8972
▁haltade	-8973
▁hatched	-8974
▁hemläng	-8975
▁himlade	-8976
▁history	-8977
▁hundval	-8978
▁hurried	-8979
▁hälften	-8980
▁hämtade	-8981
▁idioter	-8982
▁ihåliga	-8983
▁illojal	-8984
▁imagine	-8985
▁imorgon	-8986
▁influen	-8987
▁inredde	-8988
▁insects	-8989
▁invoice	-8990
▁invända	-8991
▁ironisk	-8992
▁japaner	-8993
▁jetplan	-8994
▁jättedå	-8995
▁jättetr	-8996
▁kammade	-8997
▁kaniner	-8998
▁kidnapp	-8999
kne	-9000
ömd	-9001
ansy	-9002
cour	-9003
host	-9004
ikta	-9005
inne	-9006
kost	-9007
llon	-9008
nics	-9009
time	-9010
äsen	-9011
▁Spö	-9012
▁ago	-9013
▁kök	-9014
▁scr	-9015
▁sms	-9016
elnad	-9017
hosts	-9018
icket	-9019
juice	-9020
jäsen	-9021
oller	-9022
udisk	-9023
▁Dans	-9024
▁Fisk	-9025
▁Kann	-9026
▁akne	-9027
▁elva	-9028
▁hold	-9029
▁låga	-9030
▁mock	-9031
▁pear	-9032
▁post	-9033
▁reli	-9034
▁skry	-9035
▁tong	-9036
cedent	-9037
courag	-9038
efonen	-9039
icnics	-9040
sfullt	-9041
▁Sikta	-9042
▁chord	-9043
▁hours	-9044
▁knuff	-9045
▁plock	-9046
▁skaka	-9047
▁skytt	-9048
▁stiff	-9049
▁trips	-9050
ansyska	-9051
▁Dansar	-9052
▁Ghosts	-9053
▁Kannan	-9054
▁Spöken	-9055
▁Ticket	-9056
▁avoids	-9057
▁berömd	-9058
▁frihet	-9059
▁getost	-9060
▁hallon	-9061
▁holler	-9062
▁härska	-9063
▁judisk	-9064
▁moving	-9065
▁museer	-9066
▁pjäsen	-9067
▁skryta	-9068
▁smells	-9069
▁tongue	-9070
elefonen	-9071
▁Lyssnar	-9072
▁bedtime	-9073
▁complic	-9074
▁digging	-9075
▁därinne	-9076
▁frukost	-9077
▁fuskade	-9078
▁förneka	-9079
▁hackade	-9080
▁hushåll	-9081
▁klackar	-9082
▁kladdig	-9083
▁klassen	-9084
▁knarrar	-9085
▁knäcken	-9086
▁knäckte	-9087
▁komiker	-9088
▁kommand	-9089
▁komplic	-9090
▁kontant	-9091
▁korkade	-9092
▁kristen	-9093
▁kroppar	-9094
▁kroppen	-9095
▁kräktes	-9096
▁kusiner	-9097
▁kvasten	-9098
▁kvitton	-9099
xa	-9100
lly	-9101
▁Ol	-9102
▁iv	-9103
goss	-9104
omer	-9105
umet	-9106
älld	-9107
ästa	-9108
▁Och	-9109
▁Oil	-9110
▁Pan	-9111
▁feb	-9112
▁ros	-9113
▁tie	-9114
▁utp	-9115
dable	-9116
ettet	-9117
gosse	-9118
icate	-9119
ledig	-9120
state	-9121
tally	-9122
urous	-9123
ången	-9124
▁Duty	-9125
▁Gift	-9126
▁Olja	-9127
▁Panc	-9128
▁fink	-9129
▁häxa	-9130
▁quot	-9131
▁racc	-9132
▁smär	-9133
▁snob	-9134
▁vänd	-9135
antera	-9136
atumet	-9137
edient	-9138
wesome	-9139
▁Nästa	-9140
▁Rules	-9141
▁blink	-9142
▁comic	-9143
▁forty	-9144
▁fotot	-9145
▁fries	-9146
▁gissa	-9147
▁ivrig	-9148
▁plate	-9149
▁roses	-9150
▁rösta	-9151
▁serie	-9152
▁språk	-9153
▁state	-9154
▁älska	-9155
ustomer	-9156
▁febrig	-9157
▁jobbat	-9158
▁rollen	-9159
▁smärta	-9160
▁svarta	-9161
▁tången	-9162
▁upprör	-9163
▁vettet	-9164
▁värkte	-9165
obedient	-9166
▁Awesome	-9167
▁Dykning	-9168
▁datumet	-9169
▁fortare	-9170
▁hantera	-9171
▁hurting	-9172
▁jobbade	-9173
▁knubbig	-9174
▁kvällen	-9175
▁känslan	-9176
▁lagligt	-9177
▁lasagna	-9178
▁lasagne	-9179
▁lastbil	-9180
▁lemonad	-9181
▁lessons	-9182
▁likable	-9183
▁läraren	-9184
▁läxorna	-9185
▁löjligt	-9186
▁maktlös	-9187
▁mammals	-9188
▁manners	-9189
▁matchen	-9190
▁matters	-9191
▁melting	-9192
▁messade	-9193
▁minskar	-9194
▁mirrors	-9195
▁misstän	-9196
▁mjölkar	-9197
▁mobbade	-9198
▁mocking	-9199
agn	-9200
bey	-9201
gla	-9202
quer	-9203
udde	-9204
vagn	-9205
vice	-9206
ötte	-9207
▁Red	-9208
▁hud	-9209
▁lax	-9210
beyed	-9211
kends	-9212
opped	-9213
segla	-9214
talas	-9215
ägger	-9216
ärlek	-9217
▁Krig	-9218
▁Wake	-9219
▁biln	-9220
▁bost	-9221
▁fiol	-9222
▁gray	-9223
▁gris	-9224
▁mult	-9225
▁nybl	-9226
▁slag	-9227
▁vete	-9228
▁wool	-9229
▁Äger	-9230
ekends	-9231
gjorde	-9232
ullied	-9233
ungrig	-9234
vicest	-9235
äcktes	-9236
▁Visit	-9237
▁backp	-9238
▁brast	-9239
▁brown	-9240
▁cares	-9241
▁grate	-9242
▁hotad	-9243
▁kudde	-9244
▁price	-9245
▁shake	-9246
▁skott	-9247
▁smala	-9248
▁vetat	-9249
förande	-9250
▁Kärlek	-9251
▁Lägger	-9252
▁allena	-9253
▁bilför	-9254
▁bostad	-9255
▁braked	-9256
▁obeyed	-9257
▁rumors	-9258
▁shaves	-9259
▁specie	-9260
▁stötte	-9261
▁ticket	-9262
▁Dricker	-9263
▁beställ	-9264
▁bullied	-9265
▁conquer	-9266
▁dropped	-9267
▁hearing	-9268
▁husvagn	-9269
▁härligt	-9270
▁museums	-9271
▁nervous	-9272
▁nonchal	-9273
▁närmast	-9274
▁oartiga	-9275
▁odödlig	-9276
▁ogillar	-9277
▁ohövlig	-9278
▁området	-9279
▁omtyckt	-9280
▁ondskan	-9281
▁opinion	-9282
▁opposed	-9283
▁options	-9284
▁orsaken	-9285
▁ostadig	-9286
▁otrogen	-9287
▁otrolig	-9288
▁pajamas	-9289
▁paradis	-9290
▁parties	-9291
▁pattern	-9292
▁picnics	-9293
▁piloter	-9294
▁planter	-9295
▁plastic	-9296
▁platser	-9297
▁pluggar	-9298
▁plumber	-9299
uti	-9300
▁öv	-9301
ggen	-9302
ifle	-9303
ifte	-9304
koll	-9305
mber	-9306
▁Sök	-9307
▁ski	-9308
▁sor	-9309
▁öst	-9310
arted	-9311
inker	-9312
kligt	-9313
ktion	-9314
offee	-9315
oligt	-9316
relev	-9317
union	-9318
ustet	-9319
ökigt	-9320
▁Båda	-9321
▁Dadd	-9322
▁Flug	-9323
▁deli	-9324
▁fela	-9325
▁jobs	-9326
▁rull	-9327
▁sorg	-9328
▁sval	-9329
▁tend	-9330
▁övre	-9331
anning	-9332
essert	-9333
lysten	-9334
otligt	-9335
ussade	-9336
▁Daddy	-9337
▁Gifte	-9338
▁Start	-9339
▁agera	-9340
▁cheat	-9341
▁eight	-9342
▁hotel	-9343
▁inuti	-9344
▁rifle	-9345
▁saint	-9346
▁sings	-9347
▁sjukt	-9348
▁skull	-9349
▁upptr	-9350
▁weary	-9351
▁Äggen	-9352
andring	-9353
hearted	-9354
istoria	-9355
kollade	-9356
ktioner	-9357
sanning	-9358
▁Blunda	-9359
▁Coffee	-9360
▁Flugor	-9361
▁Kusten	-9362
▁fredag	-9363
▁fright	-9364
▁geting	-9365
▁lögner	-9366
▁member	-9367
▁rädsla	-9368
▁squeak	-9369
▁weight	-9370
▁wouldn	-9371
relevant	-9372
▁Pussade	-9373
▁barking	-9374
▁brustet	-9375
▁crushed	-9376
▁deliber	-9377
▁dessert	-9378
▁diskade	-9379
▁drömmer	-9380
▁farliga	-9381
▁gevären	-9382
▁happens	-9383
▁kännete	-9384
▁poliser	-9385
▁politik	-9386
▁positiv	-9387
▁possess	-9388
▁pratsam	-9389
▁prevent	-9390
▁priests	-9391
▁program	-9392
▁prophet	-9393
▁präster	-9394
▁pumpkin	-9395
▁pyjamas	-9396
▁påkarna	-9397
▁påtryck	-9398
▁quietly	-9399
api	-9400
fam	-9401
jul	-9402
oln	-9403
agar	-9404
orch	-9405
ägge	-9406
▁fog	-9407
▁lun	-9408
▁sip	-9409
▁sly	-9410
▁vul	-9411
astad	-9412
derar	-9413
inken	-9414
istle	-9415
julet	-9416
saker	-9417
unday	-9418
▁List	-9419
▁Reta	-9420
▁Tast	-9421
▁bait	-9422
▁bund	-9423
▁heta	-9424
▁kund	-9425
▁luns	-9426
▁moln	-9427
▁owns	-9428
▁rast	-9429
▁rund	-9430
▁surk	-9431
▁wood	-9432
undays	-9433
▁Bägge	-9434
▁biter	-9435
▁calls	-9436
▁mörka	-9437
▁omfam	-9438
▁porch	-9439
▁schem	-9440
▁smalt	-9441
▁sweet	-9442
▁trist	-9443
ationen	-9444
▁Listan	-9445
▁Tastes	-9446
▁Tjänar	-9447
▁bundle	-9448
▁förväg	-9449
▁hinken	-9450
▁hinner	-9451
▁hjulet	-9452
▁kastad	-9453
▁making	-9454
▁scored	-9455
▁surkål	-9456
▁talent	-9457
▁talför	-9458
▁terapi	-9459
▁wonder	-9460
standing	-9461
▁Behagar	-9462
▁Sundays	-9463
▁blommar	-9464
▁erfaren	-9465
▁lakanen	-9466
▁logiskt	-9467
▁molnigt	-9468
▁ohyfsat	-9469
▁raccoon	-9470
▁rapidly	-9471
▁rapport	-9472
▁reacted	-9473
▁reduces	-9474
▁relater	-9475
▁remarka	-9476
▁respond	-9477
▁results	-9478
▁reunion	-9479
▁riddare	-9480
▁ringing	-9481
▁rubbish	-9482
▁rullade	-9483
▁rutinen	-9484
▁ryggont	-9485
▁ryggrad	-9486
▁rymling	-9487
▁sakerna	-9488
▁samåker	-9489
▁scarfen	-9490
▁schemat	-9491
▁scooter	-9492
▁scraped	-9493
▁scratch	-9494
▁screwed	-9495
▁seeking	-9496
▁seriösa	-9497
▁servett	-9498
▁shampoo	-9499
åma	-9500
erty	-9501
illa	-9502
omma	-9503
ousy	-9504
▁Sky	-9505
▁Skö	-9506
▁bom	-9507
▁bow	-9508
▁hag	-9509
▁öde	-9510
alare	-9511
issar	-9512
ivare	-9513
odies	-9514
ordet	-9515
räkta	-9516
stigt	-9517
ungna	-9518
▁Isen	-9519
▁Sten	-9520
▁Stir	-9521
▁Ston	-9522
▁bete	-9523
▁clue	-9524
▁hiss	-9525
▁leta	-9526
▁mata	-9527
▁plus	-9528
▁shoe	-9529
▁slug	-9530
▁smak	-9531
▁sung	-9532
▁test	-9533
▁trol	-9534
alance	-9535
illigt	-9536
modiga	-9537
orerna	-9538
rivare	-9539
rättat	-9540
▁Sweet	-9541
▁Voice	-9542
▁inför	-9543
▁lousy	-9544
▁näsan	-9545
▁plant	-9546
▁plent	-9547
▁serve	-9548
▁share	-9549
▁somna	-9550
▁spare	-9551
▁varma	-9552
onstigt	-9553
▁Killar	-9554
▁Skydda	-9555
▁Stenar	-9556
▁Stilla	-9557
▁Stirra	-9558
▁Stones	-9559
▁blomma	-9560
▁bodies	-9561
▁candid	-9562
▁gissar	-9563
▁haglar	-9564
▁kallar	-9565
▁kräsen	-9566
▁plenty	-9567
▁provet	-9568
▁server	-9569
▁skråma	-9570
▁smakat	-9571
▁towels	-9572
▁trolös	-9573
▁vilket	-9574
▁vräkta	-9575
▁zipper	-9576
betalare	-9577
ivilligt	-9578
skrivare	-9579
▁Haschet	-9580
▁balance	-9581
▁cooking	-9582
▁endless	-9583
▁gammalt	-9584
▁kristna	-9585
▁logical	-9586
▁packing	-9587
▁planted	-9588
▁shouldn	-9589
▁sisters	-9590
▁sjunker	-9591
▁skaffar	-9592
▁skaffat	-9593
▁skallig	-9594
▁skapade	-9595
▁skatter	-9596
▁skeppet	-9597
▁skjutsa	-9598
▁skojade	-9599
fry	-9600
ges	-9601
htr	-9602
kod	-9603
ktu	-9604
åga	-9605
hear	-9606
larm	-9607
mack	-9608
▁fem	-9609
▁rub	-9610
asätt	-9611
esick	-9612
fryst	-9613
htray	-9614
ivlar	-9615
lytta	-9616
macka	-9617
änner	-9618
ökare	-9619
▁Amer	-9620
▁Ditt	-9621
▁Mörd	-9622
▁Ropa	-9623
▁barb	-9624
▁blan	-9625
▁blod	-9626
▁evic	-9627
▁femt	-9628
▁fött	-9629
▁leka	-9630
▁neka	-9631
▁shin	-9632
▁tätt	-9633
▁utby	-9634
hearse	-9635
ktuell	-9636
onable	-9637
▁Notan	-9638
▁Skriv	-9639
▁alarm	-9640
▁allow	-9641
▁beats	-9642
▁begag	-9643
▁flint	-9644
▁haven	-9645
▁motel	-9646
▁plåga	-9647
▁shiny	-9648
▁väger	-9649
▁words	-9650
ågasätt	-9651
▁Americ	-9652
▁Arbeta	-9653
▁Flytta	-9654
▁behave	-9655
▁blankt	-9656
▁femtio	-9657
▁golfer	-9658
▁gylfen	-9659
▁idiots	-9660
▁loppet	-9661
▁saltet	-9662
▁swords	-9663
▁utbytt	-9664
▁öronen	-9665
▁Mördade	-9666
▁Tvivlar	-9667
▁ashtray	-9668
▁barbers	-9669
▁bränner	-9670
▁evicted	-9671
▁hjälpas	-9672
▁milking	-9673
▁shelves	-9674
▁skojigt	-9675
▁skrinna	-9676
▁skruven	-9677
▁skräpet	-9678
▁skyller	-9679
▁skämtar	-9680
▁skärmen	-9681
▁skåpmat	-9682
▁slapped	-9683
▁slipsen	-9684
▁släckte	-9685
▁släppte	-9686
▁snowing	-9687
▁snowman	-9688
▁snubbla	-9689
▁soaking	-9690
▁speglar	-9691
▁spilled	-9692
▁spinach	-9693
▁spricka	-9694
▁squared	-9695
▁stapler	-9696
▁startar	-9697
▁starved	-9698
▁stickar	-9699
bag	-9700
ämn	-9701
önd	-9702
fort	-9703
ktor	-9704
natt	-9705
ober	-9706
ooks	-9707
pose	-9708
rite	-9709
rymd	-9710
usad	-9711
vent	-9712
öjer	-9713
▁Bid	-9714
▁Vär	-9715
▁blo	-9716
▁foc	-9717
▁hop	-9718
▁mic	-9719
▁odd	-9720
▁saf	-9721
▁tus	-9722
▁wim	-9723
ighet	-9724
judna	-9725
ktigt	-9726
ämnde	-9727
öndra	-9728
▁Food	-9729
▁Idag	-9730
▁Tall	-9731
▁area	-9732
▁bass	-9733
▁flög	-9734
▁kaka	-9735
▁load	-9736
▁muta	-9737
▁none	-9738
▁port	-9739
▁rese	-9740
▁scre	-9741
▁sour	-9742
▁sägs	-9743
entlig	-9744
omfort	-9745
ventyr	-9746
ågorna	-9747
▁Books	-9748
▁Värld	-9749
▁Write	-9750
▁bloom	-9751
▁death	-9752
▁elden	-9753
▁focus	-9754
▁klädd	-9755
▁miser	-9756
▁sober	-9757
▁swear	-9758
▁tusan	-9759
stecken	-9760
▁Bidrar	-9761
▁Change	-9762
▁Söndra	-9763
▁bedräg	-9764
▁bjudna	-9765
▁doktor	-9766
▁dröjer	-9767
▁getter	-9768
▁hoping	-9769
▁käppen	-9770
▁limits	-9771
▁nämnde	-9772
▁safely	-9773
▁scarce	-9774
▁screen	-9775
▁wimped	-9776
adensare	-9777
▁Comfort	-9778
▁Godnatt	-9779
▁Världen	-9780
▁Vågorna	-9781
▁berusad	-9782
▁brorson	-9783
▁fuktigt	-9784
▁golfbag	-9785
▁interru	-9786
▁miserly	-9787
▁mönster	-9788
▁portion	-9789
▁purpose	-9790
▁sticker	-9791
▁sticket	-9792
▁stjärna	-9793
▁stoppas	-9794
▁stretch	-9795
▁sträcka	-9796
▁studied	-9797
▁studies	-9798
▁stycken	-9799
iff	-9800
aste	-9801
eday	-9802
ggul	-9803
iffr	-9804
jakt	-9805
live	-9806
sint	-9807
▁Bär	-9808
▁Far	-9809
▁Fär	-9810
▁Lös	-9811
▁its	-9812
▁jul	-9813
▁våg	-9814
fullt	-9815
herad	-9816
sible	-9817
▁Make	-9818
▁Sing	-9819
▁athe	-9820
▁bump	-9821
▁cent	-9822
▁hake	-9823
▁lapp	-9824
▁loan	-9825
▁lust	-9826
▁påkl	-9827
astest	-9828
chiffr	-9829
ggulor	-9830
illade	-9831
omeday	-9832
usting	-9833
▁alike	-9834
▁baksl	-9835
▁cared	-9836
▁ogift	-9837
▁peruk	-9838
▁reads	-9839
▁repla	-9840
▁svära	-9841
▁sälja	-9842
▁vågar	-9843
stegrar	-9844
▁Böcker	-9845
▁Färgen	-9846
▁bumped	-9847
▁bussar	-9848
▁contag	-9849
▁demand	-9850
▁liknar	-9851
▁micken	-9852
centrate	-9853
▁Gillade	-9854
▁Smittar	-9855
▁Someday	-9856
▁Väntade	-9857
▁atheist	-9858
▁bakslug	-9859
▁fastest	-9860
▁outlive	-9861
▁perfekt	-9862
▁provide	-9863
▁påklädd	-9864
▁städade	-9865
▁stövlar	-9866
▁suckade	-9867
▁surfing	-9868
▁surnade	-9869
▁surpris	-9870
▁systrar	-9871
▁sångare	-9872
▁tackade	-9873
▁tecknat	-9874
▁templet	-9875
▁textade	-9876
▁thanked	-9877
▁therapy	-9878
▁thermos	-9879
▁tiggare	-9880
▁tillsag	-9881
▁toaster	-9882
▁totally	-9883
▁trailer	-9884
▁trappan	-9885
▁trappor	-9886
▁trasiga	-9887
▁treason	-9888
▁träffas	-9889
▁tränade	-9890
▁tråkade	-9891
▁tummade	-9892
▁tuppade	-9893
▁tvungna	-9894
▁tvätten	-9895
▁typiskt	-9896
▁tändare	-9897
▁törstar	-9898
▁ungefär	-9899
cil	-9900
ows	-9901
rav	-9902
ånt	-9903
▁La	-9904
Lita	-9905
akig	-9906
asil	-9907
färg	-9908
rall	-9909
▁Dam	-9910
▁båg	-9911
▁töl	-9912
ankar	-9913
arrot	-9914
asily	-9915
bbits	-9916
ummad	-9917
▁Bjöd	-9918
▁Cows	-9919
▁Duck	-9920
▁Sånt	-9921
▁bath	-9922
▁blam	-9923
▁body	-9924
▁båge	-9925
▁krav	-9926
▁nosy	-9927
▁owes	-9928
▁sålt	-9929
▁tram	-9930
▁tölp	-9931
▁vart	-9932
▁vita	-9933
arater	-9934
middag	-9935
rallor	-9936
verted	-9937
▁Buren	-9938
▁Tröst	-9939
▁cigar	-9940
▁förak	-9941
▁waits	-9942
▁weigh	-9943
▁witch	-9944
ionerna	-9945
▁Natten	-9946
▁Risken	-9947
▁Trösta	-9948
▁anmäla	-9949
▁betyda	-9950
▁easily	-9951
▁faller	-9952
▁leende	-9953
▁ljuset	-9954
▁lyssna	-9955
▁namnet	-9956
▁parrot	-9957
▁pencil	-9958
▁regler	-9959
▁skakig	-9960
▁tidiga	-9961
▁tråkar	-9962
adeligen	-9963
▁Damerna	-9964
▁Italien	-9965
▁Laundry	-9966
▁averted	-9967
▁avskeda	-9968
▁blaming	-9969
▁dieting	-9970
▁frallor	-9971
▁kvadrat	-9972
▁painter	-9973
▁rabbits	-9974
▁reached	-9975
▁screams	-9976
▁sjukdom	-9977
▁skyndar	-9978
▁tramset	-9979
▁unusual	-9980
▁upfront	-9981
▁upprymd	-9982
▁upprätt	-9983
▁ursäkta	-9984
▁utmärkt	-9985
▁utrymme	-9986
▁utövade	-9987
▁vackert	-9988
▁vaknade	-9989
▁varning	-9990
▁veggies	-9991
▁veranda	-9992
▁verklig	-9993
▁viktiga	-9994
▁väckark	-9995
▁vägrade	-9996
▁vänliga	-9997
▁warning	-9998
▁welcome	-9999
emi	-10000
får	-10001
▁Fe	-10002
▁Me	-10003
▁Ye	-10004
▁år	-10005
acke	-10006
nced	-10007
onke	-10008
▁Aim	-10009
▁Dog	-10010
▁Ham	-10011
▁Man	-10012
▁ars	-10013
▁loo	-10014
▁utk	-10015
▁vom	-10016
arlig	-10017
onkey	-10018
skill	-10019
▁Barn	-10020
▁Dogs	-10021
▁Feel	-10022
▁Fold	-10023
▁Hell	-10024
▁Pray	-10025
▁Svar	-10026
▁dare	-10027
▁fots	-10028
▁gamm	-10029
▁kemi	-10030
▁kval	-10031
▁slöt	-10032
▁syft	-10033
▁wasp	-10034
indeln	-10035
ounced	-10036
skille	-10037
▁Hello	-10038
▁Ladda	-10039
▁Varna	-10040
▁Years	-10041
▁angel	-10042
▁arson	-10043
▁gatuh	-10044
▁goats	-10045
▁loose	-10046
▁nacke	-10047
▁raise	-10048
▁sight	-10049
▁smita	-10050
▁tjata	-10051
▁utkik	-10052
▁Hammer	-10053
▁Katter	-10054
▁Kniven	-10055
▁Svaret	-10056
▁faktur	-10057
▁fången	-10058
▁helger	-10059
▁lessen	-10060
▁monkey	-10061
▁signal	-10062
▁skratt	-10063
▁slutet	-10064
▁syftet	-10065
gmästare	-10066
▁Missade	-10067
▁Spelade	-10068
▁behaved	-10069
▁bounced	-10070
▁citizen	-10071
▁gatuhör	-10072
▁hemsökt	-10073
▁herring	-10074
▁ofarlig	-10075
▁olydigt	-10076
▁rematch	-10077
▁reviews	-10078
▁schampo	-10079
▁skämdes	-10080
▁slängde	-10081
▁vomited	-10082
▁whistle	-10083
▁willing	-10084
▁Äggulor	-10085
▁Äpplena	-10086
▁äventyr	-10087
▁återläm	-10088
▁örhänge	-10089
couraging	-10090
fashioned	-10091
frisknade	-10092
frågasätt	-10093
förvirrad	-10094
hållplats	-10095
idnappade	-10096
irdresser	-10097
isstänker	-10098
kreterare	-10099
Tr	-10100
jal	-10101
atte	-10102
aves	-10103
etig	-10104
iers	-10105
jock	-10106
quid	-10107
tles	-10108
utor	-10109
xury	-10110
▁And	-10111
▁Glo	-10112
▁Sig	-10113
▁glo	-10114
▁lov	-10115
▁luc	-10116
▁myr	-10117
▁row	-10118
▁sko	-10119
▁wig	-10120
Trust	-10121
attle	-10122
▁Love	-10123
▁Stal	-10124
▁Well	-10125
▁cage	-10126
▁neck	-10127
▁owed	-10128
▁skid	-10129
▁skin	-10130
▁svin	-10131
▁säkr	-10132
▁vana	-10133
urtles	-10134
▁Andas	-10135
▁Trees	-10136
▁brush	-10137
▁gloat	-10138
▁jagar	-10139
▁lucid	-10140
▁myror	-10141
▁petig	-10142
▁strid	-10143
▁tutor	-10144
▁waves	-10145
▁Signer	-10146
▁Skolan	-10147
▁battle	-10148
▁dumped	-10149
▁fields	-10150
▁fluids	-10151
▁frusen	-10152
▁jagade	-10153
▁linjal	-10154
▁liquid	-10155
▁luxury	-10156
▁pliers	-10157
▁skatte	-10158
▁skidor	-10159
▁spiken	-10160
▁strida	-10161
▁trångt	-10162
▁vinken	-10163
▁äregir	-10164
reacting	-10165
viserade	-10166
▁Klarade	-10167
▁Körsbär	-10168
▁Signera	-10169
▁Turtles	-10170
▁betalad	-10171
▁smälter	-10172
▁säkrare	-10173
ldsrekord	-10174
muntrande	-10175
ordentlig	-10176
schaufför	-10177
shändelse	-10178
sinriktad	-10179
tankerous	-10180
ångerfull	-10181
årsåldern	-10182
▁American	-10183
▁Ammoniak	-10184
▁Beslutet	-10185
▁Betalade	-10186
▁Canadian	-10187
▁Cherries	-10188
▁Children	-10189
▁Football	-10190
▁Fotograf	-10191
▁Fåglarna	-10192
▁Fönstret	-10193
▁Förebrår	-10194
▁Försöker	-10195
▁Internet	-10196
▁Involver	-10197
▁Klandrar	-10198
▁Knuffade	-10199
jka	-10200
rya	-10201
åde	-10202
edel	-10203
ålig	-10204
▁Hit	-10205
▁Vik	-10206
▁ain	-10207
▁ena	-10208
▁kax	-10209
▁nät	-10210
▁oen	-10211
arken	-10212
ional	-10213
stabl	-10214
åkigt	-10215
▁Krya	-10216
▁Stod	-10217
▁Thou	-10218
▁Wave	-10219
▁både	-10220
▁curb	-10221
▁grep	-10222
▁njöt	-10223
▁pays	-10224
▁ratt	-10225
▁sill	-10226
▁udda	-10227
▁åtta	-10228
orgare	-10229
▁Allow	-10230
▁Mamma	-10231
▁Relax	-10232
▁Tacka	-10233
▁fejka	-10234
▁haken	-10235
▁kaxig	-10236
▁oenig	-10237
▁retas	-10238
▁sexig	-10239
▁sikte	-10240
▁silly	-10241
▁sinne	-10242
▁sweat	-10243
borgare	-10244
iculous	-10245
ologize	-10246
▁araber	-10247
▁chased	-10248
▁cursed	-10249
▁glömma	-10250
▁himlen	-10251
▁joints	-10252
▁marken	-10253
▁omedel	-10254
▁onions	-10255
▁otålig	-10256
▁profet	-10257
▁snuten	-10258
▁timmar	-10259
▁uneasy	-10260
▁ärende	-10261
stablett	-10262
▁Fläkten	-10263
▁franskt	-10264
▁sportig	-10265
▁suicide	-10266
▁träffen	-10267
apparater	-10268
▁Kontakta	-10269
▁Kyckling	-10270
▁Memorize	-10271
▁Pancakes	-10272
▁Pojkarna	-10273
▁Pressade	-10274
▁Publiken	-10275
▁Remember	-10276
▁Saturnus	-10277
▁Skadades	-10278
▁Skickade	-10279
▁Skrattar	-10280
▁Skrämmer	-10281
▁Spindeln	-10282
▁Störtade	-10283
▁Suveränt	-10284
▁Svimmade	-10285
▁Termiter	-10286
▁Termites	-10287
▁Tjejerna	-10288
▁Vacation	-10289
▁Varsågod	-10290
▁Visitera	-10291
▁adjusted	-10292
▁airplane	-10293
▁ambulans	-10294
▁amerikan	-10295
▁aningens	-10296
▁annivers	-10297
▁annonser	-10298
▁armbågen	-10299
öta	-10300
▁DJ	-10301
▁Id	-10302
▁To	-10303
▁dj	-10304
skör	-10305
▁Cut	-10306
▁Ger	-10307
▁Jul	-10308
▁Kor	-10309
▁Rom	-10310
▁pit	-10311
▁tär	-10312
▁ull	-10313
aving	-10314
ingen	-10315
sskör	-10316
▁Down	-10317
▁Förr	-10318
▁Till	-10319
▁Träd	-10320
▁Walk	-10321
▁camp	-10322
▁cere	-10323
▁eats	-10324
▁krig	-10325
▁sort	-10326
▁tolk	-10327
▁ägor	-10328
ienced	-10329
ssoppa	-10330
▁Julen	-10331
▁Saker	-10332
▁Shoot	-10333
▁bores	-10334
▁broom	-10335
▁chops	-10336
▁clock	-10337
▁elakt	-10338
▁grass	-10339
▁leker	-10340
▁passw	-10341
▁sköta	-10342
▁surfa	-10343
▁åkern	-10344
▁adjust	-10345
▁cereal	-10346
▁drogad	-10347
▁dyblöt	-10348
▁finish	-10349
▁flicka	-10350
▁gentle	-10351
▁gäster	-10352
▁hollow	-10353
▁kuvert	-10354
▁leksak	-10355
▁mössen	-10356
▁nights	-10357
▁rested	-10358
▁sharks	-10359
▁spelet	-10360
▁stegen	-10361
▁storät	-10362
▁tolkat	-10363
▁Ammonia	-10364
▁Destroy	-10365
▁acrobat	-10366
▁camping	-10367
▁content	-10368
▁cousins	-10369
▁elected	-10370
▁gosskör	-10371
▁grillar	-10372
▁gäspade	-10373
▁involve	-10374
▁leaving	-10375
▁listade	-10376
▁näsblod	-10377
▁travels	-10378
▁tärnade	-10379
▁upstate	-10380
▁Förklara	-10381
▁attorney	-10382
▁avfallet	-10383
▁avskedat	-10384
▁avskydde	-10385
▁avundsju	-10386
▁backpack	-10387
▁balloons	-10388
▁bankrutt	-10389
▁barcoded	-10390
▁barnslig	-10391
▁baseboll	-10392
▁begagnad	-10393
▁begraven	-10394
▁behandla	-10395
▁belöning	-10396
▁berättat	-10397
▁beskriva	-10398
▁besluten	-10399
▁Då	-10400
▁SM	-10401
form	-10402
▁Gav	-10403
▁SMS	-10404
▁Sen	-10405
▁lab	-10406
▁ske	-10407
▁syn	-10408
▁ten	-10409
▁toy	-10410
illen	-10411
ppför	-10412
ungit	-10413
venge	-10414
▁Dial	-10415
▁Hard	-10416
▁Real	-10417
▁Rome	-10418
▁bled	-10419
▁cows	-10420
▁gråt	-10421
▁likt	-10422
▁shed	-10423
▁than	-10424
▁värd	-10425
ärligt	-10426
▁Förne	-10427
▁Gjort	-10428
▁Trust	-10429
▁antar	-10430
▁behöv	-10431
▁fånga	-10432
▁hatad	-10433
▁known	-10434
▁körda	-10435
▁parap	-10436
▁petty	-10437
▁takes	-10438
barelse	-10439
imation	-10440
uestion	-10441
▁Charge	-10442
▁Frukta	-10443
▁Killen	-10444
▁agreem	-10445
▁barnet	-10446
▁behövs	-10447
▁braces	-10448
▁brydde	-10449
▁common	-10450
▁contra	-10451
▁driven	-10452
▁finnas	-10453
▁inform	-10454
▁jobber	-10455
▁resist	-10456
▁shoppa	-10457
▁sighed	-10458
▁veckor	-10459
▁warned	-10460
▁Congrat	-10461
▁Förneka	-10462
▁callous	-10463
▁lighter	-10464
▁paraply	-10465
▁provade	-10466
▁reagera	-10467
▁refuses	-10468
▁request	-10469
▁revenge	-10470
▁robotar	-10471
▁skuggan	-10472
▁through	-10473
itimation	-10474
▁besvärad	-10475
▁bevisade	-10476
▁beväpnad	-10477
▁bilderna	-10478
▁bleknade	-10479
▁blundade	-10480
▁blushing	-10481
▁bondgård	-10482
▁bortförd	-10483
▁bostaden	-10484
▁brandmän	-10485
▁breathed	-10486
▁brevlåda	-10487
▁bromsade	-10488
▁brödrost	-10489
▁buddhist	-10490
▁butchers	-10491
▁canceled	-10492
▁cartoons	-10493
▁chairman	-10494
▁changing	-10495
▁charming	-10496
▁cheating	-10497
▁checkade	-10498
▁checking	-10499
Is	-10500
urk	-10501
aner	-10502
atin	-10503
enat	-10504
oman	-10505
sigt	-10506
▁Inb	-10507
▁War	-10508
▁Even	-10509
▁Wasn	-10510
▁brag	-10511
▁code	-10512
▁dyra	-10513
▁east	-10514
▁fika	-10515
▁king	-10516
▁kock	-10517
▁mods	-10518
▁möte	-10519
▁noon	-10520
▁snuv	-10521
▁thud	-10522
ningsb	-10523
ändigt	-10524
▁Latin	-10525
▁Vadan	-10526
▁anmär	-10527
▁blöta	-10528
▁byter	-10529
▁cages	-10530
▁heels	-10531
▁humle	-10532
▁klokt	-10533
▁kulor	-10534
▁lived	-10535
▁läxor	-10536
▁moral	-10537
▁overs	-10538
▁räcka	-10539
▁skurk	-10540
▁tries	-10541
▁woman	-10542
▁Europa	-10543
▁clocks	-10544
▁corner	-10545
▁kinder	-10546
▁lentil	-10547
▁medlem	-10548
▁mysigt	-10549
▁packar	-10550
▁radios	-10551
▁snuvig	-10552
▁snälla	-10553
▁spenat	-10554
▁ställt	-10555
▁sårade	-10556
▁ändlös	-10557
▁Bananer	-10558
▁Freedom	-10559
▁affärer	-10560
▁agerade	-10561
▁anmärka	-10562
▁captain	-10563
▁destiny	-10564
▁mailbox	-10565
▁pappret	-10566
▁praying	-10567
▁rescued	-10568
▁tillåta	-10569
handtaget	-10570
ningsbara	-10571
▁Inbillar	-10572
▁childish	-10573
▁citerade	-10574
▁collects	-10575
▁colonels	-10576
▁comedian	-10577
▁contract	-10578
▁contrite	-10579
▁cooperat	-10580
▁counting	-10581
▁credible	-10582
▁cultured	-10583
▁customer	-10584
▁dagligen	-10585
▁debatten	-10586
▁dechiffr	-10587
▁dejected	-10588
▁delicate	-10589
▁delivers	-10590
▁describe	-10591
▁deserted	-10592
▁deserved	-10593
▁designat	-10594
▁diligent	-10595
▁disloyal	-10596
▁distance	-10597
▁domderar	-10598
▁doorknob	-10599
uit	-10600
▁Hi	-10601
▁Hö	-10602
ered	-10603
osta	-10604
▁Lär	-10605
▁ges	-10606
▁når	-10607
▁smo	-10608
kallt	-10609
▁Sköt	-10610
▁ages	-10611
▁ants	-10612
▁avgå	-10613
▁guns	-10614
▁ihop	-10615
▁oroa	-10616
▁rita	-10617
▁rökt	-10618
▁sans	-10619
▁skip	-10620
▁spit	-10621
▁thin	-10622
▁täta	-10623
▁wise	-10624
▁Förta	-10625
▁Kamma	-10626
▁Ovill	-10627
▁Posta	-10628
▁aloud	-10629
▁baken	-10630
▁blood	-10631
▁board	-10632
▁claps	-10633
▁drawn	-10634
▁dödad	-10635
▁gräva	-10636
▁inser	-10637
▁mätte	-10638
▁norra	-10639
▁regel	-10640
▁sanna	-10641
▁varva	-10642
▁Sharks	-10643
▁Tanken	-10644
▁Vinden	-10645
▁assume	-10646
▁besatt	-10647
▁cookie	-10648
▁desire	-10649
▁drying	-10650
▁duktig	-10651
▁finner	-10652
▁fyrtio	-10653
▁mannen	-10654
▁morals	-10655
▁nötter	-10656
▁rained	-10657
▁simple	-10658
▁smoker	-10659
▁öppnar	-10660
▁Knuffas	-10661
▁Overlap	-10662
▁Tiderna	-10663
▁duschat	-10664
▁iskallt	-10665
▁selling	-10666
▁utvilad	-10667
▁workout	-10668
▁Stannade	-10669
▁contains	-10670
▁drunknat	-10671
▁däggdjur	-10672
▁eldsvåda	-10673
▁elevator	-10674
▁embraced	-10675
▁envelope	-10676
▁epilepsi	-10677
▁epilepsy	-10678
▁exciting	-10679
▁exercise	-10680
▁fakturan	-10681
▁feverish	-10682
▁flexibla	-10683
▁flygresa	-10684
▁flykting	-10685
▁flämtade	-10686
▁fnissade	-10687
▁fokusera	-10688
▁forgiven	-10689
▁forskade	-10690
▁freckles	-10691
▁frisörer	-10692
▁frågande	-10693
▁fängelse	-10694
▁fängslad	-10695
▁färgerna	-10696
▁fönstret	-10697
▁föraktar	-10698
▁förfärad	-10699
▁If	-10700
lösa	-10701
▁Bra	-10702
▁Hay	-10703
▁Ner	-10704
▁Tar	-10705
▁bär	-10706
▁fet	-10707
▁ven	-10708
▁Grow	-10709
▁Spin	-10710
▁hunt	-10711
▁lagt	-10712
▁neat	-10713
▁rule	-10714
▁rörd	-10715
▁vits	-10716
▁Italy	-10717
▁Shake	-10718
▁Think	-10719
▁bakåt	-10720
▁buyer	-10721
▁förde	-10722
▁linje	-10723
▁tight	-10724
▁tires	-10725
▁Fattar	-10726
▁Läkare	-10727
▁chefen	-10728
▁couple	-10729
▁hoppet	-10730
▁kvinna	-10731
▁listig	-10732
▁pratat	-10733
▁sweets	-10734
▁tydlig	-10735
▁Tryckte	-10736
▁Varnade	-10737
▁hoppade	-10738
▁kissing	-10739
▁needles	-10740
▁nodding	-10741
▁olydiga	-10742
▁quoting	-10743
▁refused	-10744
▁staying	-10745
▁stinker	-10746
▁telling	-10747
▁uppfann	-10748
▁venison	-10749
▁Tvättade	-10750
▁baletten	-10751
▁förhörde	-10752
▁förkylde	-10753
▁förlovat	-10754
▁förlåten	-10755
▁försegla	-10756
▁förskott	-10757
▁förstört	-10758
▁förtjust	-10759
▁förvänta	-10760
▁förälder	-10761
▁fötterna	-10762
▁gasläcka	-10763
▁generösa	-10764
▁genomvåt	-10765
▁genvägar	-10766
▁gitarren	-10767
▁gladlynt	-10768
▁godsaker	-10769
▁grateful	-10770
▁grilling	-10771
▁grälsjuk	-10772
▁gräsliga	-10773
▁handsome	-10774
▁helpless	-10775
▁hemifrån	-10776
▁hjälplös	-10777
▁homesick	-10778
▁horrible	-10779
▁hospital	-10780
▁hotellet	-10781
▁hustling	-10782
▁hyllorna	-10783
▁hängiven	-10784
▁hästarna	-10785
▁immortal	-10786
▁imperier	-10787
▁inbjuden	-10788
▁insekter	-10789
▁insisted	-10790
▁insulted	-10791
▁internet	-10792
▁inträffa	-10793
▁invented	-10794
▁islander	-10795
▁jonglera	-10796
▁justeras	-10797
▁jättegod	-10798
▁jättesen	-10799
▁kaotiskt	-10800
▁kaptenen	-10801
▁kladdiga	-10802
▁klagomål	-10803
▁klandrar	-10804
▁klappade	-10805
▁kläcktes	-10806
▁klättrar	-10807
▁kommando	-10808
▁kontrakt	-10809
▁kopplade	-10810
▁koreansk	-10811
▁kreativa	-10812
▁krossade	-10813
▁krävande	-10814
▁kvalmigt	-10815
▁kyckling	-10816
▁kärleken	-10817
▁körgosse	-10818
▁language	-10819
▁lemonade	-10820
▁likadana	-10821
▁lustjakt	-10822
▁lyckligt	-10823
▁lägenhet	-10824
▁läggdags	-10825
▁låtsades	-10826
▁meddelat	-10827
▁medveten	-10828
▁meningen	-10829
▁merciful	-10830
▁mjölkade	-10831
▁modfälld	-10832
▁morgonen	-10833
▁motsatte	-10834
▁musmatta	-10835
▁märkligt	-10836
▁måndagar	-10837
▁mördades	-10838
▁mördaren	-10839
▁nauseous	-10840
▁nybliven	-10841
▁objektiv	-10842
▁obotligt	-10843
▁official	-10844
▁ohejdbar	-10845
▁omtumlad	-10846
▁opponent	-10847
▁osanning	-10848
▁oslagbar	-10849
▁otrevlig	-10850
▁oturligt	-10851
▁ovanligt	-10852
▁oviktigt	-10853
▁papegoja	-10854
▁papperet	-10855
▁paradise	-10856
▁partiska	-10857
▁passerat	-10858
▁passport	-10859
▁password	-10860
▁pathetic	-10861
▁patience	-10862
▁perfekta	-10863
▁personen	-10864
▁pictures	-10865
▁pladdrar	-10866
▁plockade	-10867
▁pojkarna	-10868
▁polerade	-10869
▁polished	-10870
▁polisman	-10871
▁politics	-10872
▁populärt	-10873
▁positiva	-10874
▁positivt	-10875
▁pratades	-10876
▁pratglad	-10877
▁prepared	-10878
▁princess	-10879
▁promoted	-10880
▁property	-10881
▁punished	-10882
▁punktlig	-10883
▁purchase	-10884
▁påhittig	-10885
▁rakhyvel	-10886
▁receipts	-10887
▁received	-10888
▁rehearse	-10889
▁reklamin	-10890
▁relaxing	-10891
▁reliable	-10892
▁remained	-10893
▁repetera	-10894
▁replaced	-10895
▁reporter	-10896
▁research	-10897
▁resigned	-10898
▁restored	-10899
▁resultat	-10900
▁revansch	-10901
▁romantic	-10902
▁roommate	-10903
▁ryggsäck	-10904
▁rättfram	-10905
▁sailboat	-10906
▁samarbet	-10907
▁segelbåt	-10908
▁sensible	-10909
▁serverad	-10910
▁showered	-10911
▁shrugged	-10912
▁siblings	-10913
▁silently	-10914
▁skadades	-10915
▁skicklig	-10916
▁skrapade	-10917
▁skyndade	-10918
▁skämtade	-10919
▁slaktare	-10920
▁slingrar	-10921
▁slutföra	-10922
▁slutsålt	-10923
▁smutsiga	-10924
▁småaktig	-10925
▁snabbast	-10926
▁sneglade	-10927
▁snickare	-10928
▁snögubbe	-10929
▁sociopat	-10930
▁sommaren	-10931
▁sorgligt	-10932
▁sparkade	-10933
▁spinning	-10934
▁spottade	-10935
▁sprungit	-10936
▁spädbarn	-10937
▁stamgäst	-10938
▁stamkund	-10939
▁startled	-10940
▁straffas	-10941
▁struggle	-10942
▁strumpor	-10943
▁stubborn	-10944
▁studerat	-10945
▁studsade	-10946
▁styvsint	-10947
▁störtade	-10948
▁superfin	-10949
▁survives	-10950
▁svarslös	-10951
▁swearing	-10952
▁särskilt	-10953
▁söndagar	-10954
▁talented	-10955
▁terrible	-10956
▁terribly	-10957
▁tidigare	-10958
▁tillsagd	-10959
▁tillåtna	-10960
▁tragiskt	-10961
▁traveled	-10962
▁trevliga	-10963
▁triangel	-10964
▁triangle	-10965
▁trädgård	-10966
▁trådarna	-10967
▁tveksamt	-10968
▁tvingade	-10969
▁tvättdag	-10970
▁tänderna	-10971
▁umbrella	-10972
▁undviker	-10973
▁upprörda	-10974
▁uppträda	-10975
▁utantill	-10976
▁utmaning	-10977
▁utpumpad	-10978
▁utslagen	-10979
▁vacuumed	-10980
▁vaksamma	-10981
▁vandring	-10982
▁violated	-10983
▁välsigne	-10984
▁vältalig	-10985
▁weddings	-10986
▁weekends	-10987
▁worrying	-10988
▁äregirig	-10989
▁årsdagen	-10990
▁återvänt	-10991
▁överallt	-10992
▁överstar	-10993
▁översynt	-10994
ensasäsong	-10995
förhöjning	-10996
nderteckna	-10997
ningsfullt	-10998
▁Apologize	-10999
▁Biljetten	-11000
▁Christian	-11001
▁Fantastic	-11002
▁Flickorna	-11003
▁Frankrike	-11004
▁Förolämpa	-11005
▁Förtjänar	-11006
▁Handduken	-11007
▁Irriterar	-11008
▁Knowledge	-11009
▁Motionera	-11010
▁Någonting	-11011
▁Ordningen	-11012
▁Pannkakor	-11013
▁Semestern	-11014
▁Squirrels	-11015
▁Tallriken	-11016
▁Telefonen	-11017
▁Tärningen	-11018
▁Varsågoda	-11019
▁Wonderful	-11020
▁abandoned	-11021
▁accompany	-11022
▁adopterad	-11023
▁agreement	-11024
▁akademisk	-11025
▁ambitions	-11026
▁ambitious	-11027
▁ambulance	-11028
▁andedräkt	-11029
▁answering	-11030
▁antecknar	-11031
▁arbetslag	-11032
▁arroganta	-11033
▁assistant	-11034
▁assistent	-11035
▁astronomi	-11036
▁astronomy	-11037
▁atletiska	-11038
▁attackera	-11039
▁attention	-11040
▁autentisk	-11041
▁autistisk	-11042
▁avbrottet	-11043
▁avslöjade	-11044
▁avståndet	-11045
▁backwards	-11046
▁ballonger	-11047
▁bedridden	-11048
▁bedräglig	-11049
▁befordran	-11050
▁begravdes	-11051
▁beskjuten	-11052
▁beslutsam	-11053
▁betydelse	-11054
▁beundrade	-11055
▁beundrare	-11056
▁bilförare	-11057
▁bilingual	-11058
▁bortrövad	-11059
▁breakfast	-11060
▁brilliant	-11061
▁bromsarna	-11062
▁cannibals	-11063
▁carpenter	-11064
▁chartered	-11065
▁chartrade	-11066
▁chemistry	-11067
▁chickened	-11068
▁committed	-11069
▁complaint	-11070
▁condition	-11071
▁confessed	-11072
▁contacted	-11073
▁continued	-11074
▁convinced	-11075
▁cykelpump	-11076
▁debatable	-11077
▁decorated	-11078
▁delighted	-11079
▁demanding	-11080
▁disagrees	-11081
▁djupfryst	-11082
▁dragkedja	-11083
▁drunknade	-11084
▁efterrätt	-11085
▁energiska	-11086
▁engagerad	-11087
▁enjoyable	-11088
▁ensambarn	-11089
▁ensamvarg	-11090
▁etiketten	-11091
▁exercised	-11092
▁exercises	-11093
▁existerar	-11094
▁explained	-11095
▁fascinate	-11096
▁fingrarna	-11097
▁firstborn	-11098
▁flygresan	-11099
▁forgotten	-11100
▁fortunate	-11101
▁framfusig	-11102
▁fransyska	-11103
▁frisknade	-11104
▁fårskalle	-11105
▁föreställ	-11106
▁företaget	-11107
▁förflytta	-11108
▁förfärlig	-11109
▁förhindra	-11110
▁förkänsla	-11111
▁förlovade	-11112
▁förnekade	-11113
▁förnuftig	-11114
▁förräderi	-11115
▁förtjänar	-11116
▁förväntar	-11117
▁förväntat	-11118
▁genialisk	-11119
▁genomblöt	-11120
▁gräsmatta	-11121
▁guldgruva	-11122
▁halsduken	-11123
▁hamburger	-11124
▁handdukar	-11125
▁handikapp	-11126
▁handväska	-11127
▁historian	-11128
▁hjortkött	-11129
▁hybridbil	-11130
▁hållplats	-11131
▁högerhänt	-11132
▁högljudda	-11133
▁idrottare	-11134
▁imagining	-11135
▁immunitet	-11136
▁impatient	-11137
▁incurable	-11138
▁influensa	-11139
▁inombords	-11140
▁insomniac	-11141
▁interrupt	-11142
▁intresset	-11143
▁intrigued	-11144
▁juryplikt	-11145
▁jättegoda	-11146
▁kidnappad	-11147
▁klättring	-11148
▁kompetent	-11149
▁krossades	-11150
▁kvällsmat	-11151
▁languages	-11152
▁lastbilar	-11153
▁lastbilen	-11154
▁lastkajen	-11155
▁lastnings	-11156
▁lektioner	-11157
▁levererar	-11158
▁linssoppa	-11159
▁lunchdags	-11160
▁mentioned	-11161
▁missmodig	-11162
▁misstänkt	-11163
▁mordbrand	-11164
▁motionera	-11165
▁motiverad	-11166
▁motorerna	-11167
▁mänskligt	-11168
▁målarfärg	-11169
▁necessary	-11170
▁negligent	-11171
▁noggranna	-11172
▁objection	-11173
▁objective	-11174
▁obstinate	-11175
▁ofattbart	-11176
▁offensive	-11177
▁oförskämd	-11178
▁omfamnade	-11179
▁omtänksam	-11180
▁operation	-11181
▁opponents	-11182
▁orättvisa	-11183
▁overheard	-11184
▁overslept	-11185
▁paradiset	-11186
▁paranoida	-11187
▁patetiskt	-11188
▁persuaded	-11189
▁planterat	-11190
▁pointless	-11191
▁politiker	-11192
▁possessed	-11193
▁powerless	-11194
▁precedent	-11195
▁pretended	-11196
▁prinsessa	-11197
▁promenera	-11198
▁punktliga	-11199
▁purchased	-11200
▁pyjamasen	-11201
▁påbörjade	-11202
▁qualified	-11203
▁rapporten	-11204
▁reagerade	-11205
▁recognize	-11206
▁relaterat	-11207
▁relatives	-11208
▁rengjorde	-11209
▁repareras	-11210
▁resigning	-11211
▁revolting	-11212
▁rättighet	-11213
▁rörmokare	-11214
▁scoundrel	-11215
▁searching	-11216
▁secretary	-11217
▁semestern	-11218
▁servicest	-11219
▁sjaletten	-11220
▁sjukhuset	-11221
▁självmord	-11222
▁skåpbilen	-11223
▁slocknade	-11224
▁sociopath	-11225
▁sovmorgon	-11226
▁speciella	-11227
▁specifics	-11228
▁spännande	-11229
▁standards	-11230
▁storätare	-11231
▁streckkod	-11232
▁strejkade	-11233
▁stressade	-11234
▁studerade	-11235
▁stupfulla	-11236
▁succeeded	-11237
▁surprises	-11238
▁surviving	-11239
▁svartsjuk	-11240
▁svindlare	-11241
▁svärdfisk	-11242
▁swordfish	-11243
▁sympatisk	-11244
▁systerson	-11245
▁tacksamma	-11246
▁taxpayers	-11247
▁teenagers	-11248
▁telephone	-11249
▁toleranta	-11250
▁treatable	-11251
▁trumpeten	-11252
▁tveksamma	-11253
▁tävlingen	-11254
▁tålamodet	-11255
▁tålmodiga	-11256
▁underkänd	-11257
▁undersöka	-11258
▁undervisa	-11259
▁ungjävlar	-11260
▁unmarried	-11261
▁uppenbart	-11262
▁uppfattat	-11263
▁uppgiften	-11264
▁upphetsad	-11265
▁upphämtad	-11266
▁uppkäftig	-11267
▁upptäckte	-11268
▁utsvulten	-11269
▁vanvettig	-11270
▁villospår	-11271
▁vindruvor	-11272
▁välbetald	-11273
▁välkommen	-11274
▁willingly	-11275
▁ynkryggar	-11276
▁ärelysten	-11277
▁ångerfull	-11278
▁återvända	-11279
▁återvände	-11280
▁övergiven	-11281
▁övertalas	-11282
▁övertygad	-11283
gångsförbud	-11284
schaufförer	-11285
verlappning	-11286
▁Allvarligt	-11287
▁Amerikansk	-11288
▁Christians	-11289
▁Definitivt	-11290
▁Förändring	-11291
▁Ifrågasätt	-11292
▁Involverar	-11293
▁Kidnappade	-11294
▁Misstänker	-11295
▁Strumporna	-11296
▁aggressiva	-11297
▁alltsamman	-11298
▁alternativ	-11299
▁ambitioner	-11300
▁annanstans	-11301
▁ansträngde	-11302
▁applåderar	-11303
▁appreciate	-11304
▁argumentet	-11305
▁astonished	-11306
▁autentiskt	-11307
▁avsiktligt	-11308
▁avundsjuka	-11309
▁believable	-11310
▁berättelse	-11311
▁besläktade	-11312
▁besvärligt	-11313
▁challenges	-11314
▁contagious	-11315
▁courageous	-11316
▁deliberate	-11317
▁delstatens	-11318
▁dependable	-11319
▁depressing	-11320
▁detaljerna	-11321
▁diplomatic	-11322
▁disability	-11323
▁disgusting	-11324
▁diskuteras	-11325
▁distracted	-11326
▁downsizing	-11327
▁egensinnig	-11328
▁enastående	-11329
▁erfarenhet	-11330
▁evacuating	-11331
▁evakuering	-11332
▁exaggerate	-11333
▁experience	-11334
▁farsighted	-11335
▁fascinerar	-11336
▁fastfrusen	-11337
▁finkänslig	-11338
▁folksånger	-11339
▁formuläret	-11340
▁framåtanda	-11341
▁frightened	-11342
▁frivilligt	-11343
▁frustrated	-11344
▁frustrerad	-11345
▁förbluffad	-11346
▁föreställa	-11347
▁författare	-11348
▁förfärliga	-11349
▁förklarade	-11350
▁försiktiga	-11351
▁förstelnad	-11352
▁förstfödde	-11353
▁förstummad	-11354
▁försvunnet	-11355
▁försvunnit	-11356
▁förtjänade	-11357
▁förtvivlad	-11358
▁förvirrade	-11359
▁förväntade	-11360
▁förälskade	-11361
▁gammeldags	-11362
▁gatuhörnet	-11363
▁gladeligen	-11364
▁hamburgare	-11365
▁handledare	-11366
▁handväskan	-11367
▁hemlängtan	-11368
▁hundvalpen	-11369
▁hänsynslös	-11370
▁hårdnackad	-11371
▁improvised	-11372
▁ineffektiv	-11373
▁innehåller	-11374
▁insisterar	-11375
▁interested	-11376
▁intressant	-11377
▁irrelevant	-11378
▁jättesnabb	-11379
▁jättestora	-11380
▁jättestort	-11381
▁jättetjock	-11382
▁kallhamrad	-11383
▁kannibaler	-11384
▁kidnappade	-11385
▁kollapsade	-11386
▁kontaktade	-11387
▁kultiverad	-11388
▁lägenheten	-11389
▁lögnhalsar	-11390
▁lösenordet	-11391
▁medborgare	-11392
▁medvetande	-11393
▁mentalsjuk	-11394
▁misslyckad	-11395
▁misstankar	-11396
▁nonchalant	-11397
▁nonplussed	-11398
▁nödvändigt	-11399
▁offensiven	-11400
▁officiellt	-11401
▁oförarglig	-11402
▁oförberedd	-11403
▁omarbetade	-11404
▁omedelbart	-11405
▁ordförande	-11406
▁performing	-11407
▁personerna	-11408
▁picknickar	-11409
▁polisonger	-11410
▁politician	-11411
▁possessive	-11412
▁prejudikat	-11413
▁producerar	-11414
▁programmet	-11415
▁realiteter	-11416
▁reconsider	-11417
▁remarkable	-11418
▁respectful	-11419
▁respektera	-11420
▁revelation	-11421
▁reviderade	-11422
▁ridiculous	-11423
▁romantiskt	-11424
▁rumskompis	-11425
▁sauerkraut	-11426
▁schweizare	-11427
▁seminariet	-11428
▁självsäker	-11429
▁slagsmålet	-11430
▁songwriter	-11431
▁sparkcykel	-11432
▁speechless	-11433
▁springande	-11434
▁studerande	-11435
▁stuttering	-11436
▁sunglasses	-11437
▁suspicions	-11438
▁syltburken	-11439
▁sympatiska	-11440
▁technology	-11441
▁television	-11442
▁threatened	-11443
▁tillfrusen	-11444
▁tonåringar	-11445
▁tvillingar	-11446
▁tvättbjörn	-11447
▁tvåspråkig	-11448
▁unbeatable	-11449
▁underrätta	-11450
▁unemployed	-11451
▁unprepared	-11452
▁unreliable	-11453
▁uppehåller	-11454
▁uppfostran	-11455
▁uppskattar	-11456
▁utpressade	-11457
▁vegetables	-11458
▁vulnerable	-11459
▁välavlönad	-11460
▁yourselves	-11461
▁äppeljuice	-11462
▁äventyrlig	-11463
▁återhämtar	-11464
▁återställd	-11465
▁återvänder	-11466
▁överdriver	-11467
▁Dörrklockan	-11468
▁Fantastiskt	-11469
▁Sköldpaddor	-11470
▁adventurous	-11471
▁allesammans	-11472
▁alltsammans	-11473
▁anniversary	-11474
▁barskrapade	-11475
▁berättelsen	-11476
▁beställning	-11477
▁blackmailed	-11478
▁borgmästare	-11479
▁brorsdotter	-11480
▁candlelight	-11481
▁commercials	-11482
▁complicated	-11483
▁concentrate	-11484
▁considerate	-11485
▁cooperative	-11486
▁deprimerade	-11487
▁diplomatisk	-11488
▁disappeared	-11489
▁discouraged	-11490
▁disgruntled	-11491
▁disobedient	-11492
▁distraherad	-11493
▁downhearted	-11494
▁dubbelmacka	-11495
▁dörrklockan	-11496
▁eftermiddag	-11497
▁encouraging	-11498
▁exceptional	-11499
▁experienced	-11500
▁flerspråkig	-11501
▁flygplatsen	-11502
▁fotografier	-11503
▁fördomsfull	-11504
▁förolämpade	-11505
▁förskräckta	-11506
▁föräldralös	-11507
▁förändrades	-11508
▁golfspelare	-11509
▁hairdresser	-11510
▁handicapped	-11511
▁handikappad	-11512
▁hemligheten	-11513
▁häftapparat	-11514
▁hänsynslösa	-11515
▁hästkapplöp	-11516
▁inefficient	-11517
▁insisterade	-11518
▁interesting	-11519
▁interrupted	-11520
▁intresserad	-11521
▁jättedåligt	-11522
▁jättehäftig	-11523
▁jätteroligt	-11524
▁kanadensare	-11525
▁kandiderade	-11526
▁kedjerökare	-11527
▁klardrömmar	-11528
▁klasskamrat	-11529
▁kolliderade	-11530
▁kommentarer	-11531
▁komplicerat	-11532
▁koncentrera	-11533
▁konfunderad	-11534
▁kontrollera	-11535
▁kännetecken	-11536
▁kärleksfull	-11537
▁köksmästare	-11538
▁låtskrivare	-11539
▁oförlåtligt	-11540
▁oförskräckt	-11541
▁orealistisk	-11542
▁outstanding	-11543
▁parkeringen	-11544
▁personligen	-11545
▁promenerade	-11546
▁radiologist	-11547
▁raspberries	-11548
▁rattfylleri	-11549
▁respekterar	-11550
▁respektfull	-11551
▁responsibly	-11552
▁sekreterare	-11553
▁serieböcker	-11554
▁sjukanmälde	-11555
▁skjutvapnet	-11556
▁solglasögon	-11557
▁sympathetic	-11558
▁tegelstenar	-11559
▁tjänstledig	-11560
▁trustworthy	-11561
▁tändstickan	-11562
▁underrättat	-11563
▁unimportant	-11564
▁unrealistic	-11565
▁uppfattning	-11566
▁vänsterhänt	-11567
▁återhämtade	-11568
▁återlämnade	-11569
▁återträffen	-11570
▁överraskade	-11571
▁överstegrar	-11572
▁ansvarsfullt	-11573
▁begravningen	-11574
▁bilnycklarna	-11575
▁cantankerous	-11576
▁confidential	-11577
▁dechiffrerat	-11578
▁deprimerande	-11579
▁disappointed	-11580
▁embarrassing	-11581
▁flintskallig	-11582
▁fortsättning	-11583
▁fruktansvärt	-11584
▁fullständigt	-11585
▁fördomsfulla	-11586
▁förolämpning	-11587
▁förstärkning	-11588
▁föräldralöst	-11589
▁genomförbart	-11590
▁hundmänniska	-11591
▁idrottskille	-11592
▁intellectual	-11593
▁joggingrunda	-11594
▁jättehungrig	-11595
▁jättestökigt	-11596
▁jättetråkigt	-11597
▁karismatiska	-11598
▁konstnärligt	-11599
▁kvalificerad	-11600
▁kärleksaffär	-11601
▁legitimation	-11602
▁multilingual	-11603
▁ordenstecken	-11604
▁overreacting	-11605
▁photographer	-11606
▁questionable	-11607
▁rabattkupong	-11608
▁reklaminslag	-11609
▁satisfactory	-11610
▁skådespelare	-11611
▁systerdotter	-11612
▁sängliggande	-11613
▁tillräknelig	-11614
▁unpardonable	-11615
▁uppenbarelse	-11616
▁uppmuntrande	-11617
▁verktygsback	-11618
▁vändningarna	-11619
▁världsrekord	-11620
▁överraskning	-11621
▁övervåningen	-11622
▁Dörrhandtaget	-11623
▁Fotograferade	-11624
▁Ovillkorligen	-11625
▁Vattenståndet	-11626
▁begränsningar	-11627
▁busshållplats	-11628
▁dubbelkollade	-11629
▁föreställning	-11630
▁improviserade	-11631
▁informationen	-11632
▁intellektuell	-11633
▁jättekonstigt	-11634
▁konsthistoria	-11635
▁kontrollerade	-11636
▁kraschlandade	-11637
▁kulspetspenna	-11638
▁landsflykting	-11639
▁misunderstood	-11640
▁påtryckningar	-11641
▁recensionerna	-11642
▁socialvårdare	-11643
▁tandställning	-11644
▁tennisarmbåge	-11645
▁tillfrisknade	-11646
▁tillräkneliga	-11647
▁undantagsrätt	-11648
▁underhållande	-11649
▁uppmärksamhet	-11650
▁utomordentlig	-11651
▁vindsvåningen	-11652
▁väckarklockor	-11653
▁hushållssyssla	-11654
▁jobberbjudande	-11655
▁jätteförvirrad	-11656
▁löneförhöjning	-11657
▁olyckshändelse	-11658
▁radioapparater	-11659
▁servicestation	-11660
▁skattebetalare	-11661
▁socialarbetare	-11662
▁tävlingslysten	-11663
▁utegångsförbud	-11664
▁verkningsfullt	-11665
▁överraskningar	-11666
▁Congratulations	-11667
▁anpassningsbara	-11668
▁femtioårsåldern	-11669
▁föreställningen	-11670
▁influensasäsong	-11671
▁samarbetsvillig	-11672
▁tillrättavisade	-11673
Bö	-11674
Du	-11675
Ju	-11676
Ne	-11677
Sa	-11678
TV	-11679
To	-11680
eu	-11681
ev	-11682
gh	-11683
ks	-11684
lc	-11685
lv	-11686
md	-11687
nc	-11688
pi	-11689
pj	-11690
vd	-11691
Får	-11692
Rul	-11693
akf	-11694
cat	-11695
das	-11696
dna	-11697
dry	-11698
emm	-11699
mg	-11700
wm	-11701
aro	-11702
ggs	-11703
idi	-11704
ieb	-11705
iru	-11706
ivl	-11707
kre	-11708
lda	-11709
ltb	-11710
lyt	-11711
mag	-11712
noc	-11713
oja	-11714
oma	-11715
oti	-11716
owe	-11717
räk	-11718
ssh	-11719
tiv	-11720
utf	-11721
vou	-11722
won	-11723
ygs	-11724
yor	-11725
älf	-11726
änl	-11727
äpn	-11728
ävt	-11729
öda	-11730
▁Bä	-11731
▁Gö	-11732
▁Tj	-11733
▁Ve	-11734
▁ah	-11735
▁dy	-11736
▁ma	-11737
aceb	-11738
agsm	-11739
ames	-11740
arli	-11741
armb	-11742
atuh	-11743
atur	-11744
ayed	-11745
bier	-11746
bils	-11747
bjöd	-11748
burg	-11749
dlös	-11750
ease	-11751
elds	-11752
eruk	-11753
erut	-11754
fier	-11755
frus	-11756
fsat	-11757
gelb	-11758
geln	-11759
ggde	-11760
grun	-11761
hatt	-11762
hirt	-11763
iece	-11764
ilbo	-11765
ipts	-11766
isks	-11767
jigt	-11768
kelp	-11769
känt	-11770
ldgr	-11771
lier	-11772
llar	-11773
lädd	-11774
länt	-11775
moni	-11776
nare	-11777
niac	-11778
nlös	-11779
oken	-11780
omis	-11781
ongr	-11782
opor	-11783
otel	-11784
otur	-11785
outs	-11786
pare	-11787
ppla	-11788
rang	-11789
rebr	-11790
resh	-11791
reun	-11792
riva	-11793
roug	-11794
räkn	-11795
sför	-11796
skra	-11797
tigt	-11798
tjus	-11799
mn	-11800
sg	-11801
god	-11802
hal	-11803
hts	-11804
iel	-11805
ilm	-11806
ods	-11807
psi	-11808
skk	-11809
tte	-11810
ymp	-11811
åen	-11812
ödv	-11813
ölk	-11814
örö	-11815
asps	-11816
elow	-11817
ialv	-11818
ippy	-11819
jukt	-11820
mire	-11821
oger	-11822
pire	-11823
sbok	-11824
sste	-11825
tjän	-11826
trib	-11827
ucky	-11828
udan	-11829
uddh	-11830
uffa	-11831
ufft	-11832
uilt	-11833
ulan	-11834
ulin	-11835
ults	-11836
umsk	-11837
umör	-11838
unkt	-11839
uppl	-11840
urat	-11841
uted	-11842
utin	-11843
vide	-11844
vikt	-11845
vämt	-11846
våda	-11847
yggs	-11848
ylde	-11849
zart	-11850
äldr	-11851
älja	-11852
änst	-11853
äpet	-11854
ärdf	-11855
ättf	-11856
ågor	-11857
åkad	-11858
ångt	-11859
åtta	-11860
önar	-11861
önst	-11862
örre	-11863
örta	-11864
övad	-11865
▁Bör	-11866
▁Exc	-11867
▁Hin	-11868
▁Räk	-11869
▁Scu	-11870
▁Trö	-11871
▁Van	-11872
▁anf	-11873
▁bac	-11874
▁der	-11875
▁dro	-11876
▁exp	-11877
▁fac	-11878
▁grå	-11879
▁gut	-11880
▁gäs	-11881
▁hyb	-11882
▁hyf	-11883
▁inu	-11884
▁irr	-11885
▁kup	-11886
▁liq	-11887
▁nig	-11888
▁osä	-11889
▁otr	-11890
▁pom	-11891
▁rac	-11892
▁reb	-11893
▁rek	-11894
▁sav	-11895
▁sha	-11896
▁suc	-11897
▁sum	-11898
▁syl	-11899
hu	-11900
lg	-11901
ub	-11902
eks	-11903
epy	-11904
fum	-11905
ode	-11906
rif	-11907
rse	-11908
thy	-11909
uad	-11910
usk	-11911
anic	-11912
ayor	-11913
dral	-11914
edad	-11915
hyve	-11916
ibal	-11917
izen	-11918
leks	-11919
lken	-11920
nore	-11921
oida	-11922
ondg	-11923
onia	-11924
pmat	-11925
pons	-11926
rann	-11927
skyr	-11928
step	-11929
tänk	-11930
äkta	-11931
▁Gra	-11932
▁Röd	-11933
▁Sho	-11934
▁Ske	-11935
▁dir	-11936
▁dyr	-11937
▁krö	-11938
▁tho	-11939
▁wax	-11940
acted	-11941
ailbo	-11942
amnet	-11943
amrad	-11944
amrat	-11945
amtal	-11946
andsk	-11947
anket	-11948
anskt	-11949
ariet	-11950
axade	-11951
caped	-11952
chiff	-11953
cited	-11954
cklad	-11955
cknar	-11956
ctory	-11957
dukar	-11958
ected	-11959
ediat	-11960
efant	-11961
emand	-11962
empel	-11963
eople	-11964
ermit	-11965
ervän	-11966
erätt	-11967
escap	-11968
essen	-11969
ethic	-11970
fekta	-11971
fiken	-11972
finit	-11973
fluen	-11974
flykt	-11975
ggrad	-11976
glade	-11977
gmäst	-11978
happy	-11979
hörde	-11980
idbil	-11981
idrog	-11982
iests	-11983
ietly	-11984
igers	-11985
ighly	-11986
igrar	-11987
ileps	-11988
ilked	-11989
ilken	-11990
ilots	-11991
ilten	-11992
imbed	-11993
inced	-11994
innor	-11995
intsk	-11996
ipper	-11997
ippie	-11998
ismat	-11999
Go	-12000
Ir	-12001
Ka	-12002
nl	-12003
vi	-12004
agi	-12005
anp	-12006
irk	-12007
kro	-12008
lom	-12009
mul	-12010
nnu	-12011
pin	-12012
sbl	-12013
sol	-12014
tod	-12015
ton	-12016
öne	-12017
▁Kj	-12018
hens	-12019
hout	-12020
iler	-12021
nens	-12022
ngad	-12023
oing	-12024
omes	-12025
orsd	-12026
otos	-12027
otro	-12028
ovär	-12029
rote	-12030
skam	-12031
tled	-12032
uens	-12033
urop	-12034
uros	-12035
verv	-12036
vära	-12037
weep	-12038
zled	-12039
älde	-12040
äser	-12041
årta	-12042
▁Sor	-12043
▁awf	-12044
▁nyt	-12045
▁nör	-12046
▁whi	-12047
agine	-12048
erous	-12049
giskt	-12050
icion	-12051
ioapp	-12052
istur	-12053
itiös	-12054
jarna	-12055
jkade	-12056
juden	-12057
kedja	-12058
kland	-12059
ktygs	-12060
lagen	-12061
lerna	-12062
letic	-12063
llaps	-12064
lovad	-12065
lovat	-12066
loyed	-12067
lycks	-12068
maken	-12069
mulär	-12070
niska	-12071
niven	-12072
nälla	-12073
obbar	-12074
obody	-12075
odded	-12076
oggar	-12077
ogram	-12078
ojade	-12079
ojkar	-12080
oliga	-12081
ollap	-12082
olver	-12083
onsid	-12084
orced	-12085
orian	-12086
orter	-12087
osamt	-12088
ottan	-12089
ottle	-12090
ottom	-12091
oyota	-12092
ozart	-12093
passa	-12094
perer	-12095
plane	-12096
ploma	-12097
polog	-12098
pplen	-12099
An	-12100
Gj	-12101
sj	-12102
tu	-12103
äc	-12104
Cou	-12105
apy	-12106
ios	-12107
kup	-12108
ucc	-12109
usb	-12110
wis	-12111
ykt	-12112
ymd	-12113
yon	-12114
öld	-12115
alth	-12116
atic	-12117
ccin	-12118
ccur	-12119
come	-12120
enis	-12121
fuse	-12122
hopa	-12123
jtar	-12124
ljut	-12125
omin	-12126
ppie	-12127
rova	-12128
samm	-12129
uten	-12130
yssa	-12131
änns	-12132
ådar	-12133
▁Fig	-12134
▁Had	-12135
▁hav	-12136
▁kod	-12137
▁piz	-12138
▁sto	-12139
▁tjo	-12140
arely	-12141
arned	-12142
ccept	-12143
ckark	-12144
elyst	-12145
izing	-12146
juten	-12147
locka	-12148
nswer	-12149
omman	-12150
ommar	-12151
ommen	-12152
ommor	-12153
onely	-12154
ormal	-12155
ormat	-12156
pplöp	-12157
queak	-12158
rabic	-12159
range	-12160
ravde	-12161
raven	-12162
reakf	-12163
reepy	-12164
rhand	-12165
rible	-12166
risti	-12167
ristm	-12168
robat	-12169
rolig	-12170
rydde	-12171
rämde	-12172
råter	-12173
sakar	-12174
saken	-12175
sects	-12176
sklig	-12177
smänn	-12178
smäst	-12179
sstar	-12180
ssume	-12181
stand	-12182
sterh	-12183
stled	-12184
synsl	-12185
säkta	-12186
tains	-12187
tjust	-12188
ttans	-12189
ucket	-12190
ucted	-12191
udden	-12192
udvär	-12193
uffad	-12194
uffar	-12195
ulden	-12196
ulous	-12197
ulärt	-12198
umors	-12199
Fö	-12200
ah	-12201
gw	-12202
kå	-12203
Van	-12204
dap	-12205
ded	-12206
edg	-12207
esi	-12208
ixa	-12209
mel	-12210
nts	-12211
oes	-12212
oor	-12213
ruk	-12214
röt	-12215
sät	-12216
ymt	-12217
▁Cl	-12218
Ever	-12219
cept	-12220
hant	-12221
here	-12222
ktes	-12223
lies	-12224
lloj	-12225
lykt	-12226
lynt	-12227
onou	-12228
ratt	-12229
ties	-12230
trak	-12231
ugnt	-12232
uked	-12233
verr	-12234
vies	-12235
ymde	-12236
äkte	-12237
ärpt	-12238
ålam	-12239
▁Abs	-12240
▁Luk	-12241
▁Rym	-12242
▁mut	-12243
▁opt	-12244
aknar	-12245
bilar	-12246
emies	-12247
espel	-12248
pluss	-12249
ption	-12250
sning	-12251
ssive	-12252
udies	-12253
ukade	-12254
ukost	-12255
umpad	-12256
undar	-12257
unity	-12258
unnen	-12259
urder	-12260
uropa	-12261
vator	-12262
verdr	-12263
veryt	-12264
vetsl	-12265
vitet	-12266
vslöj	-12267
värad	-12268
xorna	-12269
yggen	-12270
ymmet	-12271
yssna	-12272
äggen	-12273
ämnat	-12274
ändel	-12275
änkte	-12276
ärmen	-12277
ätteh	-12278
ättek	-12279
ålade	-12280
åpmat	-12281
årbar	-12282
ödlig	-12283
ölkar	-12284
ömmar	-12285
ömnig	-12286
öndag	-12287
ördad	-12288
örjan	-12289
övert	-12290
övlig	-12291
▁Atta	-12292
▁Budd	-12293
▁Buss	-12294
▁Chin	-12295
▁Crow	-12296
▁Fran	-12297
▁Funk	-12298
▁Germ	-12299
Ret	-12300
edå	-12301
gag	-12302
kot	-12303
ldp	-12304
nek	-12305
nig	-12306
oir	-12307
slå	-12308
spr	-12309
xte	-12310
ygn	-12311
ypr	-12312
örf	-12313
ceiv	-12314
dade	-12315
entr	-12316
ford	-12317
fron	-12318
insl	-12319
lsen	-12320
läck	-12321
orer	-12322
ppos	-12323
psen	-12324
rask	-12325
rimp	-12326
säck	-12327
ugar	-12328
vätt	-12329
▁Apr	-12330
▁Ple	-12331
▁apr	-12332
▁kab	-12333
▁påk	-12334
▁tek	-12335
▁tum	-12336
ankri	-12337
dades	-12338
dagar	-12339
edjer	-12340
eldag	-12341
erned	-12342
erved	-12343
ieved	-12344
igned	-12345
jerna	-12346
jerök	-12347
oddag	-12348
onsen	-12349
opted	-12350
prise	-12351
rerad	-12352
xious	-12353
ördag	-12354
▁Grin	-12355
▁Henn	-12356
▁Hors	-12357
▁Kjol	-12358
▁Kämp	-12359
▁Körs	-12360
▁Mayb	-12361
▁Miss	-12362
▁Russ	-12363
▁Scub	-12364
▁Sear	-12365
▁Sönd	-12366
▁Toky	-12367
▁Välk	-12368
▁Welc	-12369
▁appl	-12370
▁arab	-12371
▁armb	-12372
▁asth	-12373
▁begr	-12374
▁bekr	-12375
▁besk	-12376
▁besv	-12377
▁bias	-12378
▁bloo	-12379
▁caug	-12380
▁cult	-12381
▁dipl	-12382
▁disa	-12383
▁doft	-12384
▁dukt	-12385
▁dumb	-12386
▁fasc	-12387
▁flak	-12388
▁flås	-12389
▁fotb	-12390
▁frih	-12391
▁froz	-12392
▁fräk	-12393
▁fusk	-12394
▁fyll	-12395
▁fyrt	-12396
▁garb	-12397
▁hjul	-12398
▁hjär	-12399
Ru	-12400
ee	-12401
nj	-12402
nv	-12403
Our	-12404
Rin	-12405
bli	-12406
död	-12407
eop	-12408
fon	-12409
ibl	-12410
ilb	-12411
khy	-12412
lfr	-12413
psy	-12414
stu	-12415
tig	-12416
ybl	-12417
aldo	-12418
bles	-12419
bliv	-12420
cise	-12421
happ	-12422
jekt	-12423
olic	-12424
ombl	-12425
ortr	-12426
quot	-12427
rump	-12428
sear	-12429
sång	-12430
wish	-12431
åket	-12432
åkig	-12433
åkor	-12434
▁Ibl	-12435
▁Ris	-12436
▁Wou	-12437
▁fön	-12438
▁gro	-12439
▁ibl	-12440
▁prä	-12441
▁sät	-12442
▁tje	-12443
ached	-12444
acher	-12445
aches	-12446
acker	-12447
atser	-12448
bling	-12449
enced	-12450
erspr	-12451
ippte	-12452
nyone	-12453
ocket	-12454
ulted	-12455
äpper	-12456
äppte	-12457
ättad	-12458
ättem	-12459
ättes	-12460
ågade	-12461
åkade	-12462
▁anni	-12463
▁hybr	-12464
▁häls	-12465
▁hård	-12466
▁incr	-12467
▁infl	-12468
▁invo	-12469
▁jogg	-12470
▁jugg	-12471
▁kaff	-12472
▁kaot	-12473
▁keps	-12474
▁knif	-12475
▁kvin	-12476
▁kämp	-12477
▁lapt	-12478
▁lawy	-12479
▁lott	-12480
▁mone	-12481
▁mutt	-12482
▁nock	-12483
▁nogg	-12484
▁nämn	-12485
▁obey	-12486
▁ordb	-12487
▁pape	-12488
▁plac	-12489
▁poin	-12490
▁pomm	-12491
▁popc	-12492
▁popu	-12493
▁prep	-12494
▁prin	-12495
▁puzz	-12496
▁radi	-12497
▁reco	-12498
▁rekl	-12499
Ar	-12500
Gr	-12501
dö	-12502
ey	-12503
Ger	-12504
avl	-12505
elb	-12506
idl	-12507
jar	-12508
mps	-12509
noy	-12510
pän	-12511
vös	-12512
önt	-12513
▁Ba	-12514
aksl	-12515
aktl	-12516
arsl	-12517
aseb	-12518
bout	-12519
chas	-12520
erök	-12521
hjäl	-12522
intl	-12523
jukd	-12524
jukh	-12525
otto	-12526
perf	-12527
peri	-12528
pert	-12529
pten	-12530
rash	-12531
siga	-12532
ulat	-12533
uner	-12534
yper	-12535
äger	-12536
åakt	-12537
▁jou	-12538
adise	-12539
aktis	-12540
aktur	-12541
ashed	-12542
asiga	-12543
bered	-12544
domar	-12545
erapi	-12546
ilver	-12547
indel	-12548
irstb	-12549
irsty	-12550
jukan	-12551
order	-12552
oying	-12553
ppiga	-12554
rater	-12555
reter	-12556
tenen	-12557
ulten	-12558
utten	-12559
ägrar	-12560
ätteb	-12561
örber	-12562
▁Förk	-12563
▁Förl	-12564
▁Väck	-12565
▁anyw	-12566
▁chor	-12567
▁crus	-12568
▁halk	-12569
▁musm	-12570
▁noti	-12571
▁rais	-12572
▁rumm	-12573
▁rödv	-12574
▁salm	-12575
▁schw	-12576
▁shar	-12577
▁simp	-12578
▁sinc	-12579
▁sjun	-12580
▁skju	-12581
▁skot	-12582
▁skre	-12583
▁skyd	-12584
▁succ	-12585
▁sush	-12586
▁tekn	-12587
▁tjat	-12588
▁tråd	-12589
▁tvås	-12590
▁unge	-12591
▁ungj	-12592
▁upfr	-12593
▁vacc	-12594
▁varf	-12595
▁veck	-12596
▁vilk	-12597
▁välj	-12598
▁vänj	-12599
Pe	-12600
fj	-12601
ggr	-12602
ggt	-12603
lur	-12604
owm	-12605
oya	-12606
rum	-12607
til	-12608
ägr	-12609
öks	-12610
Gill	-12611
adio	-12612
bbig	-12613
eace	-12614
emed	-12615
empl	-12616
etim	-12617
hals	-12618
hild	-12619
loat	-12620
nuft	-12621
ogen	-12622
onpl	-12623
ovis	-12624
pler	-12625
rung	-12626
spen	-12627
ture	-12628
ures	-12629
vann	-12630
visa	-12631
visk	-12632
yter	-12633
ängs	-12634
äpen	-12635
ökte	-12636
örka	-12637
▁ash	-12638
▁qui	-12639
▁wea	-12640
amsen	-12641
arpen	-12642
enace	-12643
ilmer	-12644
ilure	-12645
inite	-12646
okade	-12647
ophet	-12648
opter	-12649
plikt	-12650
stair	-12651
unter	-12652
viden	-12653
visar	-12654
ympat	-12655
ållet	-12656
▁Vänt	-12657
▁adap	-12658
▁choc	-12659
▁elep	-12660
▁guld	-12661
▁regu	-12662
▁remo	-12663
▁smar	-12664
▁spök	-12665
▁welc	-12666
▁writ	-12667
ackert	-12668
agetti	-12669
ailbox	-12670
ailure	-12671
ainted	-12672
ainter	-12673
aktlös	-12674
alleng	-12675
allous	-12676
amasen	-12677
ammalt	-12678
amodet	-12679
anoida	-12680
ansinn	-12681
antags	-12682
antast	-12683
apansk	-12684
appear	-12685
appoin	-12686
arbets	-12687
arless	-12688
arligt	-12689
arming	-12690
artiga	-12691
artled	-12692
asagna	-12693
asagne	-12694
asande	-12695
asskam	-12696
asskom	-12697
atiska	-12698
aufför	-12699
Bå	-12700
ku	-12701
ms	-12702
Rop	-12703
bla	-12704
dad	-12705
fte	-12706
gpl	-12707
isa	-12708
jäv	-12709
pla	-12710
sla	-12711
trå	-12712
vla	-12713
xpl	-12714
xty	-12715
ypl	-12716
ögu	-12717
▁Su	-12718
▁bj	-12719
Pick	-12720
amil	-12721
artl	-12722
bbla	-12723
egir	-12724
ertr	-12725
geta	-12726
insk	-12727
irpl	-12728
knas	-12729
llat	-12730
neas	-12731
ontr	-12732
rabs	-12733
ssla	-12734
tful	-12735
vänt	-12736
ölja	-12737
▁Fun	-12738
▁Gis	-12739
▁cap	-12740
▁dia	-12741
▁dip	-12742
▁diz	-12743
▁hak	-12744
▁ihå	-12745
▁råt	-12746
▁änn	-12747
anese	-12748
ctful	-12749
ddade	-12750
ellow	-12751
erget	-12752
jälvs	-12753
nting	-12754
ostym	-12755
ottsk	-12756
stick	-12757
unger	-12758
utely	-12759
vände	-12760
vären	-12761
ägget	-12762
öljde	-12763
▁expe	-12764
▁häns	-12765
▁intr	-12766
▁pref	-12767
▁påtr	-12768
▁scou	-12769
▁surp	-12770
▁uttr	-12771
▁älsk	-12772
areful	-12773
austed	-12774
batten	-12775
bbling	-12776
bility	-12777
bilsch	-12778
bliken	-12779
burken	-12780
caping	-12781
cation	-12782
dralös	-12783
eeping	-12784
eliver	-12785
emonad	-12786
enerar	-12787
ensare	-12788
ension	-12789
ephant	-12790
eptera	-12791
erfect	-12792
erfekt	-12793
ermite	-12794
errari	-12795
essade	-12796
essage	-12797
essful	-12798
essjuk	-12799
Ev	-12800
Fo	-12801
of	-12802
vk	-12803
Sit	-12804
eff	-12805
eon	-12806
eou	-12807
fek	-12808
gna	-12809
gue	-12810
hon	-12811
ldg	-12812
mok	-12813
räf	-12814
örb	-12815
amag	-12816
arad	-12817
arin	-12818
arkc	-12819
cord	-12820
ends	-12821
eran	-12822
fect	-12823
fekt	-12824
gont	-12825
grar	-12826
ingu	-12827
kord	-12828
lart	-12829
likt	-12830
lope	-12831
mord	-12832
orat	-12833
ordb	-12834
ordf	-12835
pool	-12836
rank	-12837
rikt	-12838
tagi	-12839
vimm	-12840
writ	-12841
yssl	-12842
▁Klo	-12843
▁Sjö	-12844
▁Spe	-12845
▁bec	-12846
apons	-12847
arrig	-12848
bious	-12849
chool	-12850
endly	-12851
errar	-12852
fterm	-12853
gonen	-12854
insam	-12855
ities	-12856
korre	-12857
omord	-12858
ooled	-12859
orätt	-12860
rarna	-12861
rated	-12862
river	-12863
skämd	-12864
sleep	-12865
stank	-12866
stiny	-12867
öpare	-12868
▁Dimm	-12869
▁Spis	-12870
▁imor	-12871
▁liks	-12872
▁musi	-12873
▁patt	-12874
▁samm	-12875
▁shak	-12876
▁skyt	-12877
▁spee	-12878
adelig	-12879
ammade	-12880
ammigt	-12881
andrar	-12882
ckligt	-12883
essons	-12884
esvara	-12885
etaget	-12886
etiska	-12887
ferade	-12888
finite	-12889
färlig	-12890
gården	-12891
hindra	-12892
hyfsad	-12893
hyfsat	-12894
hövlig	-12895
icated	-12896
icerat	-12897
iciell	-12898
icions	-12899
Hy	-12900
akj	-12901
amh	-12902
enb	-12903
lim	-12904
löj	-12905
mit	-12906
nöj	-12907
okl	-12908
omy	-12909
ppi	-12910
rom	-12911
vie	-12912
vok	-12913
wat	-12914
ylt	-12915
yml	-12916
ymr	-12917
yns	-12918
öja	-12919
öje	-12920
▁Gl	-12921
aive	-12922
ffin	-12923
hets	-12924
icel	-12925
ingr	-12926
kiga	-12927
migt	-12928
onår	-12929
orty	-12930
rage	-12931
urfe	-12932
äsbl	-12933
▁Död	-12934
▁Tok	-12935
▁add	-12936
▁böj	-12937
▁drö	-12938
▁enj	-12939
▁fok	-12940
▁fyr	-12941
▁gär	-12942
▁jok	-12943
▁löj	-12944
▁möj	-12945
▁neg	-12946
▁shi	-12947
▁tan	-12948
▁wan	-12949
addig	-12950
angel	-12951
angle	-12952
arrow	-12953
atchf	-12954
lated	-12955
locks	-12956
lydig	-12957
lände	-12958
nolog	-12959
taget	-12960
tagna	-12961
äckta	-12962
ädade	-12963
ärdig	-12964
öjade	-12965
▁Char	-12966
▁fars	-12967
▁finn	-12968
▁flöj	-12969
▁forw	-12970
▁hörs	-12971
▁konc	-12972
▁marr	-12973
▁plöj	-12974
▁poän	-12975
andtag	-12976
arrass	-12977
atched	-12978
ateder	-12979
drades	-12980
elfish	-12981
elåten	-12982
icklig	-12983
icture	-12984
ikansk	-12985
ildish	-12986
ilking	-12987
imerad	-12988
ingret	-12989
inslag	-12990
isfied	-12991
iskret	-12992
iterar	-12993
itions	-12994
itious	-12995
jektiv	-12996
joying	-12997
jölken	-12998
jörnar	-12999
Ol	-13000
tm	-13001
All	-13002
Nat	-13003
anx	-13004
hun	-13005
jög	-13006
ksa	-13007
lik	-13008
non	-13009
nst	-13010
sik	-13011
tik	-13012
ögn	-13013
ögt	-13014
öpt	-13015
▁wi	-13016
anik	-13017
dras	-13018
elåt	-13019
ests	-13020
etik	-13021
fore	-13022
fäng	-13023
ikan	-13024
ikat	-13025
itiz	-13026
marr	-13027
räng	-13028
ssna	-13029
svar	-13030
säkt	-13031
tals	-13032
udik	-13033
usik	-13034
vars	-13035
verk	-13036
väng	-13037
▁mir	-13038
▁osk	-13039
▁sik	-13040
▁utf	-13041
arren	-13042
cting	-13043
delat	-13044
enast	-13045
gnade	-13046
ikett	-13047
juger	-13048
knade	-13049
leasu	-13050
nsure	-13051
owerl	-13052
teför	-13053
ultat	-13054
urnus	-13055
vätta	-13056
ybody	-13057
älder	-13058
änges	-13059
ängiv	-13060
ästen	-13061
ånvar	-13062
ögner	-13063
önade	-13064
örren	-13065
▁Cong	-13066
▁Fren	-13067
▁awes	-13068
▁drug	-13069
▁funn	-13070
▁färd	-13071
▁halt	-13072
▁konf	-13073
▁pest	-13074
▁ridd	-13075
▁roug	-13076
▁snög	-13077
knelig	-13078
krobat	-13079
ksamma	-13080
ktliga	-13081
ktygsl	-13082
lander	-13083
larfär	-13084
lation	-13085
laxing	-13086
lighet	-13087
llorna	-13088
lovade	-13089
lowers	-13090
lyckad	-13091
lyckas	-13092
lycksh	-13093
maning	-13094
mazing	-13095
narkar	-13096
nekade	-13097
nesses	-13098
nuffas	-13099
Mi	-13100
gm	-13101
ho	-13102
sr	-13103
▁z	-13104
Eld	-13105
Hin	-13106
Lat	-13107
Ner	-13108
Rit	-13109
gru	-13110
klo	-13111
löt	-13112
oän	-13113
ppy	-13114
äva	-13115
affe	-13116
effe	-13117
ersp	-13118
ngen	-13119
oder	-13120
offe	-13121
rugg	-13122
tera	-13123
uska	-13124
verg	-13125
ölka	-13126
▁Föl	-13127
▁Skj	-13128
▁Slä	-13129
▁abd	-13130
▁abr	-13131
▁flä	-13132
▁flå	-13133
▁föl	-13134
▁nyh	-13135
▁spi	-13136
▁web	-13137
arera	-13138
aught	-13139
betet	-13140
chers	-13141
ckera	-13142
dress	-13143
enera	-13144
erska	-13145
etera	-13146
ffekt	-13147
gress	-13148
heers	-13149
isera	-13150
ktera	-13151
pened	-13152
rowed	-13153
stroy	-13154
tress	-13155
ängel	-13156
ätska	-13157
▁Bilj	-13158
▁Skän	-13159
▁burp	-13160
▁clim	-13161
▁clou	-13162
▁flod	-13163
▁hurr	-13164
▁klas	-13165
▁nykt	-13166
▁plad	-13167
▁rela	-13168
▁ripp	-13169
▁runn	-13170
▁unus	-13171
▁vegg	-13172
▁yest	-13173
assera	-13174
cknade	-13175
imbing	-13176
ingers	-13177
isters	-13178
lingen	-13179
närlig	-13180
obster	-13181
odding	-13182
ogramm	-13183
olated	-13184
ollera	-13185
olnigt	-13186
ologiz	-13187
ombord	-13188
omland	-13189
omnade	-13190
omniac	-13191
omsade	-13192
ondgår	-13193
onents	-13194
onerna	-13195
ontact	-13196
ookies	-13197
orkade	-13198
orners	-13199
eq	-13200
lm	-13201
pn	-13202
yn	-13203
Foo	-13204
abb	-13205
aby	-13206
avt	-13207
bbt	-13208
bby	-13209
eiz	-13210
jig	-13211
pty	-13212
sso	-13213
appe	-13214
appr	-13215
ards	-13216
bbar	-13217
bbed	-13218
bbit	-13219
days	-13220
fför	-13221
ieva	-13222
illb	-13223
inje	-13224
japp	-13225
jten	-13226
lats	-13227
nabb	-13228
obod	-13229
omsa	-13230
oyed	-13231
rats	-13232
reez	-13233
▁Häm	-13234
▁Nöj	-13235
▁ble	-13236
▁döt	-13237
▁fli	-13238
▁flö	-13239
▁gev	-13240
▁gry	-13241
▁hou	-13242
▁läk	-13243
▁läs	-13244
▁oär	-13245
▁räd	-13246
▁wav	-13247
andic	-13248
appan	-13249
appor	-13250
cises	-13251
dligt	-13252
enbar	-13253
erday	-13254
ffats	-13255
heard	-13256
heats	-13257
icial	-13258
jutsa	-13259
mired	-13260
nslös	-13261
onday	-13262
oudly	-13263
yssla	-13264
äsmat	-13265
▁Happ	-13266
▁Papp	-13267
▁Tapp	-13268
▁brun	-13269
▁chee	-13270
▁flas	-13271
▁fler	-13272
▁flow	-13273
▁kapp	-13274
▁läpp	-13275
ananas	-13276
erbjud	-13277
etired	-13278
kerhet	-13279
lydigt	-13280
osorna	-13281
ossade	-13282
otball	-13283
others	-13284
othing	-13285
otogra	-13286
ourage	-13287
ournal	-13288
overed	-13289
oyable	-13290
paddor	-13291
patisk	-13292
pbilen	-13293
pelsin	-13294
perfin	-13295
plaint	-13296
plomat	-13297
ppnade	-13298
ppning	-13299
bu	-13300
fö	-13301
kj	-13302
ko	-13303
Sed	-13304
avi	-13305
fel	-13306
ids	-13307
jup	-13308
ler	-13309
oal	-13310
orp	-13311
sit	-13312
sju	-13313
▁jä	-13314
Fill	-13315
assa	-13316
elju	-13317
ersk	-13318
erös	-13319
etal	-13320
fred	-13321
jour	-13322
pher	-13323
rack	-13324
rass	-13325
rött	-13326
unkn	-13327
▁Mem	-13328
▁Näs	-13329
▁Skå	-13330
▁Sla	-13331
▁Slu	-13332
▁kli	-13333
▁län	-13334
▁mju	-13335
adies	-13336
alked	-13337
anick	-13338
asser	-13339
asses	-13340
cised	-13341
eally	-13342
ediga	-13343
elled	-13344
ellen	-13345
essju	-13346
grunt	-13347
ionat	-13348
iskar	-13349
itlig	-13350
jälvk	-13351
kring	-13352
kulle	-13353
ollar	-13354
ollat	-13355
ollen	-13356
ortar	-13357
ource	-13358
ourte	-13359
pisar	-13360
pring	-13361
raher	-13362
ranna	-13363
riate	-13364
ringa	-13365
rogen	-13366
äslig	-13367
ättav	-13368
▁Slän	-13369
▁Word	-13370
▁desc	-13371
▁desi	-13372
▁foll	-13373
▁husb	-13374
▁simt	-13375
▁undv	-13376
▁väla	-13377
▁välk	-13378
arring	-13379
atchen	-13380
elsten	-13381
hering	-13382
primer	-13383
reaten	-13384
rekord	-13385
resset	-13386
ressiv	-13387
rested	-13388
ringer	-13389
rotect	-13390
rugged	-13391
räckta	-13392
samhet	-13393
samvar	-13394
sekter	-13395
skling	-13396
slagen	-13397
splats	-13398
ssades	-13399
La	-13400
alö	-13401
fun	-13402
lee	-13403
neb	-13404
uas	-13405
yet	-13406
ägl	-13407
öka	-13408
ömt	-13409
▁ho	-13410
arer	-13411
ayer	-13412
baka	-13413
enne	-13414
eous	-13415
eröm	-13416
fost	-13417
goda	-13418
ongw	-13419
ostr	-13420
osts	-13421
rors	-13422
rost	-13423
rown	-13424
samb	-13425
samh	-13426
samv	-13427
tans	-13428
tsam	-13429
uage	-13430
uces	-13431
ömma	-13432
öper	-13433
öpte	-13434
örne	-13435
▁Spi	-13436
▁pac	-13437
▁söm	-13438
aksam	-13439
atsam	-13440
betar	-13441
drats	-13442
drost	-13443
erant	-13444
etime	-13445
inued	-13446
ittne	-13447
levde	-13448
neför	-13449
oppen	-13450
orrar	-13451
react	-13452
ssant	-13453
utsam	-13454
viser	-13455
yckas	-13456
ördar	-13457
▁Bost	-13458
▁Spar	-13459
▁ager	-13460
▁agit	-13461
▁flin	-13462
▁glup	-13463
▁jong	-13464
▁peng	-13465
▁penn	-13466
▁pens	-13467
▁väld	-13468
acksam	-13469
aiting	-13470
athing	-13471
betare	-13472
eption	-13473
erfull	-13474
imning	-13475
ishing	-13476
ollaps	-13477
ostade	-13478
ounded	-13479
oundre	-13480
ssible	-13481
sterad	-13482
stiskt	-13483
sträng	-13484
tacted	-13485
tanter	-13486
tented	-13487
tering	-13488
ternat	-13489
uating	-13490
udying	-13491
uffing	-13492
uggumm	-13493
ulance	-13494
umping	-13495
unchen	-13496
ungera	-13497
unitet	-13498
unknar	-13499
Dr	-13500
nm	-13501
ali	-13502
arj	-13503
ckp	-13504
elg	-13505
gga	-13506
jde	-13507
niz	-13508
odu	-13509
orc	-13510
oro	-13511
öde	-13512
öpa	-13513
▁On	-13514
▁Ov	-13515
▁Pa	-13516
▁Po	-13517
enge	-13518
fisk	-13519
gnar	-13520
hook	-13521
ipas	-13522
iskn	-13523
knar	-13524
loor	-13525
nark	-13526
nisk	-13527
pair	-13528
rong	-13529
sinn	-13530
ugge	-13531
ysst	-13532
ångs	-13533
▁Dri	-13534
▁Par	-13535
▁Pot	-13536
▁Pre	-13537
▁Wor	-13538
▁cul	-13539
▁ovä	-13540
▁sne	-13541
▁sno	-13542
▁snä	-13543
▁unl	-13544
alisk	-13545
altet	-13546
amous	-13547
dring	-13548
edare	-13549
emble	-13550
etisk	-13551
ffect	-13552
odnar	-13553
onisk	-13554
onous	-13555
table	-13556
tayed	-13557
tsikt	-13558
ångad	-13559
örnar	-13560
▁Mång	-13561
▁Slut	-13562
▁beho	-13563
▁cous	-13564
▁exer	-13565
▁hämn	-13566
▁pati	-13567
▁proo	-13568
▁reve	-13569
▁scor	-13570
▁scra	-13571
▁skru	-13572
▁tenn	-13573
▁tång	-13574
artisk	-13575
entisk	-13576
igured	-13577
inated	-13578
kerous	-13579
ottare	-13580
taying	-13581
unning	-13582
unskap	-13583
urdays	-13584
urligt	-13585
ushing	-13586
uspect	-13587
ustera	-13588
utiful	-13589
utsiga	-13590
varlig	-13591
vekade	-13592
vening	-13593
vented	-13594
veränt	-13595
villig	-13596
visade	-13597
väntar	-13598
väpnad	-13599
Fä	-13600
Ge	-13601
yk	-13602
Någ	-13603
ape	-13604
fad	-13605
ief	-13606
isi	-13607
los	-13608
mos	-13609
ogs	-13610
rov	-13611
uds	-13612
umb	-13613
ylf	-13614
ånb	-13615
ånv	-13616
▁Fy	-13617
atef	-13618
beta	-13619
bish	-13620
dska	-13621
elie	-13622
erms	-13623
fish	-13624
fume	-13625
fäll	-13626
ieve	-13627
ifik	-13628
inge	-13629
kout	-13630
lose	-13631
ltar	-13632
osam	-13633
rate	-13634
stag	-13635
umed	-13636
unct	-13637
ussh	-13638
yckn	-13639
älls	-13640
▁ext	-13641
▁nos	-13642
▁nut	-13643
▁rån	-13644
▁wep	-13645
erate	-13646
esses	-13647
esson	-13648
giska	-13649
inkän	-13650
ishap	-13651
ishes	-13652
olish	-13653
onish	-13654
ookie	-13655
ssess	-13656
ulate	-13657
unden	-13658
unish	-13659
ällan	-13660
ällsk	-13661
▁Cher	-13662
▁Näst	-13663
▁Whal	-13664
▁förr	-13665
▁himl	-13666
▁hims	-13667
▁pepp	-13668
▁trum	-13669
▁unem	-13670
essary	-13671
gerous	-13672
ickets	-13673
ionate	-13674
ishone	-13675
oporna	-13676
verish	-13677
väskan	-13678
wering	-13679
yckats	-13680
ycklig	-13681
yggrad	-13682
ymling	-13683
yssnar	-13684
ything	-13685
zipper	-13686
ädbarn	-13687
äffade	-13688
äggdag	-13689
ändras	-13690
änglig	-13691
ängtan	-13692
äpnade	-13693
ärdigt	-13694
ästare	-13695
ättest	-13696
ättrar	-13697
ävande	-13698
ångade	-13699
dn	-13700
gi	-13701
hj	-13702
aud	-13703
eum	-13704
gum	-13705
isn	-13706
lum	-13707
pum	-13708
sak	-13709
sas	-13710
tre	-13711
tum	-13712
uch	-13713
udg	-13714
uml	-13715
yft	-13716
äft	-13717
▁Lj	-13718
▁hu	-13719
cens	-13720
fied	-13721
hone	-13722
iöst	-13723
lied	-13724
nsak	-13725
ormt	-13726
pbil	-13727
raft	-13728
skiv	-13729
ssum	-13730
umle	-13731
uspe	-13732
öjda	-13733
öran	-13734
▁Bud	-13735
▁Jur	-13736
▁Rum	-13737
▁Spa	-13738
▁bum	-13739
▁coz	-13740
▁jud	-13741
▁ori	-13742
▁orä	-13743
▁pål	-13744
▁que	-13745
ained	-13746
airly	-13747
erkra	-13748
ktans	-13749
nders	-13750
ownst	-13751
rande	-13752
revet	-13753
udent	-13754
vande	-13755
yggon	-13756
ållss	-13757
▁alon	-13758
▁badd	-13759
▁badg	-13760
▁behå	-13761
▁coff	-13762
▁drum	-13763
▁frig	-13764
▁kult	-13765
▁likn	-13766
▁oran	-13767
▁plum	-13768
▁qual	-13769
▁vänt	-13770
▁whis	-13771
▁wink	-13772
▁witn	-13773
arande	-13774
ations	-13775
bliven	-13776
elande	-13777
etande	-13778
gusted	-13779
jected	-13780
ndagar	-13781
värlig	-13782
ågande	-13783
ångsam	-13784
öjning	-13785
ömnlös	-13786
önster	-13787
öpning	-13788
örjade	-13789
örstar	-13790
örstig	-13791
överle	-13792
överst	-13793
▁Bland	-13794
▁Buckl	-13795
▁Chick	-13796
▁Dörrk	-13797
▁Firef	-13798
▁Freed	-13799
ID	-13800
Nö	-13801
Ok	-13802
Rö	-13803
bi	-13804
dg	-13805
fa	-13806
nr	-13807
adr	-13808
bot	-13809
fan	-13810
gra	-13811
gör	-13812
hef	-13813
rib	-13814
urg	-13815
vap	-13816
äml	-13817
▁Ro	-13818
▁Ru	-13819
▁Ry	-13820
▁Rö	-13821
ains	-13822
anka	-13823
brig	-13824
eret	-13825
fade	-13826
gerh	-13827
gonb	-13828
hake	-13829
ires	-13830
ixed	-13831
lain	-13832
lind	-13833
rigu	-13834
rind	-13835
tall	-13836
tion	-13837
vind	-13838
wind	-13839
äffa	-13840
året	-13841
öger	-13842
▁Beg	-13843
▁Rat	-13844
▁Rel	-13845
▁Res	-13846
▁Råt	-13847
▁glu	-13848
▁glö	-13849
▁gri	-13850
▁kap	-13851
▁nex	-13852
▁utö	-13853
adger	-13854
arade	-13855
bborn	-13856
cakes	-13857
gerat	-13858
gerna	-13859
igarr	-13860
indow	-13861
ingsl	-13862
ktiga	-13863
vända	-13864
▁Foll	-13865
▁boar	-13866
▁bore	-13867
▁bråd	-13868
▁evak	-13869
▁geto	-13870
▁glän	-13871
▁grat	-13872
▁impo	-13873
▁svär	-13874
▁tvät	-13875
ineapp	-13876
▁Behär	-13877
▁Förol	-13878
▁Försv	-13879
▁Försö	-13880
▁Goodn	-13881
▁Overl	-13882
▁Plikt	-13883
▁Satur	-13884
▁Skepp	-13885
▁Skick	-13886
▁Skynd	-13887
▁Slapp	-13888
▁aband	-13889
▁absol	-13890
▁accur	-13891
▁advok	-13892
▁akade	-13893
▁alter	-13894
▁alway	-13895
▁anmäl	-13896
▁annar	-13897
▁annon	-13898
▁appla	-13899
bör	-13900
ctu	-13901
dab	-13902
ect	-13903
hei	-13904
jda	-13905
lac	-13906
onc	-13907
opy	-13908
qui	-13909
uct	-13910
udi	-13911
ugh	-13912
örg	-13913
▁Ly	-13914
▁Op	-13915
Rome	-13916
akas	-13917
akhy	-13918
allr	-13919
ccom	-13920
hion	-13921
kera	-13922
kerh	-13923
kert	-13924
lomm	-13925
mite	-13926
onqu	-13927
oria	-13928
quar	-13929
quas	-13930
quir	-13931
rabb	-13932
ract	-13933
rama	-13934
reas	-13935
rect	-13936
ropp	-13937
sect	-13938
sköt	-13939
ssen	-13940
stel	-13941
tend	-13942
umpk	-13943
wice	-13944
wiss	-13945
ända	-13946
äril	-13947
åker	-13948
▁Påb	-13949
▁Rop	-13950
▁dik	-13951
▁eva	-13952
▁föt	-13953
▁köt	-13954
▁näs	-13955
arker	-13956
ffice	-13957
inish	-13958
ision	-13959
isker	-13960
kerou	-13961
ojigt	-13962
onent	-13963
oppar	-13964
oppet	-13965
pnade	-13966
stion	-13967
ärker	-13968
▁Bird	-13969
▁Doct	-13970
▁danc	-13971
▁gard	-13972
▁moti	-13973
▁plöt	-13974
▁sham	-13975
▁stöt	-13976
driver	-13977
fterno	-13978
förbud	-13979
inally	-13980
ingens	-13981
kering	-13982
oppade	-13983
ryckte	-13984
uvudet	-13985
ärning	-13986
▁appre	-13987
▁argum	-13988
▁asham	-13989
▁ashtr	-13990
▁avsky	-13991
▁avstå	-13992
▁bankr	-13993
▁barns	-13994
▁beard	-13995
▁beatn	-13996
▁bedår	-13997
▁bekrä	-13998
▁bekym	-13999
No	-14000
do	-14001
Red	-14002
ano	-14003
bed	-14004
enj	-14005
ffy	-14006
jän	-14007
kam	-14008
kär	-14009
llp	-14010
mål	-14011
nsw	-14012
olt	-14013
otb	-14014
ums	-14015
yes	-14016
▁öb	-14017
ailb	-14018
ansv	-14019
arar	-14020
arto	-14021
artr	-14022
arts	-14023
arty	-14024
ckel	-14025
gens	-14026
ingt	-14027
nart	-14028
otar	-14029
rera	-14030
ulli	-14031
vart	-14032
▁Guy	-14033
▁Wat	-14034
▁obe	-14035
ainst	-14036
altat	-14037
artar	-14038
artis	-14039
dning	-14040
edsen	-14041
etend	-14042
ftern	-14043
inted	-14044
itera	-14045
jligt	-14046
jning	-14047
jälvf	-14048
oppas	-14049
pligt	-14050
sight	-14051
sligt	-14052
tegen	-14053
ullst	-14054
vligt	-14055
vning	-14056
åligt	-14057
åning	-14058
öning	-14059
▁afra	-14060
▁hemm	-14061
▁knar	-14062
▁mamm	-14063
▁obst	-14064
▁teen	-14065
agligt	-14066
appret	-14067
arning	-14068
atient	-14069
ckning	-14070
ectual	-14071
edning	-14072
igning	-14073
inning	-14074
ktligt	-14075
llning	-14076
ockade	-14077
onight	-14078
orning	-14079
owning	-14080
raight	-14081
rämmer	-14082
ughing	-14083
änning	-14084
▁atten	-14085
▁behav	-14086
▁belåt	-14087
▁benäg	-14088
▁bered	-14089
▁beröm	-14090
▁beskr	-14091
▁borst	-14092
▁bortr	-14093
▁broms	-14094
▁broug	-14095
▁bruta	-14096
▁bröll	-14097
▁busin	-14098
▁caref	-14099
iö	-14100
vo	-14101
Mår	-14102
aze	-14103
gif	-14104
gul	-14105
hor	-14106
idr	-14107
ifi	-14108
lap	-14109
oop	-14110
rol	-14111
stö	-14112
sul	-14113
vul	-14114
älp	-14115
▁sq	-14116
alif	-14117
aped	-14118
apen	-14119
apes	-14120
bast	-14121
blev	-14122
dera	-14123
derf	-14124
deri	-14125
ders	-14126
erän	-14127
gypt	-14128
ifta	-14129
leva	-14130
like	-14131
opul	-14132
otor	-14133
pris	-14134
qual	-14135
rder	-14136
tere	-14137
ulet	-14138
ulou	-14139
yder	-14140
öder	-14141
▁Gif	-14142
▁Jap	-14143
▁Lif	-14144
▁fif	-14145
▁lap	-14146
▁mul	-14147
▁sas	-14148
▁wif	-14149
again	-14150
apade	-14151
aping	-14152
astka	-14153
deran	-14154
dered	-14155
emest	-14156
ender	-14157
etary	-14158
ewish	-14159
llade	-14160
mster	-14161
ollid	-14162
omder	-14163
onary	-14164
onder	-14165
oppla	-14166
orson	-14167
vägar	-14168
ämdes	-14169
änder	-14170
öttet	-14171
▁Exer	-14172
▁Giss	-14173
▁depr	-14174
▁drif	-14175
▁priz	-14176
▁sigh	-14177
▁tårt	-14178
▁väls	-14179
ardröm	-14180
derade	-14181
entlem	-14182
erätte	-14183
idance	-14184
ieving	-14185
ighter	-14186
mittar	-14187
▁Varif	-14188
▁antik	-14189
▁certa	-14190
▁chees	-14191
▁chubb	-14192
▁cloud	-14193
▁corre	-14194
▁craft	-14195
▁crank	-14196
▁deadl	-14197
▁decis	-14198
▁decod	-14199
tl	-14200
cef	-14201
nan	-14202
nät	-14203
ruv	-14204
siv	-14205
öat	-14206
ödd	-14207
anor	-14208
aper	-14209
astb	-14210
astf	-14211
astn	-14212
astå	-14213
aund	-14214
bted	-14215
cary	-14216
fist	-14217
fted	-14218
ista	-14219
isti	-14220
ists	-14221
lund	-14222
oast	-14223
ount	-14224
riga	-14225
rund	-14226
sist	-14227
tapl	-14228
undr	-14229
unds	-14230
undv	-14231
vast	-14232
wist	-14233
xist	-14234
ygsl	-14235
äcks	-14236
ållp	-14237
öken	-14238
▁akt	-14239
▁sli	-14240
▁sme	-14241
▁såh	-14242
▁tab	-14243
▁tap	-14244
agbar	-14245
ampoo	-14246
annar	-14247
astat	-14248
aster	-14249
emist	-14250
garna	-14251
iable	-14252
istis	-14253
istna	-14254
leken	-14255
nskar	-14256
ogist	-14257
penna	-14258
rella	-14259
ssist	-14260
under	-14261
urist	-14262
urken	-14263
änken	-14264
▁Kast	-14265
▁Sund	-14266
▁dram	-14267
▁forc	-14268
▁hist	-14269
▁hugg	-14270
▁kast	-14271
▁labb	-14272
▁mord	-14273
▁outs	-14274
▁pist	-14275
▁skäm	-14276
▁wort	-14277
chless	-14278
deland	-14279
insess	-14280
istant	-14281
leased	-14282
undade	-14283
vänder	-14284
äktade	-14285
▁compl	-14286
▁desig	-14287
▁devot	-14288
▁dislo	-14289
▁doork	-14290
▁dropp	-14291
▁drugg	-14292
▁dumbf	-14293
▁dusch	-14294
▁dödst	-14295
▁dörrk	-14296
▁easil	-14297
▁enast	-14298
▁engel	-14299
Pl	-14300
ei	-14301
Kör	-14302
gsl	-14303
hap	-14304
log	-14305
ogg	-14306
ogi	-14307
ogn	-14308
ogy	-14309
tas	-14310
tic	-14311
tog	-14312
yve	-14313
▁kö	-14314
▁pj	-14315
blem	-14316
issb	-14317
jken	-14318
ndsk	-14319
niss	-14320
näll	-14321
otog	-14322
sare	-14323
tare	-14324
uken	-14325
umpa	-14326
uyer	-14327
▁Cal	-14328
▁Yog	-14329
▁abo	-14330
▁alm	-14331
▁alt	-14332
▁avb	-14333
▁hea	-14334
▁hig	-14335
▁lef	-14336
▁låd	-14337
▁röt	-14338
▁sål	-14339
▁teg	-14340
▁tev	-14341
▁tex	-14342
▁wis	-14343
agade	-14344
anken	-14345
armig	-14346
brott	-14347
eckan	-14348
erare	-14349
etare	-14350
gonbl	-14351
igare	-14352
inion	-14353
isses	-14354
kände	-14355
later	-14356
ndare	-14357
ppall	-14358
sidan	-14359
uried	-14360
yster	-14361
ästan	-14362
ästka	-14363
åtlig	-14364
▁Hiss	-14365
▁aler	-14366
▁alou	-14367
▁gigg	-14368
▁giss	-14369
▁grog	-14370
▁heel	-14371
▁leal	-14372
▁lear	-14373
▁leen	-14374
▁lekt	-14375
▁seri	-14376
▁serv	-14377
▁somm	-14378
▁somn	-14379
▁teas	-14380
▁tech	-14381
▁teet	-14382
▁teor	-14383
▁viss	-14384
▁youn	-14385
idnapp	-14386
issför	-14387
issing	-14388
iterad	-14389
ämpade	-14390
▁bussh	-14391
▁delic	-14392
▁enkel	-14393
▁enoug	-14394
▁envel	-14395
▁examp	-14396
▁excit	-14397
▁faste	-14398
▁fastf	-14399
At	-14400
SM	-14401
dk	-14402
esn	-14403
gle	-14404
itc	-14405
ivt	-14406
llh	-14407
lln	-14408
med	-14409
olö	-14410
ppf	-14411
äro	-14412
öva	-14413
apon	-14414
aref	-14415
eför	-14416
förb	-14417
förh	-14418
hung	-14419
issu	-14420
jung	-14421
kend	-14422
kigt	-14423
kopp	-14424
läkt	-14425
nigt	-14426
nter	-14427
olit	-14428
olon	-14429
ongu	-14430
rare	-14431
udda	-14432
vung	-14433
åkan	-14434
ögre	-14435
▁Mar	-14436
▁Stä	-14437
▁atl	-14438
▁chu	-14439
▁mån	-14440
▁sjö	-14441
▁sla	-14442
▁slo	-14443
▁smi	-14444
▁unb	-14445
alför	-14446
edigt	-14447
elare	-14448
enare	-14449
ensiv	-14450
erful	-14451
föran	-14452
förar	-14453
först	-14454
idare	-14455
idigt	-14456
ilför	-14457
mande	-14458
omare	-14459
omför	-14460
otion	-14461
skigt	-14462
uying	-14463
äppen	-14464
▁Puss	-14465
▁Stan	-14466
▁Star	-14467
▁Stat	-14468
▁Stäm	-14469
▁Stän	-14470
▁Wher	-14471
▁atta	-14472
▁bull	-14473
▁char	-14474
▁chas	-14475
▁chem	-14476
▁ches	-14477
▁chop	-14478
▁exag	-14479
▁heal	-14480
▁hems	-14481
▁resc	-14482
▁smut	-14483
▁smäl	-14484
andade	-14485
bsolut	-14486
erätta	-14487
förare	-14488
ipster	-14489
korrar	-14490
ortför	-14491
ourist	-14492
ördare	-14493
▁fastn	-14494
▁flask	-14495
▁flick	-14496
▁flykt	-14497
▁flytt	-14498
▁fläck	-14499
Ea	-14500
Fr	-14501
nf	-14502
pc	-14503
så	-14504
amn	-14505
esl	-14506
iol	-14507
kol	-14508
maz	-14509
mma	-14510
oli	-14511
olo	-14512
otl	-14513
pol	-14514
wes	-14515
▁Eg	-14516
▁Ek	-14517
▁Et	-14518
▁Ev	-14519
▁af	-14520
aits	-14521
arap	-14522
avel	-14523
elep	-14524
emma	-14525
eply	-14526
heap	-14527
icep	-14528
jkar	-14529
leps	-14530
ndar	-14531
olat	-14532
oler	-14533
oläm	-14534
onch	-14535
oola	-14536
pind	-14537
ppre	-14538
stol	-14539
terf	-14540
ånge	-14541
örol	-14542
▁Jum	-14543
▁Sol	-14544
▁Yol	-14545
▁cal	-14546
▁fol	-14547
▁kep	-14548
▁mol	-14549
▁nie	-14550
▁pla	-14551
▁plo	-14552
▁plö	-14553
▁utb	-14554
ackma	-14555
essag	-14556
iella	-14557
ihopa	-14558
inate	-14559
jejen	-14560
jortk	-14561
kable	-14562
leksa	-14563
nster	-14564
olade	-14565
reata	-14566
rived	-14567
veten	-14568
årade	-14569
åriga	-14570
▁Ever	-14571
▁Sjun	-14572
▁clos	-14573
▁fuss	-14574
▁gras	-14575
▁kvad	-14576
▁plat	-14577
▁plow	-14578
▁plug	-14579
▁stöv	-14580
▁text	-14581
▁thes	-14582
▁Äppl	-14583
agerad	-14584
gillar	-14585
ibuted	-14586
rillar	-14587
▁Stret	-14588
▁fläkt	-14589
▁footb	-14590
▁forsk	-14591
▁fortf	-14592
▁forts	-14593
▁frall	-14594
▁framg	-14595
▁framm	-14596
▁frans	-14597
▁freez	-14598
▁förbl	-14599
Fi	-14600
vv	-14601
Got	-14602
Sen	-14603
aug	-14604
cei	-14605
eal	-14606
giv	-14607
isc	-14608
ivb	-14609
liv	-14610
niv	-14611
riv	-14612
rug	-14613
uga	-14614
uge	-14615
ugn	-14616
usi	-14617
öen	-14618
ativ	-14619
esig	-14620
gner	-14621
heck	-14622
ilit	-14623
ills	-14624
issn	-14625
ivid	-14626
laud	-14627
lien	-14628
lner	-14629
otiv	-14630
revl	-14631
sour	-14632
uger	-14633
ugit	-14634
ugor	-14635
vert	-14636
vive	-14637
ösen	-14638
▁Des	-14639
▁Div	-14640
▁Lug	-14641
▁Pas	-14642
▁bri	-14643
▁bru	-14644
▁div	-14645
▁erf	-14646
▁giv	-14647
▁jug	-14648
▁oft	-14649
▁swo	-14650
▁tug	-14651
▁upf	-14652
alant	-14653
anner	-14654
ansch	-14655
atisk	-14656
hould	-14657
ipsen	-14658
istak	-14659
orner	-14660
owner	-14661
träda	-14662
ussar	-14663
utsig	-14664
veren	-14665
äpmat	-14666
ättar	-14667
▁Kans	-14668
▁bliv	-14669
▁bred	-14670
▁brig	-14671
▁brin	-14672
▁brot	-14673
▁brow	-14674
▁brus	-14675
▁brän	-14676
▁driv	-14677
▁friv	-14678
▁skrå	-14679
▁ägar	-14680
essing	-14681
▁backu	-14682
▁brand	-14683
▁förlo	-14684
▁förol	-14685
▁försk	-14686
▁förän	-14687
▁förök	-14688
▁garag	-14689
▁gitar	-14690
▁glove	-14691
▁greed	-14692
▁grill	-14693
▁grind	-14694
▁gröns	-14695
▁handd	-14696
▁handi	-14697
▁handv	-14698
▁helpl	-14699
Ag	-14700
Ki	-14701
Le	-14702
kö	-14703
sn	-14704
anl	-14705
eka	-14706
hre	-14707
lka	-14708
nda	-14709
ndv	-14710
oly	-14711
plo	-14712
pts	-14713
rid	-14714
ryd	-14715
ryg	-14716
ryr	-14717
spl	-14718
try	-14719
uin	-14720
uka	-14721
uum	-14722
vac	-14723
vag	-14724
vån	-14725
▁Ho	-14726
▁Ib	-14727
▁äk	-14728
anks	-14729
arka	-14730
aska	-14731
asög	-14732
blar	-14733
emem	-14734
erve	-14735
herr	-14736
kaff	-14737
larv	-14738
ligh	-14739
llig	-14740
odka	-14741
ogad	-14742
ordr	-14743
outl	-14744
ryll	-14745
ryst	-14746
stka	-14747
stry	-14748
unka	-14749
urry	-14750
▁avo	-14751
▁avs	-14752
▁brå	-14753
▁soa	-14754
adade	-14755
affet	-14756
alent	-14757
anmäl	-14758
eping	-14759
iftig	-14760
lskar	-14761
lyger	-14762
remen	-14763
ssade	-14764
stort	-14765
urypl	-14766
uskar	-14767
överk	-14768
▁Hone	-14769
▁avst	-14770
▁barc	-14771
▁drag	-14772
▁hämt	-14773
▁plån	-14774
▁prev	-14775
▁stry	-14776
▁tota	-14777
▁unbe	-14778
andlar	-14779
retary	-14780
udande	-14781
ycklar	-14782
älskar	-14783
▁Fläkt	-14784
▁Thing	-14785
▁barel	-14786
▁djupf	-14787
▁därin	-14788
▁expen	-14789
▁handl	-14790
▁homel	-14791
▁homew	-14792
▁hundm	-14793
▁hälft	-14794
▁hälso	-14795
▁hänsy	-14796
▁härif	-14797
▁illoj	-14798
▁immor	-14799
Dö	-14800
Hi	-14801
ba	-14802
mi	-14803
ml	-14804
nw	-14805
vl	-14806
Det	-14807
Lär	-14808
Pas	-14809
chf	-14810
chl	-14811
cit	-14812
eda	-14813
fen	-14814
hem	-14815
htm	-14816
hty	-14817
häm	-14818
irl	-14819
jus	-14820
käm	-14821
lod	-14822
nom	-14823
odn	-14824
oph	-14825
top	-14826
win	-14827
yda	-14828
ackw	-14829
alde	-14830
eman	-14831
ence	-14832
have	-14833
icid	-14834
ilan	-14835
inis	-14836
larf	-14837
oded	-14838
odet	-14839
ones	-14840
ongs	-14841
pack	-14842
quit	-14843
taly	-14844
ättd	-14845
ättn	-14846
ävde	-14847
ågod	-14848
▁Squ	-14849
▁cre	-14850
▁dic	-14851
▁dri	-14852
▁gon	-14853
▁mam	-14854
▁spl	-14855
▁spo	-14856
▁utt	-14857
apper	-14858
arklo	-14859
chack	-14860
esätt	-14861
isapp	-14862
joyed	-14863
olors	-14864
otakt	-14865
skämt	-14866
ätter	-14867
ättre	-14868
▁Rumm	-14869
▁blin	-14870
▁blun	-14871
▁blåt	-14872
▁hang	-14873
▁heav	-14874
▁helg	-14875
▁knän	-14876
▁ocks	-14877
▁shal	-14878
▁shel	-14879
▁timm	-14880
▁tret	-14881
▁uppk	-14882
▁uppt	-14883
ackade	-14884
airman	-14885
arkade	-14886
yligen	-14887
▁artic	-14888
▁impol	-14889
▁incur	-14890
▁injur	-14891
▁inneb	-14892
▁inneh	-14893
▁inomh	-14894
▁inred	-14895
▁insan	-14896
▁insid	-14897
▁insom	-14898
▁inträ	-14899
fb	-14900
gu	-14901
si	-14902
Kid	-14903
Out	-14904
ajs	-14905
his	-14906
hly	-14907
kst	-14908
lie	-14909
lop	-14910
lug	-14911
läg	-14912
mom	-14913
ndr	-14914
nds	-14915
nut	-14916
put	-14917
rut	-14918
ytt	-14919
äga	-14920
ägs	-14921
ånd	-14922
öck	-14923
öro	-14924
▁Jo	-14925
▁Pu	-14926
▁mj	-14927
adly	-14928
dför	-14929
ense	-14930
ickn	-14931
ilse	-14932
ndat	-14933
nded	-14934
ndet	-14935
ndre	-14936
obst	-14937
onut	-14938
oper	-14939
rand	-14940
ribe	-14941
ssed	-14942
uest	-14943
ullt	-14944
utat	-14945
utis	-14946
yckt	-14947
yska	-14948
ägor	-14949
örda	-14950
▁Sop	-14951
▁dec	-14952
▁dee	-14953
▁eth	-14954
▁fut	-14955
▁pri	-14956
▁tot	-14957
ajsen	-14958
antag	-14959
ldren	-14960
mnade	-14961
quick	-14962
stisk	-14963
ugnet	-14964
ungry	-14965
utade	-14966
uting	-14967
yndat	-14968
ättig	-14969
▁Dest	-14970
▁Ocks	-14971
▁Rått	-14972
▁Själ	-14973
▁baff	-14974
▁beha	-14975
▁dest	-14976
▁hush	-14977
▁inut	-14978
▁preg	-14979
▁prob	-14980
▁prou	-14981
▁stut	-14982
▁taxp	-14983
arglig	-14984
crobat	-14985
ettade	-14986
ighten	-14987
▁chatt	-14988
▁flämt	-14989
▁fårsk	-14990
▁föred	-14991
▁förse	-14992
▁imper	-14993
▁invol	-14994
▁joint	-14995
▁kabuk	-14996
▁karis	-14997
▁kidna	-14998
▁klarv	-14999
Oc	-15000
Vo	-15001
gl	-15002
ji	-15003
pa	-15004
yj	-15005
Kan	-15006
Och	-15007
You	-15008
acu	-15009
agt	-15010
alj	-15011
ekt	-15012
imn	-15013
kty	-15014
lir	-15015
lyd	-15016
lym	-15017
nsl	-15018
okt	-15019
otå	-15020
pic	-15021
ril	-15022
ukt	-15023
ymm	-15024
äre	-15025
adin	-15026
aint	-15027
ando	-15028
ands	-15029
arkt	-15030
bbor	-15031
ddes	-15032
dent	-15033
edat	-15034
ells	-15035
emif	-15036
entl	-15037
enty	-15038
erkt	-15039
islo	-15040
judd	-15041
jält	-15042
ktad	-15043
ktan	-15044
ktar	-15045
ktet	-15046
lent	-15047
ment	-15048
otre	-15049
owly	-15050
pent	-15051
tent	-15052
vely	-15053
ärkt	-15054
åkar	-15055
åtan	-15056
örkt	-15057
▁Fly	-15058
▁Tor	-15059
▁kro	-15060
▁nud	-15061
▁sou	-15062
adana	-15063
adion	-15064
andal	-15065
anden	-15066
andle	-15067
andon	-15068
arent	-15069
eland	-15070
entet	-15071
entur	-15072
etent	-15073
ilent	-15074
itade	-15075
ktade	-15076
lemet	-15077
ngare	-15078
▁doct	-15079
▁haun	-15080
▁peop	-15081
▁sain	-15082
▁vink	-15083
acking	-15084
agiskt	-15085
etiskt	-15086
istake	-15087
omeone	-15088
ättvis	-15089
▁embra	-15090
▁förso	-15091
▁hemsö	-15092
▁kanin	-15093
▁klass	-15094
▁knarr	-15095
▁knäck	-15096
▁kompl	-15097
▁korre	-15098
▁kuver	-15099
Sj	-15100
ca	-15101
Bes	-15102
Kor	-15103
Rel	-15104
Res	-15105
adg	-15106
anu	-15107
dic	-15108
eno	-15109
gic	-15110
hic	-15111
ici	-15112
icn	-15113
icu	-15114
igu	-15115
ksk	-15116
lat	-15117
lyr	-15118
läm	-15119
oan	-15120
odf	-15121
omi	-15122
ouc	-15123
ric	-15124
räm	-15125
sre	-15126
uic	-15127
vic	-15128
zen	-15129
▁Di	-15130
Kill	-15131
agic	-15132
anin	-15133
appo	-15134
bete	-15135
chat	-15136
elic	-15137
enin	-15138
erus	-15139
ffic	-15140
ican	-15141
icat	-15142
imat	-15143
itic	-15144
lard	-15145
merc	-15146
omic	-15147
onic	-15148
onte	-15149
ortf	-15150
ortk	-15151
skäm	-15152
stic	-15153
till	-15154
ukan	-15155
▁Hän	-15156
▁Käm	-15157
▁Tre	-15158
▁bic	-15159
▁dow	-15160
▁gan	-15161
▁kni	-15162
▁kno	-15163
▁pic	-15164
▁utv	-15165
▁wro	-15166
▁åld	-15167
allig	-15168
andar	-15169
ander	-15170
elong	-15171
hless	-15172
lings	-15173
ortan	-15174
ounds	-15175
vious	-15176
ättra	-15177
▁Kore	-15178
▁alld	-15179
▁amer	-15180
▁fynd	-15181
▁inbo	-15182
▁lort	-15183
▁parf	-15184
▁skäg	-15185
▁ston	-15186
attiga	-15187
letisk	-15188
nappad	-15189
oolish	-15190
▁accom	-15191
▁avvis	-15192
▁kvalm	-15193
▁kysst	-15194
▁lakan	-15195
▁laund	-15196
▁leder	-15197
▁logic	-15198
▁lägen	-15199
Bo	-15200
We	-15201
Fre	-15202
Kän	-15203
bat	-15204
bis	-15205
elä	-15206
iev	-15207
isl	-15208
lob	-15209
lus	-15210
lär	-15211
nob	-15212
nus	-15213
obs	-15214
rce	-15215
rob	-15216
rte	-15217
räg	-15218
usm	-15219
usp	-15220
usy	-15221
xem	-15222
älj	-15223
åka	-15224
ails	-15225
alks	-15226
alle	-15227
alls	-15228
atar	-15229
bing	-15230
ckin	-15231
emat	-15232
enad	-15233
inea	-15234
iots	-15235
ject	-15236
kapp	-15237
llus	-15238
mile	-15239
obot	-15240
olig	-15241
outr	-15242
raig	-15243
user	-15244
usig	-15245
utch	-15246
vite	-15247
ärma	-15248
▁Fot	-15249
▁Hus	-15250
▁Job	-15251
▁Rit	-15252
▁Sät	-15253
▁Tit	-15254
▁aft	-15255
▁ald	-15256
▁dam	-15257
▁fas	-15258
▁mob	-15259
▁pus	-15260
▁sek	-15261
▁sob	-15262
▁stj	-15263
▁tun	-15264
▁vie	-15265
allas	-15266
aller	-15267
asten	-15268
erent	-15269
grann	-15270
icted	-15271
iktad	-15272
ilder	-15273
oklad	-15274
ooked	-15275
ortun	-15276
thens	-15277
ultil	-15278
vilad	-15279
öljer	-15280
▁Book	-15281
▁Hall	-15282
▁dett	-15283
▁frus	-15284
▁känn	-15285
▁mäkt	-15286
▁plåg	-15287
▁skug	-15288
alling	-15289
ential	-15290
ooking	-15291
▁conqu	-15292
▁kontr	-15293
▁läkar	-15294
▁lärar	-15295
▁lögnh	-15296
▁manag	-15297
▁minor	-15298
▁missb	-15299
DJ	-15300
Fl	-15301
Ry	-15302
km	-15303
kw	-15304
pg	-15305
tö	-15306
Eng	-15307
Råt	-15308
adi	-15309
cam	-15310
ffl	-15311
fft	-15312
fou	-15313
gde	-15314
hut	-15315
ina	-15316
kid	-15317
ngj	-15318
ngl	-15319
ngr	-15320
ngs	-15321
ngt	-15322
obo	-15323
våt	-15324
åts	-15325
arce	-15326
eave	-15327
enti	-15328
eråt	-15329
ffar	-15330
idna	-15331
inst	-15332
katt	-15333
kill	-15334
ngar	-15335
oble	-15336
olut	-15337
omar	-15338
raff	-15339
tyck	-15340
wake	-15341
ylla	-15342
ärsk	-15343
åtar	-15344
▁Anf	-15345
▁Ang	-15346
▁Ble	-15347
▁Dic	-15348
▁Wha	-15349
▁cas	-15350
▁eff	-15351
▁foo	-15352
▁frä	-15353
▁idi	-15354
▁inr	-15355
▁los	-15356
▁sle	-15357
ackra	-15358
adach	-15359
ansin	-15360
etade	-15361
[...]
